#version: 0.2
Ġ t
h e
Ġ a
o u
Ġ s
Ġ m
i n
Ġ w
r e
h a
n d
Ġt he
Ġ b
i s
o r
Ġ f
e r
l l
i t
o n
Ġ d
Ġ c
e s
e n
Ġ l
Ġ n
Ġ y
Ġt h
a r
Ġ h
Ġ o
Ġt o
Ġy ou
Ġ p
ha t
Ġ I
Ġ he
v e
o t
s t
Ġa nd
o w
in g
a n
Ġo f
o m
Ġ g
a t
Ġb e
s e
Ġm y
c e
Ġ in
Ġ ha
l e
a y
l d
i r
e t
e d
u t
i m
Ġm e
it h
' s
Ġn ot
c h
Ġt hat
g h
Ġ is
A nd
Ġf or
k e
Ġ u
ou r
Ġw e
o o
i ll
Ġ e
he r
Ġw ith
en t
Ġ it
Ġyou r
a d
r i
Ġs t
Ġth ou
' d
Ġ k
om e
Ġh is
gh t
E N
a s
or d
T he
i d
Ġ re
Ġha ve
l y
r a
I N
Ġh im
Ġl i
u r
I O
Ġth is
a l
Ġs o
Ġa s
Ġd e
Ġ on
o re
r o
A R
h i
ou ld
oo d
a in
c k
v er
es t
es s
Ġs ha
Ġth y
e a
Ġd o
Ġw ill
a m
Ġn o
a nd
u s
Ġb ut
i f
U S
g e
Ġs e
T h
Ġa ll
Ġs u
a ke
T o
t h
i on
Ġhe r
r u
t er
ar d
Ġa n
ha n
Ġl o
e ll
e ar
Ġs p
Ġthe e
Ġf a
Ġ our
Ġb y
Ġsha ll
U C
i l
Ġa re
IN G
Ġ C
r om
Ġn e
h o
Ġk n
T hat
A N
Ġ R
a st
Ġ v
c t
E R
O R
ou s
Ġw hat
i ght
Ġs h
u l
an t
E S
E T
Ġ '
se l
Ġu p
ar t
q u
B ut
r ow
Ġg ood
in e
Ġl ord
at h
n t
u st
hi ch
' ll
Ġp r
Ġa t
Ġc om
on e
Ġm an
Ġ M
W hat
Ġa m
Ġw he
Ġ E
K ING
e nd
Ġc on
i c
b le
r y
on g
i e
Ġb l
i ve
v en
Ġf rom
F or
a re
e m
Ġ G
o d
Ġs he
a u
Ġthe m
ou t
Ġm ore
I C
Ġw as
ot h
H e
o l
ot her
Ġs ir
Ġ hat
Ġ L
Ġ if
Ġn ow
o st
in d
L O
Ġthe re
Ġw ould
Ġc an
I US
er s
sel f
Ġkn ow
e p
f e
AR D
o nd
at her
re s
at e
Ġs ay
Ġhe re
Ġthe ir
p p
Ġlo ve
Ġs w
Ġb r
Ġ or
a ll
Ġ S
Ġt han
- -
Ġu s
Ġk ing
Ġthe n
Ġ O
Ġthe y
Ġ B
Ġa r
Ġg o
M y
Ġl et
Ġu n
i g
Ġw or
u re
Ġ H
in k
or t
f ore
h y
Ġ V
Ġm ay
e l
A s
am e
is h
Ġc ome
Ġ qu
W he
oo k
v es
L I
Ġwe ll
K E
Ġhat h
Ġ j
Ġon e
ir st
Y ou
Ġm ake
re at
a k
g ain
Ġm ust
n g
ou nd
Ġg ra
Ġh o
u e
Ġwe re
c i
ea k
Ġli ke
Ġse e
it y
T IO
Ġp ro
Ġsh ould
Ġs a
Ġ P
u m
Ġm ad
Ġp l
A U
R O
p e
Ġf ather
Ġha d
Ġd id
im e
Ġup on
O N
i ce
Ġto o
Ġ W
is t
en ce
w ard
o se
m an
ow n
Ġde ath
Ġ en
f ul
n ce
u n
Ġp o
d e
Ġ r
Ġsp eak
I S
i o
Ġ out
ent le
p t
Ġw hich
IC H
O L
Ġa gain
D U
Ġh ow
Ġf ri
DU KE
E L
i ck
Ġ A
Ġhe art
Ġt ru
Ġha nd
Ġy et
C A
an ce
Th ou
EN TIO
ver y
W ith
ICH ARD
ig n
Ġs ome
I f
Ġw ho
W hich
i re
i es
Ġm ar
or n
Ġwhe n
Ġh on
Ġof f
Ġ Y
Ġm ine
in ce
ha r
Ġd is
Ġs on
IN C
' t
I n
a ck
Ġa l
W e
w n
Ġhe a
Ġsu ch
F irst
u ch
Ġhe ar
e c
n ess
o y
L A
Ġt ime
A B
O f
Ġbr other
it her
U E
W hy
Ġg ive
Ġbl ood
N o
Ġa b
Ġf o
Ġthe se
is e
Ġd ay
Ġe ar
Ġ ro
S o
Ġe x
Ġli fe
T ER
e et
Ġt ell
ĠI I
Th is
ĠR ICHARD
a g
UC H
Ġl ook
ou l
a ge
t her
Ġw ord
er v
Ġth ink
Ġwhe re
e f
e en
Ġe y
UC ES
G LO
Ġt ake
UCES TER
ing s
GLO UCESTER
a ve
n ot
row n
Ġd es
ad y
Ġfri end
a se
ur se
H ow
Ġg entle
R Y
Ġ ri
Q UE
w ay
Ġl ea
QUE EN
Ġm ost
ĠO F
Ġar t
Ġw ar
INC ENTIO
t is
Ġf l
Whe re
Ġs l
Ġhon our
L AN
m ent
Ġm uch
ur n
Ġbe t
Ġmad e
N ow
Ġ T
Ġt w
L E
Ġf ear
Ġha st
f f
au ght
I s
EN RY
ĠG od
ou gh
ve d
B e
b er
i gh
a p
e e
Ġb re
ow er
c c
Ġ K
Ġm en
or row
Ġg reat
t le
Ġc ou
Ġne ver
W ho
i z
u ke
o ld
Ġfa ir
Ġne w
ĠR ome
ast er
OR K
ĠV INCENTIO
at ion
Ġp art
s s
re e
id e
IN IUS
I t
O r
p le
Ġa d
Ġc all
Ġhea ven
Ġan y
Ġp re
Ġcom m
D W
Y our
Ġst and
Ġcan not
DW ARD
L UC
Ġbe en
ear s
Ġc l
as s
U M
Ġno ble
Ġpr ay
Ġtru e
Ġn ame
Ġsw eet
, --
P ET
Ġd oth
C ome
M EN
h ing
ou se
Ġo wn
T H
a w
Ġt r
Ġp er
Ġp le
The re
if e
u ll
A y
Ġ D
Ġw r
Ġw ay
Ġd one
Ġo ther
Ġhe ad
l i
t he
Ġme an
re d
ain t
d ward
Ġn ight
Ġbe fore
ĠC l
Whe n
M E
a ce
t o
Ġn or
Ġp res
au se
Ġwor ld
RO ME
MEN EN
Ġs c
Ġbe ar
ROME O
MENEN IUS
T ES
g er
p er
v ing
Ġs oul
Ġb oth
Ġde ad
He re
aught er
O M
Ġm o
Ġc hi
The n
Ġqu een
R UCH
PET RUCH
PETRUCH IO
T han
a ble
Ġ very
B y
Ġ ke
Ġ ra
it e
Ġre m
a b
Ġ F
Ġd own
G R
Ġa pp
Ġw h
Ġcon t
H A
l o
ĠL ord
l es
t y
Ġmy self
Ġar m
S ec
IO LAN
ct ion
OR IOLAN
Sec ond
ORIOLAN US
C ORIOLANUS
l ess
Ġth us
s w
Ġbe ing
ĠE dward
Ġgra ce
Ġlea ve
N or
r an
Ġbe g
Ġu nt
res s
B A
l and
Ġm a
Ġm other
Ġo ld
IN A
Ġey es
it iz
ĠE DWARD
p s
Ġ im
ĠM ar
itiz en
f or
m e
L et
Ġw ife
Ġl ong
Ġchi ld
Ġe ver
Ġre p
Ġli ve
Ġpo or
S he
Ġa way
Ġa f
Ġw om
Ġst ay
ĠII I
w ick
Ġm ight
k s
le d
ea ce
c ome
nd er
Ġd ie
Ġ ru
ar wick
ow s
Ġcon s
Ġ J
ou d
at ch
Ġfriend s
T is
ha ll
is s
is on
Ġc our
Ġp e
Ġcom es
ĠY ORK
Ġc rown
Ġl e
Ġh ouse
Ġha r
Ġman y
LE ON
u ck
EL LA
AB ELLA
LEON TES
IS ABELLA
Ġbet ter
i an
er c
Ġthou ght
Ġre st
H is
R AN
Ġ ent
Ġs et
or s
Ġli e
c he
w ell
Ġw it
at ter
ĠW arwick
J U
N ay
LI ET
JU LIET
t s
Ġt ong
ou ght
it tle
Ġd aughter
Ġg one
C E
D Y
M I
r ant
Ġpr ince
LA DY
T A
i ed
Ġnot hing
EN CE
Ġre s
Ġke ep
B R
V OL
N ot
W ell
c es
i er
Ġs le
on t
G o
o s
Ġth ose
Ġg ri
Ġfa ce
Ġlord s
Ġagain st
har d
S IC
Ġt ri
Ġhe nce
oo l
un e
SIC INIUS
f ord
i ous
l se
Ġb est
Ġl ittle
ard on
ak es
Ġnew s
e w
u d
Ġh our
Ġyou ng
Ġfo ll
Ġa cc
ar k
se d
LUC IO
O n
Ġp ur
Ġe nd
Ġk ind
il t
ie ld
or k
Ġth ing
Ġhim self
al k
Ġcom p
S T
a le
Ġp ri
Th y
in ess
re t
Ġp ower
ĠI V
Ġe lse
ri ed
Ġst ill
ic hard
Ġtw o
P ro
c l
f t
i le
in s
Ġc o
Ġc ha
Ġp ut
Ġg u
Ġde ar
R I
S ir
Ġf irst
as on
a il
e ct
m en
Ġt ill
Ġs m
er t
Ġp eace
ut y
hi le
Ġsu b
ci ous
Ġunt o
Ġb ack
Ġd re
Ġh us
Ġear th
Z AB
b and
r ay
y al
Ġt ra
Ġb id
or se
Ġf ind
Ġc ould
ET H
ĠE LI
Ġword s
Ġcou nt
Ġtong ue
ZAB ETH
ĠELI ZABETH
H ave
o ple
Ġh igh
Ġne ed
Ġthere fore
S t
i us
in t
re n
en ry
Ġho pe
ĠY ork
H ENRY
g et
l p
t w
Ġf ell
Ġth ine
ve re
ut h
Ġfor th
ee ch
Ġhus band
M ER
Ġb ra
Ġd uke
Ġh ome
et h
Ġse em
Ġri ght
f ort
i x
Ġb an
Ġl ady
ĠRome o
C L
G E
W IC
g ed
Ġ What
re r
is ter
hi p
ĠV I
WIC K
U T
W AR
a ch
Ġm ind
Ġc he
Ġthou gh
Ġpe ople
WAR WICK
L ET
N urse
P U
b e
Ġc har
Ġl aw
ir d
ĠC itizen
ĠH ENRY
ĠH enry
PU LET
M IO
Ġb ri
The y
Ġon ce
Ġcon f
HA M
S hall
Ġt re
Ġw hy
Ġc han
Ġg l
ĠR ichard
Ġsh ow
Ġsa id
Ġhand s
erv ant
E Y
e ed
Ġc ause
Ġn one
ous in
Ġim p
I AN
Ġm aster
Ġp ass
at es
Ġli ght
Ġj oy
F rom
Y et
Ġb od
Ġd ou
Ġfor t
Ġbr ing
A ll
B RO
Ġm ist
Ġw o
Ġn at
Ġe very
UC KING
ING BRO
ES S
OL INGBRO
BR UT
UCKING HAM
BRUT US
B UCKINGHAM
G ood
T RAN
i et
l t
ĠB OLINGBRO
Ġro yal
TRAN IO
D o
W ill
b t
v ost
Ġt ears
it s
Ġl ast
Ġth r
Ġwho se
ĠBOLINGBRO KE
N E
P ER
T IS
c le
l f
p ose
v y
ar y
ar ry
ul t
ĠM AR
sw er
C l
Ġb es
or y
Ġp ardon
Ġhe ard
Ġha pp
ĠA n
Ġple ase
G AR
Ġm is
Ġb oy
Ġc ame
en s
Ġl and
Ġde v
ro ke
Ġj ust
Ġpl ace
Ġwr ong
Ġpres ent
GAR ET
e el
m b
Ġs ince
Ġs orrow
Ġf ull
Ġst ate
OR D
Ġaf ter
MI L
ĠMAR GARET
A TH
o ck
Ġc are
Ġe re
Ġk ill
sel ves
GR E
H OR
O ur
c ent
s and
Ġf ar
it ion
Ġc h
Ġl ess
Ġhe lp
Ġme et
Ġu nder
est y
AN GE
are nce
Ġho ld
ANGE LO
Ġg od
Ġthou sand
AR INA
Ġsha me
Ġwh om
Ġfoll ow
C U
U n
a ir
d ay
on s
Ġp at
ce ive
Ġwe ep
Ġsu n
th y
ci us
Ġen em
Ġab out
Ġey e
A n
K ATH
i ol
Ġb us
Ġf al
Ġf ool
Ġh ither
Ġfa ll
KATH ARINA
i v
Ġc ousin
ir t
as ure
ur de
Ġan swer
Ġhat e
Ġma id
L US
U p
Ġ i
ou nt
Ġm akes
Ġin to
im es
ES CA
Ġgentle man
ĠK ing
Ġwom an
Ġgri ef
ESCA LUS
H ath
j ect
o ve
Ġst ri
ĠE ng
i ld
l ing
Ġst re
UCH ESS
Ġcou n
D UCHESS
p her
Ġt urn
Ġh um
Ġo ver
Ġdo st
Ġcom fort
ic es
Ġgra cious
ĠD uke
Ġsle ep
Ġt alk
it or
Ġbe l
ut e
al t
urde rer
I A
L ord
m orrow
Ġw ilt
Ġb o
Ġb u
Ġg r
Ġbe d
Ġin de
Ġre t
ge lo
ĠCl arence
ĠMar cius
Ġcour t
Ġbod y
G od
e re
an s
om et
Ġwe l
Ġat t
ie ve
Ġpro ve
Ġpl ay
CA MIL
CAMIL LO
F RI
i ly
i ence
Ġs ound
is ed
Ġd ra
ad e
Ġde ed
Ġthan k
FRI AR
T EN
Ġs er
Ġf ight
Ġin st
Ġu se
ill ain
ho ld
Ġv o
Pro vost
ĠAn gelo
HOR TEN
Ġfal se
Ġinde ed
HORTEN S
S h
Ġha s
Ġe ven
Ġso vere
Ġan other
Ġpr ison
Ġsw ord
Ġgra ve
pe ct
Ġfell ow
Up on
pher d
HORTENS IO
, '
C OM
E ven
P TIS
d d
e al
p l
ur y
Ġas s
Ġad v
Ġtr uth
BA PTIS
Ġban ish
COM INIUS
BAPTIS TA
C US
T OL
o f
p en
ou ch
Ġm erc
Ġm atter
Ġw ant
Ġc ur
Ġg i
Ġre ven
Ġre ason
fe ct
AU TOL
Ġr ather
Ġcount ry
AUTOL Y
. '
A re
M AR
r ance
Ġw ish
Ġd an
Ġy ears
Ġli es
Ġon ly
Ġse nd
Th ird
Ġv irt
UM IO
Ġarm s
Ġdre am
Ġfort une
Ġbus iness
AUTOLY CUS
A l
M ore
W ould
i or
m s
Ġ But
he d
Ġs ent
Ġp ers
an y
Ġst ra
Ġst ran
Ġdis c
Ġdou bt
A t
B EN
N OR
b y
d er
i a
en er
AR ENCE
Ġho ly
Ġbre ath
Ġcomm and
LUC ENTIO
GR UMIO
Cl own
P RO
S PER
Ġs en
Ġs ea
it t
ar s
Ġp rom
at or
Ġso ld
Ġsp ir
Ġen ough
VOL IO
CL ARENCE
PRO SPER
PROSPER O
k en
Ġw ind
Ġl ay
Ġp ity
Ġbe a
Ġha ng
Ġli ves
Ġsha lt
Ġfa re
Ġsw ear
erv ing
Ġrem em
BEN VOLIO
ha m
Ġf oul
Ġf ree
Ġd are
Ġc ra
Ġde p
Ġse c
Ġv illain
Ġpr oud
ĠM urderer
gain st
ag ue
LAN D
ĠK ate
Ġcont ent
MER CU
Ġnat ure
Ġhapp y
Ġwel come
MERCU TIO
P OM
T w
c om
i ke
u nt
Ġt end
Ġs ister
Ġs omet
ha l
Ġc ity
Ġg re
Ġg et
Ġin t
et er
Ġwith in
Ġk iss
est er
Ġsa w
Ġmad am
POM P
L INA
P AU
a pt
u se
Ġs erv
Ġth ree
Ġo ath
ver s
We re
Ġbes eech
GRE MIO
Ġsovere ign
PAU LINA
Y ORK
y b
Ġm er
Ġb orn
Ġf ire
er y
Ġy ield
Ġh orse
Ġyour s
Ġyour self
Ġfa ith
ĠC ome
AN T
Ġmean s
Ġgod s
POMP EY
N IA
O LI
R ENCE
X EN
i ent
r ong
Ġ Nor
Ġa w
Ġw hile
Ġd en
Ġth ings
Ġo b
an c
us ic
Ġsu pp
Ġsp o
ond er
Ġlook s
ef t
Ġbre ak
UM NIA
li ke
che s
VOL UMNIA
Ġsub ject
get her
OLI XEN
OLIXEN ES
G ON
H er
P OLIXENES
g u
u p
Ġd ru
en ger
Ġl am
ĠL AU
Ġmar k
Ġblood y
Ġma j
Ġchild ren
Ġtra itor
cent io
yb alt
B Y
S ay
Ġt em
Ġw in
Ġw ound
re m
Ġc ond
Ġl ate
Ġbe at
ess enger
ING S
ĠS erving
Ġcomm on
HA ST
for m
ert ain
Ġmist ress
ĠLAU RENCE
ĠServing man
B ER
I D
b roke
m p
r ing
Ġa ff
Ġs in
Ġs ight
Ġm et
Ġto ld
Ġre qu
Ġse en
Ġv al
Ġun cle
Ġsa ve
Ġwo e
Ġmaj esty
HAST INGS
C LI
L ook
T ake
W as
a c
e ver
Ġs it
re l
Ġl eft
Ġso on
Ġde f
Ġsu re
Thou gh
Ġdes er
UM BER
TH UMBER
There fore
ĠEng land
Ġret urn
NOR THUMBER
Ġtend er
CLI F
NORTHUMBER LAND
s o
t en
v ent
Ġs ad
Ġm on
Ġg ener
id es
id ow
Ġdo es
ter s
Ġhea vy
Ġpur pose
Ġthr ough
Ġmerc y
CLIF F
A h
P R
b l
d om
Ġ AN
he s
Ġc ho
Ġde ep
Ġgo ld
un es
CA PULET
Ġmar ry
Ġfo ot
Ġday s
ment s
ĠJ ul
Ġdan ger
Ġfare well
ĠAN NE
D id
a im
i ct
m er
n o
s h
Ġ ill
Ġc old
Ġhe ir
Ġg row
ce ed
our s
Ġwith out
ro ss
if ford
Ġlo st
ear n
ign ior
INC E
Ġwar rant
Ġstran ge
PR INCE
G ive
a z
a id
c a
Ġt imes
Ġw at
or iol
Ġn urse
Ġto gether
ent y
Ġas k
Ġsu ff
ĠM ont
are well
ol ing
Ġpl uck
Ġrep ort
Ġlie ge
Ġspir it
H ad
W h
n er
u es
x t
Ġa ir
ce d
et s
ain s
us h
Ġlo ss
Ġfa ult
au d
Ġsay s
ĠB oling
Ġj o
Ġear s
Ġbet w
Ġhast e
Who se
On e
Ġbel ieve
A LO
F ID
Ġa ge
ou th
Ġc ry
Ġl earn
Ġthy self
ĠC A
ak ing
AU FID
Ġsl ain
ĠCl ifford
Ġent reat
ix t
Ġdev il
Sh ould
ĠJul iet
ĠBoling broke
AUFID IUS
M ay
g es
Ġ ord
Ġm ur
in ed
Ġb at
Ġb old
Ġf ly
Ġf ound
Ġn ear
Ġto ward
om an
ut ion
The se
Ġfa st
Ġwor thy
Ġfri ar
Ġdis p
ĠF rance
Ġjust ice
Ġgr ound
Ġpers on
Ġremem ber
Ġserv ice
ĠCA PULET
C an
F L
I Z
L ike
S ome
i al
n ight
u nd
v o
Ġs il
Ġp ast
Ġv is
OR IZ
ĠL u
ure d
Ġqu ick
entle man
Ġtru st
Ġal one
Ġinst ru
Ġstra ight
Ġbea uty
FL ORIZ
FLORIZ EL
C IUS
S E
T ell
V ER
b s
g s
w ith
Ġ Here
Ġt ouch
in a
it he
Ġd uty
Ġc urse
en ator
ĠI s
Ġg rant
Ġin f
Ġis s
ad am
Ġst rong
Ġre ady
IO N
Ġlo se
au nt
Ġbr ought
ĠS enator
ĠH ast
Ġpo ss
Ġdes ire
Ġru n
Ġhar d
Ġenem y
Ġreven ge
Ġgener al
aud io
! '
A gainst
S p
i ble
n ing
s hip
Ġm in
Ġm orn
Ġf ore
ce pt
Ġwe ar
Ġde li
am ill
Ġcan st
Ġknow s
fe ction
ink s
Ġqu ar
um ber
Ġmar ried
ĠT ybalt
She pherd
Ġconf ess
B ec
R ICHARD
c ester
e ep
l ou
p are
u a
Ġ You
Ġw oo
Ġf ield
Ġhe ll
Ġit self
ri age
Ġre ad
ol s
Ġpro f
Ġex ec
Ġtw enty
Ġstand s
Ġthought s
che d
Ġhour s
Ġchar ge
Ġstre ng
Ġcoun sel
MAR CIUS
SE BA
ithe e
C om
H a
O W
T ill
c ess
f ol
m ost
Ġw ret
Ġf ur
on es
Ġd iv
Ġc ar
Ġyou th
Ġp ar
Ġp ost
ing ham
Ġha lf
oo p
Th us
Ġsp eed
ĠR i
Ġwor k
Ġj ud
um p
Ġheart s
Ġdes p
Ġfear ful
Ġmo ck
ST IAN
ĠMont ague
ĠHast ings
A way
B ION
D EL
M ON
O P
n e
n ow
y ou
Ġ N
Ġ The
Ġt er
Ġt en
Ġw hi
Ġb os
Ġd am
Ġc ut
en ch
Ġbe hold
Ġin c
Ġe ach
ad s
Ġre c
Ġde l
if t
ĠC oriol
ort al
Ġmar riage
ĠCl audio
itizen s
Ġhar m
uck ingham
Ġres ol
Ġhigh ness
amill o
lou cester
SEBA STIAN
BION DEL
Ġbos om
BIONDEL LO
H ER
M adam
i ers
Ġ He
Ġt it
Ġa ct
Ġs at
Ġb ound
is hed
Ġy e
Ġo pen
ent s
ra h
al m
ĠC ap
Ġsh ort
Ġknow n
ĠB uckingham
Ġsee k
Ġstri ke
Ġatt end
Ġser ve
Ġmur der
fol k
F arewell
M arry
S ee
c han
g ing
Ġ ve
Ġ AU
Ġt ale
Ġa g
Ġs ide
Ġw ast
re st
Ġb it
Ġb reat
Ġf eel
Ġd ish
Ġp ra
le t
Ġst o
and er
ON IO
Ġheaven s
Ġtri b
Ġcomp any
MER LE
Ġdra w
Ġvo ices
ANT ONIO
P ray
Z ALO
b ly
f id
h ood
Ġs ing
Ġs ake
Ġw atch
Ġw idow
Ġd r
Ġd ist
Ġc or
Ġp ale
oo se
Ġst ir
Ġsu it
Ġlo ving
Ġcom ing
ĠG entleman
ĠG loucester
ĠL anc
Ġthan ks
Ġpo int
Ġhon est
Ġgentle men
Ġcl ose
Ġcl oud
Ġwit hal
eth inks
MIO NE
Ġenem ies
Ġsomet hing
GON ZALO
Ġsuff er
Ġstreng th
ĠAU MERLE
ĠLanc aster
L ORD
U nt
c her
f ter
i ves
u ff
Ġ Th
Ġm usic
Ġw onder
re w
Ġp ie
ow ard
Ġg ar
Ġg ates
ra ce
il s
Ġne xt
Ġkn ew
el s
Ġdid st
Ġple asure
Ġwom en
Ġcour se
ian ca
Ġent er
Ġbra ve
Ġche e
ceive d
Ġdeli ver
HER MIONE
Ġtit le
D IO
E DWARD
v our
Ġt a
Ġt y
Ġs ick
Ġw a
Ġw is
re ady
Ġb ur
is f
Ġf it
et ch
et ru
Ġfor b
Ġwe ak
Ġe m
Ġe ither
as h
Ġli ps
ru st
Ġthem selves
Ġj est
AU DIO
Ġab s
Ġbre ast
Ġpre t
Ġsoul s
Ġcons ul
Ġgri e
cl aim
CL AUDIO
Ġchan ge
Ġgi ven
Ġmer ry
ĠNor folk
M ost
M essenger
S ervant
k es
l st
p o
s es
u fid
Ġs k
Ġs ame
Ġs ign
Ġw all
Ġb ad
Ġf our
Ġc ast
ĠI f
Ġg ave
Ġbe come
ir th
ch io
Ġfor g
Ġfor get
oo f
ri es
Ġre g
ur p
ion s
ĠC amillo
Ġv en
end s
ĠB ianca
Ġwor se
ĠP om
Ġpl ain
Ġtoo k
Ġal ong
Ġri ch
Be ing
ran io
RAN D
MI RAND
tw as
Ġche er
CLIFF ORD
Ġord er
etru chio
ufid ius
H N
O HN
S A
g are
n k
n s
t ing
he m
Ġw ed
Ġb ook
Ġd u
Ġl ad
Ġp ay
an us
Ġg ro
ch m
Ġli ber
ea st
Ġse lf
row s
Ġbl ess
Ġsw orn
Ġpo ison
Ġoff ice
Ġal ready
Be fore
aw d
Ġmo ve
tw ere
Un less
Ġpat ience
Ġvirt ue
Ġbetw een
ĠHere ford
Ġiss ue
Ġmorn ing
Ġquar rel
Ġfur ther
Ġsat isf
MIRAND A
gare t
I R
M ake
S w
S ON
S ince
i p
r ist
s he
u ous
u sed
Ġa c
ou n
Ġs ervant
Ġm outh
Ġw ise
Ġb urn
or ge
Ġf rown
Ġd ro
Ġd ire
Ġc r
es h
st and
ow ers
at s
Ġre d
Ġso ft
ea ch
Ġsu cc
Ġlo ves
ic er
Ġbl ack
all y
ĠS ignior
Ġgo es
ci ent
Ġpro p
Ġson s
Ġfo e
Ġex t
ĠT ower
Ġtr ou
Ġbeg g
Ġbeg in
Ġsold iers
Ġrequ est
Ġbat tle
ĠLu centio
chm ond
A S
C all
M ust
N T
R e
S uch
b b
i res
m ber
o ver
t hat
u res
u ng
Ġ For
Ġb ar
Ġf east
Ġd ark
Ġc ase
Ġth ri
ar is
Ġto wn
ot s
ir m
Ġe v
em pt
ĠL ond
Ġwor th
ĠV ols
el come
ĠA ufidius
Ġex p
Ġwar s
Ġfl atter
Ġpres ence
TES BY
ĠMar garet
Ġmight y
Ġcons ent
Ġres pect
Ġpri v
Ġbri ef
dd en
Al as
Ġspo ke
Bec ause
ĠLond on
L Y
m and
p es
u ght
Ġs igh
Ġb ow
Ġb le
on a
on our
Ġh ot
Ġg ot
Ġin ter
Ġu nd
Ġe mb
id ed
Ġsu m
Ġan cient
ĠC h
Ġne ither
Ġv ict
ĠG e
Ġking s
Ġthen ce
CA TESBY
Ġdre ad
Ġbri de
Ġvo ice
apt ist
Ġden y
Ġwound s
Ġdanger ous
Ġwat er
Wh om
B oth
B IAN
J OHN
L est
R ome
R EY
Y es
i ant
k ing
Ġ est
Ġm al
Ġm ortal
Ġb ab
Ġf ra
ll ow
Ġc oward
Ġh ur
Ġof ten
Ġha ving
ri ght
Ġsp eech
Ġv ow
ul ts
ant age
Ġpr in
em n
Ġlove d
ĠS ir
ĠB aptist
Ġwor ship
LI A
Ġsa c
Ġsa fe
ĠP aris
ire d
aint ed
BA L
Ġprince ly
BR A
Ġseem s
be y
Ġthr one
Ġbu y
Ġdeed s
Ġjo in
Ġvis it
VER S
ĠRi chmond
Ġbit ter
ĠGe orge
BIAN CA
B OW
G UE
c y
l ish
r t
s p
u ra
Ġ Thou
Ġ ign
Ġ This
Ġb awd
Ġf res
Ġf etch
Ġc ol
Ġc ross
es sed
Ġl im
Ġth row
Ġo pp
Ġp en
ot ion
at ed
ur s
ur ch
ck s
if f
Ġsu dden
il ty
Ġpr ot
one y
ĠG AU
ĠL ady
ĠS aint
ĠS ervant
Ġking dom
ort ens
ĠP l
EL BOW
Ġsl ave
Ġpre pare
ull y
Ġhead s
Ġsc orn
Ġmo on
Ġra ge
Ġapp ear
Ġle ad
Ġwit ness
TA GUE
RI VERS
itt ed
Ġprom ise
Ġlam ent
Ġval iant
ĠIs ab
Sp eak
Ġdr ink
ĠBaptist a
ĠGAU NT
ortens io
B es
E re
H old
T Y
W elcome
b ut
c oun
e es
l s
l er
n own
o int
s c
s per
u ed
w ill
x ford
Ġ KING
Ġb ro
it ies
Ġc a
Ġc le
Ġc reat
Ġo w
Ġg all
Ġfor ward
Ġe at
Ġk ins
The ir
Ġfa ults
Ġkn ock
Ġv iol
ant ag
Ġpr ithee
ĠM y
Ġwas h
ak en
ĠP etruchio
Ġoff er
Ġal most
Ġlea st
Ġfl esh
ĠT ranio
Ġpray ers
Ġtri ump
Ġcomp l
Ġcha mber
Ġsm all
Ġpat ient
Ġtrib unes
Ġsucc ess
Rome o
Y ea
a ul
b ed
h ind
j oy
o hem
v est
Ġ id
Ġa ction
Ġm id
in es
Ġb ase
Ġf ie
Ġd est
Ġc ap
Ġl ack
Ġn ay
Ġh ide
Ġp ain
ing er
at har
Ġbe c
Ġbe ast
le y
Ġre b
ra w
al s
al th
th umber
ru m
Ġan g
ho st
ast ers
fe it
ak ed
um b
pe y
Ġper form
Ġsc ar
Ġapp ro
St ay
St and
Ġpresent ly
Ġdep art
Ġposs ess
MON TAGUE
ĠCh rist
athar ina
thumber land
C on
D I
G I
I EL
P l
P eace
V IR
W hi
b it
d ing
e em
f ully
h im
y ing
y our
Ġt ear
Ġs ur
Ġw ert
re y
Ġb en
Ġf ill
Ġf ond
Ġl ab
Ġth ither
ar l
Ġin s
ed s
Ġfor m
Ġe as
Ġst ru
Ġsha d
th ough
Ġour selves
Ġgood ly
Ġwhe nce
Ġbl ows
ĠG REY
Ġus urp
ci ence
Ġtru mp
Ġhear ing
Ġsl aughter
Ġwr it
per ate
Ġaf fection
led ge
Ġgu ilty
Ġchan ce
PER DI
Ġvirt uous
Ġsold ier
Ġsubject s
Ġdef end
Ġquick ly
Ġexec ution
Ġdam n
ura l
ohem ia
GI LIA
VIR GILIA
PERDI TA
D oth
S ET
S LY
V INCENTIO
g g
i est
m it
r or
z e
Ġ ut
Ġt or
Ġa p
Ġa y
Ġs ho
Ġm atch
Ġm ild
Ġw ild
re ad
Ġb irth
is ure
Ġf led
Ġf ier
on y
Ġc ertain
Ġy ear
ar n
Ġp u
Ġp it
Ġin j
Ġin no
ed ant
Ġu r
Ġli ving
ver n
Th ink
ru e
Ġkn ee
Ġkn eel
ast ard
ust om
ĠS t
ĠO xford
Ġqu iet
Ġpro ceed
ĠP aul
Ġhad st
Ġoff ence
Ġple as
for ce
Ġsle w
Ġlaw ful
Ġgl ad
Ġweep ing
Ġaw hile
Ġdeser ved
ĠCoriol anus
Ġforb id
Ġpret ty
ĠPom pey
F a
M ar
M aster
P AR
R A
a wn
d ge
g ue
k ed
m ed
o or
u al
v ol
z en
Ġs hi
Ġm ed
Ġm od
Ġw alk
Ġf at
Ġf am
ll y
ar ing
Ġo cc
se t
Ġha p
le ase
Ġme asure
Ġfor sw
ad ua
ord s
Ġre ign
Ġli ved
Ġdo om
am es
ru pt
il es
Ġne ck
end ed
Ġwould st
Ġgo vern
Ġlet ter
Ġlet ters
Ġun c
Ġun k
Ġwor st
Ġspeak s
Ġmar ch
igh b
ĠK atharina
Ġgreat er
the n
Ġrem ain
Ġle isure
Ġtre ason
IAN A
Ġch oose
ĠEng lish
MAR IANA
Ġsen se
rem io
Ġcond emn
Ġbreat he
Ġdish onour
Ġcloud s
Ġlad ies
Ġliber ty
Ġign or
ĠIsab el
coun ter
antag en
rum io
Ġang ry
PAR IS
: '
A b
A m
I nt
O ut
S u
T oo
W hile
a ves
a cle
d le
h ouse
o ss
r im
r ous
u nder
Ġ X
Ġs us
Ġs ort
Ġm orrow
Ġw on
Ġf e
Ġf ine
Ġf ive
Ġd ry
Ġd rown
Ġc ru
en ess
Ġl ow
Ġl an
Ġl ist
Ġl aid
Ġo dd
Ġo bey
Ġp et
Ġhe ld
ve l
st er
ing ly
Ġof t
at ors
Ġbe nd
Ġbe hind
Ġnot e
Ġst or
Ġst ain
id er
Ġas ide
Ġdo g
Ġno b
Ġno ise
Ġse at
Ġfa vour
Ġkn ees
Ġv ain
Ġsh ows
ĠM erc
Ġbl ow
Ġshe pherd
ĠB ohemia
ĠH ortensio
ound s
Ġpro sper
Ġab ove
Ġhonour s
iz e
Ġcont in
Ġlong er
Ġwom b
os ition
Ġneed s
uth or
Ġland s
Ġch urch
Ġprison er
Ġbanish ment
Ġsec ond
Ġsec ret
Ġdru nk
Ġtem p
Ġgold en
Ġdisp atch
und red
Ġpie ce
Ġtrou ble
Ġfres h
Ġbec ause
antagen et
! --
; '
D e
D OR
E W
H ark
L AR
M e
P r
P ardon
T IUS
b an
f fect
i ance
i led
n y
u de
Ġ Now
Ġt ent
Ġa uthor
Ġs ch
Ġs aint
Ġm ut
Ġb ig
Ġb ones
er le
it ors
Ġc itizens
Ġl en
Ġl ust
Ġl au
Ġth reat
Ġh undred
ve y
an g
om in
ce it
Ġin d
et y
Ġe ffect
Ġyour selves
Ġst ood
Ġst ud
Ġst eal
as ion
Ġre f
Ġre vere
Ġso le
Ġde pose
AR IEL
ea se
ul ar
Ġman ner
ie u
Ġbl essed
ĠG o
ĠG aunt
ĠG remio
Ġshe d
ĠL et
ĠL EW
Ġgra nd
Ġpro claim
Ġsa f
ĠP r
um e
ĠW atch
ist ress
Ġr ough
Ġex c
Ġdes perate
Ġsl ander
Ġad d
Ġpre cious
Ġapp are
Ġcons cience
Ġent ertain
ont ent
Ġlords hip
Ġpur s
Ġpri de
Sir rah
ates by
Ġdou ble
Ġsent ence
ĠNor thumberland
Ġob ed
Ġtoward s
ĠCap u
Unt o
Ġwis dom
Ġven ge
Sw eet
Ġvict ory
Ġkins man
ĠX I
LAR TIUS
ĠLEW IS
ĠWatch man
B el
C ould
E n
E ither
H ear
M P
P edant
R TIS
b ray
d en
g ood
g ment
h n
m on
v ail
w hich
he ad
Ġs im
Ġs our
Ġm ount
Ġm ethinks
Ġm oney
Ġm asters
re nt
re nce
ha ve
Ġb roke
Ġf ru
Ġf ought
Ġf ew
Ġd ied
Ġc apt
Ġp un
st ant
ow bray
Ġha ir
ir l
ut io
Ġe ld
Ġst eel
est ion
Ġdo ing
if ul
Ġse al
Ġse ver
il ity
ĠC a
ct ed
ET ER
ĠE arl
Ġcon qu
ic ious
ĠG rumio
oth ing
Ġknow ledge
Ġsw ift
ĠH ow
ĠP adua
um erle
ose d
Ġen joy
Ġr an
ĠA nt
With in
Ġal ive
way s
Ġwar m
Ġfl owers
LE Y
ation s
Ġbear s
Ġdead ly
Ġke pt
Ġarm y
ĠJ o
Ġgu est
Ġgu ard
Ġgl ory
Ġwo es
CU RTIS
com es
ANT I
eep er
Ġwret ched
Ġdesp air
Ġchee ks
Ġforg ot
SA MP
oint ed
Ġlab our
Fa ith
' re
: --
B U
B r
B et
C itizens
D is
E X
b ury
e y
g ra
h is
m y
p ir
r ison
t ake
Ġ And
Ġt ry
Ġt each
Ġa id
ou nce
re ed
Ġb astard
or ious
Ġf art
er n
it ed
Ġd ance
Ġd eter
Ġc orn
Ġc red
Ġc ried
Ġth ro
Ġp al
Ġhe l
Ġhe alth
Ġg ent
le ep
as k
Ġli est
Ġde g
Ġde mand
Ġsha ke
ea ven
am ent
Ġbut cher
Ġher self
Ġsp ent
Ġv ile
ĠM aster
ĠM owbray
Ġam ong
Ġwhe ther
pp y
Ġun f
Ġun w
Ġqu oth
Ġpro v
Ġpl ant
ĠW hy
Ġen counter
Ġr ot
Ġoff icer
Ġbrother s
Ġab ro
Ġear ly
Ġri d
Ġhonour able
Ġcall s
Ġmo ved
Ġrem ed
Ġwh ite
Ġcont r
ew is
Ġacc ount
Ġkind red
Ġpri est
Ġgu ess
Ġchar ity
Ġunder stand
Ġfool ish
Ġcoun ter
Ġhum ble
Ġdream s
Ġprom ised
GON US
Ġwin ter
Ġval our
Ġwret ch
Ġjud ge
Ġbegg ar
Ġsum mer
Ġtriump h
Ġstru ck
Ġcru el
ANTI GONUS
SAMP SON
BU RY
Ġdeter m
F ear
L o
M ine
M ade
T CLIFF
f all
m ble
n ers
p ro
w he
he art
Ġm our
in ing
Ġw re
Ġw ail
Ġb a
or thy
Ġf aint
it es
Ġd in
Ġd well
Ġy ea
Ġth ie
Ġh ung
om as
Ġg a
Ġfor ce
Ġwe ary
Ġe ase
Ġst ars
ro y
if y
Ġse ven
Ġan on
Ġour s
ĠR oman
Ġv ie
Ġbl ame
ĠL ewis
Ġthere of
Ġgo ing
el ess
ĠW ill
Ġen vy
Ġr ise
Ġthink s
Ġpart y
Ġad m
Ġother s
ian s
Ġkind ness
Ġcha st
Ġbid s
Ġbri ght
Ġgl ass
Ġcra ve
Tw as
Ġgre et
Ġmon th
Ġmin ister
Ġwall s
Ġsatisf ied
Ġext rem
ĠVols ces
Ġpriv ate
Ġid le
Ġscar ce
Ġben ef
RA TCLIFF
Ġlau gh
Ġvenge ance
Ġvie w
A L
A fter
B id
B IS
F ie
G entle
H OP
N e
N ever
S ignior
T rue
U nder
o ot
o pe
r oth
r ate
s hall
t e
t ed
v ish
v ious
w oman
Ġw ither
Ġw ench
re es
Ġb ird
or ous
Ġf irm
er able
ll o
Ġc ir
Ġc am
Ġc orse
en es
Ġl est
Ġh ol
Ġp ack
ve ll
at ing
ce ll
Ġin cl
Ġfor mer
ri ar
Ġst one
Ġre l
Ġre ceived
Ġde al
ard en
Ġsp e
Ġsp ort
Ġfa ire
Ġne ighb
AN LEY
Ġsh rew
ant ua
Ġcon cl
Ġcon vey
em ent
all ow
ĠB arn
Ġar ri
Ġun b
ĠH er
ĠV in
Ġmay st
Ġqu ite
IS T
Ġtru ly
Ġdis m
Of f
Ġfo es
Ġro ot
Ġwhere fore
Ġfl ower
lo ck
Ġim ag
Ġtri al
Ġco ver
ail or
Ġsm o
ren ch
Ġfell ows
Ġchan ged
Ġhum our
Ġbo ot
Ġreason s
Ġdep uty
Ġcond ition
Ġjud gment
Ġwhi lst
chan ge
Ġty rant
Ġac qu
Ġev il
BAL T
TY BALT
Whi lst
Ġeas y
ĠMerc utio
Ġsch ool
Ġexc use
Ġfru it
ĠJo hn
Ġabro ad
' ?
B l
D es
E x
K EN
M ethinks
P ut
T ut
a ff
a fter
c on
e k
e ad
m ore
p in
s on
t a
u b
w ould
Ġ ed
Ġ ver
Ġt aken
nd eed
Ġb row
Ġb ite
Ġb rows
Ġf ain
Ġf eed
er ona
er set
it ol
Ġd ust
Ġd ull
en ance
Ġth under
Ġp ains
an ley
om erset
Ġg own
Ġg rown
Ġg host
Ġg irl
Ġg arden
Ġbe ha
ut land
Ġme at
Ġst ab
Ġst oop
id ent
id ings
ra ct
th ink
Ġsp ring
Ġfa res
il ia
ĠC omin
ĠC atesby
Ġkn ave
AN D
ĠR utland
ast e
Ġv ice
Ġsh ore
Ġpr oof
ĠM antua
Ġbl est
Ġbl ind
Ġsir rah
Ġun l
Ġun s
Ġmay or
Ġqu estion
Ġho llow
ci ans
Ġpro vost
ĠW e
ĠA l
ĠA umerle
With out
Ġhon esty
Ġwhere in
urse d
Ġlea ves
Ġtw ice
ap er
ĠK eeper
Ġpre vent
the re
ĠMar s
Ġrep ent
Ġtra itors
Ġimp ort
Ġwrong s
Ġbu ried
Ġsword s
eal ous
pl ace
Al ack
Ġsen ate
Ġgre en
Ġaff air
ac her
Ġcho ice
az ed
Ġdiv ine
ĠCoriol i
Ġsto p
Ġty ran
Ġprop he
Ġemb race
Ġmal ice
Ġsac red
BRA KEN
ĠPl antagenet
Ġfier y
Ġinno cent
Ġlen g
Ġsaf ety
ĠPr ince
ĠCapu let
BIS HOP
ĠVin centio
ĠComin ius
BRAKEN BURY
? '
A d
D ER
D ON
E dward
F ORD
G OR
H ence
I ndeed
M IST
O nce
R ichard
R ESS
V AL
a ct
c ha
d y
d raw
e ld
j o
o p
o ly
o ard
p et
s ing
s ic
w hat
Ġ es
Ġ To
Ġ There
Ġa im
Ġa vo
Ġs its
Ġw ag
re he
Ġb ark
or ry
Ġf ury
Ġf inger
Ġd ri
Ġc arry
Ġc ustom
en en
Ġy o
Ġh it
an ch
Ġg ross
Ġin form
ed ious
Ġu sed
Ġwe eds
Ġe le
Ġe ag
Ġst at
Ġst ones
as c
Ġas leep
hi re
Ġdo or
am p
Ġno se
Ġall ow
th is
ard ine
Ġan ger
Ġlo ath
Ġlo yal
ell ow
Ġsp ake
Ġne cess
Ġkn ight
Ġv antage
ct ise
Ġsh r
Ġor acle
ĠS omerset
ĠO VER
My self
hy sic
el ve
Ġsa il
Ġpl ague
Ġr ound
Ġfri ght
ick ed
Ġal ways
Ġro ck
Ġdes ign
Ġfl at
Where in
Ġad ieu
Ġpre vail
Ġcl aim
Ġpray er
Ġtr oth
Ġper ceive
Ġple ad
OM ER
OM AS
Ġru de
Ġtong ues
Ġgu ilt
Ġsm ile
Ġsub st
tw ixt
Ġimp rison
Ġcare s
GRE GOR
Ġdra wn
Ġass ist
itt ing
Ġremem b
unt s
Ġsupp er
Ġtem pt
Ġdeser ve
Ġdel ight
ĠCap itol
Ġpra ctise
ĠTh omas
Ġchee k
Ġem pt
Ġabs ence
Ġdro p
Ġcreat ure
Ġtrump ets
Ġut ter
ĠPaul ina
Ġignor ant
Ġlan gu
Ġauthor ity
Ġsim ple
Br other
Ġrot ten
Ġremed y
Ġcir c
ĠBarn ardine
DER BY
DON E
MIST RESS
enen ius
ĠOVER DONE
GREGOR Y
A rt
C H
D ost
M A
O X
P oor
R es
R ICH
S OMER
T urn
a ult
c ing
f l
f ather
i en
m n
m ion
n at
p ar
p ort
r on
t hi
y ard
Ġ Where
Ġt une
Ġt idings
Ġt edious
he ld
Ġa ught
Ġs hip
Ġs ens
in ous
Ġw ent
Ġw ings
Ġw ont
Ġw ives
Ġw icked
ha ps
is a
is es
on ounce
Ġd ur
Ġc re
Ġc al
Ġc ell
Ġc ure
Ġc ries
es y
en e
Ġl ar
Ġn umber
Ġth rust
Ġh id
Ġto p
Ġp il
Ġp air
ot he
Ġbe lly
Ġbe comes
se mb
ce nd
ut es
ut ation
im ent
ri ous
Ġst ar
Ġst eed
as hi
Ġre ceive
Ġde c
Ġde w
Ġde ceived
Ġsha r
ard s
han t
ER IA
ous es
Ġsh ri
ĠM usic
Ġam b
ong s
ĠG rey
Ġshe ep
Ġthere in
ĠS ic
ĠV erona
Ġj ealous
Ġpro per
Ġshould st
Ġpl ot
un ning
Ġr ash
Ġr asc
Ġout ward
Ġwho le
Ġoff end
ĠY our
Ġal as
Ġhea v
Ġear n
eet h
Ġfl ight
aught ers
Ġcomm end
PET ER
Ġmean ing
ace d
Ġchi ef
lo ve
lo ved
Ġbeg ins
Ġru in
iss ion
Ġres ign
Ġkeep s
Ġfoll ows
eth ought
Ġban ished
Ġtre ad
Ġtre acher
Ġpass ing
Ġwo ful
Ġdev ise
Ġfollow ers
Ġfool s
Ġmaid s
Sh ow
Ġadv ise
Ġwant on
Ġgi ves
Ġborn e
Ġaw ake
Ġlam b
Ġcond u
az e
Ġbetw ixt
Ġsil ence
Ġprof ess
Ġdesp ite
MON D
Ġgar ments
po llo
Ġcast le
Ġthri ve
Ġexp ress
Ġund one
Ġdread ful
Ġbab e
urs day
Ġprot ect
Bes ides
Ġviol ent
Ġpu bl
Ġfat al
Ġocc asion
Int o
Ġdepose d
Ġfart her
Ġthro at
Ġbenef it
pin ion
Ġaffair s
VAL ERIA
OX FORD
RICH MOND
SOMER SET
mion e
B US
G reat
H Y
L IUS
M OP
P re
P er
R em
S c
T ybalt
T ailor
V ery
a pp
b ow
e g
e ous
g le
h or
h ore
i ond
n es
o e
o at
p r
s er
t une
w e
Ġ er
Ġ ir
Ġt ort
Ġt aste
Ġs an
Ġs ix
Ġs orry
Ġw ood
Ġw ine
Ġw ond
Ġw ander
Ġb and
Ġb ond
it ude
Ġd et
Ġd ue
Ġl end
Ġl oud
Ġn ine
Ġn ames
ar ch
Ġp in
Ġp ort
Ġp awn
Ġp aper
Ġp hysic
Ġhe ed
Ġg ain
Ġg age
Ġbe like
Ġbe held
Ġin fect
ld om
ed ing
Ġwe ight
Ġwe ap
ill s
Ġe qu
Ġst ore
Ġst ep
Ġst ock
Ġst uff
Ġre ward
Ġre nown
ra nd
Ġli p
Ġde are
ro om
ea ve
us ion
if fe
Ġse as
Ġsu p
th ou
Ġan ge
Ġlo d
ell o
Ġsp end
Ġsp are
ho p
Ġv an
Ġsh ut
ust ice
ĠM OW
ĠM enenius
Ġcon j
ol ix
Ġsw ay
Ġbr ook
ĠB ona
Ġun nat
ĠH arry
Ġqu it
Ġho p
ime ly
Ġen vious
Ġdis d
Ġdis s
AB HOR
Ġro b
Ġex ile
Ġex cell
Ġgentle woman
Ġtw elve
Ġpart s
Ġpre y
Ġtr ans
Ġper il
Ġper ish
ite ous
ĠF riar
Ġwh ither
sw ain
Ġunt il
Ġaf fect
ĠJ ove
Ġle gs
ors es
Ġacc us
ST ANLEY
Ġpri ze
Ġcha ir
Ġcount enance
MIL LIUS
ount y
Ġhum bly
Ġcourt esy
pl oy
Ġadv antage
Ġcur st
Ġspir its
Tw o
Ġint end
anc y
Ġsil ver
Ġposs ible
Ha ving
Ġdel ay
Ġresol ve
ĠTh ursday
Ġwed ding
Ġsigh s
Ġhur t
BRA Y
Ġcol our
Ġprepare d
Ġbro ken
Ġcle ar
ĠChrist ian
Ġshad ow
Ġdamn ed
Ġpleas ant
Ġforsw orn
Ġsus p
Ġstor m
Ġnob les
De ath
Ġthreat en
Ġpun ish
ĠCa ius
EX ETER
Ġpal ace
Ġwre ck
Ġdin ner
Ġspe ci
Ġneighb our
Ġrememb rance
Ġempt y
MA MILLIUS
ĠMusic ian
BUS HY
MOP SA
iond ello
Ġsan ct
ĠMOW BRAY
olix enes
ABHOR SON
C Y
C ousin
E d
H ast
K now
N one
N othing
R et
R ight
R ep
S ha
W idow
b orn
c an
c lock
d o
e red
g race
l ar
m ity
p ass
s a
u rious
w ise
y ond
Ġ When
Ġt ut
Ġt able
Ġs cept
Ġm aint
Ġm iss
Ġm urderer
Ġm aking
Ġm otion
Ġw i
Ġw ot
Ġw ol
re ase
Ġb ot
Ġb as
Ġb are
Ġb all
Ġb ud
is ing
Ġf le
Ġf ee
Ġf ashi
er ved
Ġd i
Ġd ign
Ġd ies
Ġd ag
Ġd aughters
Ġc ens
Ġc up
Ġc alm
Ġc unning
Ġn aked
Ġo pinion
Ġto mb
Ġp ure
Ġp ainted
Ġp iteous
ot e
an e
om en
Ġg ate
Ġbe w
Ġbe loved
se qu
ir g
Ġme nd
our ish
Ġwe igh
ent ure
Ġst ory
ur ance
Ġon es
AR CH
am ed
Ġse est
Th ose
Th ree
Ġsu ck
ru ly
Ġfa il
ĠC al
ĠR om
ER CY
ant s
qu e
Ġgood ness
Ġpr onounce
Ġcom ple
Ġam en
out s
Ġhat red
Ġtheir s
ĠS o
Ġking ly
ĠB iondello
ig ence
Ġqu ench
Ġj our
Ġho pes
ci o
ci an
Ġsee ing
ĠP ro
ĠP eter
ĠP isa
ĠP olixenes
ĠP ERCY
um ble
Ġro om
Ġro se
Ġex pect
Ġsl ow
Ġad o
TH AS
TH OMAS
Ġper fect
Ġper pet
ĠD id
Ġwr ath
Ġway s
Than ks
Ġrem ains
ĠF l
les ome
Ġrep air
Ġcour age
Ġcrown s
Ġle an
Ġhar k
Ġwit s
Ġfoll y
Ġacc ess
Ġacc use
On ly
Ġend s
Ġend ure
Ġcomp ass
Ġneed ful
Ġtre mb
Ġjoy s
Ġjoy ful
Ġfort unes
Ġmist ake
Ġnat ural
Ġhapp iness
Ġplease d
Ġmis ery
Ġmis erable
Ġch ide
Ġatt empt
Ġass urance
Ġadv ance
Ġpers u
Ġdisc ontent
Ġsen ators
Ġdare s
Ġcra ck
Ġsomet ime
Ġint ent
Ġden ied
Ġspo ken
Ġdru m
Ġmark et
Ġwound ed
ca pe
Ġwat ers
Ġdisp osition
Ġinstru ct
Ġinstru ment
Ġcurse d
Ġgrant ed
ĠRi vers
ne y
ĠN ap
Ġter ror
Ġwhi les
Ġresol ved
chan ce
Ġpra ise
Ġcor rupt
Ġbur then
Ġem ploy
Ġgrie v
Ġdu ked
Ġgro an
Ġac cept
Ġdro ps
Ġprin ces
Ġprin cess
BAL THAS
Ġcol ours
Ġpen it
Ġprot est
Ġow e
ĠSt anley
Ġgovern ment
Ġpet ition
Ġcontin ue
Pr ithee
Ġsole mn
Ġobed ience
Bel ieve
Ġsever al
Ġconqu er
Ġcred it
Ġcontr ary
heart ed
Ġlangu age
Ġcirc um
Ġdur st
Ġpubl ic
Ġunnat ural
Ġduked om
BALTHAS AR
? --
A r
A pp
A men
B ear
B oat
F ather
F OL
G H
H eaven
L ove
M ight
M ark
O S
P ost
P age
P lease
S O
S et
S ave
b ear
c er
e x
f er
f rom
g o
g ers
h ow
i ven
j ust
l ic
n a
o ved
s ame
u ary
v al
v ours
y r
Ċ Ċ
Ġ Nay
Ġ They
Ġt est
Ġt ide
Ġt eeth
he st
Ġs ink
Ġm or
Ġm at
Ġm ag
Ġm ile
ha ppy
is hop
Ġf ro
Ġf ame
er d
it us
Ġc ease
en ces
Ġl ed
Ġn ought
Ġy onder
ar ies
Ġh ost
Ġh unt
Ġh ouses
Ġh orses
Ġp ol
Ġp owers
st rous
om p
Ġg ru
at ic
at ience
Ġbe yond
Ġha z
ut ed
ch ie
Ġis le
Ġis land
our age
Ġe ast
Ġit s
ad es
Ġk in
id ence
Ġre pe
Ġre alm
Ġde bt
Ġsha pe
us es
if ied
Ġse ize
Ġsp ite
Ġfa ces
ĠC an
Ġkn ife
ĠR OS
Ġv irg
Ġsh un
Ġcom est
Ġman ners
ĠM essenger
ĠE l
ic ion
ic ular
Ġbl ock
Ġbl ush
are d
ĠG ood
ol ute
Ġhere after
Ġsw allow
Ġbr ings
ĠS T
ĠB l
Ġqu al
You ng
ak est
Ġpro vo
um ent
Ġfather s
ĠW ho
Ġen s
Ġen mity
Ġr ing
CA S
ĠY et
Ġal ter
Ġlook ing
Ġfriend ly
Ġfl ies
Ġsl ay
ĠT ake
tle d
Ġfair ly
Ġad ver
Ġad vers
Ġcl o
Ġtr ade
Ġwr ite
the y
Ġsc ope
Ġsc ene
Ġke y
ĠF rench
Ġapp rehe
Ġcont ract
Ġarm our
ction s
Ġunt imely
ress ion
Ġim m
for th
Ġru le
Ġle ads
Ġwit ch
Ġsle pt
Ġacc ord
Ġpur cha
Ġco ck
orse t
St ill
Ġbra w
Ġbra in
Ġseem ing
Ġgl orious
Ġimp oss
Ġpass age
Ġbod ies
Ġunder take
Ġhate ful
Ġmaid en
Ġstre w
Ġturn s
ute ous
Ġbo ar
Ġass ured
Ġwant s
Ġcur ses
Ġdisc over
NOR FOL
Ġcommand ed
Ġhang ing
Ġfree ly
Ġcontent ed
Ġgre y
Ġdru ms
Ġaff ord
Ġdeser ves
Ġcho ler
no on
Ġgrow s
Com m
Ġter ms
Ġinc rease
Ġresol ution
Ġshort ly
Ġve x
Ġabs ent
Ġven om
Ġgro ans
Ġrespect ed
Ġpriv ile
Ġfra me
Bes eech
Ġcompl ain
Ġappro ach
Ġtor ment
Ġunk nown
Ġodd s
Ġprosper ous
DOR CAS
Ġstud y
Ġrevere nd
Ġappare l
Ġcapt ain
Ġdeg ree
Ġmour n
Ġcam est
ĠHer mione
Ġsmo oth
Ġlar ge
Ġshar p
Ġdisd ain
Ġexcell ent
Ġscept re
Ġdag ger
ĠNap les
Boat swain
ĠROS S
NORFOL K
A Ed
B oy
C ame
C ons
D IN
D ear
F ER
G host
H as
L ong
M istress
N SO
R R
R oman
W orthy
a ces
a ily
b ri
b ra
d s
d is
f ret
g l
g ar
i ate
i pp
k in
k er
l aw
n al
p ing
p ul
s ha
t ime
u ce
w ife
Ġt ame
Ġt aught
Ġt ap
Ġa ble
Ġs qu
Ġs ins
Ġs outh
Ġm ill
Ġm essenger
in y
in ts
re g
re land
re me
Ġb ury
is per
Ġf ig
Ġf eet
Ġf urn
er ing
it a
it ation
Ġd ig
Ġd ress
Ġd aily
Ġc hat
Ġc atch
en cy
Ġl ark
Ġth orn
ar m
Ġp are
Ġp urse
ĠI reland
an ces
Ġg ift
at cl
Ġbe f
Ġbe ard
Ġbe think
Ġme l
Ġme re
Ġme ant
Ġwe ather
Ġwe pt
ri b
ri f
ri ck
ri cians
Ġst ol
Ġst amp
Ġre com
Ġre vol
al es
al ine
Ġso re
Ġwill ing
Ġwill ingly
Ġno bl
Ġno bly
and al
Ġse ason
Ġsp r
Ġsp ur
ĠC o
ĠC ons
ĠR os
Ġv ows
Ġv ault
Ġcom b
ĠM il
Ġam azed
Ġcon ce
Ġcon ceit
Ġcon stant
ic y
are s
em ber
He lp
ol er
Ġlove ly
Ġsw ell
ĠB e
ĠB er
Ġar g
Ġun p
Ġun less
Ġwor n
Ġwor thi
el t
Ġj ew
Ġgra ves
ĠP ray
Ġr uth
ĠA d
ĠA pollo
har ge
Ġdis per
No ble
Ġab hor
Ġro ar
Ġro gue
So ft
Ġtell s
Ġwhere of
Ġdes ert
Ġwar like
ĠT itus
Ġtw ain
Ġfear s
Ġhast y
Ġgreat est
old ier
Ġpart icular
Ġcall ed
Ġcomm itted
Ġcl am
Ġper j
Ġper force
ĠD o
Ġwr ought
li ament
Ġnor th
Ġpres s
Ġra p
Ġra ise
ĠF arewell
ĠF roth
Ġwh ore
Ġbeg un
Ġcons ider
ĠJ ack
Ġpe ers
Ġres ist
Ġacc used
Ġkind ly
Ġcomp an
Ġsm iles
Ġfind s
Ġcount y
St ri
Ġbra ce
Ġchar ged
Ġpass ion
Cl arence
GRE EN
Ġhold s
Ġstre ets
Ġbo ots
Ġbu ild
Ġsound ly
Ġser ves
Ġinst ant
Ġadv ice
Ġgi ving
Ġreven ged
Ġsend s
Ġwind s
Ġhang ed
Ġdare st
Ġsomet imes
Ġint ell
Ġserv ices
Ġob ject
Ġsupp osed
Ġtem per
Wh ither
ALO NSO
ĠLu cio
Ġhard ly
Ġpar liament
Ġrec ord
Ġve ins
Ġwast e
Ġbreat hed
Ġsto pp
Unt il
Ġpie ces
Ġgar land
Ġwa it
Ġforb ear
Ġgrie ve
Ġsk y
ĠPom fret
Ġdire ct
Ġthri ce
Ġest ate
Ġopp os
TY RR
Ġdest roy
Ġaffection s
Ġur ged
Ġfam ous
Ġhap ly
Ab out
Su pp
DOR SET
Ġlust y
Ġeld er
Ġcounter feit
Ġthie f
Gentle men
Ġarri ved
Ġbeha lf
ĠMars hal
Ġavo id
Ġimprison ment
unts man
Ġrasc al
Ġearn est
Ġtreacher ous
Ġcondu ct
Ġprotect or
Ġsusp icion
Ġspeci al
Ġsanct uary
Ġmaint ain
ĠRom ans
Ġjour ney
Ġperpet ual
Ġgriev ous
Ġvirg in
DIN AND
FER DINAND
atcl iff
ĠCons pir
TYRR EL
; --
A cc
B ring
C oriol
I L
K eep
L eave
M akes
P H
U GH
V ols
W ilt
c ra
d es
d ig
e at
f a
f ess
f oot
f ellow
f aced
g rim
g room
i b
i ving
k ind
m aster
m aid
n ew
o es
s ay
s ome
t ies
u it
u ing
u pt
v ior
x eter
z z
Ġ z
Ġ ing
Ġ Then
Ġ Therefore
Ġt aunt
Ġt ask
Ġa pt
Ġa unt
Ġs y
Ġs al
Ġs ire
Ġm ult
in ation
Ġw ing
Ġw ide
Ġw hip
Ġw aking
re en
ha nd
Ġb ade
is bury
Ġf i
Ġf ood
Ġf row
Ġf un
Ġf ires
Ġf ancy
er ve
er by
ll en
on ci
Ġd ow
Ġd im
Ġd ying
Ġc her
Ġc ere
es ar
es sel
en ant
Ġl in
Ġn ail
Ġy ond
Ġth ird
Ġh or
Ġh ie
Ġo ak
Ġp i
Ġp ot
Ġp ound
Ġp ier
ve t
at er
at ive
se ll
se mble
Ġin qu
et ite
ed er
ut enant
Ġfor s
Ġfor ced
Ġfor feit
our se
our th
Ġe vent
ad v
ad ed
Ġst ing
Ġst ro
Ġst out
Ġst ret
Ġst roke
Ġre ck
Ġre jo
ra c
Ġli on
al us
al isbury
Ġso oth
Ġde b
Ġde ceit
ro ll
est ed
ea rer
am b
am s
am ing
Ġall iance
Ġsu c
Ġsu e
ru n
ru ction
Ġlo vest
ell ion
Ġsp l
Ġsp le
Ġsp ect
Ġfa wn
il ence
il ts
Ġkn aves
Ġv essel
ul ate
art s
nt y
ĠM ay
ĠE xeter
Ġcon fe
Ġbl unt
ĠG ive
ĠL e
ĠL au
LO UGH
Ġsay ing
Ġbr an
ĠS oldier
Ġun g
Ġun just
Ġun happy
ig nty
LI S
Ġmust er
ĠW ell
ĠW IL
Ġen force
de em
ĠA ll
ire ct
Ġoff ended
Ġdis grace
Ġal ack
Ġal ike
Ġal though
Ġab ide
Ġab oard
Ġex change
ag es
Ġdes ires
Ġdes cend
ase d
Ġfl ood
Ġsl aves
Ġbet ray
Ġbet imes
Ġnew ly
Ġpart ing
Ġpart ly
Ġcomm ons
Ġcomm ission
Ġstand ing
Ġcl im
ull us
ĠD e
ĠD orset
ĠD erby
Ġwr ink
the e
aint s
Ġbear ing
Ġra re
Ġra il
Ġrem orse
Ġapp eal
Ġapp etite
Ġwh isper
Ġcont empt
Ġim age
ĠMar ian
for ced
Ġru st
Ġru led
Ġhouse hold
erc y
Ġrest ra
Ġset s
os ing
Ġtri ck
Ġyoung est
Ġpower ful
cl am
Ġcha se
Ġcha rac
Ġput s
RI AN
Ġsm ell
Ġright s
Ġtre asure
Ġtre mble
Ġmist rust
Ġnat ive
iet y
Ġboy s
Ġpat ricians
Ġweep s
Ġbel ow
Lord s
Ġret ire
Ġsovere ignty
Ġass ure
ouch sa
Ġcur rent
Tw ere
Ġoath s
Ġmer it
Ġfaith ful
up on
Ġaff li
Ġdef ence
Ġsure ly
sh ould
Ġjo int
Can not
Ġsil ent
Ġinstru ments
Ġprof it
Ġbehold ing
Ġrec onci
Ġag o
Ġag ree
Ġsing le
Ġcor re
Ġsick ness
Ġweak ness
Ġpret t
Ġreg al
Ġreg ard
Ġbook s
Ġbar ren
Ġbeast s
eem ing
Ġtrump et
Ġpit ch
Ġshi eld
Ġunk ind
Ġsus pect
Ġtemp est
Ġrevere nce
Ġappare nt
Ġentertain ment
Ġobed ient
ĠAnt i
Bet ter
Ġhel m
Ġgent ly
Ġdeterm ined
Ġhol p
Ġfaire st
Ġed ge
Ġstab b
Ġtyran ny
Ġleng th
Ġyo ke
anch oly
ien na
Ġpil grim
ĠSic ilia
Ġequ al
Ġfashi on
Ġdign ity
Ġcomple x
Ġcircum st
yr rel
Ġaccord ing
Ġimposs ible
AEd ile
Ġpare nt
Ġmel ancholy
ĠMil an
Vols ce
Ġfrow ard
Ġconfe rence
LOUGH BY
ĠWIL LOUGHBY
. --
A D
C ry
C ond
C LE
D own
D raw
E ach
F RO
F air
H ail
I T
I m
K n
K ing
L ay
L ie
L ady
M any
O MEN
R i
R ather
S e
S m
S on
S omet
T ush
W arwick
W oe
Y e
a f
a x
a cc
a ction
b r
b od
b ation
c r
c ate
c ure
c ence
c ary
e b
e ve
f old
g han
g ive
i ver
i am
l ong
l ook
m ong
m ory
o llow
r s
r at
r ough
t han
t ic
t een
t les
u ries
w ear
w eal
Ġ Q
Ġt im
Ġt ro
Ġt res
Ġt all
Ġt akes
Ġt arry
he re
ou bt
Ġs alt
Ġs now
Ġm ir
Ġm ood
Ġm ess
Ġm irth
in ct
Ġw id
Ġw est
Ġw ake
Ġw ard
Ġw ink
Ġb uck
or ies
er ves
it er
it able
on est
on ation
Ġd iffe
Ġc row
Ġc ost
Ġc aught
Ġc hall
Ġc iv
Ġl ent
Ġl ine
Ġl ap
Ġn ap
Ġy es
Ġth in
Ġth ir
Ġth ick
Ġth read
Ġh orn
Ġo pe
Ġto ad
Ġto il
Ġto oth
Ġp ee
Ġp ause
hat h
ĠI ta
ot hes
st able
st ery
an ing
om ach
Ġg aze
at ure
Ġmy stery
Ġin fection
le ts
im ble
Ġme lt
Ġme mory
ill y
ill ing
her it
Ġst e
Ġst ick
Ġst umble
as p
as es
Ġre ce
Ġre ap
Ġre deem
Ġli ft
Ġli ken
al se
Ġde ck
Ġde cl
Ġsha m
us hy
us hes
Ġse ll
Ġse es
Ġse iz
Ġse ldom
Ġse pul
Th rough
Ġsu per
Ġsu itor
Ġsu llen
th ing
Ġlo ver
Ġsp y
Ġfa ct
Ġne gle
Ġkn ot
Ġv ar
Ġv ill
Ġv ol
ul f
sel ess
Ġman if
Ġman age
ĠM in
Ġam iss
ic al
au ghan
Ġhat ed
ĠL art
ers u
pp ing
Ġsw ain
ĠS alisbury
Ġun will
ĠH is
ĠH eaven
ĠV en
ĠV al
ĠV ienna
Whe ther
Ġj ot
ci es
Ġshould er
ĠP erd
ice d
Ġdeath s
Ġpo ints
ĠA way
Ġheart ily
Ġwho lesome
Ġmar ks
Ġoff ic
Ġdis ple
Ġdis gu
Ġab used
Ġro bb
Ġex erc
Ġdes cent
Ġri pe
Ġri de
Ġlea gue
Ġwar ri
Ġfl ow
Ġsl ip
ĠT ar
ĠT ell
ĠT yrrel
Ġbre d
Ġheaven ly
Ġcl othes
Ġsweet er
Ġper haps
Ġsc old
Ġsc andal
Ġra in
Ġra ised
Ġrem ove
Ġrem oved
Ġapp ointed
Ġwh it
ĠLord s
Ġbeg an
Ġrep ose
Ġhar sh
Ġkeep er
Ġyoung er
Ġacc ursed
Ġpri ck
Ġco ff
Ġdear ly
Ġsub tle
fort une
Ġmind s
Ġlaw s
Ġmis chance
Ġdev otion
Ġafter noon
Ġcare less
Un cle
An on
Ġgrief s
Ġcoun c
Ġhum an
Ġgr at
Ġser ved
Ġfalse hood
Ġadv enture
Ġwant ing
Ġcur t
Ġcountry men
Ġvirt ues
Ġstran ger
itt en
Ġwind ows
Ġbea uteous
Ġsec ure
Ġyield ed
Ġsupp ly
Ġcommon weal
so ever
Ġmon strous
Ġmon ument
Did st
Ġheir s
Ġgrow ing
Ġvis age
Ġtrust y
Ġinstru ction
Ġinf ant
Ġmin ute
Ġfore ign
Ġinc en
Ġfeel ing
Ġbur st
Ġabs olute
Ġfour teen
Ġforg ive
Ġplain ly
Ġself same
Ġsatisf y
Ġservant s
Ġmouth s
Ġfrown s
Ġred ress
Ġble m
Ġbride groom
Ġbab es
sp eak
Ġgall ant
Ġreb ellion
Ġshad ows
Ġwrit ing
Ġfier ce
Ġpleas ing
Ġmod est
Ġmod esty
Ġforsw ear
Am ong
Ġfe ather
ban ished
Ġbig ger
Bet w
Ġchast e
te rer
Ġfaire r
Ġshrew d
Ġdism al
Ġacqu aint
Ġprophe t
Ġeag le
Ġshr oud
Ġflat terer
Ġsubst it
othe cary
Ġsteed s
Rem ember
Ġir on
Ġtort ure
Ġwond rous
Ġrenown ed
Ġdeare st
Ret urn
Ġball ad
Ġtremb ling
Ġpenit ent
Ġpol icy
Ġrepe al
Ġadvers aries
Ġpurcha se
Comm end
Ġprivile ge
ĠRos aline
Ġconce al
ĠConspir ator
Coriol anus
Ġdow ry
Ġpier ce
Ġstro kes
Ġsuc ceed
ĠMay or
ĠLau rence
ĠMarian a
ouchsa fe
AD RIAN
CLE OMEN
FRO TH
Ġtres pass
Ġciv il
Ġthir ty
ĠIta ly
Ġsepul ch
Ġexerc ise
CLEOMEN ES
A M
A w
B AR
C RO
C ourage
D are
E PH
F l
F ind
G et
J o
M is
M en
M ist
M aking
M ethought
N ARD
O h
P etruchio
R UT
S ound
S IR
T ranio
U R
V illain
W A
W it
a ven
b ble
b oy
c est
c all
c ue
c ap
d ed
d ess
d one
d ers
d uke
e xt
g y
g ot
g reat
i ar
i ps
l ight
m as
m ade
n ken
o on
o ff
p ed
p hy
p eak
p ardon
p ret
r ity
r atch
s ire
t om
t end
u g
v ive
v ied
v ided
w ar
x e
Ġ As
Ġt ou
Ġt ig
Ġt ail
Ġa le
Ġa ges
Ġa xe
Ġs n
Ġm ain
Ġm il
Ġm ethought
in ate
Ġw akes
re et
re ts
Ġb on
Ġb ore
Ġb ag
Ġb rown
Ġb orrow
is ion
or ough
Ġf r
Ġf ish
Ġf ix
Ġf reed
er ity
er ily
it al
it iff
Ġd ate
Ġd ower
es u
en ge
Ġl ur
Ġl ance
Ġl ower
Ġl uck
Ġn ar
Ġn et
Ġn est
Ġn ice
Ġn umb
Ġn upt
Ġy on
Ġth irst
Ġth umb
ar ried
Ġh om
Ġh ind
Ġh ig
Ġh ire
Ġh oney
Ġto y
Ġto morrow
Ġp ed
Ġp ear
Ġp ath
Ġp age
Ġp aint
ĠI t
Ġhe at
Ġhe els
ow l
ing ers
Ġg id
at ri
at est
Ġbe re
Ġbe fall
se y
ce ls
Ġin k
Ġha re
Ġha ught
Ġha bit
ay ed
Ġnot ed
ke ley
Ġwe al
Ġwe alth
oo ps
her n
Ġwith draw
ri ch
ri ble
Ġst ale
Ġst ern
Ġst omach
ord er
ra ge
IN E
Ġli very
Ġli king
ur rey
Ġde af
Ġsha re
Ġsha pes
Ġdo ve
Ġdo gs
Ġdo zen
Ġwill s
and s
us hing
if ts
Ġsu its
Ġher s
ard el
Ġan ointed
Ġsp it
Ġour self
Ġshall ow
ĠC ounty
Ġne at
Ġv ent
Ġsh ook
Ġsh ines
Ġup right
Ġgood s
Ġpr ime
Ġcon ceive
ic ate
ic io
ic les
ie ge
ie ved
Ġbl ast
em per
ĠG ree
ol a
ol ved
Ġsir s
ĠL icio
Ġthere by
ep t
ep ing
Ġsw ore
Ġsw eat
Ġor n
ĠS ee
ĠS hore
ĠS CRO
ĠO ur
ĠO ff
ĠB r
ĠB y
ĠB en
ĠB ur
Ġar rest
Ġlet s
Ġun st
Ġun se
Ġun fe
Ġwor m
ĠV aughan
ak er
ue en
Ġlike ly
Ġpro clam
Ġsa v
ĠP lease
ĠP ETER
Ġmad ness
Ġpl aces
ĠW ilts
Ġen g
un ate
Ġr ans
Ġtru nk
Ġsome what
orn ey
Ġoff ices
har ged
Ġdis gra
Ġal ms
Ġab use
Ġex am
Ġtell ing
ag ues
Ġlook ed
Ġthink ing
Ġwhere on
Ġfl ourish
Where to
Ġfear ing
ber t
Ġbre ed
Ġgreat ness
Ġpart ed
Ġtr oop
Ġtr oops
Ġper n
li ed
the m
aint y
Ġnight s
Ġsc atter
ab les
ĠF are
Ġapp ea
lo ves
Ġgrace d
ran k
Ġbeg u
Ġbeg et
Ġchild ish
Ġrep ly
Ġcons ort
erc ing
che th
ont es
Ġtri f
Ġacc ident
Ġpri ce
Ġsub d
Ġback s
tw ill
Ġforth with
Ġban k
Ġche ap
Ġchar m
Ġconf irm
Ġlight ning
Ġroyal ty
Do es
pose d
Ġbes ides
Ġhapp ily
ĠAn ne
mb ers
Ġsorrow s
Ġcare ful
Ġless er
Ġmeet ing
Ġfall s
Ġstri ve
Ġsleep ing
Ġbo ast
Ġdra g
Ġser p
pen se
Ġdisc ourse
Ġbreath ing
Ġsen seless
Ġbea ut
Ġhang s
ham ed
Ġcra ves
Ġdep end
Ġgre w
Ġspo il
gu es
Ġdru nken
Ġlam bs
Ġbeat s
ID AM
Ġaff ords
Ġsight s
Ġmet al
ac les
Ġsad ness
Ġmon ster
Ġmon arch
Ġsuff ic
Ġbold ly
Ġstrong er
Ġexec ute
Ġexec uted
Ġcar ried
Ġve l
Ġpra ises
Ġcor onation
Ġwa ves
Ġbur nt
Ġliber al
Ġbless ing
Ġburn s
Ġburn ing
Ġdire ction
Ġprop ort
Ġble eding
Ġest im
Ġsac rif
Ġjoin ts
Ġbitter ly
Ġlim it
Ġlim bs
sc alus
Ġca itiff
Ġviol ence
Ġtriump hant
Ġsuccess ion
Ġaction s
Ġmid night
Ġcap s
Ġreb els
umb ling
Ġpossess ion
Pl ay
Ġexecution er
Ġtor ch
Ġpit iful
Ġinj ury
Ġur ge
Mar ch
Mar cius
Ġmed dle
Ġocc up
Ġunc les
Ġignor ance
Ġnob ility
Ġchurch yard
Ġsaint s
Ġref use
head ed
ĠCa esar
Ġran k
Ġguest s
Ġunf old
Ġdeterm ine
whe re
Ġhung ry
ĠWill iam
Ġmonth s
Ġextrem ity
Ġbird s
Ġincl ined
Ġcover t
Ġprevent ed
Ġtyran n
Ġes cape
Ġwag er
Ġstat ue
Ġnecess ity
Ġsubst ance
Ġsens es
Ġweap on
Ġstep s
Ġange l
Ġconj ure
Ġthreaten ing
Ġwol f
Ġcens ure
ARCH IDAM
ĠDid o
Ġmor al
chie f
ĠEl bow
ĠST EPH
Ġapprehe nd
Ġimm ortal
Ġtap ster
rib unes
ĠBer keley
Ġjew el
Ġruth less
Ġdisper sed
Ġclam our
Ġrap ier
Ġcompan ion
Stri ke
Ġoppos ite
Ġz eal
Ġcher ish
Ġstret ch
Ġrejo ice
amb io
Ġsple en
Ġcharac ter
Ġprett iest
Ġchall enge
Ġpee vish
Ġliken ess
ĠLart ius
ĠPerd ita
Ġoffic ers
Ġcommonweal th
Ġsepulch re
BAR NARD
RUT LAND
Ġnupt ial
Ġgid dy
ĠSCRO OP
ĠOff icer
ĠWilts hire
ARCHIDAM US
ĠSTEPH EN
BARNARD INE
A f
A dd
B re
B ra
B AN
C a
C amillo
C ontent
D iv
E ver
E ng
E lse
F ull
F ollow
F alse
G O
G a
G ard
G entleman
H o
H ic
H enry
H ortensio
L u
L ive
M OR
M uch
N ame
O ld
P atience
P ersu
S aw
S ix
T ON
T oward
T MOR
V irt
W r
W ES
W omen
Y ield
Z WA
a ld
b ack
c or
c us
c ont
c ons
d al
f ri
g n
g ged
h orse
i ban
l or
l ow
l ain
m ay
n el
p ray
s en
s hi
w d
w er
w ing
w as
w omen
w ater
z ed
Ġ ice
Ġ ought
Ġ Thy
Ġ eter
Ġt ard
Ġt ack
Ġt ree
Ġt ren
Ġt ired
Ġt akest
he n
Ġa h
Ġa ud
Ġa ged
ou red
Ġs ed
Ġs ess
Ġs au
Ġs ings
Ġs ought
Ġs urp
Ġs illy
Ġm as
Ġm ould
in ers
Ġw et
Ġw ave
Ġw aked
re ant
ha bit
nd y
Ġb ay
Ġb ill
Ġb ent
Ġb ru
Ġb ol
Ġb alm
is hes
is ement
or th
or iz
Ġf in
Ġf ant
Ġf ret
Ġf ray
Ġf ever
Ġf elt
Ġf ardel
it ch
on ed
on us
on stant
Ġc at
Ġc ent
Ġc ook
Ġl our
Ġl un
Ġn igh
Ġo mit
Ġto ps
Ġp or
Ġp ill
Ġp ent
Ġp hi
Ġp ick
Ġp ace
Ġp aid
Ġp ush
Ġp alm
Ġp omp
ĠI n
Ġhe ra
Ġhe ight
an n
om es
Ġg n
Ġg ap
Ġg ains
Ġg oose
Ġg ifts
at he
at hed
Ġbe ll
Ġbe ams
se e
se em
Ġin v
Ġha il
ir ing
ed nes
ut s
ut ch
Ġme w
Ġme mbers
Ġfor ty
Ġwe ek
ent ly
ri el
Ġst ead
Ġhis t
Ġre nd
Ġre ar
Ġre ach
Ġre vel
ra id
Ġli ons
Ġli kes
Ġli vest
ur b
ur gh
ur tis
al ter
Ġso il
Ġso ci
Ġas pect
Ġas hamed
Ġde m
ro g
AR LIS
ver ty
Ġse vere
Ġse ated
Th ine
Th ings
Ġall eg
th ree
Ġher d
ter ing
Ġan ch
Ġlo ad
Ġlo ck
Ġlo vers
ell ows
Ġsp ot
Ġsp read
Ġfa vours
il ful
il iar
ĠC urtis
ĠC ARLIS
ĠR atcliff
ĠR aven
Ġv ast
OR GE
Ġsh ru
art ed
ĠM istress
Ġam ain
Ġam ends
Ġam bit
Ġam orous
ĠE m
ĠE ly
ĠE LY
ĠE scalus
Ġcon sequ
Ġcon cer
ic le
ie ce
Ġbl ot
are rs
ĠG reen
Ġshe l
ĠL ook
Ġknow ing
res h
Ġsw ears
Ġbr at
ĠS c
ĠS hall
ĠS urrey
ĠB ushy
Ġgo ss
Ġun e
Ġun m
Ġun re
ig ent
ig onus
ĠH im
ĠH ark
ĠH untsman
el sh
el iver
LI BAN
Ġgra in
Ġlike wise
Ġpro ved
Ġpro cess
Ġpro dig
um ed
ĠW as
ĠW ould
ĠW elsh
ist ing
Ġen c
un s
Ġpo verty
Ġr ate
Ġr ouse
Ġspeak ing
Ġout rage
pt ion
EL AND
ick le
CA LIBAN
With draw
ign ed
Ġmar s
Ġmar vel
Ġmar vell
Ġdis in
Ġdis ease
Ġab und
Ġex ceed
Ġex cept
ag ot
ag ed
Ġdes c
Ġri ches
Where of
Ġsl ight
Ġsl ipp
Ġbet ide
ĠT ew
Be hold
Ġbre ad
Ġcou ple
Ġpart ies
Ġpart ner
ide red
Ġpre fer
Ġcl ock
Ġsweet ly
ull s
Ġwr itten
the se
Ġpres ume
Ġworld ly
Ġsc ratch
per ience
Ġmo ves
Than k
Ġra ck
Ġra ven
ab ly
ĠF IT
Ġdown right
Ġcont ro
lo so
ran ch
BA GO
Ġim per
Ġrep utation
Ġaf raid
Ġstay s
Ġmight st
Ġru e
Ġle g
Ġle ct
Ġle wd
Ġrest ore
Ġent rance
Ġtri cks
Ġbest ow
Ġpur ge
Ġpur ple
Ġend ed
Ġcomp are
Pro ve
Pro ceed
Pro claim
Ġco p
Ġco ll
Ġput ting
Ġsm il
Ġsm other
Ġdre w
Ġearth ly
Ġtra in
Ġtra vell
Ġbid ding
Ġcould st
Ġhope ful
Ġbra ins
GE ORGE
Ġche que
be ing
Ġbri dal
Ġconf ound
Ġmis fortune
Ġland ed
Ġgod dess
An other
Ġbus y
Ġfal con
Ġstri ct
Ġcoun sell
Ġbu zz
Ġret ired
Ġcourt ier
Ġcourt eous
ere st
Ġatt ain
Ġatt orney
Ġsound s
Ġsound ed
Ġadv ised
Ġreven ges
Al though
Ġstra w
Ġcommand s
Ġprom pt
Ġcra m
Ġvillain s
Ġcontent s
Ġint eg
Ġkiss es
apt ain
Ġyield s
Ġob sequ
gu ard
gu ndy
up id
Ġwin ters
Ġbeat en
ac y
Ġsoon er
vent ry
vent ure
bl ood
Ġcho se
Ġcho sen
Had st
Ġdevil ish
Ġbold ness
und ay
Ġinf er
Bec omes
Ġwoo ing
Ġread iness
Ġprof ane
Com es
Com fort
Ġdiv or
Ġyouth ful
Ġter m
Ġsto ps
Ġdr oop
Ġcloud y
cher s
Ġmusic ians
Ġwa x
Ġgrie ves
Ġgrie ved
Ġsk ill
Ġsign al
Ġsign ify
Ġcheer ly
Ġsatisf action
Sw ear
Ġcr im
Ġprop hes
Ġext reme
Ġtrou bl
over n
Ġdark ness
Ġtown s
Ġexp ed
Ġflatter ing
Ġbow els
Ġemb ra
Ġest eem
Ġfra il
Ġcoward ly
Ġhur l
sp urgh
Ġlament able
Ġeat en
Ġkins men
Ġmid dle
Ġdest ruction
Ġdepart ure
Pl antagenet
Ġfond ly
Ġins ol
Ġusurp ing
Ġap ace
Ġsho p
Ġsho es
Ġmild ness
Ġglad ly
med iate
vol io
Ġshi ps
Ġtreason s
Ġcondemn ed
Ab ove
Ġlist s
Ġpet ty
Ġstor ms
Ġtemp les
Ġmut inous
Ġgrand am
Ġgrand sire
Ġeld est
Ġconqu est
ĠAnt igonus
Dis p
EX TON
Ġbastard s
Ġhel ps
Ġamong st
Ġprov ide
Ġthie ves
Ġgreet ing
Ġminister s
Ne ither
rate ful
Ġconcl ud
Ġconcl ude
Ġdism iss
Off icer
Ġimag ine
Ġacqu ainted
Ġghost ly
Ġbeha vior
jo in
Ġele ven
Ġdesign s
Ġtempt ed
Ġshri ft
Ġheav ier
Per haps
Ġer rand
Ġwander ing
Ġband s
Ġdet est
Ġweap ons
Ġvan ity
Ġrob es
Ġtrans port
Ġaccus ation
Sha lt
Ġbot tom
ĠCal iban
Ġcompass ion
Ġpersu ade
Ġdiscontent ed
App ear
iven ess
Ġtest im
Ġfro st
Ġhaz ard
ĠBl unt
Ġprovo ked
Ġadver se
Ġkey s
Ġfig ure
Ġfurn ish
Ġrecom pense
Ġrevol t
ĠCo ventry
Ġintell igence
Ġtaunt s
Ġfi end
Ġcere mon
adv ised
Ġreck on
ĠLe ontes
Ġreconci le
Ġunkind ness
Ġpilgrim age
Ġparent s
Ġseiz ed
Ġnegle ct
ĠMin ola
ĠVen ice
Ġwarri ors
Ġblem ish
Ġfreed om
Ġnar row
ĠBur gundy
Ġproclam ation
Ġsav age
Ġrans om
Ġexam ple
Ġpern icious
Ġvel vet
Ġproport ion
Ġtyrann ous
Ga oler
Gard ener
Lu centio
Toward s
TMOR ELAND
WES TMORELAND
ZWA TER
Ġphi loso
Ġhera ld
ednes day
Ġalleg iance
ĠCARLIS LE
ĠRaven spurgh
Ġambit ious
ĠFIT ZWATER
BAGO T
Ġinteg rity
Ġphiloso phy
A c
B ound
C ont
C atesby
D ep
F ore
F ive
F all
F oul
F etch
G ra
G ives
G race
H ie
H arry
H ang
J ustice
K ind
L ies
L ead
M ur
P art
P eter
P urs
R el
S it
S end
T en
T ra
T alk
T ouch
T each
T ruly
U r
V ouchsafe
V erily
W ert
Z ounds
a v
a pe
a ving
b es
b our
b ell
b oard
c at
c ond
c ock
d ist
d own
d aughter
e ves
f end
f ts
g ly
g ic
h ors
i pe
i pt
k n
k est
k now
l en
l ast
l ance
l ace
l iness
l ongs
m et
m our
m uch
m iss
m istress
o b
o ble
o pen
p ost
p ite
p ular
p othecary
r ish
r oof
s ent
s ion
s erv
t in
t ell
t ong
t ied
t rees
u c
u ge
u iv
u ild
u ally
v ir
w h
w eet
w ork
w ere
y cor
Ġ First
Ġt row
Ġt ie
Ġt orn
Ġt ied
Ġt aking
he ard
Ġa ch
Ġa fe
Ġs ow
Ġs ong
Ġs ides
Ġs ixt
Ġm om
Ġm ouse
Ġm ates
Ġm urde
Ġm ask
in u
in al
in ies
in ces
Ġw ore
ha d
ha ge
Ġb ul
Ġb ows
Ġb ail
Ġb ounty
Ġf re
Ġf if
Ġf il
Ġf ol
Ġf rant
Ġf ount
Ġf ift
Ġf ingers
Ġf rank
er ies
Ġd ot
Ġd ed
Ġd ine
Ġd ried
Ġd ined
Ġd ash
Ġd iest
Ġc ord
Ġc ro
Ġc and
Ġc ab
Ġc ool
Ġc rows
Ġc ords
en ing
en ches
Ġl a
Ġl ute
Ġl ads
Ġl ying
Ġn ort
Ġn amed
Ġn imble
Ġth w
Ġth rown
Ġto ken
Ġp ow
Ġp our
Ġp est
Ġp ru
Ġp ant
Ġp up
Ġp ict
Ġhe el
ot land
st ra
st rong
om pl
Ġg ust
Ġg ather
Ġg aunt
at t
Ġbe ef
Ġin ward
Ġha g
Ġha lt
Ġha unt
ay ing
et ition
im ents
Ġme ed
Ġme al
Ġnot ice
our n
Ġwe ars
Ġe ight
Ġe ff
ent ing
ad o
ad venture
ri l
ri al
Ġst em
Ġst ink
Ġst ag
Ġst eep
Ġst iff
Ġk ites
as ant
id ers
Ġre in
Ġre semb
Ġre vive
ra ment
Ġli ck
Ġli ef
ur ing
al ks
Ġas hes
Ġde er
Ġde ce
Ġde form
ro ach
ain st
Ġsha de
Ġdo le
am y
am ity
am ents
Ġno d
Ġno on
and ers
us hi
Ġbut t
Ġse arch
Th row
Ġan n
Ġan sw
Ġan cest
Ġlo dge
Ġlo athed
ell a
Ġsp ark
Ġsp urs
Ġsp ider
ĠC ambio
ĠC upid
Ġv ul
Ġv ouch
ct s
ct or
ous ins
Ġwhat soever
Ġsh ot
Ġsh own
ul es
ant ime
art hage
Ġpr ate
Ġpr ating
Ġman hood
Ġam az
ĠE ven
Ġcon c
ic ation
Ġbl ue
Ġbl own
Ġbl iss
Ġbl aze
Ġbl ushing
ive d
ive ly
em broke
Ġthem e
ol ve
ĠL ove
Ġthere to
Ġcan op
ep tune
Ġhere in
Ġsw oon
Ġbr anch
Ġor ator
ĠS ly
ĠS unday
ĠS ycor
Ġus ure
ĠB agot
Ġar ise
Ġar ray
Ġun like
Ġun pro
Ġun ruly
Ġwor ser
ĠH ave
Ġmust ard
Ġgra ces
Ġho ar
Ġlike li
Ġsee ks
Ġsa p
Ġsa ck
Ġsa ved
ĠP oor
Ġpl an
pe ian
ĠW est
ĠW ednesday
Ġen forced
Ġen rich
ful ness
un is
un ed
Ġpo ck
Ġpo pular
de ath
Ġr he
Ġr anc
Ġr ush
Ġr oof
Ġr ushes
Ġoff ences
Ġdis o
Ġdis semb
Ġal ar
Ġal oud
Ġal so
Ġhea p
AB RA
Ġbrother hood
Ġfo x
Ġro ses
Ġro aring
Ġri g
Ġlea p
Ġlea ving
Ġfl ock
Ġsl ily
ĠT ime
ĠT roy
ĠT ribunes
ĠK ent
Ġcomm ends
Ġcl er
Ġnoble man
Ġsweet est
aw ful
Ġtr im
Ġper fection
Ġple be
ĠD ian
Ġwr ing
Ġother wise
li er
the ir
Ġmean er
Ġnight ing
to gether
Ġpres erve
Ġsc ore
Ġmo e
Ġmo ving
Ġmo iety
Ġra ce
ĠF ourth
Ġdown fall
GR EY
Ġapp ears
Ġapp oint
Ġwh ist
Ġcont ri
sw eet
Nor thumberland
Ġmother s
Ġever last
ks bury
ĠJ up
Ġcour ts
Ġpe er
Ġle vel
Ġhar l
Ġhar vest
Ġhar bour
Ġrest s
Ġset tled
atter n
os es
Ġface d
Ġhence forth
Ġbest ri
Ġacc omp
Ġend ured
Ġcomp ound
Thy self
Ġco at
Ġco ast
Ġco zen
Ġcha mp
Ġdear th
int ed
tw ould
Ġbra nd
Ġhome ly
ister ous
Ġchar ges
Ġconf idence
Ġconf eder
Ġtre es
Ġchan ces
Ġchan ging
Ġimp each
Ġlight s
Ġroyal ties
Ġlast ing
ult ing
Ġbes ide
Ġmis c
Ġmis chief
Ġdev our
Ġwrong ed
Ġfull y
Ġafter ward
Ġhold ing
Ġpat ron
Ġfall en
Ġfall ing
Ġstri fe
Ġhum ility
Ġtalk ing
Ġbel ong
Ġbel ieved
Ġbo isterous
Ġgr im
Ġgr ass
Ġdra m
Ġser ious
Ġmerc hant
Ġreven ue
Ġdan cing
Ġpers ons
Ġstra it
Ġstran g
Ġdisc harge
Ġdoubt ful
At tend
itt any
Ġwind ow
Ġhang man
Ġcra ft
Ġproud est
Tw ixt
Ġint ents
Ġmer ri
Ġyield ing
Ġob sc
Ġbreak s
Ġtem ple
Ġlate ly
Ġrequ ire
Ġval ue
Ġdef y
Ġtender ness
so oth
Ġsad ly
sh ine
Ġgrow th
Ġwat ery
Ġask ing
ĠMont agues
Ġreport ed
Ġcry ing
Ġlearn ing
Ġlearn ed
Ġentreat y
Ġentreat ies
Ġdevil s
Ġmur ders
Ġbat tles
Ġsil k
Ġrun s
Ġrevenge ful
Ġmin utes
Ġfore head
Ġquar ter
Ġconfess or
Com mand
Ha pp
Ha ppy
Ġspeed y
Ġdesp ised
ĠN ed
ĠN eptune
Ġter r
Ġrec reant
Ġdel icate
Ġharm ony
Ġbosom s
Ġact s
Ġattend ed
Ġmurder ous
Ġve il
Ġsing ular
Ġdist ress
Ġsuit ors
Ġclose d
Ġsuffer ing
Ġmusic ian
Ġwa its
Ġbur den
Ġbreast s
Ġwed ded
Ġdu kes
Ġpay s
Ġgro om
she aring
Ġwise ly
Ġcr ook
Ġcr ush
esh rew
stand ing
Ġred empt
Ġbegg ars
Re ad
Re ady
ĠFor tune
Ġfeast s
Ġev ils
ĠVols cians
ĠVols cian
Ġbow l
Ġinter rupt
Ġund o
Ġsum m
Ġbab y
Ġfra med
Ġsac rament
Ġsafe ly
Ġsafe guard
Ġign oble
Ġopp ression
Ġsudden ly
Ġlead en
Ġlament ation
ĠIsab ella
Ġdrink ing
Ġca uses
Ġcle an
Ġow es
Ġcompl aint
Ġsmall est
Ġmid st
Ġmid wife
Ġdest iny
Ġappro ved
Ġappro bation
Stand s
Con fess
Whi les
Ġsur feit
Ġins inu
Ġeas ily
Ġdamn able
Ġut most
Ġap art
Ġmild ly
Ġpu iss
Ġpit ied
Ġinj ustice
Ġproceed ings
Ġmed ic
Ġmod el
Ġfam iliar
Ġreign s
oss ess
Ġlow ly
Ġbend ing
Ġprosper ity
Ġtrouble d
Me antime
Ġlen ity
Ġslander ous
Ġpurs ue
Ġpurs uit
ĠCapu lets
Ġmount ain
Ġunw orthy
Ġprov ided
whe n
Ġglass es
Ġextrem es
Ġconcl usion
Ġunl ook
Ġunl uck
ĠAl ban
Ġaim s
Ġavo ided
Ġdri ft
Ġeag er
Ġstat utes
Ġloath some
Ġloyal ty
Ġguilt less
Ġsens ible
Ġcre pt
Ġcal amity
Ġpil ot
Ġchief est
Pre pare
Ġpin ch
Ġinfect ed
Ġstock s
Ġdeare r
Ġange ls
Ġlod ged
Ġlod ging
can not
Ġtut or
Ġwi pe
Ġfle et
Ġadvance d
Ġcorrupt ion
Ġmag ist
Ġclo ak
bri c
Ġstol en
Ġnobl eness
Ġspr ings
Ġswell ing
Ġabhor r
Ġperj ured
Ġinstant ly
Supp ose
cra ft
fa vour
Ġmult itude
Ġlin ea
Ġnail s
Ġpi ercing
Ġinqu ire
Ġbran ches
Ġclim ate
Ġwrink led
Ġwhisper ing
Ġcorre ction
ĠAnti um
Ġcomplex ion
Ġcircumst ance
Lie utenant
Somet ime
ĠQ ueen
Ġmood y
Ġste ward
Ġvar let
Ġmanif est
Ġunwill ing
ĠTar peian
Ġincen sed
Ġflatterer s
Ġsubstit ute
Mist ake
Ġtig er
Ġmil k
Ġnumb ers
Ġhind er
Ġpear l
Ġbere ft
Ġorn aments
ĠBr ittany
ĠBen volio
Ġunse en
Ġdisgra ced
Ġtrif les
Ġserp ent
Ġsuffic ient
Ġestim ation
Ġoccup ation
Af fection
Bre ak
Virt ue
Ġeter nal
Ġtard y
Ġsurp r
Ġfant ast
Ġlun atic
Ġhist ory
Ġconsequ ence
Ġconcer ns
Ġmars hal
Ġmarvell ous
ĠTew ksbury
Ġprophes y
Ġceremon ious
Mur der
Ur ge
uiv ant
Ġafe ard
Ġsixt een
Ġmom ent
Ġmurde red
Ġfol ks
Ġfrant ic
Ġfift een
Ġcab in
Ġnort hern
ĠSycor ax
Ġlikeli hood
ABRA HAM
ĠJup iter
Ġredempt ion
A gain
A ff
A GE
A umerle
A pollo
A pothecary
B u
B an
B est
B ON
B old
B less
C h
C le
C ast
C old
C arry
C ursed
D en
D est
D ef
D ION
D irect
E r
E nd
E very
E MI
F it
F ill
F ourth
G rand
G room
G ainst
H ar
H igh
H untsman
I mp
J ust
K eeper
L eft
M usic
N ATH
O pen
O bey
P res
P AGE
Q u
R en
R un
R atcliff
S in
S us
S ic
S uff
T rust
T ullus
W ife
W orse
a is
a ches
b on
b at
b id
b ur
b est
b el
b les
b earer
c o
c is
c ri
c ore
c ast
c ount
c und
d ra
d oor
d uce
e le
e ks
f ed
f ly
f ound
f ranch
g ea
g entle
g age
g rown
g reed
h ur
h onour
i qu
i vers
j ud
k ens
l m
l u
l eness
m o
m ake
m ind
m ission
n et
n ut
n ame
n ever
n othing
o ke
o very
o cc
o ps
o pher
o cate
p h
p re
p or
p an
p ut
p han
p ast
p ers
p res
p les
s u
s ick
s ince
s uch
s ide
s omet
s cape
t on
u le
u ish
u ced
u kes
u eless
v il
v ance
w it
w ho
w hy
w itted
y et
Ġ U
Ġ ire
Ġ No
Ġ Thus
Ġt ha
Ġt on
Ġt ur
Ġt ea
Ġt ink
Ġt reat
Ġt ents
Ġt ainted
Ġt ailor
Ġt amed
Ġt umble
Ġa ck
Ġa fore
Ġa pe
Ġa chie
ou ches
Ġs ith
Ġs ine
Ġs itting
Ġs ands
Ġs iege
Ġm ast
Ġm ant
Ġm use
Ġm uff
Ġm iles
in er
in ius
Ġw ester
Ġw ilful
re th
re port
ha s
ha eth
Ġb ought
Ġb ench
Ġb ishop
is k
is her
is ome
Ġf an
Ġf et
Ġf ath
Ġf em
Ġf its
Ġf ulf
er ous
er ns
ll ing
it an
on ce
on io
Ġd er
Ġd il
Ġd ame
Ġd iet
Ġd rows
Ġd umb
Ġc ave
Ġc uck
Ġc rest
Ġc rew
Ġc urious
Ġc ushi
Ġc ousins
en ed
Ġl ink
Ġl ace
Ġl oose
Ġl ends
Ġl ung
Ġl inger
Ġl atest
Ġn on
Ġn aught
Ġn ourish
Ġy are
Ġy ester
Ġth o
Ġth rees
ar ison
Ġh y
Ġh ill
Ġh ood
Ġo m
Ġo bt
Ġto e
Ġto ads
Ġto wer
Ġp ine
Ġp ate
Ġp uff
Ġp edant
Ġp ounds
Ġp attern
Ġhe al
Ġhe igh
Ġhe inous
st one
st rel
ow ick
an k
om enes
Ġg am
Ġg ear
Ġg ame
Ġg az
Ġg eld
Ġg ulf
Ġg loves
at o
at ient
Ġbe et
Ġbe ads
se c
se th
ce ives
ce iving
Ġin ve
Ġin ch
Ġin vent
Ġin herit
Ġha w
Ġha ll
ay s
ed iment
im o
im s
Ġme llow
Ġnot es
Ġnot with
ch ool
ch ild
Ġfor ces
Ġfor sooth
ke y
Ġu gly
Ġwe ed
ill ed
Ġe lo
Ġe bb
her ited
ent ious
ad em
ad ise
ri p
ri on
ri am
ri ef
ri eve
Ġst u
Ġst ark
Ġst ring
Ġst aff
ght s
as y
as ing
as ures
id d
id ing
Ġre nt
Ġre nder
ra ken
ra ils
ra ught
Ġli ar
Ġli qu
ur vy
al ion
Ġso lic
Ġas hore
Ġde ceive
Ġde fect
ain ing
ver se
ver done
est iv
ea p
ea rest
Ġdo ct
Ġdo ves
Ġdo ors
Ġno ses
us ing
us iness
Ġbut ter
if th
Ġse ar
Ġse qu
Ġall ies
Ġsu ed
Ġsu ng
Ġsu nder
Ġsu gg
Ġsu gar
th w
th row
th ought
Ġher bs
ter ate
Ġan tic
Ġlo ins
Ġlo cks
Ġsp ed
Ġsp ilt
Ġsp ices
Ġsp iders
Ġfa ction
ĠC le
ĠC aptain
ĠC arthage
Ġne gl
ho eb
Ġkn a
Ġkn o
Ġkn it
AN IEL
ĠR o
Ġv i
Ġv ine
Ġv ig
Ġv ass
Ġv ial
Ġv enture
Ġsh out
Ġsh ower
ul ous
qu et
Ġpr int
ĠM adam
What e
Ġam end
Ġwhe t
Ġwhe el
end ing
ic ial
ie l
Ġbl ister
Ġbl ade
ive red
ven ient
For th
For bear
For give
For bid
ĠG entle
od owick
ol ar
ol our
Ġhat ch
ĠL am
ĠL eave
ĠL odowick
Ġcan n
Ġcan ker
fe el
fe its
res sed
ate ly
pp et
pp ed
Ġbr ass
Ġor phan
all el
ĠS he
ĠS peak
ĠS weet
ĠB es
ĠB raken
Ġar ch
Ġar gu
Ġar bit
Ġun ple
Ġun rest
Ġwor ms
Ġwor shi
ĠH a
ĠH ear
ĠH erc
el ting
Ġqu ake
Ġqu aint
Ġj ade
reat ure
Ġmust y
Ġgra ft
Ġho le
ci p
ci ally
Ġpro cure
Ġshould ers
ĠP ercy
ĠP atri
ĠP embroke
ĠP haeth
ĠP hoeb
um s
um es
um ps
um ents
um ny
Ġmad est
Ġmad man
Ġpl ate
Ġpl aints
pe ople
pe cially
ĠW h
ĠW elcome
ĠW ales
ĠW alter
own ed
Ġpo x
Ġpo ll
Ġr ats
Ġr ites
Ġr ising
pt ory
ĠA h
ĠA m
ĠA r
Ġtru er
Thou ghts
Ġmar r
Ġmar ble
Ġmar iners
Ġdis l
Ġdis semble
Ġdis order
In s
In fer
ack s
Ġal oof
Ġal together
Ġhear s
ec her
ec hes
Ġab st
Ġab od
Ġfo ld
Ġfo il
Ġear l
Ġear ldom
Ġro d
Ġro de
Ġro cks
Ġex claim
Ġex act
Ġex perience
ag ine
Ġlook er
oul s
ave d
Ġri dd
Ġri pen
Ġri vers
Ġwar n
tis ed
Ġfl ame
Ġfl int
Where fore
Ġsl ack
ĠT ur
ĠT ullus
ĠT unis
Ġbre eding
iz ab
ss es
Ġad mit
Ġpre c
Ġpre ced
Ġpre rog
Ġcl ap
Ġpray s
Ġsweet s
aw s
Ġtr ades
Ġper d
Ġper f
Ġper mit
Ġple dge
ĠD or
Ġwr ang
Ġway ward
Ġhead strong
li p
the ns
Ġpres erv
Ġpres erved
Ġsc our
Ġsc ru
Ġsc ape
Ġmo an
Ġchi val
Ġqueen s
Ġra ges
Ġra ging
Ġra iment
Ġra gged
Ġrem iss
ab our
ĠF ear
ĠF ran
Ġapp l
Ġapp ly
Ġapp ell
Ġarm ed
Nor folk
ran ge
Ġbeg ot
Ġma le
Ġim mediate
ĠMar ch
Ġlong est
Ġrep lied
Ġrep etition
Ġrep ossess
Ġaf oot
Ġcons pir
Ġcons umed
Ġcons idered
ĠJ er
ĠJ un
ĠJ OHN
ĠJ esu
Ġpe rem
Ġle vy
Ġent rails
Ġlie utenant
che lor
Ġres ort
Ġres cue
Ġtri ed
Ġfoll ies
Ġpri vy
Ġelse where
Ġco z
Ġco al
Ġco als
Ġcha p
ason able
ail ing
Ġpeace ful
Ġback ward
Ġcount ed
Ġhigh way
Ġneed le
Ġneed less
St anley
Ġhusband s
Ġbra ved
Ġban quet
Ġlady ship
Ġmind ed
Ġbri be
Ġconf er
Ġconf ines
Ġconf usion
Ġgl ories
Ġcause d
Ġimp art
Ġimp ud
Ġimp atience
Ġimp ression
Ġimp atient
Ġimp ediment
Ġlight ly
Ġlight ness
Ġbod es
Ġmist aking
Ġnat ures
Cl audio
Ġbes eem
Ġpardon s
Ġhapp ier
Ġmis eries
Ġdev ice
Ġkill ed
Ġfar m
Ġunder ne
Ġunder go
Ġthousand s
Ġfollow ing
Ġsun shine
An y
Ġbus h
Ġstre et
Ġstre am
Ġturn ed
Ġcomfort able
Ġsleep s
Ġsleep y
itor ies
Ġbo x
Ġbo on
Ġbo at
Ġwel comes
Ġthank ful
Ġfight s
Ġfight ing
hold s
Ġfalse ly
Ġprison ers
Ġass ault
Ġadv ocate
Ġmerc iful
Ġmatter s
Ġdan gers
Ġdream t
Ġdisc harged
ener ate
Ġcommand ing
Ġfoul er
Ġdare d
Ġsec rets
Tw ill
Tw ice
Tw enty
Ġsister hood
vers y
Ġmer rim
Ġaw ry
Ġden ial
Ġob ser
Ġsupp ort
Ġsupp ose
Ġsupp li
Ġbeat ing
mp h
mp et
Ġaff right
Ġrequ ires
Ġrequ ired
Ġwoe ful
Ġreturn ed
Ġtender ly
bl own
Ġcho p
Ġdeep er
Ġdeep ly
Ġfoot man
sh ining
Ġcold ly
az on
Ġnurse d
Ġsuff ice
Ġpluck s
xt on
Ġair y
Ġjo cund
May or
Ġfast ing
Can st
vo ke
vo ided
Ġsil ken
Ġinf ring
Ġinf irm
Ġiss ued
Ġstrong ly
Ġposs essed
Ġmin strel
Ġconfess ion
pare d
Ġprof an
Ġprof its
Ġcounsel s
Com mit
Ġdiv ided
Ġdiv ines
Ġdiv ision
Ġcar ries
Ġpost erity
Ġmock ing
Ġmock ery
now ledge
ĠN ature
Ġter rible
Ġwhi pt
Ġinc onstant
Ġrec over
Ġharm less
Ġresol ute
ĠHe ctor
Ġact or
Ġag reed
Ġbreat hes
Ġdish on
Ġtrib une
Ġtrib ute
Ġdraw s
Ġdist ing
Ġdist urb
Ġdist ressed
Ġstir s
Ġstir ring
Ġclose ly
Ġsuffer ance
Ġwonder ful
Ġdeliver ance
Ġta x
Ġwis est
Ġsk ulls
Ġsign s
Ġforg iveness
Ġreg iment
Ġcheer fully
ns ion
Ġbless ings
Ġpoison ous
she pherd
Ġdire ful
Ġsucc or
Ġble eds
Ġinter change
Ġemb ass
Ġmal ign
Ġcoward ice
Ġhur ried
Ġvisit ation
Ġlim its
Ġopp osed
Ġscorn s
Ġwitness es
sc ap
Ġbro ad
Ġcreat ed
Ġcreat ures
Ġknock s
Ġchamber lain
Ġid ly
Ġcap arison
Ġhide ous
Ġbeast ly
Ġreb el
Ġreb uke
Ġscar let
ĠChrist opher
Ġfill s
Ġins ulting
Ġstru mpet
Ġpu ppet
Ġinj urious
Ġinj uries
Ġinno cence
Ġfam ish
Ġgovern or
Su b
Ġfe at
Ġdrunk ard
Me asure
Pr oud
Ġsch olar
Ġmut iny
Ġlust ful
Ġthreat s
Ġind iffe
Ġind irect
Ġsole ly
Ġgrand father
Ġsaf er
Ġpurs ued
Ġsentence d
Bel ike
En ough
Hear t
Ġmount ing
Ġcapt ive
ĠAnt onio
gra cious
pir ing
Ġfart hest
Ġthro ats
Ġgent ler
Ġdeg rees
Ġdemand s
Ġplant s
Ġremed ies
Ġcontr ad
Ġunderstand ing
Ġcounter po
Ġtriumph s
whe lm
Ġmour ning
Ġba ld
Ġba chelor
Ġfaint ly
Ġdwell s
Ġhung er
Ġga it
Ġga ol
Ġga pe
Ġga oler
Ġadm ir
Ġadm itted
Ġchast ity
Ġchast isement
Ġextrem est
Ġscarce ly
te red
Ġfirm ly
Ġhol id
Ġincl ination
Ġrel ig
Ġneighb ours
Ġunb orn
Ġimag ination
Ġboot less
Ġcondition s
Ġschool master
Ġfruit ful
Ġfeed ing
Ġstoop ing
Ġunl awful
ĠAl as
there fore
Ġimport une
Ġprophe cy
Ġleng then
act ors
Ġknight ly
Ġknight hood
Ġshr ink
Ġround ly
Ġfright ed
Ġassist ance
Ġdelight s
Ġutter ance
par ation
port ion
Ġcre ate
Ġcal umny
Ġstar ve
Ġdec ay
Ġshri ek
Ġamb ition
Ġjealous ies
Ġrasc als
Ġtreacher y
Ġer ror
Ġwond ers
Ġloud er
Ġport s
Ġphysic ian
Ġweight y
Ġreward s
Ġsup reme
Rep ent
Sha me
do ing
Ġwol ves
Ġbas eness
Ġbud ge
Ġdi adem
Ġbew are
ARCH BISHOP
ĠCal ais
Ġpronounce d
ĠFl ore
ĠFl oriz
Ġtremb les
Ġcrack ing
Ġpenit ence
Ġconquer or
Ġpublic ly
Ar m
Ar ise
Ġmag ic
Ġfro zen
Ġhaz el
ĠEl izab
ĠST ANLEY
Ġadver tised
Ġapprehe nsion
Ġwitch craft
Ġbraw l
Ġbraw ling
Ġgrey h
Ġcholer ic
Cons ider
gl ass
Ġmill ions
reg ory
Ġthorn s
Ġbef al
Ġbef its
Ġmere ly
Ġnobl er
Ġarg os
Ġworthi ly
Ġperj ury
Ġwhore son
Ġsy ll
Ġwing ed
Ġfun ction
Ġhor ror
Ġfors ake
Ġevent s
Ġdeb ase
Ġspl it
Ġclim b
ĠDe ath
Ġrestra int
Ġaffli ct
ĠAnti ates
Ġcircumst ances
Kn ock
Se ize
Sm all
mong st
Ġtim eless
Ġwid ows
Ġnap kin
Ġsuper fl
Ġvill any
Ġvol ume
Ġdisple asure
Ġdisgu ised
Ġscold ing
Ġcounc il
Ġcounc ils
Ġcurt ain
Among st
Betw een
Betw ixt
Jo in
UR REY
Ġbag gage
Ġhom age
Ġhig her
Ġped lar
Ġpaint ing
Ġhaught y
ĠGree ce
Ġunfe igned
Ġappea red
Ġconsort ed
Ġbank rupt
Ġdrag on
Ca ius
Ever more
Eng land
Ġsau cy
Ġcent re
Ġsoci ety
Ġanch or
ĠEm ilia
Ġshel ter
ĠSc otland
ĠWelsh men
Ġimper ial
Ġlect ure
Ġrestore d
Ġsmil ing
Ġinfer ior
Ġdivor ce
Ġtroubl ous
Ġexped ition
Ġinsol ence
Disp atch
Ġconclud ed
Ġtransport ed
Ġtestim ony
Ġreckon ing
Touch ing
post erous
Ġcord ial
Ġpest ilence
Ġpup il
ompl ish
Ġvul gar
Ġamaz ement
Ġcanop y
Ġpock et
Ġranc our
Ġdiso bed
Ġplebe ians
Ġnighting ale
Ġwhist le
Ġharl ot
Ġmerri ly
Ġterr itories
Ġpuiss ant
Ġmedic ine
BON A
EMI LIA
Grand am
Har p
NATH ANIEL
iqu ity
Ġton ight
Ġachie ved
Ġsine w
Ġwester n
Ġfem ale
Ġcuck old
Ġlung s
Ġobt ain
Ġnotwith standing
Ġelo qu
Ġsolic it
estiv al
Ġvine yard
ĠBraken bury
ĠHerc ules
ĠPatri cian
ĠPhaeth on
ĠPhoeb us
Ġpreced ent
Ġprerog ative
ĠFran cis
Ġperem ptory
Ġunderne ath
Ġmerrim ent
Ġindiffe rent
ĠFloriz el
ĠElizab eth
' !
' --
A ufidius
A LIS
B L
B ad
B ore
B reat
B ack
B ase
B ohemia
B eshrew
C he
C ut
C hi
C are
C IS
C rown
C itizen
C harge
D ou
D ro
D ie
E le
E AR
F ar
F ri
F ly
F ell
F ine
F ound
F RAN
F ool
F riar
F ellow
G l
G u
G old
G loucester
G rumio
G irl
G iven
H ard
H ost
H ap
H oly
H OMAS
I ll
J ul
J esu
K atharina
L ess
L ast
L end
L ittle
L ives
M ount
M ere
M asters
M ercy
N ear
N ight
N ine
O pp
O xford
P e
P it
P erc
P ale
R ed
R est
R ef
S en
S ent
S ad
S el
S orrow
S to
S land
S eal
S leep
S ouls
T hi
T ong
T ime
T ran
T akes
T rem
U NT
W ent
Y onder
a it
a us
a fe
a led
a cious
a gainst
a voided
b re
b ro
b all
b ook
b red
b ham
b hors
b usiness
c our
c as
c ould
c orn
c ause
c hard
c ertain
c ats
c ued
c ustom
c ontent
c ency
c reature
d an
d ent
d id
d ur
d ro
d ish
d ict
d oubt
d eliver
e ch
e very
e ress
e ases
f es
f an
f ty
f ix
f ellows
g om
g her
g one
g ress
g led
g ging
g overn
h ill
h ra
h onest
i as
i ge
i od
i ber
i able
i ction
i by
j ourn
k y
l ay
l ord
l ous
l ant
l ive
l ves
l orn
l ings
l ady
m in
m ast
m ak
m atter
m ary
m ony
m arried
n ant
n one
n eed
o z
o ison
o ft
o ever
p he
p se
p ore
p ake
p ter
p ho
p art
p ence
p ire
p ress
p osition
p icious
p rison
p iece
p ril
p oses
r is
r ings
s l
s ir
s il
s ong
s ist
s orrow
s by
s ia
s po
s chool
t oo
t ree
t rue
t rick
t sey
u gh
u ity
u bs
u gg
v ill
v ion
v ity
v ice
v iol
w r
w ind
w ish
w orn
w een
w idow
w ench
w arn
w ords
w orth
y ally
y mph
z water
Ġ &
Ġ Ġ
Ġ Not
Ġ These
Ġt il
Ġt um
Ġt ire
Ġt atter
Ġt ides
Ġt unes
Ġt ales
Ġt eeming
Ġt umbling
he nce
Ġa u
Ġa ust
Ġa ery
Ġa ches
Ġs ly
Ġs urn
Ġs ongs
Ġm ot
Ġm ow
Ġm ing
Ġm art
Ġm um
Ġm ap
Ġm ass
Ġm ute
in c
in et
in ance
in ite
in ty
Ġw ra
Ġw are
Ġw aken
Ġw aning
Ġw enches
Ġw alks
re ef
re ement
ha st
ha pp
nd ers
Ġb ust
Ġb one
Ġb au
Ġb ind
Ġb ate
Ġb ide
Ġb ier
Ġb ale
Ġb ash
Ġb ills
is c
is le
Ġf en
Ġf ed
Ġf ut
Ġf ate
Ġf ence
Ġf ile
Ġf ester
Ġf itted
Ġf ees
Ġf itting
Ġf owl
Ġf ickle
Ġf estival
er man
er ia
er whelm
it ter
it che
on er
Ġd art
Ġd un
Ġd aint
Ġd astard
Ġd aring
Ġd uteous
Ġd ainty
Ġc y
Ġc ot
Ġc ed
Ġc as
Ġc ard
Ġc ele
en nel
Ġl ain
Ġl ame
Ġl ass
Ġl aughter
Ġl az
Ġl echer
Ġn a
Ġn earer
Ġn erves
Ġn iece
Ġn uns
Ġn earest
Ġn ymph
Ġn inet
Ġy ew
Ġy ellow
Ġth ra
Ġth res
Ġth rew
Ġth reef
ar r
ar se
ar th
ar ling
Ġh i
Ġh ook
Ġh int
Ġh ounds
Ġh ills
Ġo x
Ġo st
Ġo ce
Ġto ss
Ġp he
Ġp ir
Ġp ith
Ġp oo
Ġp ul
Ġp ull
Ġp ark
Ġp ens
Ġp ip
Ġp otion
Ġp ines
Ġp als
Ġp iled
ĠI rish
Ġhe n
Ġhe w
Ġhe dge
ot ing
ot ed
st it
st ood
st ool
st rue
st aring
ow ing
ow ed
an ge
an ous
an other
an ks
an swer
om ing
Ġg le
Ġg ay
Ġg ir
Ġg ilt
Ġg iv
Ġg ild
Ġg orge
Ġg inger
Ġg love
at in
at han
at tle
at ory
at iate
Ġbe ho
Ġbe com
se a
ce l
Ġin habit
Ġha b
Ġha ven
le x
le ct
le hill
ay er
ld ren
ir y
ed y
ut o
ut us
ut ches
im ple
Ġnot orious
ch o
ch ment
Ġfor n
Ġfor ms
Ġfor lorn
ke ep
Ġwe b
oo ing
Ġe g
Ġe l
Ġe w
Ġe mp
Ġe gg
her tsey
ri an
ri be
ri ends
Ġst y
Ġst am
Ġst art
Ġst all
Ġst age
Ġst ew
Ġst ray
Ġst ates
Ġst eter
Ġst arts
Ġst rat
Ġk ern
Ġk ennel
as hy
as ci
as ite
Ġre vers
Ġre lish
Ġre lease
Ġre vell
ly ing
ly sses
ra in
ra ign
ra cted
Ġli ars
ur ity
ur ther
ur ps
ur bs
ur rent
ur ope
al f
al o
al ance
al ty
Ġso ar
Ġso ber
Ġso lace
Ġas semb
Ġas cend
Ġas piring
Ġde at
ro sby
hi lip
ood y
ain ed
ver ns
Ġsha med
Ġdo l
Ġdo it
Ġdo ings
us c
us ale
us ual
us sia
if ter
if ies
ge on
ge al
Ġse x
Ġse vent
Ġse par
Th ither
Th rong
Ġall ay
Ġsu es
Ġsu lp
To ld
To gether
th ings
th ren
th rif
Ġher ds
ru ng
ru ised
ter nal
ard ed
Ġan t
Ġan gu
han ce
han ging
Ġsp ar
Ġsp ell
Ġsp ear
Ġsp urn
Ġsp ace
Ġsp aring
Ġfa ils
Ġfa bric
ĠC y
ĠC ot
ĠC om
ĠC ast
ĠC all
ĠC hertsey
ĠC rosby
Ġkn ell
ĠR ag
ĠR oss
ĠR ussia
ast ed
ast ian
Ġv est
Ġv io
Ġv ap
Ġv ices
Ġwhat e
ight on
Ġsh ine
Ġsh outs
ul ation
Ġup per
qu a
qu in
qu is
qu er
qu al
qu ess
qu aint
qu iet
Ġgood man
ust ers
Ġpr y
Ġat one
Ġman ly
Ġman kind
Ġman acles
Ġman gled
ĠM ab
Ġam ity
Ġam ended
Ġwhe res
Ġwhe els
ĠE urope
end om
Ġcon ver
Ġcon vers
Ġcon vent
Ġcon stable
ic ing
ic an
ic ide
ic ester
ble d
Ġbl ots
Ġbl asp
For get
are th
em inate
ĠG uild
ĠG regory
od s
od ity
Ġshe ets
au gh
Ġwas p
ol n
Ġhat ches
ĠL ay
ĠL ud
ĠL atin
ers ha
ers hire
Ġknow est
Ġsay est
pp er
Ġsw im
Ġsw ine
Ġsw ifter
Ġbr ine
Ġbr ittle
Ġor chard
all ows
ĠS ay
ĠS ome
ĠS ix
ĠS how
ĠS eb
ĠS URREY
ĠS ALIS
Ġus ing
Ġus age
ĠO f
ĠO r
ĠO nce
ĠO verdone
ĠB ER
ĠB el
ĠB oy
ĠB ret
ĠB rist
ĠB rand
ĠB ishop
Ġgo est
Ġun ity
Ġun man
Ġun aw
Ġun lo
Ġun sc
Ġun acc
Ġun ivers
Ġun avoided
Ġun usual
Ġun thrif
ig ation
ĠH ad
ĠH as
ĠH allow
hy me
el pho
Ġqu est
Whe nce
Ġj ar
Ġj ump
ak s
ci ble
ci pl
Ġpro ver
Ġpro ff
Ġpro duce
Ġsa ils
ĠP ut
ĠP il
ĠP riam
ĠP hilip
um n
Ġmad ly
Ġpl ent
ĠW ith
ĠW ife
Ġen com
Ġen roll
Ġen join
Ġen franch
un ch
Ġr ood
Ġr ings
Ġr ates
Ġout st
pt ed
pt ure
Ġhow l
ĠA E
ĠA g
ĠA t
ĠA fri
ĠA riel
ĠA bhors
ĠA pril
Ġtru dge
Ġhand le
Ġsome bod
Ġmar quess
ĠY es
Ġdis like
Ġdis hes
Ġdis posed
Ġdis eases
Ġdis cipl
In f
ack et
Ġhear th
oy al
Ġab ility
Ġab uses
Ġfo aming
Ġday light
Ġro ad
Ġro pe
Ġro gues
Ġro yally
Ġex ha
Ġex ternal
Ġtell us
ag ate
age ms
Ġri p
Ġri bb
Ġart icles
Ġart icle
Ġwar y
Ġwar ning
Ġfl our
Ġfl ag
Ġfl inty
Ġsl ide
Ġsl anders
ĠT HOMAS
Ġfear less
ff ic
ough by
Be g
Be hind
ber y
ber ing
igh s
ap able
Ġbre thren
Ġgreat ly
iz ard
Ġfair ies
Ġpart ake
Ġpart ial
Ġad ul
Ġad orn
Ġad ult
Ġad der
Ġcall ing
Ġpre p
Ġpre gn
Ġpre paration
Ġcomm it
Ġcomm odity
Your self
Ġcl os
Ġcl othe
ass ad
Ġper used
Ġper iod
ĠD ion
ĠD elpho
li ction
li vion
Ġnight ly
to ck
Ġpres um
Ġpres ses
Ġpres cri
Ġsc ra
Ġsc are
Ġsc ars
Ġsc outs
per y
per or
per ation
Ġmo ans
Ġmo lehill
Ġke en
Ġra w
Ġra rest
Ġra ze
Ġra bble
Ġrem ote
ab b
ĠF ifth
Ġcont em
sw orn
Ġbeg ging
ĠMar k
for ward
me ant
Ġlong s
Ġlong ing
Ġrep aid
Ġrep roof
Ġrep rieve
Ġlive ly
Ġmight ily
Ġru b
Ġru mour
Ġcons ume
Ġcons erves
ĠJ ud
ĠJ ule
atch ing
Ġfriends hip
Ġcour ses
Ġpe ck
Ġpe asant
Ġcrown ed
Ġle vied
Ġhar ms
Ġhar der
Ġrest eth
Ġent ire
atter y
Ġtong ueless
Ġres erved
Ġres idence
Ġkeep ing
Ġsle nder
ont ague
ious ly
ud dy
Ġhour ly
Ġacc omplish
Ġpur ged
Ġpur ses
Ġpur poses
Ġend ow
Ġend ea
ield y
Ġcomp ell
Ġcomp osition
Ġpri cks
ret ion
Pro sper
Ġco ats
Ġcha in
Ġcha ff
Ġcha ins
Ġcha fed
ect ed
Ġsm iled
Ġsm elt
ert ainty
Ġsub orn
Ġsub sc
Ġsub mission
Ġsub urbs
Ġhus h
Ġtra ged
Ġtra gic
Ġtra ffic
Ġneed y
St ir
tw o
vere nt
Ġbra gg
Ġbra zen
Ġseem eth
Ġright ly
ach ing
Ġche st
Ġche ers
be ha
be red
Ġchar ms
Ġchar ters
Ġchar itable
Ġconf ined
Ġtre ble
Ġchan ges
Ġgl ister
Ġshow ers
Ġhands ome
Ġimp ose
Ġpass es
Ġdou b
Ġfort night
Ġfort unate
Ġbring ing
Ġmist ook
Ġthr ong
Cl ifford
Ġbes iege
ĠAn swer
Ġplease th
ens ion
Ġjust ly
Ġjust ify
Ġplace d
Ġwrong fully
Ġch oo
Ġch id
Ġch ides
Ġch ron
Ġless on
Ġhelp ing
Ġunder t
Un b
Un w
Ġsun s
An gelo
Ġbus ied
Ġfool ing
iv ity
Ġi bat
Ġwoman ish
ject s
ove red
Ġstri p
Ġstri de
Ġstri pes
Ġturn ing
Ġhum ane
Ġover heard
Ġover throw
Ġcomfort s
Ġtalk ed
Ġbel ongs
Ġbu ilt
Ġbu rial
Ġwel com
Ġwel kin
Ġatt ent
Ġatt ach
Ġplay s
Ġinst ance
Ġinst ead
pl ain
Ġcur s
Ġcur bs
Ġgi ant
Ġreason able
Ġcountry man
Ġwish ing
Ġdan ces
Ġsend ing
Al one
Would st
Ġstra in
Ġdisc red
Ġdisc ords
Ġdisc reet
Ġdisc overy
Ġdisc retion
Ġdoubt ed
Ġbreath s
Ġcommand ment
Ġsen is
Ġwind ing
Ġswear ing
Ġcra b
Ġdep th
com b
com fort
Ġtend ing
Ġgre ets
Ġget ting
Ġint ends
Ġint ended
Ġint erest
Ġkiss ing
Ġaw e
Ġaw ful
Ġob st
Ġob dur
Ġob livion
Ġsupp le
Ġspo ils
Ġbreak ing
Her mione
Ġlam p
Ġtem perate
Ġmet e
Ġrequ ite
Ġrequ ital
ac re
ac key
Ġsoon est
Ġdeser ts
Ġreturn s
so e
Ġthrough ly
bl ind
Ġcho ke
Ġmarry ing
Ġfoot ing
ĠJul ius
sh ow
Ġcold er
Ġwarrant s
Ġstrange ly
Ġask ed
ĠMont gom
Ġpluck ed
Wh oop
Ġentreat ed
ixt ure
Ġord inance
Ġbat s
Ġdisp ro
vo c
vo cate
Ġpast ime
Ġvis or
Ġquick en
Ġinf ancy
Ġinf amy
Ġinf lu
Ġinf inite
Ġiss ues
Ġdesire d
Ġhard y
Sp oke
Ġfore st
Ġfore father
Ġfore run
Ġfore tell
Ġwear ing
Ġdeli very
Ġquar re
Bec ome
Ġwoo ers
Ġprof ound
Ġexec ut
Ġstreng then
cess ion
Ġdiv ide
Ġcar rion
Ġpar ag
Ġpar adise
Ġpar lous
Ġpar asite
Ġpost s
Ġpost erns
Ġspeed ily
ĠThe ir
Ġwhi pped
Ġinc ur
Ġinc apable
Ġrec ount
ĠHe lp
Ġtit les
Ġact ing
Ġopen ing
Ġshort en
Ġseek ing
Ġmurder ing
See king
chan ging
Ġve he
Ġag ony
Ġag reement
Ġwast ed
Ġbit es
Ġbit ing
Ġpra ised
Ġsto le
Ġwatch ful
Ġdr inks
Ġdist emper
Ġstir ru
Ġcloud ed
LORD S
ĠTh ink
Ġgar lic
Ġenter pr
vour y
Ġta pe
Ġsick ly
Ġwis hes
Ġfit ter
Ġem ulation
Ġconsul s
Ġchange ling
po or
Ġsk in
Ġsign ories
Ġfour th
Ġreg ion
Ġreg reet
Ġcheer ful
Ġorder ing
Ġorder ly
hem atic
Ġdu g
Ġdu cats
Ġgro ve
Ġliber ties
Ġmove ables
she athe
Ġfrown ing
Ġdro pp
Ġcr ad
Ġcr imes
Ġcr utch
Ġsoft en
Ġbegg ary
Re vol
bb ot
bb ed
bb orn
ĠFor rest
Ġbar b
Ġbar r
Ġbar gain
Ġfeast ing
Ġdark en
Ġdark ly
Ġev ident
Ġexp ost
Ġconsent ed
Ġrespect s
Ġbrief ly
Ġble ed
Ġgot ten
Ġinter cept
Ġinter cession
Ġsum mon
ĠCh urch
Ġvict orious
Ġmal icious
Ġspeech less
Ġworship ful
Ġvisit ing
Ġbawd y
Ġfres her
Ġfres hest
Ġlim b
Ġpen ury
Ġpen ny
ĠPl ace
ĠPl ayer
ĠPl ashy
Ġlead er
Ġlament ations
sc ore
Ġbro ils
Ġca us
Ġca pe
Ġcle ft
Ġcreat ion
Ġeat ing
Ġviol ate
Ġcompl ices
Ġpatient ly
Ġcap ital
Ġlack s
Ġpain ful
Ġbec ame
Ġappro aches
Stand ing
ĠChrist endom
Con f
Pl ain
Pl uck
him self
Ġsur ly
Ġsur vey
arl isle
Ġshad es
Ġtor ches
Ġtor ments
Ġap othecary
Ġsho ck
Ġwild ly
Ġbirth s
Ġcertain ly
Ġinj ured
Ġinno cency
Ġur ging
Think ing
ĠSt and
ĠSt aff
Ġpleas ures
Mar iner
Ġmed itation
set tled
Ġdoom s
Ġunc ertain
ighb ours
ĠEnglish man
Ġdrown ing
Ġlan e
Ġfavour able
ĠMerc ury
Ġshepherd s
Ġcontin u
Ġcontin ued
Ġtemp or
Me aning
Ġauthor ities
ang led
Ġeffect s
Ġstud ies
Ġstud ied
Ġref uge
ĠPr ithee
Ġdesperate ly
Ġadd ed
Ġpurs ues
Ġdouble t
En force
En vir
mon strous
Ġfru its
stant ial
Ġeld ers
Ġsever ity
Ġenjoy s
Ġwretched ness
Br ought
ey e
ey ed
Ġbastard y
Ġcorn ers
Ġhel ms
Ġgent ry
Ġdeg enerate
Ġbutcher s
Ġunf it
Ġcounter mand
Ġbeggar ly
Lo ved
Ġba it
Ġdwell ing
ĠWill oughby
Ġgreet ings
Ġprivate ly
Ġrel ation
Ġrel ieve
Ġdeal ing
Ġspe eches
Ġarri val
Ġsmo king
Bl ind
Des p
Ex cept
con stable
Ġed ict
Ġver ge
Ġver ity
Ġstab bed
Ġshore s
Ġproof s
Ġprophe cies
Ġembrace ments
Ġinnocent s
Ġleng thens
Ad ieu
Ad vance
Ġes cap
rehe nd
Ġdri ven
Ġele ction
Ġele ments
Ġnecess ary
Ġnecess ities
Ġsail ors
Ġprevail s
Res cue
ĠWhere fore
Ġcal f
Ġdec ree
Ġdec rees
Ġamb ush
Ġamb assad
Ġplot ted
Ġoffend ers
Ġheav iness
Ġheav ily
Show ing
Ġprofess ion
Ġexpress ly
app are
pr oud
Ġband y
Ġbond age
Ġdet ested
Ġport ion
Ġphysic ians
Ġvan qu
Ġvan ish
Ġhop ed
Ġhop eless
Ġdiss olve
Ġaffect ed
Ġaccus ations
Ġpunish ment
Rep air
Ġbas il
Ġfee ble
Ġfashi ons
Ġdi vers
Ġbew ray
Ġcomple te
ĠPro ceed
Ġadvance ment
Ġpersu aded
Ġpetition s
Ġsolemn ity
Bear ing
Heaven s
Set ting
ex ec
Ġmor sel
Ġmat hematic
Ġhost ess
Ġgru b
Ġgru mb
Ġshun n
Ġblock s
Ġqual ity
Ġqual ities
Ġqual ify
Ġens ue
Ġalter ation
Ġmaiden head
Ġvex ation
bra in
sha lt
sha pen
ita e
Ġdig est
Ġthorn y
Ġspr ites
ĠCo bham
Ġcomb at
Ġarg ument
Ġarg uments
Ġworthi er
Ġworthi est
Ġjew els
ĠAd am
ĠAd ieu
Ġdisper se
Soft ly
Ġclam orous
Ġresist ed
Ġdirect ly
Acc ursed
new s
Ġsy mp
Ġsal ute
hand s
Ġfi ends
Ġdim m
Ġcere mony
Ġlin en
Ġhor rible
Ġpi kes
Ġfors ook
Ġreck less
Ġspect acle
Ġung entle
Ġunjust ly
Ġenforce ment
Ġflood s
Ġrestra in
Ġaffli ction
Ġjoint ure
Ġreconci led
Ġhelm ets
Ġcomplex ions
Cond emn
Im agine
Kn ows
Ri ch
Ri chmond
Sm ile
bod ing
rat itude
wear y
Ġtim orous
Ġtro d
oubt ed
Ġmir ror
Ġmess age
inct ly
Ġbuck le
Ġdiffe ren
Ġline al
Ġstumble d
Ġrece ives
Ġrece ipt
Ġsham eless
ĠVal ent
ĠVal eria
Ġdisple ased
Ġdisgu ise
Ġrobb ers
Ġcoff in
Ġcoff ers
Ġgrat is
Ġincen se
Ġacquaint ance
Aw aked
Dare st
Wit ness
Wit hal
call ed
pret ation
war rant
Ġtou cheth
Ġbon ny
Ġfr ont
Ġlur k
Ġlur king
Ġnet tle
Ġthirst y
Ġhom icide
Ġhig hest
Ġtoy s
Ġweal thy
Ġblast s
Ġeng ross
Ġbegu iled
Ġsubd ue
Ġsubd ued
Ġbeaut ies
Ġbeaut iful
Ġsacrif ice
Bra ve
Div ine
Persu ade
Persu ades
Wr ite
cont in
Ġtren ches
Ġsess ion
Ġmas qu
Ġfret ting
Ġpor ter
Ġgn aw
seem ing
Ġspot ted
Ġgoss ips
Ġune ven
Ġprodig y
Ġprodig al
Ġenc ourage
Ġdisin herit
Ġdisin herited
Ġabund ant
Ġabund ance
Ġcontro l
Ġcontro versy
Ġcounsell or
Ġbuzz ard
Ġattorney s
Ġobsequ ies
Ġdroop ing
Ġcrim inal
Ġembra ced
Ġdetest able
Ac quaint
Purs uivant
bes eeming
kn ock
tin ent
Ġach ieve
Ġbul k
Ġfif ty
Ġfil thy
Ġcro pp
Ġcand le
Ġpow der
Ġpict ure
att ling
Ġeff eminate
Ġstink ing
Ġresemb lance
Ġdece ased
Ġdeform ity
Ġdole ful
Ġann oy
Ġancest ors
Ġspark ling
ĠLove l
Ġusure r
Ġunpro vided
Ġplan et
ĠWest min
Ġrhe um
Ġdissemb ling
Ġrig our
Ġcler gy
Ġeverlast ing
Ġaccomp any
Ġchamp ion
Ġconfeder ate
Ġafterward s
Ġobsc ured
Happ ily
Ġsumm ers
Ġinsinu ate
Ġunluck ily
Ġmagist rate
Ġlinea ments
Ġsurpr ised
Ġfantast ical
Ġmoment ary
Ban ish
Den y
Dest roy
Er r
Qu ick
Ren owned
mind ed
pers on
somet imes
wit hal
ĠU lysses
Ġtur tle
Ġtink er
Ġtreat y
Ġack nowledge
Ġmant le
Ġfath om
Ġder ived
Ġdil igence
Ġdrows y
Ġyester night
Ġom inous
Ġgam ut
Ġbeet le
Ġinve terate
Ġinvent ion
Ġinherit ance
imo is
Ġstu bborn
ĠCle omenes
Ġkna very
Ġvig our
Ġvass al
Forth with
ĠLam mas
Ġcann ib
Ġorphan s
Ġunple asing
Ġworshi ps
ĠHa ppy
ĠAm azon
Ġdisl oyal
Ġexclaim s
ĠTur ks
Ġprec ise
ĠDor icles
Ġwrang ling
Ġscour ge
Ġchival ry
Ġappl ause
Ġappell ant
Ġimmediate ly
Ġconspir acy
ĠJer usale
ĠJun o
Ġsuppli ant
Ġinfring e
Ġinfirm ity
Ġminstrel s
Ġdisting uish
Ġmalign ant
scap ed
Ġargos y
Ġeloqu ence
BL UNT
Breat he
Chi ldren
EAR L
FRAN CIS
Gl ad
Host ess
Jul iet
Mere ly
Perc hance
Sen ators
Sto p
Tong ue
corn er
dan ger
ige ia
mak ers
oz ine
Ġtum ult
Ġsurn ame
Ġbust le
Ġbau ble
Ġbash ful
Ġfut ure
Ġlaz y
Ġninet een
Ġthreef old
Ġpoo rest
Ġgir ls
athan iel
Ġsteter at
Ġstrat agems
asci vious
Ġsepar ated
Ġsulp hur
Ġangu ish
ĠCast le
ĠRag ozine
ĠLud low
ĠSix th
ĠSeb astian
ĠSALIS BURY
ĠBrist ol
ĠBrand on
Ġunaw ares
Ġunacc ustom
ĠHallow mas
Ġproff er
ĠAbhors on
Ġsomebod y
Ġadult eress
Ġpregn ant
ĠDelpho s
Ġsubsc ribe
Ġobdur ate
ĠMontgom ery
Ġenterpr ise
ĠStaff ord
ĠWestmin ster
ĠJerusale m
' m
' ve
A im
A nt
A riel
A bbot
B en
B ea
B are
B een
B ianca
B oot
B ishop
B ushy
B rief
C o
C or
C ra
C han
C ARD
C ull
C ertain
C oun
C ambio
C uts
C aptain
D r
D re
D ay
D ra
D one
D ry
D ig
D el
D ull
D eep
D ash
D orset
D uring
E mb
E ns
E AS
E arth
F an
F our
F am
F ast
F are
F urther
G oo
G ro
G ave
G remio
G rim
G rief
H E
H im
H ea
H ist
H EY
H UMIO
H over
H onour
H onest
H alf
I ron
J oy
J ove
K A
K illing
L e
L im
L ist
L earn
L aid
L ament
L augh
L ascivious
M an
M ond
M eet
M erc
M atter
M ars
M aid
M ortal
M enenius
M ontague
N ew
N eed
N ature
P om
P le
P ri
P ra
P ur
P ast
P ity
P ass
P ret
P adua
P isa
P rick
P oison
Q uit
R a
R ec
R oy
R ise
R age
R IST
S k
S l
S n
S ed
S ith
S her
S ea
S aint
S ister
S pl
S ham
S orry
S ilence
S afe
S imois
T y
T or
T ear
T end
T ick
T ears
T aking
T read
T roth
T aste
T IT
T emper
T ribunes
U s
V is
V EL
V ince
V ile
V erona
W ear
W ind
W ish
W ise
W rong
W ords
W rench
W oes
Y ork
a h
a vish
a cheth
b u
b ot
b et
b ion
b out
b oth
b ound
b een
b ew
b ary
b ount
b ring
b rows
b awd
b ishop
c re
c ar
c ke
c row
c um
c old
c ass
c ham
c up
c over
c ures
c ote
d am
d ie
d el
d ges
d ying
d ares
e v
e ce
e ven
e ction
f it
f ear
f ast
f ive
f ond
f ig
f ire
f ace
f ied
f ool
f air
f inger
f alse
g ent
g ess
g ger
g ier
g ments
g entleman
g oose
g ression
h ou
h ot
h ome
h us
h ine
h um
h ings
h unt
h ours
h rew
h ouses
h orses
i i
i u
i ch
i pher
i ercing
j urious
k nown
k new
k fulness
l ent
l ore
l ies
l ars
m a
m or
m al
m ine
m ust
m end
m od
m other
m ple
m ark
m ock
m usic
m mer
m outh
m otion
m itted
m asters
m ises
m ercy
m aker
n z
n it
n ed
n ly
n ard
n ity
n urse
n able
n ounce
o a
o ll
o il
o ise
o gy
p it
p ill
p ur
p ate
p ound
p urse
p ower
p eace
p ile
p ersu
p ipe
r ot
r ine
r ound
r ise
r ont
r uth
r ates
r ons
s m
s ight
s ound
s pe
s ign
s uck
s sed
s pect
s aid
s uff
s ub
s hire
s ilence
s imple
t re
t ri
t est
t own
t age
t urn
t ide
t alk
t ail
t rust
t eeth
t ruly
u x
u ct
u el
u ft
u ities
u cing
u iced
v is
v ors
v irt
v ouch
v ict
v als
w or
w ore
w ood
w est
w all
w ag
w ilt
w alk
w onder
w arm
w ooing
x y
y e
y es
y ers
y ves
y ears
y outh
z es
z alo
Ġ :
Ġ ess
Ġ That
Ġ Upon
Ġ ounce
Ġt e
Ġt ar
Ġt esty
Ġt ush
Ġt ithe
Ġt ires
Ġt aming
Ġt ables
Ġt alks
Ġt abour
Ġt uft
he er
he ir
he th
he res
he ads
Ġa ut
Ġa us
Ġa che
Ġa pes
Ġa vail
Ġa qua
Ġa vouch
ou ched
ou rest
Ġs i
Ġs ce
Ġs out
Ġs ci
Ġs erving
Ġs ip
Ġs ainted
Ġs ize
Ġm am
Ġm oth
Ġm ol
Ġm ak
Ġm aw
Ġm alm
Ġm akest
Ġm usc
Ġm uddy
in it
in st
in ch
in ent
in est
in and
in ter
in ant
in ish
in ence
in to
in ary
in ning
Ġw ive
Ġw ool
Ġw ield
Ġw ip
Ġw aded
re b
re ck
re qu
re ction
re cy
re pared
ha ving
ha pen
Ġb out
Ġb ough
Ġb ower
Ġb aw
Ġb led
Ġb iss
Ġb its
Ġb ount
Ġb itt
Ġb ars
Ġb aked
Ġb orough
Ġb ias
Ġb unch
Ġb attery
is ans
is heth
or a
or o
or able
or ks
or ged
or cester
or por
Ġf ay
Ġf ust
Ġf el
Ġf ert
Ġf ade
Ġf itt
Ġf ours
Ġf ined
Ġf ume
Ġf urious
Ġf aded
Ġf ishes
Ġf idd
Ġf uel
er al
er th
er ry
er ick
er ness
er bear
er past
er ately
er ween
ll ed
it le
it ic
it ied
it ud
it ary
it ution
it tering
it zwater
on i
on esty
on zalo
Ġd om
Ġd ul
Ġd ive
Ġd au
Ġd all
Ġd ough
Ġd ates
Ġd irt
Ġd ial
Ġd aunt
Ġd ump
Ġd ally
Ġd iff
Ġd awn
Ġd omin
Ġd aff
Ġd arts
Ġd umps
Ġc u
Ġc od
Ġc el
Ġc oy
Ġc ull
Ġc able
Ġc itizen
Ġc akes
Ġc ured
Ġc uff
Ġc ats
Ġc ures
Ġc ities
Ġc rick
Ġc ater
Ġc ipher
es nes
en el
en ious
en counter
en ances
Ġl ure
Ġl ime
Ġl ag
Ġl ave
Ġl atter
Ġl ump
Ġl itter
Ġl ackey
Ġn im
Ġn ation
Ġn urs
Ġn uts
Ġy ard
Ġth igh
Ġth rows
Ġth imble
Ġth orough
ar ce
ar ri
ar bary
Ġh ound
Ġh ilt
Ġh ild
Ġh ides
Ġh oop
Ġh unts
Ġh ugg
Ġo ar
Ġo il
Ġto t
Ġto re
Ġto kens
Ġp s
Ġp ly
Ġp ea
Ġp out
Ġp ond
Ġp ence
Ġp ag
Ġp ile
Ġp ins
Ġp ars
Ġp onder
Ġp ump
Ġp ities
Ġp elting
Ġp hra
hat ing
ĠI mp
Ġhe st
Ġhe nt
Ġhe wn
Ġhe ated
Ġhe arers
ve x
ve ls
ot ent
ot che
ot ions
ot pan
st ill
st al
st ock
st ones
st range
an ied
an ched
om y
Ġg oo
Ġg as
Ġg ore
Ġg est
Ġg un
Ġg lo
Ġg ale
Ġg ird
Ġg ees
Ġg ames
Ġg azed
Ġg amb
Ġg illy
Ġg asp
Ġg hast
Ġg yves
at al
at isf
Ġbe ck
Ġbe am
Ġbe de
Ġbe ards
Ġbe headed
Ġbe mo
se ed
se ver
se ven
Ġmy r
ce ase
ce mber
Ġin her
Ġin ches
Ġin ex
Ġin forced
Ġin hum
Ġha l
Ġha y
Ġha ck
Ġha gg
Ġha unts
Ġha mmer
le m
le arn
ay nard
ld st
ld iers
ir and
et ry
ed iness
ed eem
ed lar
ut or
ut ish
ut iful
ut oly
im y
im er
im on
Ġme as
Ġme ek
ith met
Ġnot hings
ch ion
ch urch
ch bishop
Ġfor k
Ġfor ged
Ġfor ges
Ġfor fend
Ġfor feits
ke eping
Ġwe an
Ġwe alt
Ġwe eks
oo ch
Ġe aster
Ġe ats
Ġe pit
her s
her ds
Ġwith holds
ent ation
Ġit ch
ad d
ad ing
ad ies
ad ition
ad ders
ri d
ri end
ri ven
ri pp
ri de
ri ft
Ġst if
Ġst ake
Ġst ings
Ġst ee
Ġst uck
Ġst alk
Ġst air
Ġst ains
Ġst ony
Ġst aves
Ġst umbling
Ġst inted
Ġk itche
Ġhis s
EN T
as hing
as sed
as ury
id s
id ity
id eth
id els
Ġre he
Ġre el
Ġre ins
Ġre ek
Ġre new
Ġre voke
Ġre nounce
ly mp
ra m
ra ction
ra ined
ra med
Ġli ver
Ġli br
Ġli cence
ur l
al ian
al ms
Ġso l
Ġso ps
Ġso ever
Ġso othing
Ġso othe
Ġas ks
Ġas under
Ġas semble
Ġde em
Ġde ity
Ġde ign
ro b
ro ses
ro ying
hi c
hi ly
hi ps
ver ing
est or
est im
Ġsha l
Ġsha ped
ea f
Ġdo ers
Ġdo ff
Ġwill ow
am our
am ine
Ġno dd
Ġno isome
Ġno vice
and on
us an
us pect
us hed
if s
if icial
ge nders
Ġse ed
Ġse mb
Ġse ats
Ġse als
Ġse eds
Ġse lves
Th rew
Th omas
Ġall y
Ġall ied
Ġsu st
Ġsu ms
th ine
th read
ru nk
ter n
han kfulness
Ġlo gs
Ġlo sing
Ġlo lling
Ġlo gger
ell ist
ear ing
Ġsp ies
Ġsp ran
Ġsp ray
Ġsp its
Ġsp right
Ġsp awn
Ġsp acious
Ġsp rung
il ess
il ities
il iments
ĠC on
ĠC at
ĠC ret
ĠC ousin
ĠC op
ĠC arlisle
ĠC heer
rom ise
Ġne cks
Ġne phe
ho d
ho se
ho lesome
Ġkn ack
Ġkn ots
ĠR e
ĠR ather
ĠR edeem
Ġv all
Ġv ail
Ġv aunt
Ġv ouchsafe
Ġv ouches
Ġv itae
Ġsh y
Ġsh in
Ġsh ining
ant ing
ant ed
Ġup holds
art ing
qu es
qu ent
qu ire
qu estion
ath s
ath y
Ġpr one
Ġpr atest
Ġpr ank
Ġpr attle
Ġpr oro
Ġcom for
one ly
one ous
Ġman ors
Ġman sion
ĠM ake
ĠM ost
ĠM ort
ĠM ON
ĠM amill
ĠM EAS
ĠM irand
What ever
Ġam ple
Ġam ount
Ġam pl
ĠE re
ĠE thi
ĠE xton
ĠE cho
Ġcon n
Ġcon y
Ġcon st
Ġcon venient
Ġcon geal
ic i
ic s
ic ite
ie ving
Ġbl ench
Ġbl oss
Ġbl ushes
Ġbl ank
Ġbl anks
ven ged
For s
For ce
For sw
For ced
For tune
are st
em ents
em ns
em bra
em aker
em pore
em bered
ĠG lou
ĠG race
ĠG onzalo
od y
od es
od ils
Ġshe er
Ġshe et
Ġshe ath
au cas
out ham
He ld
He ir
He len
ol k
ol ate
ol ation
ol ution
ol erable
ol itan
ol ogy
ĠL y
ĠL end
ĠL uke
ĠL iby
LO VEL
Ġthere on
Ġthere withal
Ġcan on
Ġcan cell
ep hen
fe w
fe red
ond am
ond rous
res olved
res seth
ate ful
Ġhere of
Ġhere tic
pp ers
Ġlove th
Ġlove lier
Ġsw an
Ġsw arm
Ġsw ept
Ġbr ood
Ġbr ats
Ġbr utish
Ġbr ooch
Ġor b
Ġor ison
Ġor ators
Ġor ange
Ġor atory
all ible
ĠS h
ĠS m
ĠS on
ĠS end
ĠS ure
ĠS ince
ĠS uff
ĠS cr
ĠS igeia
ĠS usan
ĠS outham
Ġus est
Ġus ual
Ġus urps
ĠO lymp
ĠB est
ĠB arbary
ĠB aynard
Ġar r
Ġar gues
Ġar rog
Ġar raign
Ġlet har
Ġlet ting
Ġun able
Ġun hall
Ġun fort
Ġun po
Ġun king
Ġun par
Ġun speak
Ġun advised
Ġun people
Ġun gracious
Ġun happ
Ġun quiet
Ġun settled
ig s
ig en
ig ate
ig ree
ĠH oo
ĠH ence
ĠH ouse
ĠH ung
ĠH ang
ĠH ugh
ĠH acket
ĠH oll
ink le
ort s
ort ive
ort une
ort ham
ĠV INC
ĠV arri
el ier
As k
As cend
As sist
ish ment
ish men
Ġqu aff
Ġqu ondam
KE LEY
Ġj ay
Ġj ars
Ġj aunt
Ġj ades
reat ion
ound ing
Ġgra ver
Ġgra ved
Ġgra ins
Ġgra vity
Ġho ard
Ġpro ves
Ġpro li
Ġpro pose
Ġpro bation
Ġpro long
Ġpro gress
Ġsa ves
Ġsa vours
ĠP eace
ĠP otpan
um m
um ing
um bly
um mon
Ġmad men
Ġpl ight
Ġpl ough
Ġpl ots
Ġpl agues
AU GH
pe er
pe ed
ĠW ood
ĠW hich
ĠW ere
ĠW orcester
ist s
ist ed
ence d
man y
Ġen cl
Ġen coun
Ġen vir
Ġen genders
un ction
un cle
Ġpo ets
Ġpo etry
de ed
de cess
de ceiving
Ġr ou
Ġr ar
Ġr at
Ġr ite
Ġr ounds
Ġr ayed
Ġr hyme
Ġout side
pt on
Ġhow ling
Ġfri vol
ĠA re
ĠA rt
ĠA bra
ĠA utoly
Ġhand led
ign ation
Ġwho ever
ire r
Ġmar ches
ĠY e
ĠY orks
har m
har p
Ġdis ea
Ġdis pose
Ġdis fig
In st
In ter
In cl
In jurious
In quire
We ep
We igh
We eping
wn ess
Ġhea ved
Ġhea ps
Ġhear ken
Ġhear kens
ec ess
Of t
Ġblood s
Ġab ound
Ġab ides
Ġab omin
Ġab andon
Ġab ortive
Ġfo em
Ġfo ison
Ġear ls
Ġro e
Ġro be
Ġro ots
Ġro ared
Ġex iled
Ġex amp
Ġex cels
eet ing
ag ion
ag ab
ag ued
age ment
Ġwhere upon
Ġey ed
ave l
Ġdes ir
Ġdes erving
Ġdes iring
Ġdes peration
How e
Ġgentle women
Ġri ot
Ġri ce
Ġri ft
Ġri der
Ġri bs
Ġri cher
Ġri val
Ġlea ven
Ġart s
Ġart ificial
Ġwar p
Ġwar r
Ġfl ing
Ġfl ay
Ġfl out
Ġfl ap
Ġfl iers
Ġfl ung
Ġfl ayed
Where by
Ġsl ower
Ġsl umber
Ġsl ug
Ġsl avish
Ġhonour ably
urn ish
Ġbet ake
ĠT rust
ĠT iber
Ġtw in
Ġtw os
Ġtw igs
Ġhast ily
ber ate
ber ries
igh ing
ap h
ap ert
Ġbre eder
cc ess
ĠK ates
ĠK now
Ġmen ace
Ġcou ch
Ġcou ched
Who ever
aster y
Ġpart isans
ree ch
ple ase
ple asure
Ġad mon
Ġpre dom
Ġpre cept
Ġpre cip
Ġpre posterous
Ġpre nz
Ġpre decess
Ġcomm une
Ġstand ers
Ġstand ards
Ġcl out
Ġcl oth
Ġcl ime
Ġcl oy
Ġcl ip
Ġcl ang
Ġcl app
Ġcl utch
Ġcl ubs
Ġpray ing
Ġpray ed
Ġsweet en
Ġsweet ing
ouse d
Ġper ch
Ġper fid
Ġper chance
Ġper adventure
Ġper ceives
Ġper tinent
There in
There on
There of
ull ed
ĠD ear
ĠD oth
ĠD ost
ĠD own
ĠD ick
ĠD ukes
ĠD ighton
Ġhead long
li est
li cts
the st
Ġmean est
red erick
aint ies
Ġpres ag
Ġsc ale
Ġsc athe
Ġsc urvy
ger y
per ly
Ġmo ons
Ġra g
Ġra v
Ġra pt
Ġra ged
Ġra gs
Ġra ising
Ġra zed
Ġrem nant
ab l
ab s
ab y
ab lish
ab outs
ĠF erd
ĠF ollow
ĠF itzwater
Ġapp le
Ġapp each
Ġcont ain
Ġcont end
Ġcont ains
Ġcont racted
Ġcont agion
lo g
lo cks
sw oln
Ġgrace ful
Ġgrace less
Ġbeg n
Ġbeg s
Ġunt aught
Ġunt ainted
Ġunt hankfulness
ress ing
land ers
Ġma im
INA L
Ġeyes ight
ĠMar quis
Let ters
Ġlong ed
Ġchild hood
Ġrep len
Ġrep roach
Ġrep rehend
She d
Ġaf ire
Ġaf resh
Ġwom bs
wick ed
led ged
Ġru m
Ġru ng
Ġru ff
Ġru bs
Ġru bb
Ġcons ents
Ġcons pire
ĠJ ames
ĠJ ustice
Ġpe ep
Ġle ather
Ġle ash
Ġhar p
uck le
Ġbetter s
erc harged
Ġrest ing
Ġrest less
Ġent ers
Ġent ail
Ġset ter
Ġset ting
ors hip
che st
che ss
Ġwit ty
Ġwit less
rant s
Ġres p
Ġres pite
Ġres cued
Not ice
ier ced
Ġsle eve
Ġsle eves
ont ed
Ġgri pe
Ġtri v
Ġtri be
Ġtri dent
Ġbest ir
Ġbest rew
ud ing
ud ge
Ġfoll ower
Ġacc om
Ġacc ent
Ġacc id
Ġacc ents
Ġacc ustom
Ġpur g
Ġpur ity
Ġpur blind
Ġend less
Ġkind le
Ġkind est
Ġcomp et
Ġpri g
Ġtwo fold
Pro vo
Pro dig
Pro fess
Pro cure
Pro vided
Pro portion
Pro fan
cl oth
ft ly
Ġco g
Ġco x
Ġco in
Ġco il
Ġco ven
Ġco vet
Ġco cke
Ġcha os
Ġgu ide
Ġgu ile
Ġgu ides
Sir s
Ġsm ear
Ġsm ack
Ġsm ock
ert ainties
Ġsub s
Ġsub mit
Ġsub stantial
Ġdre gs
ray be
Ġtra ck
Ġtra ined
Ġtra vel
Ġfind ing
Ġcount s
Ġcount enances
Ġhigh ly
St abb
int ell
tw enty
Ġhusband ry
Ġbra ke
Ġbra ving
Ġseem ed
Ġright eous
Ġban ns
rer s
Ġche at
Ġche ques
be it
be at
be fore
be gu
be got
Ġchar ter
Ġlaw less
Ġlaw yers
ĠCitizen s
Ġbri ck
Ġbri ers
Ġbri dle
Ġconf ine
Ġconf ounds
Ġconf ident
Ġtre asures
Ġtre asury
Ġchan ts
Ġchan nel
Ġgl ance
Ġgl ittering
Ġshow ing
Ġimp ute
Ġimp osition
Ġimp reg
Ġimp lore
Ġpass ages
Ġpass ado
Ġlight n
Ġlight ed
Ġlight ens
Ġdou bly
All a
Ġmist a
Ġnat ivity
Ġevery thing
Do ing
Do gs
Ġlast s
Ġlast ly
Ġthr ongs
ĠMAR CIUS
Ġbes eeming
Ġbes hrew
Ġpardon ing
Ġhapp en
Ġmis led
Ġmis adventure
Ġmis doubt
ens ible
Ġdev out
Ġdev ised
Ġdev oted
Ġjust ices
Ġstate ly
Ġcare er
Ġcare fully
Ġkill s
Ġkill ing
Our selves
Ġfar mer
Ġch in
Ġch url
Ġless en
Ġless ons
Ġmeet s
Ġunder stood
Ġshame ful
Ġfollow ed
Un c
Un happy
Un fold
Un sheathe
day s
Ġpat rim
Ġpat ien
Ġsun set
Ġeye brows
An swer
An ointed
Ġfal ter
Ġfal chion
Ġfool ery
Ġhither ward
Ġanswer ing
Ġi vy
Ġstri ving
Ġstri kes
Ġstri fes
ild ly
Ġstre ams
Ġstre aks
Ġhum ours
Ġhum orous
Ġover ta
Ġover board
Ġbel ie
alt ies
Ġbo il
Ġbu g
Ġbu bble
Ġgr ateful
Ġinde x
Ġret ail
Ġprove th
Ġplay ers
Ġplay fellow
Ġsound ing
Ġdra in
Ġthank ings
Ġinst inct
Ġinst igation
hold er
Ġvo id
Sh ort
Ġeven ing
pect ing
pl ot
pl ay
pl us
pl ight
pl uck
Ġass ay
Ġass ign
Ġtruth s
Ġmerc iless
Ġwant ons
Ġcur b
Ġcur sing
Ġcur ds
Ġcur rish
Ġcur few
Ġreven ues
Al most
Ġstra ins
Ġstran gers
Ġdisc om
Ġdisc ours
Ġdisc ern
Ġdoubt less
At t
itt ance
Ġprom is
Ġprom ises
Ġprom otions
Ġbea ver
Ġhang men
Ġfree ze
Ġcra cks
Ġcra fts
Ġcra bbed
Ġdep ends
Ġdep osing
Ġsec urity
Ġsec recy
Ġproud ly
Tw elve
com pl
com mand
unt o
Ġgre ediness
POMP HEY
Ġserv itor
Ġmer its
Ġmer ited
Ġhorse man
Ġaw aking
Ġaw aken
Ġaw aked
Ġden ies
Ġden ier
Ġob serv
Ġsupp oses
Ġspo iled
Her self
Her ald
gu ed
Ġdru gs
Ġdru dge
Ġwin ning
rem acy
rem embered
ring ed
Ġaff able
Ġaff iance
Ġsin ful
Ġsin cer
Ġmet tle
Ġmet hod
Ġuncle an
Look s
Was h
ac ulate
Ġdef iance
Ġdef aced
Ġsure ty
Ġsad d
Ġsad dle
Ġmon astery
Ġgener ation
Ġgener ally
Ġpurpose d
Ġthrough out
bl ack
Ġcho ked
ict ment
mer cies
no ble
sh ot
ceed ing
az z
Ġpluck ing
Wh ite
Ġloss es
Ġjo lly
Ġcry stal
Ġentreat s
Ġord ain
Ġord ers
Ġord ered
Ġbold er
Ġfly ing
Ġfound ation
Ġnear ness
Ġfast s
Ġfast er
Ġdisp ute
Ġremember ing
Ġvis its
ĠLu cy
Ġtrust ed
Ġinstru cted
Ġinstru ctions
Ġtouch ing
Ġgrant s
Ġinf idels
Ġinf allible
ĠHast e
Ġrun n
Ġrun ning
Ġrun agate
Sp ur
Sp read
Ġfore most
Ġfore go
Ġfore warn
Ġwear isome
Ġdeli vers
Ġdeli berate
Ġquar ters
Bec ame
Ġwoo er
Ġfield s
Ġread iest
Com pare
Com inius
Ġfur longs
Ġfur thest
Ġcar ver
Ġcar ved
Ġcar ters
Ġcar riage
Ġcar bon
Ġcar cass
Ġpar le
Ġpar ks
Ġpar ley
Ġpar cels
Ġpar allel
Ġpar chment
Ġpost ure
Ġpost ern
Ġspeed s
Ġwork ing
Ġjud ged
Ġmock s
Ġmock ed
OP HER
ne ck
ne ither
ne ighbours
ĠN eap
ĠN athaniel
Ġten or
Ġdam ask
Ġbehold ers
Ġinc aged
Ġinc orpor
Ġrec reation
Ġdel icious
Ġdel ivered
Ġharm ful
Ġact ed
Ġbound s
Ġbound less
Ġopen ly
ĠCap el
Ġattend ance
Ġattend ants
See ing
chan gea
Ġve in
Ġag ue
Ġfeel s
Ġdish onest
Ġtrib es
Ġsing ing
Ġsing led
Ġwatch ing
Ġdist ance
Ġdist aff
Ġdist rib
Ġdist illed
Ġdist inctly
Ġcor al
Ġcor pse
Ġcor mor
Ġstir r
Ġclose t
Ġstrength s
Unt imely
ĠTh ree
Ġwonder ing
Ġpie ced
Ġgar ter
Ġgar ish
Ġgar ment
Ġenter ing
Ġbrave ly
vour ing
Ġty pe
Ġwa ist
Ġwa ving
Ġwa ft
Ġwis er
Ġfit ly
Ġfit ness
etch y
Ġweak er
Ġjest s
po int
po cr
po inted
Ġsk ies
Ġsk ull
Ġsk ins
Ġsign ified
Ġcast ing
Ġforget fulness
Ġreg ent
Ġven uto
Ġrich ly
Ġwed lock
Ġdu gs
Ġdu ellist
Ġlad der
Ġpay ing
Ġpay ment
Ġgro ats
Ġquarrel s
ip odes
she ll
she et
she ep
oun cing
Ġdro ve
Ġdire cted
Ġcr utches
Ġcr otche
Ġred uce
Ġred oubted
Ġsoft ly
Ġblack er
Ġext ir
Ġext ol
Ġtrou b
Ġtrou bles
Ġbegin ning
Ġbattle ments
Re qu
Re ward
Re ceive
Re bell
Ġbar ber
Ġbar ne
Ġthri ves
Ġthri ving
aris m
Ġev idence
Ġworth less
ĠVols ce
Ġflatter y
Ġpriv ily
Ġsigh ing
Ġble ared
Ġinter r
Ġinter ior
Ġinter pretation
Ġinter changea
Ġund es
Ġvict or
Ġvict ors
Ġdread ed
Ġdeny ing
Ġest ablish
Ġmal ady
Ġmal content
Ġmal apert
Ġmortal s
Ġbab ies
Ġfra ught
Ġfra ilty
Ġcoward s
Ġhur ry
Ġhur ts
right ed
Ġprin cip
ĠSir rah
sp ring
ura lly
Ġcross es
Ġcross ing
Ġlim ed
Ġopp ose
Ġopp ress
Ġpen et
Ġpen alty
Ġprot ection
Ġkingdom s
Ġlead ing
Ġlament ed
Hold ing
but t
sper o
Ġbro il
Ġbro ach
Ġca vil
Ġcle ave
Ġow l
Ġow ed
Ġow est
Ġgall ed
Ġgall ows
Ġgall ops
Ġforward ness
Ġviol ation
antag es
Ġcompl ots
Ġcompl iment
Ġcompl aints
Ġsuccess es
Ġsuccess ful
Ġbase ly
Ġdest ined
Ġdest roying
Ġcap able
Ġang le
Ġperform ed
Ġscar f
Ġscar r
Ġappro ve
Stay s
Ġdepart ing
Ġdepart ed
Ġpossess ions
Con ceiving
Con venient
Ġsur feits
Ġsur cease
Ġsur plus
Ġben e
Ġfill ing
Ġlab ours
Ġlab oured
Ġins ur
Ġins ide
Ġins atiate
Ġins ensible
Ġform al
Ġform ally
Ġeas ier
Ġwrit es
gg ar
gg est
Ġut tered
Ġap ish
Ġap ology
Ġsho ot
Ġmild er
Ġwild erness
read ing
Ġbirth right
ĠSt ill
ĠSt ephen
Ġquiet ly
Ġquiet ness
Ġproceed s
Ġproceed ing
Ġforbid s
Mar garet
Ġshi pp
Ġshi ft
Ġmed d
Ġmed lar
Ġwalk ing
Ġfam ed
Ġhap less
Ġforsw ore
Ġunc rown
Ġunc onstant
Ġunk nit
ighb our
Ġleisure ly
counter feit
Ab ate
Int ends
Int ended
Su ccess
Su ggest
Ġsort ed
Ġfe ign
Ġfe igned
Ġfine ly
Ġdrown ed
Ġcru pper
Ġlow est
Ġlan ces
Ġlist en
Ġpet tic
Ġbend ed
Ġstor ies
Ġnob ody
Ġfavour ites
Ġblow ing
Ġsecond s
Ġtemp oriz
;' --
De ad
Pr onounce
Pr inces
Ġtent h
Ġmut ual
Ġmut ually
Ġmut inies
Ġmut ton
Ġind u
Ġind ust
Ġind uced
Ġind ignation
Ġind ictment
Ġstud ying
Ġsteal ing
Ġsteal th
Ġref er
Ġref resh
Ġref lect
Ġmanner ly
Ġproclaim ed
Ġexc used
Ġexc uses
Ġadd s
Ġadd ers
Ġadd ition
Ġpurs uing
Ġpurs uivant
Ġdouble d
Ġdouble ts
Ġwisdom s
Bel ow
En joy
En forced
den ly
Ġsim pl
Ġmount ed
Ġmount ains
Ġcapt ives
Ġpun k
Ġpun y
Ġpun ished
Ġhair s
Ġconqu ered
Ġswift ly
Ġenjoy ing
Ġran ge
Ġran ks
Ġguard s
Ġdespair ing
Dis pose
Dis miss
ey s
gra nd
gra ve
gra ced
Ġteach ing
Ġcorn s
Ġcred ent
Ġcred ulous
Ġgent leness
Ġbutcher ies
Ġunw ise
Ġunw ieldy
Ġunw holesome
Ġunw onted
Ġprov ince
Ġprov ision
Ġplant ed
Ġabro ach
Ġrid ges
Ġcontr ar
Ġaccount ed
Ġpriest s
Ġstruck en
Ġcruel ty
fall ing
heart s
Ġmour ner
Ġwre ak
Ġwre aths
Ġwail ing
Ġba its
Ġba ited
Ġdwell est
Ġga vest
Ġease d
Ġenvy ing
Ġadm ire
Ġadm its
Ġadm ired
Ġadm iring
Ġextrem ities
Ġbenef actors
Ġlaugh ing
AL L
Ne gle
Ġfirm ament
llo a
Ġcam p
Ġcam bric
Ġhol es
Ġpack ing
vell ing
Ġincl ine
Ġformer ly
Ġrel ent
Ġdeal ings
Ġsport ful
Ġconvey ance
ĠBarn et
Ġarri ve
Ġunb ruised
ĠHer bert
ĠHer ald
Ġroot ed
Ġimag es
Ġimag ined
Ġcover ing
Ġsmo ke
Ġfellows hip
Ġacqu it
Ġschool boy
Bl ack
Bl iss
Bl oody
Des ire
Des ires
Des erved
Des erve
Des erves
Des pite
Ex eter
Ex amine
Tut or
after noon
con f
more land
ub bering
Ġed uc
Ġver iest
Ġver ified
Ġver dict
Ġdull est
Ġstab les
Ġuns k
Ġuns way
Ġuns uspect
ĠAl ack
ĠAl bion
there a
there in
Ġimport s
Ġimport ance
Ġimport uned
Ad o
Hence forth
Hence forward
act ive
dy ed
Ġes p
Ġes pecially
Ġwag oner
Ġfinger ing
Ġdri ve
Ġcustom ary
Ġgross ly
Ġinform ation
Ġele cted
Ġeag les
Ġallow ing
Ġallow ed
Ġnecess aries
Ġknight s
Ġshr ill
Ġsail or
Ġrock y
Ġrude ly
Ġguilt iness
Ġassist ed
Ġdelight ful
Ġlangu ish
Ġcirc led
CH RIST
Res ign
Res olved
Res olve
Turn s
fl ies
fl ayed
ien cy
par able
Ġdur ance
Ġcre ep
Ġcre eping
Ġlar gess
Ġnumber ing
Ġhid den
Ġtop mast
rious ly
Ġstar ved
ashi on
Ġdew s
Ġshar per
Ġshri eks
Ġamb ling
ĠSic ils
Ġrash ly
Ġrash ness
Ġcommend able
Ġchief ly
Ġcondu cted
Ġprotect ors
Ġpubl ish
Pre fix
Per form
Rem ain
Sc orn
app earing
pr oof
we ighs
Ġer r
Ġir ks
Ġtort ures
Ġtort oise
Ġwood cock
Ġbond s
Ġdet ain
Ġinfect ious
Ġequ ally
Ġstore d
Ġsup remacy
Ġshut s
Ġconj ur
Ġconj ured
Ġsway s
Ġbrook s
Ġhop ing
Ġdisd ains
Ġdiss olute
Ġdiss olved
Ġdiss entious
Ġdiss ension
Ġdiss olution
Ġrob bery
Ġexcell ence
Ġtrans form
Ġtrans gression
Ġaffect s
Ġaffect ing
Ġaccus ers
Ġchair s
Ġspeci ally
Know ing
Ret ire
Sha ke
lar ge
Ġtut ors
Ġmurderer s
Ġbot tle
Ġbot tled
Ġball ads
Ġbud s
Ġfle ece
Ġcens ured
Ġcens ures
Ġcup bearer
Ġpure st
Ġbew itch
Ġmend ed
Ġweigh ing
que ath
ĠPro vost
ĠPro spero
Ġrose mary
Ġexpect ed
Ġado pted
ĠFl av
Ġcourage ous
Ġlean ness
Ġpersu asion
Ġdisposition s
Ġgroan ing
Ġaccept ance
Ġsolemn ly
Ġconquer ors
bear ing
val ued
Ġtest ify
Ġmat ure
Ġmat tock
Ġmag n
Ġhost ile
Ġhunt ing
Ġpol itic
Ġgru dge
Ġrepe at
ĠCan st
Ġshun s
Ġqual ified
Ġprovo ke
Ġens ign
Ġens uing
Ġadvers ary
Ġclo ven
Ġclo ister
Ġimm od
Ġpurcha sed
Ġcock le
Ġcock atri
Ġbraw ls
Ġimposs ib
Ġmaiden heads
Ġincrease th
Ġcomplain ing
Cons ort
Long er
bri dge
ker chief
law fully
pul ous
sha ped
uce ment
Ġsqu ire
Ġsqu ared
Ġsouth ward
Ġmill ion
Ġmill stones
reg ia
Ġfig ured
Ġfurn ished
Ġdig g
Ġchat tering
Ġbef ell
Ġmeant ime
Ġrecom fort
Ġrevol ted
Ġwilling ness
Ġcomb ined
Ġswell s
ĠBe hold
Ġunp repared
Ġunp itied
ĠAd rian
Noble man
Ġwhore s
Ġconsider ing
Ġcompan ions
Stri ve
Ġbrace let
Ġbuild s
Ġbuild eth
Ġintell igen
Ġtemper ance
Ġrecord ed
Ġgarland s
Ġwait ing
Ġforbear ance
Ġoppos ers
Ġfamous ly
Supp osing
Ġearnest ness
ĠConspir ators
Acc ount
Keep s
des ire
fa ith
foot ed
ib al
maid s
Ġing rateful
Ġing ratitude
Ġing enious
Ġapt ly
Ġsal ve
Ġsal utation
Ġmult ip
Ġmult itud
Ġfun ctions
Ġfun eral
Ġpot ent
Ġpot ency
Ġinqu ired
Ġfors aken
Ġsting ing
Ġstout ness
Ġrejo icing
run ning
Ġspect ators
Ġfawn s
ĠLe icester
Ġung overn
Ġung rateful
ĠDe uc
ĠDe cember
Ġwrink le
Ġwrink les
Ġrust y
Ġcharac ters
Ġsmell s
Ġaffli cted
should er
Ġagree ing
Ġcorre ct
Ġprett ily
Ġshield s
Ġparent age
Cond ition
Draw s
Im mediate
Ri vers
Somet imes
acc ess
br other
bod ied
long eth
mong er
than k
ĠQ u
Ġtro dden
Ġmir acle
Ġwid ower
Ġwest ward
Ġbuck ler
Ġdiffe rent
Ġdiffe rence
Ġhorn s
Ġmelt ing
Ġmelt ed
Ġste er
Ġstick s
Ġrece iving
Ġdecl ined
Ġdecl ines
Ġdecl ining
Ġsham est
Ġsham ef
Ġfact or
Ġfact ious
Ġnegle cted
Ġvar iable
Ġvill anous
Ġvol umes
Ġmanif ested
Ġunwill ingly
ĠVen us
Ġrobb ed
ĠTar quin
Ġscandal ous
Ġcareless ly
Ġgrat ify
Ġgrat ulate
Ġcurt ains
Ġsecure ly
Ġprophet ess
Ġsubstit utes
Ġconceal ment
Ġsucceed ing
Ġsucceed ers
Aw ake
Courage ous
Fl ower
Fl atter
Jo hn
UR E
cest ershire
cap able
pret ty
tend er
Ġtou ches
Ġtig ers
Ġtail s
Ġmethought s
Ġbon net
Ġfix ed
Ġdate less
Ġluck y
Ġluck less
Ġnet tles
Ġnice ly
Ġped igree
Ġpage ant
cels a
Ġstomach s
ĠGree k
Ġorn ament
Ġarrest ed
Ġunst ain
Ġunfe lt
Ġworm wood
Ġeng ine
Ġdisgra cious
Ġbegu ile
Ġbeget ting
Ġdepend ing
Ġmonarch y
Ġsuffic iency
Ġestim ate
Ġsacrif iced
Play s
Ġrank le
Ġcovert ure
Ġmoral ize
Ġapprehend s
Add ing
Ca esar
Eng age
False ly
Name ly
Wr ath
cons cience
fri end
pray ers
wing ed
Ġtack le
Ġtren cher
Ġaud ience
Ġaud ible
Ġsed ition
Ġsed ges
Ġsess ions
Ġmas ks
Ġmould ed
Ġbru ising
Ġbol t
Ġbol ted
Ġfin est
Ġfin ish
Ġfever ous
Ġlour ing
Ġpill ow
Ġpalm ers
ĠIn iquity
ann ibal
Ġgap es
Ġgains ay
Ġbell s
Ġinv ite
Ġdem i
Ġdem esnes
Ġanch ors
Ġspot less
Ġshru g
ĠEm peror
Ġshel ves
Ġgoss ip
Ġunre verent
ĠWelsh man
Ġenc amp
Ġexceed s
Ġdesc ant
Ġdesc ried
Ġslipp ery
Ġprefer ment
perience d
Ġlect ures
Ġcop y
Ġcop est
Ġcoll ected
Ġtravell er
Ġattain der
Ġprompt s
Ġcram ps
Ġobsequ ious
Ġdivor ced
Ġcrim son
Ġembra ces
Ġinsol ent
Ġtestim on
Ġneglect ing
Ġherald s
Ac cept
Gra mercies
Rel ent
bes ides
miss ive
ob st
sent enced
serv ice
tin o
tong ues
tong ued
wh om
Ġfre quent
Ġfount ain
Ġdot ing
Ġdot ard
Ġded icate
Ġthw ack
Ġpru nes
Ġpant ing
Ġpict ures
stra ins
Ġgust s
Ġstag gers
Ġresemb les
Ġrevive d
Ġansw ers
Ġansw ered
Ġconc ern
Ġunlike ly
ĠWest moreland
Ġalar um
Ġalar ums
Ġcler k
Ġtrim m
Ġappoint ment
Ġcontri ve
Ġcontri ved
Ġeverlast ingly
Ġcourts hip
Ġpeer less
Ġbestri d
Ġbestri de
Ġaccomp anied
Ġcompound ed
Ġchamp ions
Ġbrand s
Ġconfeder ates
Ġmisc arried
Ġmischief s
Ġpatron ess
Ġstrait ly
Ġstrang eness
Ġinterrupt ed
Ġinsinu ating
Ġunluck y
Ġmagist rates
Ġsteward ship
Ġunwilling ness
Ġsurpr ise
Ġfantast ic
Aff liction
Best ride
Bold ly
Ch ide
End ured
Pres ent
Sic ilia
Sic inius
count ry
count enance
jud ged
occ up
occ asion
ops a
ph in
pres ently
su pp
Ġire ful
Ġtha w
Ġtumble d
Ġmuff le
Ġmuff led
Ġfet ter
Ġfulf il
Ġdiet ed
Ġcushi on
Ġcushi ons
Ġlinger ing
Ġhy pocr
Ġgaz ing
Ġliqu or
Ġliqu id
Ġdefect s
Ġdoct ors
Ġdoct rine
Ġbutter fly
Ġsequ el
Ġsugg ested
thw art
thw ack
Ġnegl igence
Ġnegl igent
ĠRo ger
ĠRo bert
Ġvi per
Ġvial s
Ġamend ment
ĠBes eech
ĠBes ides
Ġargu ing
Ġargu ed
Ġarbit rate
Ġgraft ed
ĠAr gier
ĠAr chbishop
Ġabst inence
Ġabod e
Ġexact ly
Ġexperience d
Ġridd le
Ġtrades men
Ġperd ition
Ġperf ume
Ġperf umed
Ġpreserv ation
Ġscru ple
Ġchap el
Ġimpart ial
Ġimpud ent
Ġboat swain
Ġobser ve
Ġprofan ation
Ġdishon ours
Ġembass age
ĠChristopher o
Ġfeat ly
Ġindirect ly
Ġcontrad ict
Ġcontrad iction
Ġcounterpo ised
Ġadmir al
Ġholid ay
Ġholid ame
Ġrelig ion
Ġrelig ious
ĠFlore nt
ĠFlore nce
Ġgreyh ound
Ġgreyh ounds
Ġsyll able
Ġsyll ables
Ġsuperfl uous
Ġsuperfl uity
Ġdisobed ience
Ġdisobed ient
Ġsinew s
Ġcuckold s
Crown s
Dou bly
Dro p
Ele ven
Hap ly
Night ly
Pit chers
Sad dle
Sel f
Sland er
Thi eves
Tran s
Trem ble
did st
oft en
prison er
sil ver
spo ken
vill e
wind s
Ġtil th
Ġau gment
Ġaust erity
Ġmot ive
Ġming le
Ġmass acre
Ġwra pt
Ġbale ful
Ġcy press
Ġcot tage
Ġced ar
Ġcas que
Ġcele br
Ġlecher y
Ġna vy
Ġthra ll
Ġthres hold
Ġost entation
Ġoce an
Ġphe asant
Ġpir ate
Ġpul ing
Ġpens ive
Ġpals ied
Ġgle an
Ġgild ed
Ġgorge ous
Ġbeho ve
Ġhab iliments
lex ander
Ġforn ication
Ġeg gs
Ġel bow
Ġew es
Ġstam ps
Ġstall s
Ġkern els
Ġrevers ion
Ġrelease d
Ġassemb ly
Ġdol our
Ġsevent een
Ġherds men
Ġspar ks
ĠCy therea
ĠCot us
Ġvest al
Ġvio lets
quer or
Ġwheres oe
Ġconver ts
Ġconvers ation
Ġconvent ed
ican or
Ġblasp hem
ĠGuild hall
ersha des
ĠBER KELEY
ĠBret on
Ġunivers al
Ġunthrif ty
Ġprover b
ĠPil ate
ĠPriam i
Ġplent eous
Ġencom pass
Ġenroll ed
Ġoutst ret
ĠAfri c
Ġdiscipl ine
Ġexha les
Ġrip est
Ġribb ons
Ġadul ter
Ġpresum ption
Ġprescri ption
Ġcontem pl
ĠJud as
Ġendea vours
Prosper ity
Ġtraged y
Stir r
Ġbragg art
Ġdoub ts
Ġchoo sing
Ġundert aking
Unw orthy
Ġstrip ling
Ġwelcom ed
Ġattent ive
comfort able
Ġtemperate ly
Ġinflu ences
Ġquarre lling
Ġexecut ing
Ġparag on
Ġvehe ment
Ġstirru p
ĠThink est
Ġcrad le
Ġbarb arism
Ġexpost ulate
Ġcaus er
Plain ly
Ġcontinu ance
Ġtempor al
Envir oned
Desp ised
Ġescap ed
Ġambassad or
appare ll
Ġvanqu ish
Ġbasil isk
exec ution
Ġmathematic s
Ġgrumb ling
Ġsymp athy
Ġdifferen ces
Ġmasqu ers
Ġencourage ment
Ġclergy men
Err oneous
Ġcannib als
ĠAmazon ian
FRANCIS CA
danger ous
Ġtumult uous
Ġsulphur ous
Boot less
Chan ge
CARD INAL
Cull ing
Certain ly
Coun sel
Dra wn
Del ay
Mond ay
Merc utio
Mars hal
Pom pey
Pret ty
Sher iff
Tend ering
TIT US
Vis it
Vince tino
bet ter
cham ber
del ivered
mal ice
pill ars
persu asion
Ġtar get
Ġaut umn
Ġaus picious
Ġsce pter
Ġsout hern
Ġmalm sey
inst ru
Ġbiss on
Ġbitt erest
Ġfours core
Ġdomin ions
Ġdaff odils
Ġcod piece
Ġcater pillars
Ġnim bly
Ġhunts men
Ġponder ous
Ġphra se
Ġgas ping
Ġgees e
Ġgilly vors
Ġghast ly
Ġinex orable
Ġinhum an
Ġhagg ard
learn ed
ithmet ic
Ġwealt hily
Ġeaster n
riven er
Ġlibr ary
Ġsemb lance
Ġspran g
ĠCheer ly
Ġnephe w
ĠRedeem er
Ġcomfor ter
ĠMort imer
ĠMON TAGUE
ĠMamill ius
ĠMEAS URE
ĠMirand a
Forsw ear
ĠGlou cestershire
ĠLiby a
Ġorison s
ĠSuff olk
ĠScr oop
Ġarrog ance
Ġlethar gy
Ġunhall ow
Ġunfort unate
Ġunpo ss
Ġunpar allel
Ġunspeak able
ortham pton
ĠVarri us
Ġproli x
AUGH AN
Ġencoun ters
Ġfrivol ous
ĠAbra ham
ĠAutoly cus
ĠYorks hire
Ġabomin able
Ġexamp les
agab ond
Ġadmon ition
Ġpredom inant
Ġprecip itation
Ġprenz ie
Ġpredecess ors
ĠFerd inand
Prodig ious
Ġcocke rel
begu ile
Ġimpreg nable
Ġpatrim ony
Ġpatien c
Ġdiscours es
Ġaffiance d
Ġsincer ity
ĠNeap olitan
Ġincorpor ate
Ġcormor ant
Ġcrotche ts
Ġinterchangea bly
Ġprincip al
Ġpettic oat
Ġschoolboy s
Ġeduc ation
Ġunsuspect ed
CHRIST OPHER
ĠFlav ius
Ġcockatri ce
ĠDeuc alion
' ,
' :
' ;
, -
A E
A g
A v
A ch
A ge
A ble
A fore
A ng
A ction
A DY
A ST
A ged
A mb
A like
A vo
A bs
A greed
A iry
A thwart
A lexander
B o
B as
B ro
B ast
B ight
B end
B ond
B ate
B um
B orn
B ef
B urn
B ears
B red
B les
B ark
B alk
B OLINGBRO
B roke
B ove
B ade
B ury
B oling
B uckingham
B alm
B aptist
B astard
B ene
B iondello
B acc
B agot
B ourn
B roach
B ened
B usiness
B ruised
B lem
C O
C y
C ha
C ar
C our
C her
C ur
C am
C ho
C row
C ost
C ance
C orn
C har
C LA
C urse
C ock
C ount
C alm
C ats
C over
C arn
C ease
C unning
C hor
C hop
C ounty
C harged
C uc
C ousins
C arthage
C urrent
C arlisle
D i
D w
D ar
D ing
D ri
D as
D ru
D ine
D ive
D ish
D ick
D ec
D rown
D aughter
D ab
D INA
D iss
D uck
D ian
D ark
D IA
D rest
D ally
D rum
D aring
D ared
D ares
D oubt
D eliver
D isting
D ukes
D olour
D oting
D ighton
D azz
E s
E st
E ly
E arl
E ating
E light
E scalus
E xton
E qual
F e
F i
F ir
F ro
F ain
F il
F ight
F ame
F aster
F ree
F ace
F led
F ew
F ert
F eed
F eel
F east
F right
F ated
F ully
F reed
F oot
F roth
F lock
F rench
F ades
F oes
F illing
F rets
F ellows
F resh
F idd
F ifth
F atal
F rederick
G L
G S
G ot
G al
G one
G ARD
G all
G rown
G rant
G ross
G aunt
G rows
G azed
G iving
G reen
G loves
G regory
G orged
G ENT
G raybe
H ot
H our
H ill
H id
H ood
H us
H ell
H ES
H ook
H ance
H oy
H ither
H ag
H unt
H ides
H ours
H ush
H ung
H ope
H aste
H op
H umbling
H iding
H earest
H umbly
H annibal
I LI
I ng
I MER
I VERS
I gn
I rons
J O
J ack
J ew
J oint
J ames
J acks
J udge
K in
K ill
K ain
K ate
K ings
K iss
K nown
K ills
K ept
L a
L i
L or
L ed
L ent
L and
L ight
L ust
L ose
L uke
L ife
L oud
L ARENCE
L ift
L ines
L awn
L ewis
L iving
L ifts
L awful
L eap
L ately
L echer
L abour
L adies
L onely
M i
M in
M or
M ut
M ad
M as
M al
M other
M um
M ass
M aint
M atch
M iss
M ates
M ock
M ove
M oney
M ended
M ang
M owbray
M oved
M ann
M elting
M uddy
M erry
M opsa
N ICH
N RY
N aught
N CE
N umber
N ourish
N earer
N imble
N UR
N ips
N athaniel
N ich
N icanor
N orthampton
N GS
O F
O ver
O UCESTER
O TH
O bs
O bed
O pinion
O we
O verdone
P at
P ay
P ed
P our
P rom
P ink
P aint
P ress
P ew
P ins
P ots
P aul
P rey
P iteous
P olixenes
P etition
P embroke
P attern
P riam
P iercing
P ierced
Q ueen
R an
R ain
R od
R ound
R ue
R um
R ough
R ouse
R os
R ail
R WICK
R ans
R eal
R ush
R MIONE
R emn
R ude
R azed
R uns
R idd
R ideth
R DINA
S le
S ly
S ore
S ear
S ink
S un
S ign
S erv
S een
S igh
S ide
S INA
S well
S ud
S ail
S its
S ons
S alt
S ac
S aid
S outh
S ends
S eem
S have
S omerset
S eld
S itting
S erved
S cape
S alisbury
S aints
S urrey
S hamed
S lain
S unday
S aving
S death
S lu
S chool
S ailing
S URREY
S imple
S igeia
S atisf
S tern
S ummon
S peed
S harp
T r
T re
T ha
T ar
T im
T her
T ent
T ru
T row
T ie
T res
T ook
T ire
T ies
T ap
T ab
T ale
T ile
T arry
T ARINA
T OP
T ends
T empt
T aken
T ying
T rim
T ANTI
T idings
T edious
T eeth
T itus
T akest
T rick
T yrrel
T inct
T ug
T ickle
T rateful
T unis
T ouches
T iber
T etchy
T IMER
U t
U se
U ng
U TIO
V o
V ar
V ING
V ices
V OMER
V ex
V ienna
V aughan
V alance
V AUGHAN
V agabond
W a
W i
W in
W or
W ot
W ed
W ra
W ast
W ine
W el
W eak
W ither
W ave
W ears
W atch
W ork
W ret
W hip
W ars
W arm
W ater
W ept
W orth
W alter
W ednesday
W ipe
W eap
W ailing
W ait
W ooing
W atching
W reck
W anting
W ondrous
Y on
Y ond
a er
a ed
a ly
a ol
a gain
a ward
a way
a cent
a centio
a ired
a ways
a ited
a ctions
a qua
a voury
b en
b ill
b ard
b row
b one
b ol
b ig
b ec
b ag
b urn
b old
b ass
b ull
b able
b ite
b ling
b by
b ia
b ush
b ones
b ench
b els
b ots
b read
b astard
b ingly
b reed
b roth
b rate
b ub
b ursed
b we
b itten
b orough
b ald
b ranch
b uild
b eshrew
b ait
b arr
b alance
b attery
b uncle
b aby
c s
c it
c ir
c ut
c ur
c am
c and
c ion
c ter
c ard
c il
c ry
c ong
c are
c ol
c rown
c urse
c aught
c ull
c li
c ab
c os
c ork
c ried
c ousin
c ens
c ides
c ured
c rest
c uff
c ils
c ony
c ords
c reed
c ern
c ub
c ourage
c rick
c harge
c uing
c reen
c ourse
c ases
c off
c arried
c ado
c olour
c lip
c atching
c ertainty
c log
d m
d in
d ow
d et
d as
d ic
d ong
d are
d oth
d ost
d all
d ure
d ue
d ence
d de
d ance
d ull
d ied
d ried
d ile
d ens
d iv
d ove
d ues
d ial
d ging
d over
d ona
d rum
d ames
d iles
d rench
d aughters
d iffe
d ared
d earer
d irect
d ainty
d iments
d olour
d itary
d eaf
d runk
d arting
e o
e z
e an
e as
e ck
e est
e ight
e ople
e ads
e king
e ze
e ban
e ating
e qual
e wness
e ighing
e rers
e ighbour
f ow
f ill
f ur
f ver
f est
f ru
f ant
f ath
f ry
f ind
f ers
f ish
f orn
f oul
f ull
f les
f ield
f use
f arewell
f ires
f itted
f ume
f ited
f riar
f ien
f ron
f aces
f oes
f itable
f ingers
f ardel
f rank
f ishes
f urb
f ob
f illed
f icial
f actors
f estival
f urther
f ront
f atal
f ramed
f fered
f urnish
f ashion
g m
g on
g en
g am
g ard
g row
g od
g all
g ame
g man
g own
g io
g ings
g lo
g ran
g rant
g ird
g ling
g ans
g hed
g ia
g ener
g ars
g ross
g ives
g awd
g ills
g uses
g reg
g iving
g ative
g iver
g ical
g reet
g oned
g ently
g iveness
g lier
g ays
g range
g ods
g round
g inning
g orged
g aited
h t
h out
h ook
h ound
h orn
h ough
h ows
h oop
h ung
h rey
h undred
h onesty
i ou
i om
i um
i ory
i bly
i ends
i used
i que
i ases
i work
i agement
i avel
j e
j or
j er
j ec
j ury
j ured
j ump
j ealous
j ustice
j ax
j uiced
j unction
j acent
k ill
k ine
k UCH
k ings
k erc
k ins
k ling
k ets
k illing
k itche
k thread
l in
l as
l ood
l est
l am
l ine
l ie
l ost
l ers
l ate
l ist
l ough
l ower
l ife
l ab
l ty
l oud
l ittle
l ins
l ieve
l aud
l ift
l ots
l mit
l med
l ume
l ane
l uce
l ately
l abour
l ackey
m i
m t
m es
m ar
m ut
m ill
m ur
m ould
m ight
m ant
m ic
m out
m el
m ence
m io
m ise
m aint
m per
m atch
m erc
m ont
m akes
m fort
m ix
m ates
m arry
m ount
m urderer
m ured
m adam
m ortal
m ished
m ns
m med
m ask
m oot
m utation
m atic
m oon
m elting
m iry
m pery
m atching
m umm
m eeting
m ulled
m ildly
m aculate
n n
n or
n on
n ay
n ell
n ear
n ine
n ie
n od
n ose
n ance
n ness
n ks
n ows
n che
n ock
n ove
n ched
n ines
n ames
n stant
n ations
n amed
n aming
n ical
n areth
n ishment
n ecess
n queror
o an
o ad
o pp
o ves
o ak
o ci
o sw
o ons
o pl
o ze
o zen
o ating
o ifs
p ot
p at
p ri
p as
p ly
p ain
p ru
p ard
p ath
p ry
p ond
p ig
p ity
p ice
p ies
p aw
p aint
p able
p ale
p int
p its
p ens
p air
p any
p ac
p ict
p aid
p ets
p ina
p ingham
p ip
p each
p ires
p ired
p ated
p awn
p iled
p act
p utation
p aced
p ising
p ane
p atience
p icion
p rick
p osing
p iety
p uts
p arted
p iercing
p romise
p ulled
p ierced
r d
r k
r it
r ut
r oo
r us
r row
r ind
r ather
r de
r ass
r ite
r ors
r ts
r ary
r ating
r arch
r usion
r ising
r aded
r got
r hyme
r oused
r mount
r pingham
s it
s om
s se
s le
s ad
s ly
s ore
s ers
s ure
s ward
s un
s ings
s ought
s ier
s ix
s ister
s ervant
s cent
s ition
s ling
s alt
s erving
s now
s ainted
s set
s leep
s itting
s ongs
s kin
s oldier
s ouls
s aved
s ky
s ighs
s harp
s ium
s kins
t or
t it
t es
t im
t ill
t ro
t ain
t art
t ie
t all
t ure
t ish
t ook
t ice
t ful
t ack
t ise
t ment
t ap
t tle
t old
t ears
t land
t ors
t ale
t ren
t arry
t imes
t ere
t ches
t ua
t els
t ired
t rim
t itude
t ney
t rib
t roll
t emper
t unate
t erest
t rial
t uned
t alion
t attling
t ruth
t reading
t rary
u ld
u ri
u ly
u ate
u age
u ried
u bl
u gs
u ished
u ilty
u cio
u zz
u chess
u fien
v ow
v id
v ul
v ate
v io
v ies
v oy
v ide
v ass
v iness
v ons
v iv
v ices
v ised
v illain
v ator
v otion
v ated
v antag
v idence
v illing
v ato
v izard
v itae
v ouched
w i
w ou
w nd
w on
w ed
w ent
w ord
w id
w hi
w ea
w ake
w ant
w ol
w ink
w ice
w ears
w akes
w hile
w ild
w rong
w aking
w aken
w ounds
w his
w hore
w oe
w aning
w asp
w aving
w ipe
w enches
w ait
w ounding
x es
x ter
x ible
x perienced
y ed
y ear
y are
y self
y ield
y ester
y onder
y ster
y dra
y rian
y sm
y gm
z y
z ing
z ure
z el
z eth
z ounds
z ards
Ġ ,
Ġ q
Ġ ou
Ġ et
Ġ il
Ġ row
Ġ ic
Ġ ime
Ġ ix
Ġ iv
Ġ vers
Ġ Though
Ġ zen
Ġ icy
Ġt ir
Ġt as
Ġt al
Ġt ast
Ġt ight
Ġt art
Ġt ind
Ġt ak
Ġt un
Ġt ick
Ġt ag
Ġt een
Ġt ough
Ġt ouse
Ġt ittle
Ġt und
Ġt ua
Ġt awd
Ġt ames
Ġt allow
Ġt ub
Ġt aper
Ġt ilts
Ġt aints
Ġt ext
Ġt ips
Ġt ug
Ġt aker
Ġt uns
Ġt ickle
Ġt ipt
Ġt uned
Ġt asted
Ġt etchy
he al
he ath
he red
he me
he lp
he rent
he aven
he ims
he lmed
he tua
Ġa e
Ġa ld
Ġa ed
Ġa ward
Ġa ided
Ġa right
Ġa ired
Ġa have
Ġa ub
Ġa unts
Ġa ug
Ġa vided
Ġa venged
Ġa gued
Ġa thwart
ou ge
ou rer
ou lly
ou bled
Ġs or
Ġs hat
Ġs ke
Ġs and
Ġs ist
Ġs not
Ġs ough
Ġs iz
Ġs akes
Ġs ans
Ġs ours
Ġs ignior
Ġs inks
Ġs ift
Ġs ided
Ġs cience
Ġs allow
Ġs na
Ġs owl
Ġs allows
Ġs ourest
Ġm ou
Ġm it
Ġm ent
Ġm and
Ġm ul
Ġm ic
Ġm ate
Ġm ice
Ġm ose
Ġm un
Ġm ire
Ġm ace
Ġm uck
Ġm ought
Ġm ont
Ġm alk
Ġm eth
Ġm ix
Ġm alt
Ġm ated
Ġm ills
Ġm aker
Ġm umbling
Ġm arted
Ġm ickle
Ġm ules
Ġm allows
Ġm ixture
Ġm paw
Ġm uzz
in o
in on
in at
in us
in ci
in per
in able
in ction
in ister
in fect
in ac
in vent
in ters
in no
in ally
in habit
in iquity
in cible
in iu
Ġw ow
Ġw an
Ġw al
Ġw ist
Ġw ins
Ġw ren
Ġw ade
Ġw ished
Ġw arden
Ġw rench
Ġw ards
Ġw ares
Ġw anders
Ġw rung
Ġw izard
Ġw add
re ar
re se
re ly
re am
re ast
re ep
re fore
re ign
re ment
re nder
re ft
re vere
re ach
re ments
re pare
re vol
re cian
re ctions
re ams
re aming
re deem
re ceives
re asonable
re aching
re voc
re proof
re putation
ha h
ha i
ha w
ha il
ha pe
ha ca
ha pes
ha vior
nd or
nd ar
nd ed
nd one
nd ower
nd ian
Ġthe i
Ġthe s
Ġthe at
Ġthe ft
Ġb is
Ġb or
Ġb er
Ġb ir
Ġb ard
Ġb ath
Ġb other
Ġb um
Ġb ull
Ġb akes
Ġb apt
Ġb ump
Ġb ents
Ġb order
Ġb ourn
Ġb alance
Ġb arded
Ġb alms
is y
is er
is en
is hi
is el
is ful
is ance
is ings
is ite
is ks
is sed
is ins
is ition
is ible
is ping
is cate
is cible
is emaker
or m
or ch
or ter
or ity
or um
or ance
or ters
or als
or med
or mity
or seless
or ato
Ġf ad
Ġf as
Ġf ea
Ġf ul
Ġf ry
Ġf ost
Ġf ist
Ġf ont
Ġf ins
Ġf ren
Ġf ates
Ġf ens
Ġf eal
Ġf und
Ġf ished
Ġf ives
Ġf rust
Ġf ines
Ġf iles
Ġf iled
Ġf roth
Ġf ane
Ġf eder
Ġf rets
Ġf isting
Ġf ranch
Ġf isher
Ġf ixture
Ġf erry
Ġf ringed
Ġf oully
Ġf ishi
er k
er o
er ce
er ver
er ate
er ance
er come
er ford
er ling
er ial
er rim
er born
er look
er sey
er ably
er grown
er throw
er worn
er power
er rise
er rers
er weighs
er match
ll a
ll or
ll ar
ll ot
ll ity
ll own
ll os
ll ens
it ing
it ent
it ra
it ate
it ure
it ty
it less
it ious
it ling
it ute
it ured
it ched
it cher
it ating
it ulate
it ably
it igation
on is
on st
on et
on ly
on ful
on ions
on stra
on ato
on imy
on ouncing
on ville
Ġd ir
Ġd ut
Ġd ad
Ġd us
Ġd ice
Ġd uck
Ġd ale
Ġd ray
Ġd ens
Ġd ild
Ġd ict
Ġd ries
Ġd ip
Ġd ote
Ġd onation
Ġd rank
Ġd itch
Ġd arted
Ġd ived
Ġd aws
Ġd arling
Ġd ashing
Ġd ici
Ġd umbly
Ġd yed
Ġd itty
Ġc ake
Ġc ust
Ġc ic
Ġc ue
Ġc un
Ġc age
Ġc ough
Ġc ran
Ġc ors
Ġc ale
Ġc ac
Ġc oop
Ġc els
Ġc rust
Ġc ip
Ġc ited
Ġc ites
Ġc ement
Ġc arts
Ġc ases
Ġc aged
Ġc ertainty
Ġc add
Ġc ripp
Ġc udge
Ġc ertainties
es us
es ies
es by
es pecially
es pising
en r
en or
en em
en ied
en sed
en ix
en ary
en ched
en force
en vious
en gers
en ker
en oa
en itured
Ġl on
Ġl ot
Ġl at
Ġl ear
Ġl ath
Ġl out
Ġl ep
Ġl eak
Ġl eet
Ġl uke
Ġl ull
Ġl ade
Ġl itt
Ġl unes
Ġl ush
Ġl aud
Ġl ash
Ġl ots
Ġl urch
Ġl ines
Ġl awn
Ġl ining
Ġl utes
Ġl aced
Ġl outs
Ġl ares
Ġl ingers
Ġl ulls
Ġl ascivious
Ġl ux
Ġl ids
Ġl onely
Ġl isping
Ġn it
Ġn ut
Ġn our
Ġn ill
Ġn ur
Ġn am
Ġn ook
Ġn um
Ġn ick
Ġn erv
Ġn ets
Ġn ip
Ġn itted
Ġn omin
Ġn ations
Ġn app
Ġn ipp
Ġn avel
Ġn ufien
Ġy est
Ġy earn
Ġy arn
Ġy awn
Ġy ards
Ġy ellows
Ġth i
Ġth um
Ġth und
Ġth ump
Ġth omas
ar ve
ar qu
ar ved
ar led
ar ford
ar sed
ar ition
ar ac
ar rel
ar ters
ar ries
ar bed
ar ians
ar ib
ar ists
ar agement
ar ithmetic
Ġh oo
Ġh ine
Ġh ic
Ġh ue
Ġh ies
Ġh ull
Ġh ied
Ġh its
Ġh use
Ġh oof
Ġh ired
Ġh ipp
Ġh ilts
Ġh ips
Ġh ug
Ġh uge
Ġo be
Ġo ily
Ġo ils
Ġo ats
Ġo pes
Ġo sp
Ġo aken
Ġo pin
Ġo mn
Ġo them
Ġo live
Ġo peration
Ġo oze
Ġo pens
Ġo sier
Ġo yster
Ġto d
Ġto es
Ġto ge
Ġto ol
Ġto get
Ġto day
Ġto aze
Ġto ds
Ġto pping
Ġto wnd
Ġyou nk
Ġp an
Ġp om
Ġp ome
Ġp am
Ġp ho
Ġp row
Ġp end
Ġp other
Ġp ep
Ġp all
Ġp ink
Ġp el
Ġp ue
Ġp ose
Ġp ies
Ġp ec
Ġp oul
Ġp aw
Ġp atch
Ġp ied
Ġp ious
Ġp ail
Ġp ates
Ġp alt
Ġp ike
Ġp ester
Ġp ac
Ġp ined
Ġp ortal
Ġp ander
Ġp ash
Ġp ots
Ġp iles
Ġp ang
Ġp icked
Ġp aced
Ġp ages
Ġp ushes
Ġp umps
Ġp aved
Ġp aws
Ġp oni
Ġp assed
Ġp ushed
Ġp aucas
Ġp ittance
Ġp unto
Ġp aly
ĠI o
ĠI ll
ĠI ng
ĠI car
ĠI ndian
Ġhe in
Ġhe if
Ġhe ath
Ġhe ating
Ġhe wing
Ġhe fts
Ġhe areth
Ġhe dges
ve al
ve lo
ve ts
ve ying
ot o
ot y
ot le
ot est
ot hed
ot ched
ot arists
st on
st ay
st ed
st art
st ol
st ers
st all
st ick
st ance
st ation
st uck
st ark
st roke
st ition
st eal
st ars
st uff
st raw
st rate
st omach
st oned
st ril
st rings
st ained
st anched
st orm
st arved
ow e
ow ell
ow land
ow der
ow ls
ing e
ing ed
ing rateful
an im
an ointed
an uary
an iel
Ġof fered
om s
om est
om ies
om erv
om bed
om acher
om bard
Ġg in
Ġg an
Ġg ad
Ġg art
Ġg em
Ġg out
Ġg ig
Ġg li
Ġg ab
Ġg ory
Ġg irt
Ġg ols
Ġg ash
Ġg irth
Ġg awd
Ġg rum
Ġg ang
Ġg nat
Ġg ulls
Ġg erman
Ġg landers
Ġg raybe
at a
at ra
at hi
at ain
at ess
at ant
at ry
at ress
at ert
at hes
at ement
at tered
at omy
Ġbe in
Ġbe es
Ġbe ver
Ġbe est
Ġbe au
Ġbe ak
Ġbe dward
Ġbe ach
Ġbe chan
Ġbe llow
Ġbe lock
Ġbe hest
Ġbe arts
Ġbe thought
Ġbe areth
Ġbe queath
Ġbe paint
se nd
se es
se ill
se ly
se al
se cr
se cond
se paration
se mary
se parable
se wed
Ġmy s
Ġmy ster
ce t
Ġin n
Ġin ly
Ġin ves
Ġin com
Ġin und
Ġin cess
Ġin she
Ġin sp
Ġin vest
Ġin herited
Ġin aus
Ġin voc
Ġin vocate
Ġin ev
Ġin access
Ġin equal
Ġin herent
Ġha le
Ġha ver
Ġha res
Ġha ps
Ġha ms
Ġha iled
Ġha vior
Ġha lves
Ġha voc
le on
le ven
le ather
le man
le ave
le ft
le men
le ges
le gg
le isure
le cted
le mn
le af
le vied
le gged
le ading
le ndower
ld ier
ir ur
ir am
ir ic
ir ation
ir ts
ir cle
ir rel
et ed
et ies
et eb
et rarch
ed a
ed e
ed ified
ed iter
ed gea
ed iction
ed icite
ut er
ut ter
ut ic
ut el
ut eth
ut ary
ut ters
ut tish
im au
im per
im ney
im agine
im pse
im position
im roses
im piety
Ġme e
Ġme ag
Ġme ac
Ġme ads
Ġme chan
Ġme rest
Ġme ats
Ġme mber
Ġme eds
Ġme asures
ith out
Ġnot her
Ġnot ion
Ġnot able
Ġnot ched
ch ors
ch os
ch ins
ch rist
ch oes
Ġis ta
Ġfor cing
Ġfor cible
Ġfor gery
ke ls
Ġu mp
Ġu glier
our sed
our bon
our tney
Ġwe e
Ġwe lf
Ġwe als
Ġwe eder
Ġwe arers
Ġwe aved
oo ed
oo pp
ill e
ill ery
Ġe ll
Ġe ve
Ġe an
Ġe art
Ġe el
Ġe un
Ġe lf
Ġe ject
Ġe aves
Ġe wer
Ġe cho
Ġe clip
Ġe choes
her d
Ġwith stand
Ġwith held
Ġwith dra
Ġwith stood
ent er
ent ous
ent ers
ent ire
ent les
ent iv
ent imes
ent ering
ent iveness
ent rion
Ġit se
ad en
ad ly
ad el
ad ation
ad oes
ad vocate
ad ucement
ri ot
ri ce
ri est
ri pe
ri ved
ri ched
ri bb
ri but
ri dge
ri cian
ri atic
ri ages
ri ption
ri cock
ri eves
ri pture
ri bbed
ri vals
ri cado
Ġst i
Ġst hat
Ġst ow
Ġst ur
Ġst are
Ġst ig
Ġst um
Ġst ation
Ġst able
Ġst ool
Ġst akes
Ġst ile
Ġst int
Ġst ub
Ġst ares
Ġst oned
Ġst arted
Ġst upid
Ġst rings
Ġst itter
Ġst rut
Ġst erling
Ġst itcher
Ġst omacher
Ġst oopp
Ġk am
Ġk il
Ġk ick
Ġk ite
Ġk erns
Ġk ersey
ome o
Ġhis son
EN ER
as us
as ers
as ps
as cent
as hed
as ions
as semb
as piring
ord ing
ord ea
ord inary
The e
The s
id ies
id ences
id ency
Ġre ly
Ġre ver
Ġre ct
Ġre ft
Ġre form
Ġre vent
Ġre cept
Ġre els
Ġre claim
Ġre eds
Ġre ared
Ġre semble
Ġre iter
Ġre verse
Ġre ech
Ġre journ
Ġre acheth
Ġre vels
Ġre eking
ly ra
ra l
ra ble
ra ven
ra ise
ra ged
ra ised
ra ges
ra kes
ra pes
ra ided
ra ining
ra cian
ra gn
ra bia
ra isins
ra ordinary
Ġli k
Ġli o
Ġli eth
Ġli kest
Ġli lies
Ġli bels
Ġli zards
ur t
ur st
ur ous
ur nt
ur per
ur ril
ur ora
al ing
al as
al ment
al ps
al ts
al ike
al so
al most
al ways
al con
al uted
al oon
al ph
al bot
Ġso b
Ġso p
Ġso ve
Ġso les
Ġso ars
Ġso aking
Ġso bs
Ġso fter
Ġso aring
Ġso bri
Ġso journ
Ġso othed
Ġas h
Ġas pire
Ġas pired
Ġde a
Ġde fe
Ġde me
Ġde alt
Ġde mer
Ġde ities
Ġde lect
Ġde jec
Ġde xter
Ġon ion
Ġon ward
ore th
ore ss
ro ve
ro il
ro dden
ro sp
ro bed
ro gue
ro ider
ro bation
ro versy
ro cas
ro asted
ro cos
ro semary
AR E
hi a
hi on
hi gh
hi pp
hi les
hi bit
hi eld
ain old
ck en
ck ing
ck le
ck ed
ck less
ck led
ver t
ver in
ver il
ver tis
ver dict
est ic
est ry
est ate
est ial
est ical
est inies
est ershire
est abl
ess or
ess es
Ġsha res
Ġsha ft
Ġsha mb
Ġsha ken
Ġsha ring
Ġsha kest
Ġsha nks
ea ves
ea um
ea led
ea ping
Ġdo cks
Ġdo gg
Ġdo xy
Ġdo llar
am t
am er
am ond
am ens
am ined
am emn
am azed
am worth
am bering
am ston
Ġno ont
Ġno ds
Ġno stra
Ġno vices
Ġno isemaker
Ġno stril
and erers
us al
us est
us ive
us urp
us ions
us ands
Ġbut che
Ġbut ts
Ġbut ler
Ġbut tock
if le
if est
if ic
if ices
if ully
if ested
ge lic
Ġse w
Ġse le
Ġse ld
Ġse ct
Ġse pt
Ġse eth
Ġse wing
Ġse cts
Ġse xton
Ġse ldiers
Ġse lmit
Ġse mic
Th rust
Th ursday
Th orough
Th rice
Ġall ig
Ġall aying
Ġall ays
Ġsu i
Ġsu ret
Ġsu rer
Ġsu dd
Ġsu lly
Ġsu nders
Ġsu dde
Ġsu ffered
Ġsu llens
ake field
th s
th re
th ly
th us
th res
th ose
th orn
th ither
th rown
th ird
th ony
th orough
th rift
ion ed
Ġher b
Ġher ring
Ġher mit
ru g
ru ce
ru le
ru ck
ter m
ter ar
ter bury
ter fly
ter mine
Ġan vil
Ġan atomy
han g
han gs
han cy
Ġlo a
Ġlo p
Ġlo v
Ġlo an
Ġlo am
Ġlo pp
Ġlo gic
Ġlo fty
Ġlo zel
Ġlo athes
ell y
ell er
ell ious
ear t
ear thly
Ġsp ill
Ġsp ic
Ġsp ice
Ġsp un
Ġsp ire
Ġsp ears
Ġsp ouse
Ġsp ied
Ġsp ult
Ġsp ade
Ġsp ots
Ġsp ying
Ġsp ang
Ġsp ited
Ġsp pro
Ġsp ites
Ġsp outs
Ġsp akest
Ġsp here
Ġsp illing
Ġsp heres
Ġsp aniel
Ġsp ruce
Ġfa ble
Ġfa ci
Ġfa red
Ġfa cing
Ġfa ctions
Ġfa cit
il ent
il ver
il ant
il ian
il ius
il ial
il fully
il bert
ĠC ould
ĠC ain
ĠC ond
ĠC reat
ĠC ity
ĠC ice
ĠC ORIOLANUS
ĠC itiz
ĠC ount
ĠC amill
ĠC ustom
ĠC ushi
ĠC ato
ĠC icester
ĠC aucas
ĠC LARENCE
ĠC rass
ĠC ourtney
Ġne b
Ġne v
Ġne forth
Ġne wness
Ġne ighing
Ġne gative
Ġne uter
ho g
ho le
ho ly
ho pe
ho ps
ho ppers
ho oty
Ġkn ead
Ġkn acks
AN OTH
ĠR u
ĠR est
ĠR ight
ĠR em
ĠR ice
ĠR ise
ĠR hes
ĠR ash
ĠR IVERS
ĠR heims
ĠR ouge
ĠR owland
ĠR alph
ĠR ainold
ĠR amston
ast ic
ast isful
Ġv ic
Ġv oy
Ġv ied
Ġv ary
Ġv ia
Ġv ip
Ġv aul
Ġv ouchsa
Ġv izard
Ġv ouched
Ġv antages
Ġv agabond
Ġv award
Ġv otarists
ct able
ct ives
ER VING
OR TIMER
ous ing
Ġwhat ever
Ġwhat soe
ight ed
Ġsh ill
Ġsh one
Ġsh orn
Ġsh red
Ġsh irt
Ġsh unning
Ġsh illing
Ġsh orter
ul s
ul se
ul ity
ul ars
ul king
ul iar
ul sion
ant ity
ant hipp
Ġ' ?
sel me
sel vish
Ġup ward
Ġup bra
Ġup turn
Ġup lift
Ġup start
art ar
art ings
art let
art ino
qu ed
qu ake
qu oth
qu ick
qu een
qu ins
qu ench
qu ering
qu arters
But chers
Ġgood lier
Ġgood fellows
ine er
ine ls
Ġlord ed
Ġlord ings
nt ly
nt leman
nt hia
Ġpr anc
Ġpr anks
Ġpr attling
Ġpr onouncing
Ġpr atess
Ġpr imroses
Ġat omies
Ġcom et
Ġcom ic
Ġcom ment
Ġcom eth
Ġcom bed
Ġcom edy
Ġman n
Ġman s
Ġman es
Ġman ure
Ġman ual
Ġman acle
Ġman gle
ĠM e
ĠM u
ĠM ore
ĠM ight
ĠM ine
ĠM end
ĠM ach
ĠM ethinks
ĠM asters
ĠM enel
ĠM eeting
ĠM ildly
ĠM opsa
ĠM errim
ĠM itigation
ĠM editer
ĠM ORTIMER
ĠM artino
Ġam id
Ġam ort
Ġam ber
Ġam iable
Ġam erce
Ġwhe reat
Ġwhe lp
ĠE ve
ĠE aster
ĠE den
ĠE yes
ĠE dm
ĠE rpingham
ĠE sse
end um
end ix
Ġcon ven
Ġcon ies
Ġcon ject
Ġcon form
Ġcon cept
Ġcon ceived
Ġcon join
Ġcon gea
Ġcon verse
Ġcon strue
Ġcon vict
Ġcon greg
Ġcon voy
Ġcon veying
Ġcon secr
Ġcon terar
ic ity
ic led
ic ates
ic ult
ic ience
ic ient
ic ip
ic ated
ic utio
ic ulate
ic atest
ic ola
ic ulous
ic atress
ic estershire
ic ulars
ble ts
ble eding
ong ing
ie f
Ġbl od
Ġbl ies
Ġbl ass
Ġbl aw
Ġbl az
Ġbl amed
Ġbl ades
Ġbl azon
Ġbl usters
Ġbl adders
Ġbl ubbering
ven erable
For ward
For sp
For got
For giveness
For tunate
are r
are nt
em on
em ning
em perate
em ploy
em bass
em iram
ĠG et
ĠG ol
ĠG all
ĠG reat
ĠG old
ĠG ab
ĠG ris
ĠG erman
ĠG allows
ĠG rind
ĠG uilty
ĠG recian
ĠG enoa
ĠG lendower
ĠG entles
ĠG rapes
ĠG ilbert
od or
od ged
od ary
od ia
od emon
Ġshe ar
Ġshe nt
Ġshe dd
Ġshe ars
Ġshe athe
Ġshe arers
Ġshe kels
au b
au phin
Ġthem es
Ġthem selvish
out ing
out running
out rements
Ġmore over
Ġwas hing
Ġwas ps
Ġwas hed
He w
He at
He ad
He ard
He igh
He red
ol i
ol ent
ol as
ol ver
ol and
ol ish
ol ves
ol the
ol born
ol umn
ol ii
ol atry
Ġhat s
Ġhat es
ĠL and
ĠL ight
ĠL ong
ĠL iv
ĠL ift
ĠL adies
ĠL adders
ĠL ADY
ĠL ombard
ĠL eda
ost er
ost le
ost ication
ost ilius
ind ful
ind eed
Ġthere at
Ġthere with
Ġthere upon
Ġthere abouts
Ġknow ist
ep ht
fe ather
fe cter
ond y
res pect
res pond
Ġsay ings
Ġhere to
Ġhere by
Ġhere abouts
Ġhere ditary
pp ery
Ġsw i
Ġsw ound
Ġsw eep
Ġsw ung
Ġsw erve
Ġsw itch
Ġsw ims
Ġsw oln
Ġsw ashing
Ġsw eating
Ġsw oons
Ġsw inper
Ġsw inged
Ġbr ay
Ġbr oth
Ġbr ist
Ġbr ush
Ġbr inish
Ġbr ushed
Ġor ient
Ġor gans
all ing
ĠS it
ĠS ound
ĠS erv
ĠS pare
ĠS ey
ĠS pir
ĠS itting
ĠS andal
ĠS ilence
ĠS eeming
ĠS wear
ĠS ug
ĠS pan
ĠS iby
ĠS pake
ĠS abb
ĠS imois
ĠS imon
ĠS ummon
ĠS eest
ĠS pain
ĠS inon
ĠS haw
ĠS arac
ĠS oto
ĠS omerv
ĠS eteb
ĠS ilver
ĠS hooty
ĠS ERVING
ĠS emiram
-- '
Ġus ury
Ġus uries
Ġus hers
Ġus urper
Ġthen c
ĠO n
ĠO ld
ĠO ut
ĠO vid
ĠB ad
ĠB id
ĠB ess
ĠB ear
ĠB oth
ĠB ack
ĠB ase
ĠB old
ĠB lo
ĠB ian
ĠB ark
ĠB UCKINGHAM
ĠB alt
ĠB ring
ĠB ohem
ĠB eshrew
ĠB arth
ĠB unch
ĠB reck
ĠB rid
ĠB osw
ĠB inac
ĠB onville
ĠB ourbon
ĠB entiv
ĠB ordea
ĠB rocas
ĠB eaum
Ġar row
Ġar ful
Ġar gue
Ġar chers
Ġar ithmetic
Ġgo at
Ġgo ad
Ġgo al
Ġgo bl
Ġgo gs
Ġgo ads
Ġgo aded
Ġgo sling
Ġgo blets
Ġun ci
Ġun ite
Ġun sw
Ġun apt
Ġun broke
Ġun rel
Ġun so
Ġun mer
Ġun sh
Ġun fol
Ġun right
Ġun sp
Ġun mit
Ġun ited
Ġun hop
Ġun ex
Ġun roll
Ġun stable
Ġun made
Ġun horse
Ġun roof
Ġun att
Ġun hur
Ġun child
Ġun thought
Ġun blown
Ġun viol
Ġun answer
Ġun sworn
Ġun aching
Ġun changing
Ġun sheathe
Ġun question
Ġun resolved
Ġun harm
Ġun intell
Ġun begot
Ġun grave
Ġun hearts
Ġun active
Ġun valued
Ġun roo
Ġun vul
Ġun hancy
Ġun earthly
Ġun holy
Ġun respect
ig o
ig er
ig od
ig old
ig able
ig ested
ig ma
ig uities
Ġwor l
Ġwor ry
Ġwor ks
Ġwor ries
ure r
ĠH our
ĠH ie
ĠH all
ĠH igh
ĠH ump
ĠH ames
ĠH oly
ĠH yr
ĠH onest
ĠH aving
ĠH ob
ĠH alf
ĠH onesty
ĠH annibal
ĠH AST
ĠH ydra
ĠH enr
ĠH arford
ĠH olborn
ĠH ostilius
ink ing
ink ets
ort ly
ort un
ĠV el
ĠV ail
ĠV ere
ĠV illain
ĠV ia
ĠV ict
ĠV irg
ĠV ouchsafe
ĠV erily
ĠV AUGHAN
ĠV itra
ĠV icutio
ĠV olumn
Ġmay est
el f
el ing
el ieved
el ids
As ide
As so
As ses
As say
As semble
Ġcome ly
Ġcome liness
Ġqu am
Ġqu art
Ġqu ic
Ġqu arry
Ġqu ired
Ġqu itted
Ġqu aked
Ġqu ote
Ġqu arts
Ġqu iver
Ġqu inces
Ġqu ivers
Ġqu ailing
Ġqu eas
Ġqu oifs
Ġqu enched
Ġqu antity
Whe reat
ook ed
Ġj et
Ġj un
Ġj ury
Ġj ills
Ġj umps
Ġj acks
Ġj aws
Ġj ouncing
Ġj ugs
Ġj elly
Ġj olthe
ak y
ak ings
ak ens
Ġmust ering
ng y
ng ry
Ġgra c
Ġgra ven
Ġgra ci
Ġgra ined
Ġgra pes
Ġgra vest
Ġgra zing
Ġho a
Ġho g
Ġho ot
Ġho art
Ġho ist
Ġho ars
Ġho gs
Ġho sp
Ġho oting
Ġho oted
Ġho arded
Ġho vering
Ġho lloa
Ġho bby
Ġho fver
Ġho xes
Ġho llown
ue e
ci ation
ci ated
Ġpro ce
Ġpro pe
Ġpro lo
Ġpro ps
Ġpro ft
Ġpro ject
Ġpro posed
Ġpro gn
Ġpro sec
Ġpro jects
Ġpro cures
Ġpro bable
Ġpro cured
Ġpro gen
Ġpro strate
Ġpro sely
Ġsa le
Ġsa ith
Ġsa ge
Ġsa ff
Ġsa ving
Ġsa vour
Ġsa voury
ĠP oo
ĠP ort
ĠP ower
ĠP ier
ĠP ud
ĠP etru
ĠP ub
ĠP hysic
ĠP eg
ĠP enel
ĠP edlar
ĠP aer
ĠP eople
ĠP ubl
ĠP ygm
ĠP repare
ĠP enker
ĠP etrarch
ĠP imper
ĠP artlet
ĠP oland
um a
Ġmad s
Ġmad st
Ġpl a
Ġpl un
Ġpl ack
Ġpl aster
Ġpl aint
Ġpl enty
Ġpl ash
Ġpl ats
Ġpl ated
Ġpl ume
Ġpl enting
Ġpl umes
Ġpl aus
Ġpl acket
Ġpl agued
AU RENCE
pe red
pe fied
Ġfather ly
Ġfather less
Ġhad e
ice th
ice hood
ĠW i
ĠW ot
ĠW end
ĠW alk
ĠW hile
ĠW onder
ĠW eep
ĠW orthy
ĠW oe
ĠW orth
ĠW ipe
ĠW enches
ĠW inc
ĠW ondrous
ĠW orship
ĠW rite
ĠW atert
ĠW hiles
ĠW akefield
ĠW olves
ist ure
ist ory
ist ling
ose th
ose ph
man ce
man ly
man ner
man ifested
Ġdeath men
Ġen for
Ġen chan
Ġen ointed
Ġen act
Ġen fold
Ġen vied
Ġen stra
Ġen amour
Ġen noble
Ġen grave
Ġen large
Ġen pierced
Ġen ormity
Ġen riched
Ġen raged
Ġen igma
ful filled
un just
un ctions
un ned
un lawfully
un stanched
un icatest
un ciation
Ġpo in
Ġpo is
Ġpo ise
Ġpo per
Ġpo ised
Ġpo king
Ġpo esy
Ġpo pulous
Ġpo sit
de ad
de ep
de red
de ceived
de eds
de groom
de fend
de vouring
de votion
Ġr out
Ġr ind
Ġr ook
Ġr ated
Ġr ises
Ġr ushing
Ġr aying
Ġr attling
Ġr isen
Ġspeak eth
Ġout right
Ġout run
Ġout done
Ġout cast
Ġout grown
Ġout dares
Ġout weighs
Ġout cry
Ġout rages
pt s
pt uous
OL IO
OL AS
DU K
Ġhow e
Ġhow led
Ġhow soe
Ġhow beit
ĠA y
ĠA ve
ĠA ves
ĠA ff
ĠA ud
ĠA men
ĠA po
ĠA rist
ĠA uthor
ĠA ub
ĠA Ed
ĠA bel
ĠA bbot
ĠA lexander
ĠA jax
ĠA wake
ĠA rabia
ĠA urora
Ġheart y
Ġheart en
Ġheart less
Ġtru ll
Ġtru ce
Ġtru mpery
Ġtru nche
Ġtru ckle
Ġhand ed
Ġhand ling
Ġhand kerchief
Ġhand iwork
Ġhand kerc
CA IUS
With hold
ign ess
ign ier
ign orance
Ġwho e
Ġwho les
Ġwho so
Ġwho soever
Ġwho soe
Ġmar row
Ġmar sh
Ġmar ries
Ġmar cheth
Ġmar gent
Ġmar jor
Ġmar riages
Ġmar igold
Ġwhen ces
Ġwhen sing
Ġhon ou
Ġhon ester
Ġhon ourest
Ġhon orato
Ġoff ends
Ġoff inger
Ġoff icious
Ġoff spring
ĠY o
har itable
har itably
Ġdis li
Ġdis cl
Ġdis claim
Ġdis place
Ġdis arm
Ġdis adv
Ġdis pense
Ġdis ann
Ġdis bur
Ġdis quiet
Ġdis sever
Ġdis play
Ġdis valued
Ġdis bench
Ġdis junction
Ġdis vouched
In ch
In fect
In sp
In herit
In certain
In estim
In capable
ack nowledge
Ġal way
Ġal ab
Ġal ac
Ġal ters
Ġal tered
Ġal ias
Ġal titude
Ġal ighted
wn y
Ġhea pt
Ġhea ping
Ġhear se
ec ost
ec ute
LA D
Ġbrother ly
Ġbrother like
Ġblood less
Ġblood ily
Ġab r
Ġab et
Ġab ed
Ġab ate
Ġab ject
Ġab bey
Ġab hors
Ġab using
Ġab jects
Ġab bot
Ġab ilities
Ġab jured
Ġab ysm
Ġab reast
Ġfo g
Ġfo h
Ġfo fter
Ġfo sset
Ġfo ppery
Ġear liness
Ġro ve
Ġro an
Ġro ver
Ġro bs
Ġro pes
Ġro aming
Ġro arers
Ġro pery
So on
So le
So vere
So fter
So cing
So journ
So ldiers
So ldier
Ġex ist
Ġex che
Ġex pose
Ġex ult
Ġex ten
Ġex cess
Ġex empt
Ġex clam
Ġex posed
Ġex cel
Ġex quis
Ġex actions
Ġex hibit
ag ation
ag ne
ag eness
Ġlook ers
erv a
erv ation
erv ices
Ġthink est
Ġwhere to
Ġwhere by
Ġwhere with
Ġwhere withal
ef ull
ef actors
Ġey ne
Ġey eless
Ġey elids
GLO UCES
not ice
not able
not orious
Ġdes olate
Ġdes olation
Ġfriend liness
How ever
How soever
How lings
Ġri ve
Ġri ver
Ġri band
Ġri ding
Ġri gg
Ġri vals
Ġri chest
Ġlea f
Ġlea se
Ġlea sed
Ġlea gues
Ġmost ake
Ġart illery
Ġart iculate
Ġwar ried
Ġwar ms
Ġwar rong
Ġwar mer
Ġwar ns
Ġwar ped
Ġfl own
Ġfl aw
Ġfl ows
Ġfl ier
Ġfl ail
Ġfl irt
Ġfl aunt
Ġfl ames
Ġfl ask
Ġfl ote
Ġfl amed
Ġfl outs
Ġfl ax
Ġfl aying
Ġfl aws
Ġfl oating
Ġfl amens
Ġfl aky
Where with
Ġsl it
Ġsl ake
Ġsl ish
Ġsl ash
Ġsl ught
Ġsl umb
Ġsl op
Ġsl aughters
Ġsl ips
Ġsl ipt
Ġsl iding
Ġsl ugg
Ġsl uiced
Ġsl imy
Ġsl uttish
Ġsl anderers
ment fully
urn ed
urn ished
Ġbet id
Ġbet fore
Ġbet os
Ġbet roth
Ġbet rot
ĠT en
ĠT end
ĠT urn
ĠT ale
ĠT yb
ĠT ues
ĠT urp
ĠT rue
ĠT itan
ĠT rip
ĠT rot
ĠT rit
ĠT wice
ĠT yrian
ĠT albot
ĠT roil
ĠT amworth
ĠT artar
Ġtw ill
Ġtw ine
Ġtw ink
Ġtw ist
Ġtw ang
Ġtw itting
Ġtw inkle
Ġtw isted
LE MEN
Ġfear fully
Ġhast es
Ġhast en
Ġhast ings
Ġhast ening
ff led
aught ed
Is ab
ough s
Be at
Be get
Be gu
Be gg
Be ating
Be yond
Be got
Be queath
Be reft
ber ry
ber ds
ber das
ap s
ap es
ap ter
ap ied
ap hysic
Ġbre w
Ġbre ather
Ġbre ec
Ġbre ach
Ġbre eds
Ġbre aches
Ġbre eches
Ġbre ech
cc ata
ĠK ill
ĠK ence
ĠK ings
ĠK iss
ĠK eep
ĠK ated
Ġcou ples
iz y
iz on
iz ed
Ġfair s
Ġfair y
Ġfair ness
Ġnew er
Ġnew born
Ġpart icip
ss om
It s
It alian
It haca
Or d
Or der
ple be
ple ased
ple asers
Ġad age
Ġad ding
Ġad dle
Ġad heres
Ġad judged
Ġad jacent
Ġad oreth
Ġcall at
Ġcall et
Ġcall est
Ġany thing
Ġpre st
Ġpre ach
Ġpre ten
Ġpre med
Ġpre jud
Ġpre fix
Ġpre mises
Ġpre dic
Ġpre fers
Ġpre late
Ġcomm iss
Ġcomm its
Ġcomm ended
Ġcomm itting
Ġcomm ixture
Your s
Ġstand er
Ġstand est
Ġstand ard
Ġstand eth
Ġcl ay
Ġcl ad
Ġcl od
Ġcl own
Ġcl ack
Ġcl uck
Ġcl ient
Ġcl ub
Ġcl ipp
Ġcl usters
Ġcl asps
ass ing
ass al
Ġtrue born
Ġsweet y
Ġsweet ness
Ġsweet me
Ġsweet heart
Ġsweet ened
PET HUMIO
hing ed
Ġown s
Ġown ing
TH OM
TH ARINA
aw hile
Ġtr ot
Ġtr ance
Ġtr ough
Ġtr ash
Ġtr outs
Ġtr adition
Ġtr aducement
Ġtr inkets
Ġper use
Ġper ished
Ġper ils
Ġper ceived
Ġper cus
Ġper sec
Ġper verse
Ġper mitted
Ġper missive
Ġper tain
Ġper vert
There by
There take
ĠD is
ĠD aint
ĠD aughter
ĠD eep
ĠD raw
ĠD eliver
ĠD uns
ĠD arest
ĠD aph
ĠD aed
ĠD iom
ĠD uchess
ĠD reams
ĠD espising
ĠD estinies
ĠD auphin
ĠD izy
Ġwr ings
Ġwr ough
Ġhead ing
li ver
li us
li ct
li ves
li ps
li kes
li ances
the ning
Ġmean ly
Ġmean ings
red ient
red ible
red eliver
ĠCl are
ĠCl aud
ĠCl arib
ĠCl owder
When e
When ever
When soever
to es
to ads
to pping
to ssed
Ġpres age
Ġpres erving
Ġpres cience
Ġpres sing
Ġpres ages
Ġpres umes
ause d
Ġsc ent
Ġsc ion
Ġsc ant
Ġsc aff
Ġsc ared
Ġsc ales
Ġsc reen
Ġsc roll
Ġsc off
Ġsc owl
Ġsc ald
Ġsc once
Ġsc aled
Ġsc reech
Ġsc abs
Ġsc rivener
Ġsc orch
Ġsc otched
Ġsc ripture
Ġsc urril
Ġsc alps
Ġsc apes
Ġbear n
per ch
per for
per ceive
per fect
per form
per chance
per tied
per adventure
per bol
per dona
per fecter
Here in
Here after
Ġmo i
Ġmo at
Ġmo vers
Ġmo ated
Ġmo isture
Ġke That
Ġra m
Ġra ve
Ġra ins
Ġra rer
Ġra mp
Ġra ils
Ġra kes
Ġra bb
Ġra ught
Ġra cks
Ġra vel
Ġra vish
Ġra iny
Ġra pture
Ġra zure
ite ly
Ġrem s
Ġrem it
Ġrem ission
Ġrem oves
Ġrem orseless
Ġrem onst
ab ility
ab oard
ab ris
ĠF ly
ĠF OR
ĠF ive
ĠF ather
ĠF ate
ĠF ree
ĠF ix
ĠF ates
ĠF uries
ĠF ellows
ĠF riends
ĠF riend
ĠF rederick
ĠF landers
ĠF ewness
ĠF errers
ĠF alcon
Ġdown ward
Ġapp ertain
Ġapp ease
Ġapp rent
Ġapp lied
Ġapp roof
Ġapp arition
Ġapp endix
Ġapp liances
Ġwh oo
Ġwh ined
Ġwh irl
Ġwh ining
Ġcont est
Ġcont emn
Ġcont ended
Ġcont roll
Ġcont aining
Ġcont ending
HA SINA
lo it
lo ving
lo gic
ty ing
Ġarm ies
Ġarm ours
less er
sw ord
sw old
sw ift
sw allow
ran ces
ran gle
ran ean
ran nical
Ġbeg one
Ġbeg ets
Ġunt ie
Ġunt alk
Ġunt ried
Ġunt oward
Ġunt ired
Ġunt uned
Ġunt angled
Ġunt ruth
Ġunt rus
Ġunt rodden
Ġma il
Ġma ze
Ġma ims
Ġold er
Ġold est
ps y
Ġim itation
Ġim itate
ĠMar y
ĠMar ia
ĠMar cians
ĠMar gery
ĠMar seill
for sw
for sooth
me w
me at
me asure
me ans
me gs
me aning
me leon
Let s
Ġlong ly
Ġchild ness
Ġever more
Ġrep ay
Ġrep ast
Ġrep ass
Ġrep less
Ġrep ute
Ġrep ined
Ġrep uted
Ġrep osing
Ġrep lant
Ġrep rob
Ġrep liest
Ġrep aired
Ġrep rieves
Ġrep rove
Ġrep ulse
Ġlive th
Ġpoor ly
She pard
Ġaf ar
Ġstay ing
Ġstay ed
Ġmight ier
Ġmight iness
Ġmight iest
Ġru g
Ġru ed
Ġru les
Ġru ins
Ġru dd
Ġru des
Ġru pture
Ġru diments
Ġru ral
Ġcons ult
Ġcons erve
Ġcons lent
Ġcons olation
Ġcons umm
Ġcons ists
Ġcons pires
Ġcons istory
ĠJ ew
ĠJ ac
ĠJ amy
ĠJ uly
ĠJ esus
ĠJ anuary
ĠJ epht
ĠJ oseph
Ġfriends hips
hall ond
hall owed
iss es
iss uing
Ġcour st
Ġcour ser
Ġcour sers
Ġpe g
Ġpe w
Ġpe at
Ġpe ise
Ġpe bb
Ġpe ering
Ġpe opl
Ġcrown ing
Ġle ans
Ġle op
Ġle ases
Ġle asing
Ġle vity
Ġle vies
Ġle iger
Ġhouse wife
Ġhouse keeping
Ġhar row
Ġhar ness
Ġhar ts
LEON T
uck ling
Ġbetter ing
erc ast
erc ises
Ġrest ed
Ġrest ful
Ġrest itution
Ġent ered
Ġent hra
Ġent angled
Ġent itle
Ġent itling
Ġent ombed
Ġset tle
Ġlie u
che ering
che qued
Ġwit ting
ĠWarwick shire
ts y
ts ied
Ġtong u
Ġres ide
Ġres ides
Ġres ident
Ġres ounding
Ġres cuing
Ġres ervation
Ġkeep ers
Not e
Not ing
Ġsle e
Ġsle ight
ont ory
ont roll
ont inent
Go es
Go ing
Go verns
os est
os ity
os ite
Ġgri pes
Ġgri ping
hard y
hard iness
hard ening
Ġtri er
Ġtri pp
Ġtri pe
Ġhence forward
une asy
une xperienced
ford s
Ġbest ial
ardon able
ud es
Ġyoung ly
Ġfoll ing
Ġacc lam
Ġacc urst
Ġacc outrements
sed ucing
Ġpur ross
Ġpur itan
Ġend ing
Ġend art
Ġend ures
Ġend uring
Ġkind s
Ġkind er
Ġkind ling
ilt ier
Ġcomp el
Ġcomp ounds
Ġcomp act
Ġcomp utation
Ġcomp assed
Ġcomp romise
ST I
ale ct
Ġpri zed
Ġpri zes
Ġpri oress
Ġelse man
Pro duce
Pro voke
Pro perly
Pro vide
cl ing
cl out
cl asp
cl usters
cl uding
cl aps
ft ing
ft less
Ġco a
Ġco pe
Ġco ign
Ġco ach
Ġco ining
Ġco llo
Ġco bble
Ġco verent
Ġco active
Ġco bwe
Ġco hered
Ġco vets
Ġcha fe
Ġcha sed
Ġcha ract
Ġcha sing
Ġcha mbers
Ġcha fes
Ġcha plain
Ġcha riot
Ġcha meleon
Ġput ter
Ġgu ided
Ġgu ider
Ġgu erd
Ġgu iding
Ġdear s
ason ably
ail est
ect s
men cy
Ġsm art
Ġsm atter
Ġsm othe
Ġsm ote
Ġsm acks
ert ake
Ġsub missive
Ġsub je
Ġback ing
Ġdre ads
Ġdre nched
Ġhus ks
Ġearth y
Ġearth quake
Ġtra pp
Ġtra ces
Ġtra mple
Ġtra gical
Ġtra ctable
Ġbid es
Ġfind er
Ġfind ings
ople xy
Ġhigh most
Ġhigh was
Ġneed er
Ġneed ed
Ġneed ly
St ood
St ain
St il
St art
St ep
St ab
St ars
St rong
St eep
St oop
St uff
St amp
St rat
St range
St arr
St reaming
St arve
St raining
St ifle
St ruck
St rangle
int us
int ments
int ended
ren ed
ren own
ren owned
get h
get ting
tw e
tw ig
Ġfell est
vere nd
Ġforth com
Ġhusband ed
MER C
Ġbra g
Ġbra ch
Ġbra ver
Ġbra ves
Ġbra very
Ġbra wn
Ġbra gs
Ġbra ckless
Ġhome ward
Ġseem ers
Ġright ful
fort y
fort unes
ix ed
Ġban e
Ġban ks
Ġban ners
Ġban kind
Ġban isher
CL ARE
ach um
ach ieving
Ġmind less
Ġche s
Ġche w
Ġche ated
Ġche aper
Ġche veril
Ġpeople d
be ck
be ard
be ef
be hind
be ards
be gged
be holder
be ggar
be ginning
Ġchar ging
Ġchar ities
Ġchar nel
Ġlaw fully
Ġbri dge
Ġconf used
Ġconf essed
Ġconf utes
Ġconf isc
Ġconf licts
Ġconf iscate
Ġconf usions
Ġconf lict
Ġconf ixed
Ġtre ads
Ġtre bles
Ġchan geth
Ġgl ut
Ġgl ust
Ġgl ose
Ġgl ide
Ġgl ues
Ġgl ued
Ġgl azed
Ġgl ances
Ġgl owing
Ġgl impse
Ġshow ed
Ġshow est
Ġimp ure
Ġimp ress
Ġimp ale
Ġimp awn
Ġimp rim
Ġimp osed
Ġimp utation
Ġimp iety
Ġimp aled
Ġimp otent
Ġimp rese
Ġimp oster
Ġmaster less
Ġpass ay
Ġpass able
Ġpass ite
Ġpass ions
Ġpass engers
Ġlight er
Ġjoy ous
Ġjoy less
Ġjoy fully
Ġbod ged
Ġbod ily
Ġbod kin
Ġdou bl
Ġfort u
Ġfort ed
Ġfort ings
Ġfort ress
Ġfort ify
Ġfort itude
All ow
All aying
All owing
Ġmist y
Ġmist res
Ġmist akes
Ġmist aken
Ġmist emper
Ġmist akings
Ġwo efull
Ġnat ic
Ġnat urally
Ġroyal ize
Do ve
Will iam
bt ly
its un
Ġlast ed
Ġthr ush
Ġthr ills
Ġthr illing
swer ver
Cl ose
Cl aud
Cl app
Cl ubs
Cl erk
Cl ambering
Ġbes et
Ġbes peak
Ġbes creen
Ġbes pice
Ġhapp ened
ĠAn other
ĠAn na
ĠAn cus
ĠAn gelic
ĠAn selme
Ġmis pl
Ġmis use
Ġmis like
Ġmis used
Ġmis ude
Ġmis place
Ġmis app
Ġmis give
Ġmis call
Ġmis report
Ġmis govern
Ġmis beha
Ġmis proud
Ġmis inter
Ġmis deed
Ġmis begot
Ġmis gives
Ġmis erably
Ġmis leading
Ġmis usest
Ġmis deeds
Ġmis fortunes
ens es
ens ive
Ġdev ices
Ġdev ote
Ġjust s
Ġjust ified
Ġplace th
Ġwrong ing
Ġpresent s
Ġpresent ation
Ġpresent eth
mb als
Ġsorrow ed
Ġafter s
Ġcare d
Our s
Our self
ition ary
Ġch ine
Ġch inks
Ġch iders
Ġch iding
Ġch isel
Ġch irur
Ġch imney
Ġch rosp
Ġch oughs
Ġhelp it
Ġhelp ed
Ġhelp ful
Ġhelp less
Ġmeet in
Ġmeet ings
Ġunder pro
Ġunder ta
Ġunder hand
Ġunder bearing
Ġunder crest
Ġgod father
Ġgod ded
Un pl
Un apt
Un like
Un mer
Un sh
Un sa
Un arm
Un seem
Un heard
Un rip
Un people
Un certain
Un happ
Un even
Un fit
Un known
Un lawfully
Un comfortable
Un furnish
Un inhabit
Un reasonable
Un separable
Un venerable
Un manner
Un clasp
air ing
ons ent
ons idered
Ġpat i
Ġpat ent
Ġpat rician
Ġsun k
Ġsun rising
thy self
Ġeye ball
An cient
An chors
An thony
iol able
Ġbus sing
Ġfool eries
Ġhither to
Ġfall ow
Ġfall ible
iv est
iv ates
iv ative
Ġanswer able
Ġmaid ens
Up bra
Ġgentleman like
Ġwoman ly
Ġwoman kind
ject ural
ove able
Ġstri ves
Ġstri king
Ġstri vest
Ġstri kest
Ġstri cken
ĠEng lant
Ġstre ak
Ġcoun ters
Ġhum s
Ġhum bl
Ġhum bles
Ġover come
Ġover joy
Ġover set
Ġover take
Ġover fl
Ġover we
Ġover go
Ġover look
Ġover much
Ġover blown
Ġover whelm
Ġover gone
Ġover ween
Ġover fond
Ġover peer
Ġover ture
Ġover thrown
Ġcomfort ing
Ġcomfort ed
Ġgracious ly
Ġsleep er
Ġsleep est
Ġtalk est
Ġbel ch
Ġbo ard
Ġbo ss
Ġbo ors
Ġbo ats
Ġbo lly
Ġbo iled
Ġbo arded
Ġbu z
Ġbu gs
Ġgr in
Ġgr ind
Ġgr oun
Ġgr ating
Ġgr asp
Ġgr inning
Ġgr adation
Ġbed s
Ġbed ash
Ġbed rench
Ġbed fellow
Ġbed azz
Ġbed aub
Ġinde ces
Ġret ort
Ġret reat
Ġret ires
Ġcourt ain
Ġcourt iers
Ġcourt ez
Ġcourt esies
ere ness
ere cted
ans ing
Ġatt ire
Ġatt ires
Ġatt ired
Ġplay ing
Ġplay fellows
Ġdra ve
Ġdra bs
Ġdra chm
Ġdra ught
Ġthank ed
Ġthank less
Ġthank fulness
Ġser mon
Ġfight er
Ġinst ate
Ġinst all
Ġinst itution
Ġinst itute
Ġinst alment
hold ing
Ġfalse h
HORTENS IA
Sh ot
Sh ut
Sh ine
Sh ows
Sh uts
Sh outing
Ġgrave l
pect ives
pect uities
,' --
pl ore
pl ant
pl ine
pl ants
pl anted
Ġass ail
Ġass ailing
Ġass oci
Ġass uage
Ġadv antages
pen sed
pen ny
pen itent
Ġmerc er
Ġmerc hand
Ġmerc enary
Ġmerc atant
Ġwant ed
Ġwant eth
Ġcur l
Ġcur rants
Ġcur died
Ġcur tsy
Ġgi ber
Ġgi bingly
Ġgi psy
MAR IUS
Ġwish ful
Ġdan k
Ġdan gly
Ġdan gling
Ġdream ing
Ġdream ers
Ġbusiness es
Al ive
Al ague
Al ready
Al ways
Al beit
More over
hed ge
Ġsent entious
Ġsent inels
Ġpers pectives
any thing
Ġstra i
Ġstra nd
Ġstra ited
Ġstra ining
Ġdisc ase
Ġdisc olour
Ġdisc overed
Ġdisc onful
Ġdisc oursed
Ġdoubt ing
BEN V
der ived
Ġbreath less
Ġcommand ers
Ġsen ator
Ġsen iory
ars op
Ġprom otion
Ġprom ising
Ġprom pter
Ġprom ontory
Ġspir ts
Ġwind y
Ġlay s
Ġlay ing
Ġpity ing
Ġhang ings
Ġhang eth
Ġremem bered
Ġfoul est
Ġfree zes
Ġfree zeth
Ġcra ven
Ġcra ving
Ġcra zed
Ġcra fty
Ġdep op
Ġdep utation
Ġdep uted
Ġdep rived
Ġsec u
Ġproud s
Ġproud lier
Ġcontent ion
Ġcontent ious
Tw ould
com bs
com mon
com bat
com mission
com pan
com position
com plain
com pound
com ondy
Ġtend ed
Ġsister s
Ġsister ly
Ġgre asy
Ġgre edy
Ġget s
Ġget ter
Ġint itle
Ġint olerable
Ġint rusion
Ġint estate
Ġint emperate
eter a
eter nity
Ġkiss ness
Ġsaw est
use th
Ġserv ile
vers ity
Ġsovereign s
Ġsovereign ly
yb ird
Ġmer maid
Ġborn ing
Ġfire d
Ġhorse men
Ġfaith less
Ġfaith fully
ĠNor bery
Ġaw ed
Ġaw eless
Ġaw akens
Ġden iest
Ġden ote
Ġden unciation
usic al
Ġsupp ress
Ġsupp ler
Ġsupp lic
Ġsupp lant
Ġsupp resseth
Ġsupp orters
Ġsupp osest
Ġspo ons
Ġspo kest
Ġbreak fast
Ġsubject ed
gu ess
gu ide
up iscible
Ġlam es
Ġlam ps
Ġlam ents
Ġlam pass
ĠLAU AURENCE
Ġmark ed
Ġmaj or
Ġmaj estical
Ġtraitor ly
Ġtraitor ous
Say s
Say ing
Ġwin ner
Ġwin ners
rem ity
rem edy
rem oveable
Ġcond emns
Ġcommon ly
Ġcommon ers
Ġcommon alty
HAST I
form able
Ġmistress es
BER T
ring er
Ġaff ied
Ġaff ray
Ġaff ability
Ġsin n
Ġsin ister
Ġsin ner
Ġsin ners
Ġsight ed
Ġmet re
Ġmet res
Ġmet test
Ġmet aphysic
Ġrequ ited
Ġrequ ites
Ġrequ isite
Ġval ued
Ġval idity
Look ing
ac er
ac ers
ac ity
ac led
ac ides
ac cept
ac ulous
Ġsit hence
rel ity
Ġdef ied
Ġdef ends
Ġdef used
Ġdef ying
Ġdef iled
Ġdef low
Ġdef init
Ġdef lower
Ġdef ensive
Ġdef acer
Ġsure st
Ġreturn ing
so p
so on
so led
so lem
so ftly
so lemn
vent h
vent ion
Ġsad der
Ġmon uments
Ġmon achum
Ġgener ous
Ġgener ations
Ġgener ative
Ġgener osity
PR IN
bl est
bl ade
Ġcho king
Ġcho pping
Ġcho pped
Ġdeep est
Ġfoot stool
ĠJul io
Ġdanger ou
Ġfarewell s
mer ry
mer riest
no inted
no intments
sh ut
sh ore
sh own
sh orn
sh ower
sh ows
sh rew
sh rift
sh runk
sh ortly
Ġcold est
Ġcold ness
Ġheir less
Ġgrow eth
ceed s
Ġwarrant ed
Ġwat c
Ġwat ches
Ġask er
Ġask ance
Ġask eth
Ġsuff rage
Ġpluck er
Ġreport ing
Ġspirit ing
Ġspirit ual
Wh isper
Wh iter
ner able
Ġair s
Ġfault less
ĠBoling b
Ġjo g
Ġjo ins
Ġjo gging
Ġjo llity
Ġbetw itched
Ġlearn s
ĠCA LEY
ĠClifford s
Ġentreat i
ĠJuliet ta
Ġord ance
Ġord ained
Ġord nance
Ġmur rain
Ġmur mur
Ġbat he
Ġbat ing
Ġbat hed
Ġbat ten
Ġbat talion
Ġfound ations
Ġfast en
Ġfast est
Ġdisp o
Ġdisp ort
Ġdisp osing
Ġdisp ossess
Ġdisp aragement
Ġdisp raise
Ġdisp enses
Ġground ed
Ġperson a
Ġperson al
Ġperson ally
Ġservice able
Can ker
Like ly
Some what
und s
und isc
vo ices
vo iced
Ġpast e
Ġpast ry
Ġpast ures
Ġpast orals
Ġvis ion
Ġvis itor
Ġvis ible
ĠLu cre
Ġquick sand
Ġtrust s
Ġtrust ing
SE PH
Tell est
bs cri
with in
with out
with draw
Ġgrant ing
Ġinf old
Ġinf used
Ġinf act
Ġinf usion
Ġinf ants
Ġinf liction
Ġiss uing
Ġiss ueless
Ġiss hape
Ġstrong est
Ġdesire st
Ġdesire rs
Ġrun ly
Ġrun ners
Ġrun away
Ġhard en
Ġhard ed
Ġhard est
Ġhard ness
Ġhard iest
Ġhard ening
Sp it
Sp ake
Sp are
Sp ies
Sp urn
Sp raw
Sp akest
Sp rings
Ġmin im
Ġmin ion
Ġmin ist
Ġmin ts
Ġmin ions
Ġmin imo
Ġmin nows
Ġmin ority
Ġfore s
Ġfore ward
Ġfore well
Ġfore Ed
Ġfore noon
Ġfore fend
Ġfore cast
Ġfore said
Ġfore named
Ġfore told
Ġwear iest
Shepherd ess
Ġconfess es
Ġconfess ing
pare nt
Ġwoo es
Ġwoo llen
Ġfield ed
Ġhell ish
Ġprof essed
Ġprof anted
Ġstreng thening
Ġcounsel sion
SEBA STI
Com est
Com mon
Com pr
Com plot
Com pact
Ha led
Ha berdas
fol ks
Ġwret ches
Ġwret cher
Ġfur l
Ġfur row
Ġfur red
Ġfur ze
Ġdiv ides
Ġdiv ining
Ġdiv inest
Ġdiv ideth
Ġcar ve
Ġcar man
Ġcar pet
Ġcar ouses
Ġcar nal
Ġcar ping
Ġcar oused
Ġcar buncle
Ġcar nations
Ġcar pets
Ġcar ousing
Ġpar c
Ġpar ch
Ġpar ish
Ġpar cell
Ġpar lor
Ġpar cel
Ġpar amour
Ġpost ing
Ġpost ed
oop ing
Ġspeed ing
Ġspeed ed
Ġwork manly
Ġjud ges
Ġjud icious
Ġjud gments
ump hant
Ġhearts ick
Ġdesp ain
Ġdesp ise
Ġmock er
Ġmock ers
ne as
ne gl
now ledged
ĠN ell
ĠN ever
ĠN ext
ĠN estor
ĠN ecess
ĠN icanor
ĠN orthampton
ĠN eighbour
ĠN ero
ĠN uma
ĠThe e
Ġter rest
Ġter med
Ġten ors
Ġten ement
Ġten ants
Ġwhi pp
Ġwhi ps
Ġwhi pping
Ġdam es
Ġdam age
Ġcut t
Ġcut ting
Ġinc est
Ġinc ertain
Ġinc ident
Ġinc ision
Ġinc idency
Ġinc redible
Ġinc ontinent
Ġrec all
Ġrec ure
Ġrec ourse
Ġrec overy
Ġrec overed
Ġrec oil
Ġrec anting
Ġdel uge
Ġdel uding
Ġdel icates
Ġharm y
HER BERT
ĠHe len
ĠHe cub
Ġact ple
Ġact ors
Ġsat in
Ġsat iety
Ġbound eth
Ġye oman
ĠCap er
Ġshort ness
Ġshort ens
Ġattend s
Ġattend ing
Ġattend ant
Marry ing
See k
chan ges
Ġag ent
Ġag ate
Ġag ile
Ġag ents
Ġag let
Ġag gra
Ġag rees
Ġag round
rest rained
Ġdish clout
Ġpra ging
let ter
Ġsto ics
Ġsto ccata
Ġtrib utary
Ġdraw er
Ġdraw ing
Ġdraw bridge
fid iused
hood s
Ġsing er
Ġsing ly
Ġwidow hood
Ġdist ill
Ġdist raught
Ġdist rain
Ġdist racted
Ġdist raction
Ġdist inction
Ġdist ribut
Ġcor por
Ġcor onet
Ġcor respond
Ġstir reth
Ġthanks giving
Ġpoint ing
Ġhonest ly
Unt ouch
Unt ainted
Unt utor
uff icience
ĠTh racian
ĠTh urt
Ġmusic al
Ġwonder f
Ġgar b
Ġgar ling
Ġgar ners
Ġchee red
Ġtitle less
Ġta e
Ġta pp
Ġta vern
Ġta verns
Ġta wny
Ġsick er
Ġsick en
Ġsick liness
Ġwa verin
Ġwis p
Ġwis dover
Ġbur r
Ġbur gher
Ġbur dens
Ġforb ad
Ġweak en
Ġweak ly
Ġweak est
Ġweak ling
Ġem pery
Ġem peror
Ġem inent
Ġem mence
Ġem mew
Ġjest ed
Ġabs olved
Ġbreast ed
Ġpret end
Ġpret ext
Ġconsul ship
Ġconsul shi
Ġgrie ving
claim s
claim ing
po ints
Ġsk ains
Ġsk ills
Ġsk ilful
Ġsk itless
Ġsk irts
Ġsign or
Ġwall ow
Ġbad est
Ġbad ness
Ġbad ges
Ġcast les
Ġcast aways
Ġforg iv
Ġforg iven
Ġforget s
Ġreg ister
Ġreg ia
Ġreg ions
Ġreg enerate
Ġplain er
Ġplain ing
Ġplain est
Ġplain ness
Ġcheer ing
Ġwed ged
Ġbook ish
Ġdu b
Ġdu ly
Ġdu bb
Ġdu cat
Ġdu chess
Ġdu ngy
Ġpoison s
Ġpoison er
Ġmove th
Ġmove able
Ġmove abl
Ġquarrel some
Ġquarrel ishmen
Ġsatisf iance
Sw ord
Sw ills
Sw arm
Sw itch
Sw inge
ip otent
rist ian
she athed
she arers
uous ly
Ġac re
Ġac orn
Ġac ross
Ġservant ed
Ġburn ed
Ġburn eth
Ġdire st
Ġdire ctions
Ġcr one
Ġcr ime
Ġcr ushing
stand s
Ġred oubled
Ġsoft est
Ġblack s
Ġprop agate
Ġprop agation
Ġext inct
Ġext raught
Ġext empore
Ġext raordinary
Ġbegin ners
Ġrequest s
Ġrequest ed
Call s
Must er
Re ason
Re lease
Re vive
Re voke
Re venged
Re gard
Re veal
Re ignier
bb ling
ung ed
ung enitured
ĠFor ward
Ġbar m
Ġbar n
Ġbar bed
Ġbar ricado
Ġfeast ed
Ġdark est
Ġdark ened
Ġcase d
Ġcase ments
Ġthri fts
Ġthri fty
Ġthri ftless
irm ed
Ġev ade
Ġev asion
Ġev idences
Ġworth iness
ĠVols cient
ĠAufidius es
Ġexp el
Ġexp ire
Ġexp osition
Ġexp iate
Ġexp iring
Ġexp iration
Ġexp ulsion
Ġexp loit
Ġflatter s
Ġflatter ies
Ġconsent ing
Ġrespect ing
Ġrespect ive
Ġbrief er
mand ments
Ġbow ls
Ġble e
Ġble w
Ġble at
Ġble ated
Ġble aching
Ġble nded
onour able
Ġhot ly
Ġhot ter
Ġhot test
Ġinter red
Ġinter pose
Ġinter join
Ġinter pre
Ġinter ims
Ġinter changing
Ġinter mix
Ġund ress
Ġund oes
Ġund oubt
Ġund isc
Ġund oubted
Ġund utiful
Ġund eaf
Ġund eck
Ġund ream
Ġemb ark
Ġemb oss
Ġemb owell
Ġemb roider
Ġancient ry
ĠCh ina
Ġvict ress
Ġvict ories
Ġdread fully
Ġdangerous ly
Ġest ates
Ġmortal ity
Ġfra ud
Ġfra gments
Ġfra mes
Ġhur ly
Ġhur dle
right s
Ġvow ed
Ġvow el
Ġprin ts
Ġprin co
Ġprin chment
ĠSir s
ĠBaptist s
Ġsac ret
bey s
bey ond
Ġbuy er
Ġjoin er
Ġvisit ed
Ġvisit ors
ĠRichmond s
Ġbitter ness
sp it
sp ear
sp av
sp reading
ura bly
ĠThis be
Ġbawd s
Ġcol ic
Ġcol ts
Ġcol oured
Ġcross ly
Ġlim p
Ġlim ber
Ġlim ited
Ġlim ping
Ġlim itation
Ġthrow er
Ġthrow ing
Ġopp osition
Ġopp rob
Ġopp resseth
Ġopp ortune
Ġopp ortun
Ġpen ance
Ġpen alties
Ġpen cil
urs ors
ĠServant s
ĠPl antagen
ĠPl uto
ĠPl acentio
Ġscorn ful
Ġscorn fully
Ġmoon ty
Ġmoon light
Ġappear ing
Ġappear ance
Ġlament ing
Ġlament ably
Ġvaliant ness
Speak est
Bes ide
Bes pake
but s
but ors
but ton
but terfly
coun sell
coun cils
sc ared
sc arce
Ġbro k
Ġbro king
Ġbro ker
Ġca ution
Ġca verns
Ġca villing
Ġca utel
Ġca apter
Ġca etera
Ġcle ars
Ġcle aving
Ġcle arer
Ġcle ansing
Ġcreat ing
Ġow eth
Ġow ls
Ġgall ery
Ġgall ants
Ġgall eys
Ġgall iases
Ġgall imau
antag ed
Ġoffer ing
Ġalmost er
Ġflesh monger
Ġtriump hing
Ġcompl ot
Ġcompl iments
Ġsuccess ive
Ġsuccess fully
Ġsuccess ively
Ġid ea
Ġid les
Ġid leness
Ġid olatry
Ġdest inies
Ġcap ers
Ġcap itulate
Ġcap acity
Ġlack ed
Ġnay ward
Ġpain ter
Ġpain fully
Ġbeast liest
Ġreb ate
Ġreb ukes
Ġreb ellious
Ġang ling
Stay ing
Ġpossess or
Ġpossess es
ĠChrist ians
ĠChrist mas
Con ceive
Con vey
Con ceit
Con found
Con ceives
Con strue
Con geal
Con strains
Con cern
Con cluding
Con jectural
Con formable
Pl aster
Pl ague
Pl ots
Pl aces
Pl unged
Whi pp
Whi pt
bit ing
eem ents
your self
Ġtear ing
Ġtear ful
Ġsur ge
Ġsur ges
Ġsur vive
Ġsur geon
Ġsur mises
Ġsur mise
Ġsur viv
Ġsur render
Ġben ched
Ġben ediction
Ġfill ed
Ġfond ness
Ġlab el
Ġins ult
Ġins ufficience
Ġform at
Ġeas iest
Ġstru gg
Ġshad y
Ġusurp ed
Ġusurp ers
Ġtrump eter
Ġchance llor
Ġdefend ing
Ġdefend ed
Ġdefend ers
Ġexecution s
Ġexecution ers
Ġdamn ation
Ġut ters
Ġut tere
Ġap ron
Ġap ricock
Ġap ostle
Ġap oplexy
Ġay e
Ġsho e
Ġsho ps
Ġsho ots
Ġsho oting
Ġsho vels
Ġsho emaker
Ġmatch ing
Ġwild est
Ġpu gging
Ġpit ched
Ġpit cher
Ġinj unctions
Ġinno vator
Ġur n
Ġur ine
Ġur gent
Ġur chins
Ġkneel s
Ġkneel ing
ĠSt ay
ĠSt ony
ĠOxford shire
Ġproceed ed
Ġproceed ers
ĠPaul in
Ġoffence ful
force ment
Ġslew est
Ġforbid den
Fa ults
Fa vours
Fa irer
Mar ies
Mar ried
Mar cus
Mar iners
Master ly
ked st
vol ences
Ġshi vers
Ġshi pping
Ġshi fts
Ġshi vering
Ġmed al
Ġmed ler
Ġmed lars
Ġmed itating
Ġmod ern
Ġmod erately
Ġwalk ed
Ġfat he
Ġfat ting
Ġfat igate
Ġfam ine
Ġfam ily
Ġocc ident
Ġocc asions
Ġreign ing
Ġneck lace
Ġunc urse
Ġunc over
Ġunc urrent
Ġunc ertainty
Ġunc log
Ġunc onstra
Ġunc ontroll
Ġunc onsidered
Ġunk iss
Ġmarch ing
Ġmarch pane
Ġremain ing
Ġremain ed
Ġremain der
ĠEnglish men
Ġcondemn ation
Ġbreathe st
Ġdishonour able
Ġignor ation
Ab ase
Ab ides
Ab ated
Ab hor
Am ity
Int end
Int ents
Int ending
Int olerable
Out live
Su ps
Su itors
Su btly
Su bscri
rim is
under stand
under take
ĠX anthipp
Ġsort s
Ġmorrow s
Ġfe g
Ġfe as
Ġfe ats
Ġfe cks
Ġfe ature
Ġfe odary
Ġdry beat
Ġcru eller
Ġlan es
Ġlan tern
Ġlist ed
Ġodd ly
Ġodd est
Ġobey s
Ġobey ed
Ġpet tit
Ġheld ing
vel vet
Ġoft entimes
Ġoft ragn
ators hip
Ġstor my
Ġstain ed
Ġstain less
ider ing
Ġvain er
Ġvain ly
ĠMerc y
ĠMerc iful
Ġshepherd ess
Ġcontin ent
Ġcontin ency
Ġcontin uing
Ġcontin ually
Ġchurch men
Ġsecond ed
Ġsecond ary
Ġsecret ly
Ġdrunk ards
Ġtemp ter
Ġtemp ers
Ġfresh ness
De ck
De ceive
De ceived
De ceit
De vouring
De vised
Me an
Me asures
Pr oof
ban ishment
ny mph
Ġmut ter
Ġmut able
Ġmut iners
Ġbig amy
erle ap
Ġlust s
Ġlust re
Ġlust ier
Ġlust iest
Ġlau nd
Ġlau rel
Ġlau ghed
Ġthreat ens
Ġind ite
Ġind ucement
Ġind igested
Ġeffect ed
Ġeffect ual
Ġstud s
Ġstud ded
Ġsteal s
Ġref ell
Ġref ined
Ġref lex
Ġref rain
Ġref usal
Ġrevere ntly
Ġdepose ch
Ġblessed ly
ĠLet he
Ġgrand child
Ġgrand mother
Ġsaf est
ĠPr ote
ĠPr inces
Ġprecious ly
Ġappare ll
Ġentertain er
ĠNorthumberland s
Sweet ly
Bel oved
Bel onging
En vied
En rich
En franch
En courage
En velo
En nointments
Hear ing
good ness
mon th
vail ing
Ġsim ile
Ġsim ples
Ġsim ply
Ġsour ce
Ġsour ly
Ġmount eban
Ġmasters hip
Ġcapt um
Ġcapt ivity
Ġcapt ivates
Ġpun ishes
Ġhair y
Ġhair less
Ġseal ing
Ġsever ing
Ġsever als
icious ly
Ġswift ness
Ġran ges
Ġran ging
ĠAnt ipodes
Ġwarm th
ĠJo v
ĠJo an
Ġguard ed
Ġguard ant
SAMP SO
:-- '
Br utus
Bet id
Bet roth
Dis pro
Dis semble
Dis order
Dis comfortable
Dis bursed
Dis charge
Dis mant
Dis plant
Dis claiming
ey es
gra in
my self
Ġaid ing
Ġaid less
ounce d
Ġfart he
ern ible
Ġdance d
Ġcred itor
Ġcred itors
Ġcred ulity
Ġpal ate
Ġpal ates
Ġpal ms
Ġpal mer
Ġpal tering
Ġpal pable
Ġhel per
Ġhealth s
Ġhealth some
Ġdeg raded
Ġdemand ed
ament al
Ġbutcher y
Ġbutcher ly
Ġbutcher ity
Ġvile ly
Ġunf ill
Ġunf rom
Ġunf irm
Ġunf inish
Ġunf urnish
Ġunf ledged
Ġunf ashion
Ġunf ilial
Ġunf urnished
Ġunw itting
Ġunw ares
Ġunw ept
Ġunw eighing
Ġunw edgea
Ġunw ashed
Ġprov and
Ġprov ides
Ġprov inces
Ġprov inci
Ġplant ation
Ġplant eth
Ġencounter ing
Ġrot e
Ġrid s
Ġrid es
Ġrid iculous
Ġcontr aries
Ġpriest hood
Ġfoolish ly
Ġcounter vail
Ġjudge ment
Ġdeterm ines
Ġdeterm ination
Ġdeterm inate
Lo ath
Lo vers
Lo aden
pro vost
pro cess
pro fess
pro clam
pro vided
pro portion
pro phe
pro acheth
pro ceeding
pro claims
whe lp
whe els
Ġmour ns
Ġwre cks
Ġwail s
Ġba es
Ġba ffled
Ġthie vish
Ġforce ful
Ġease ful
Ġease mt
ĠRoman o
Ġblame ful
Ġadm itting
Ġadm inister
Ġchast ise
Ġchast ised
Ġbright ness
Ġglass y
Ġmonth ly
Ġbenef ice
Ġbenef its
Ġlaugh s
Ġview ing
Ġview less
Bid s
Bid ding
Gentle woman
Ne xt
Ne ighb
Ne ighbours
Ne ighbour
te at
te ous
Ġfirm ness
Ġcir cle
Ġcir cling
Ġcam el
Ġcam els
Ġhol ier
Ġhol iness
Ġpack et
Ġpack ed
Ġpack thread
cell ent
Ġincl ining
Ġincl inest
Ġincl usive
Ġincl udes
Ġrel ate
Ġrel ished
Ġrel ents
Ġrel ieved
Ġrel ief
Ġsport ive
Ġconvey ed
Ġconvey ers
Ġconvey ances
ement ance
Ġarri ves
Ġarri ving
Ġunb ow
Ġunb id
Ġunb ound
Ġunb uild
Ġunb reech
Ġunb uckle
Ġunb uried
Ġunb arbed
Ġunb raided
Ġunb urnt
Ġunb elieved
ĠHer o
Ġdism ay
Ġdism ember
Ġdism issed
Off er
Off ended
Off icious
Off iced
Ġroot ing
Ġroot eth
Ġflower y
Ġflower ing
Ġimag ery
Ġimag inary
Ġimag inat
Ġcover let
Ġsmo othing
Ġfellows hips
Ġboot y
Ġboot ies
Ġtyrant s
Ġacqu ittance
Ġschool s
Ġschool masters
Bl us
Bl ue
Bl own
Bl ows
Bl ister
Bl ush
Bl ubbering
Des olate
Ex empt
Ex act
Ex ped
Ex cels
Ex posed
Ex pres
Ex ceeding
Ex ecute
Ex ceeds
Put s
Tut us
aff licts
aff righted
con ceived
con fess
con strue
con strains
ek ly
pin ched
ub im
ub ine
ub ility
ub stantial
Ġed ges
Ġed ifices
Ġver se
Ġver ier
Ġver ily
Ġver dure
Ġbrows ing
Ġfeed s
Ġfeed er
Ġfeed ers
Ġthunder ing
Ġgown s
Ġghost s
Ġgarden ers
Ġstab s
ident ally
ract ing
Ġspring ing
Ġblind s
Ġblind ing
Ġblind ly
Ġblind fold
Ġunl ick
Ġunl oose
Ġuns ay
Ġuns isting
Ġuns afe
Ġuns atiate
Ġuns hapen
Ġuns atisf
Ġuns avoury
Ġuns hapes
Ġuns aluted
Ġuns ubstantial
Ġhollow ly
ĠAl ps
ĠAl though
ĠAl cides
Ġprevent ion
Ġrepent ant
Ġimport ing
Ġimport unate
acher ous
Ġprophe ts
Ġembrace ment
Ad mit
Ad vocate
Ad judged
Ad vantag
Ad onis
Ad vertis
Ad versity
VAL HASINA
cha se
cha pp
cha sed
cha ins
op ian
op atra
pet ual
pet itionary
sing le
sing leness
what e
Ġes eements
ĠThere f
Ġwag on
Ġwag es
Ġwag ed
Ġwag ging
Ġwag gon
rehe arse
Ġbark ing
Ġdri er
Ġdri ves
Ġdri zz
Ġdri velling
Ġdri bbling
Ġcustom ers
Ġyo ked
Ġyo kUCH
anch or
Ġgross ness
Ġinform al
Ġele vated
Ġstat ute
Ġstat ues
asc ule
Ġallow ance
Ġloath ness
Ġloath som
Ġshr inks
Ġsail maker
Ġround ing
Ġfright s
Ġfright ful
Ġdesign ments
Ġflat ly
Ġflat ness
Ġflat terest
Ġplead er
Ġplead ing
Ġplead ers
Ġguilt ier
Ġassist ing
Ġassist ant
Ġassist ants
Ġrememb ers
Ġrememb rances
Ġtempt ing
Ġtempt ation
Ġdelight ed
Ġempt ies
Ġempt ier
Ġutter most
Ġlangu ages
Brother s
Ġcirc uit
Res pect
Res ides
Res ume
Res cued
Res pecting
Turn ing
fl aw
fl owers
fl owing
fl owed
fl attered
par le
par adise
par cel
thi ck
thi ef
Ġtedious ness
Ġship board
Ġsens ual
Ġsens ibly
Ġwont ed
Ġcre am
Ġcal ved
Ġcure less
Ġlar ks
Ġthrust s
Ġthrust eth
Ġtop most
Ġdec reed
Ġdec rease
Ġdec ayed
Ġdec orum
Ġdew y
Ġshar ps
Ġshri ved
Ġshri ving
Ġamb usc
Ġamb iguities
Ġsheep s
ĠSic ily
ĠSic iniu
ĠSic ilian
Ġjealous y
Ġproper ly
Ġproper ty
Ġproper ties
Ġoutward ly
Ġoffend ing
Ġheav ings
Ġheav iest
Ġearn ed
Ġruin ate
Ġresign ation
Ġtread ing
Ġcondu it
Ġcondu its
Ġsilence d
Ġprofess es
Ġprofess ors
Ġprofess ions
Ġdespite ful
Ġviolent ly
Ġviolent est
Great er
Pre vent
Pre vail
Pre fer
Pre posterous
Pre occup
Pre acers
Per use
Per mitted
Per fume
Per jury
Per petual
Rem it
Rem ove
Rem aining
Sc ars
Sc aring
Sc andal
Sc rat
Sc off
Sc ratch
Sc otland
Sc urvy
Sc arce
Sc rivener
Sc aling
app er
app les
app robation
bow ling
eous ly
hor ing
hore son
pr it
pr us
pr ince
pr otest
ser ver
ser ves
ser pina
we ather
Ġer go
Ġir ons
Ġir revoc
Ġir removeable
Ġtort ured
Ġwood s
Ġwood ing
Ġwood man
Ġband ying
Ġbond maid
Ġbond sl
Ġdet ect
Ġdet ected
Ġlend ings
Ġpin n
Ġpin ched
Ġport ly
Ġport ance
Ġport cull
Ġport entous
Ġphysic s
Ġphysic al
Ġheed less
Ġheed fully
Ġinfect s
Ġweight ier
Ġequ all
Ġequ als
Ġstore house
Ġstep p
Ġstock ings
Ġstuff s
Ġreward er
Ġseas ide
Ġange lic
Ġlod ges
Ġlod gers
Ġlod gings
Ġspend thrift
Ġspare d
Ġvan ities
Ġconj ures
Ġconj unction
Ġsway ed
Ġbrook ed
Ġunnat urally
Ġhop est
Ġprey s
Ġtrans p
Ġtrans gress
Ġtrans mutation
Ġperil ous
Ġaccus er
Ġaccus es
Ġcountenance d
Ġadvantage ous
Ġcurst est
Ġdelay s
Ġdelay ing
Ġcolour ing
Ġsusp i
Ġsusp icious
Ġsusp horing
Ġnobles se
Ġthreaten ed
Ġwreck ed
Ġspeci alties
Ġsanct ity
Ġsanct ifies
Ġsanct imon
Hast ing
Hast ings
Ret ain
Ret orts
Right s
Rep ort
Rep eal
Rep roach
Rep rieve
Rep orts
can ia
can non
lar um
lar ums
pass ion
sa ving
sa fest
wise ly
Ġtut to
Ġscept res
Ġmaint ise
Ġmaint enance
Ġmiss es
Ġmiss ingly
Ġwol vish
Ġbot cher
Ġbas in
Ġbas is
Ġbas er
Ġbas es
Ġbas est
Ġbare d
Ġbud ger
Ġbud get
Ġbud ding
Ġfle a
Ġfle er
Ġfle eter
Ġfle xible
Ġfle cked
Ġfee bly
Ġfee bling
Ġdi aper
Ġdi bble
Ġdi verse
Ġdi amond
Ġdi alect
Ġdign ities
Ġdign ified
Ġdign ifies
Ġdag gers
Ġcens er
Ġcup board
Ġcalm ness
Ġtomb s
Ġbew ail
Ġbew eep
Ġbew ept
Ġweigh s
ARCH BIS
Ġsuck ing
Ġsuck le
Ġsuck nes
ĠCal anus
ĠCal ib
ĠRom a
que an
ĠSo oth
ĠSo cr
Ġquench less
Ġjour nal
ĠPro ve
ĠPro dig
ĠPro cures
ĠPro vidence
ĠPro serpina
Ġroom s
Ġexpect ing
Ġslow ly
Ġado pt
Ġperfect ed
Ġperfect ly
Ġperpet ually
Ġperpet uity
Ġwrath ful
ĠFl int
ĠFl ora
Ġlean ing
Ġaccess ary
Ġattempt s
Ġattempt ing
Ġattempt ed
Ġpersu ading
Ġdiscontent ing
Ġintent ion
Ġmarket place
Ġinstruct s
ĠNap s
Ġcorrupt ing
Ġcorrupt ed
Ġburthen ous
Ġemploy ment
Ġemploy ments
Ġgriev ance
Ġgriev ances
Ġprincess es
Ġprotest ing
Ġprotest ation
Ġpetition er
Ġpetition ers
Ġcircum spect
Ġcircum mured
Ġcircum vention
?-- '
Ar ms
Ar med
Ar gues
App ointed
App roach
App rehend
App laud
App arent
Love l
Please d
cer ies
cer ns
ex pound
ex perienced
ex ercises
ex cellent
go ing
just ified
Ġtest ed
Ġtest ament
Ġsink ing
Ġmor self
Ġmat ches
Ġmat ron
Ġmat rons
Ġmat erial
Ġfro lic
Ġhost ility
Ġhost ages
Ġhunt ed
Ġpol tro
Ġgru bs
Ġgru dges
Ġgru dging
atic a
Ġhaz ards
Ġisland s
Ġrepe als
ĠCan terbury
Ġvirg ins
Ġshun less
Ġswallow ing
Ġswallow ed
ĠBl ow
ĠBl ood
ĠBl ack
ĠBl anc
ĠBl ush
Young er
Young ling
Ġprovo kes
Ġprovo kest
ĠWho a
Ġens ues
Ġens ky
Ġens nareth
Ġens hield
Ġalter ing
Ġslay s
Ġadver tise
Ġadvers ity
Ġclo g
Ġclo gging
Ġcontract ing
Ġimm ured
Ġimm aculate
Ġwitch ch
Ġaccord ingly
Ġpurcha sing
Ġmaiden hoods
Ġstrew ed
Ġdiscover ies
Ġgrey beard
Comm une
Comm itted
Comm unicatest
Ġvex ed
Ġvenom ous
Ġprivile ged
Ġprivile ges
Ġprivile gio
Beseech ing
Ġcomplain ings
Ġapproach ing
Ġtorment ing
Ġtorment ed
Ġtorment ors
Ġprosperous ly
Ġmourn ings
Ġmourn fully
Ġsmooth s
Ġsharp est
Ġdisdain ed
Ġdisdain ful
AEd iles
Cons ul
Cons isting
Cons enting
Cons uming
Ghost s
bri ef
bri degroom
bra ve
dis ease
dis posed
dis miss
dis pers
dis position
dis cover
dis pleasure
dis cords
dis posing
dis likes
gl ad
gar ment
gar ters
ipp er
ker sey
sha ft
sha ken
Ġtap ers
Ġtap estry
Ġsqu are
Ġsqu eak
Ġsqu ier
Ġsqu ash
Ġsqu arest
Ġsqu irrel
reg nant
Ġbury ing
Ġfig ures
Ġfig uring
Ġfurn ace
Ġfurn iture
Ġdig ress
Ġdig ging
Ġdig estion
Ġdig ressing
Ġdress er
Ġdress ings
Ġchat s
Ġchat tels
Ġcatch ing
arm ory
Ġmel ts
Ġweather s
Ġstamp ed
Ġrecom mend
Ġrecom pensed
Ġrevol ts
Ġrevol ting
Ġnobl ene
Ġseason s
Ġspr inkle
Ġspr itely
Ġspur r
Ġspur ring
ĠCo ppers
ĠRos cius
Ġcomb in
Ġcomb ine
Ġcomb less
Ġcomb ating
ĠMil ford
Ġamazed ly
Ġamazed ness
Ġconce ives
Ġconce aled
Ġconceit ed
Ġconstant ly
ĠBe ing
ĠBe ggar
ĠBer wick
ĠBer gam
ĠBer moot
Ġunp ath
Ġunp ink
Ġunp arted
Ġunp olish
Ġunp ardonable
Ġunp regnant
Ġruth ful
ĠAd vance
ĠAd riatic
Ġabhor red
Ġabhor ring
Ġparticular ly
Ġparticular ise
Ġperj uries
ĠDo ctor
Ġwhore master
Ġwhore monger
Ġconsider ate
ĠJack s
Ġresist s
Ġresist es
Ġcompan ies
Stri ves
Ġbuild ings
Ġintell ect
Ġintell igent
Ġobject s
Ġrecord er
Ġwaste ful
Ġstopp ing
Ġwait eth
Ġsky ey
Ġdirect ing
Ġdirect itude
Ġoppos er
Ġdestroy er
Ġdestroy ed
Supp er
Supp ly
Supp lied
Ġcounterfeit ing
Ġbehalf s
Ġavoid ing
Ġearnest ly
Ġtreacherous ly
Ġjourney s
Ġjourney man
Ġvirgin al
Ġvirgin ity
Ġvirgin alling
Acc use
Acc ords
Acc omplish
Acc ording
Coriol i
PH ILI
cra ves
cra zed
cra mmed
cra cking
des erving
des pite
des pair
eat ers
fa ults
fa irer
foot boy
kind led
say est
upt urned
upt uously
Ġz ealous
Ġz odia
Ġing ots
Ġing rate
Ġing redient
Ġtaunt ed
Ġtaunt ingly
Ġapt ness
Ġsy cam
Ġsy nod
Ġsal ter
Ġsal uteth
Ġwing dall
hand kerchief
Ġdow dy
Ġdim ples
Ġcher ry
Ġcher ubim
Ġlin ens
Ġhor sed
Ġhor izon
Ġoak s
Ġpi pe
Ġpot ch
Ġpier ced
sell er
Ġinqu iry
Ġinqu isition
adv isings
adv antaged
Ġstro kedst
Ġstout ly
Ġstret ches
Ġstret ched
Ġdeb ate
Ġdeb ts
Ġdeb ile
Ġdeb ating
Ġdeb atement
Ġdeceit ful
roll ing
Ġsuc relity
Ġspl ay
Ġspl ight
Ġspl its
Ġspl inter
Ġspl inters
Ġsple ens
Ġsple ndor
Ġspect s
Ġspect iff
Ġspect acles
Ġspect acled
Ġfawn ing
Ġvessel s
Ġblunt ly
ĠLe icestershire
ĠLau ra
Ġbran kling
Ġung ot
Ġung ently
Ġdescend s
Ġdescend ing
Ġdescend ed
Ġbetray s
ĠDe vons
Ġrare ly
Ġrail er
Ġremorse ful
Ġappeal s
Ġrust le
Ġrust ic
Ġhousehold s
Ġrestra ined
Ġrestra ining
RIAN A
Ġsmell ing
Ġmistrust ing
Ġmistrust ed
Ġmistrust ful
Ġretire st
Ġretire ment
Ġcurrent s
Ġcorre cted
Ġcorre cts
Ġregard ed
Ġpitch y
Ġunkind ly
Ġsuspect s
Ġsuspect ed
Better ing
Ġhelm et
Ġstabb ing
Ġpilgrim s
Ġcomplex io
Cry ing
Cond uct
Cond emns
Cond emning
Fair ly
Im mod
Im maculate
Im plore
Kn eel
Se er
Se ven
Se venth
Sm iles
Somet hing
ax e
acc useth
acc identally
br ook
br isk
cr utches
cr ooked
look ing
mong ers
wear ied
ĠQ uee
Ġtim ed
Ġtro phy
Ġtro aks
Ġtro vato
Ġtall er
here after
Ġsnow y
Ġmir acles
Ġmir rors
Ġmir aculous
Ġmood s
Ġmess es
Ġmess ages
Ġmirth ful
inct ively
Ġwid est
Ġwid ens
Ġward er
Ġwink ing
Ġwink ed
Ġbuck et
Ġbuck led
Ġbuck ets
Ġdiffe re
Ġcost ly
Ġcost ard
Ġchall enger
Ġlent en
Ġlap sing
Ġlap wing
Ġnap es
Ġnap less
Ġthin ly
Ġthick er
Ġthick et
Ġthick est
Ġtoil ing
Ġpee reth
Ġste ads
Ġredeem s
Ġredeem ing
Ġlift ed
Ġdeck ed
Ġdecl are
Ġdecl ension
Ġsham es
Ġseiz es
Ġseiz ing
Ġsuper stit
Ġsuper ficial
Ġsuper stition
Ġfact iou
Ġknot ty
Ġvar lets
Ġvill age
Ġvill ages
Ġvol uptuously
Ġmanif old
ĠMin os
ĠMin erva
ĠLart iu
Ġunwill igness
ĠVal iant
ĠVal enting
ĠPerd it
Ġoffic ial
Ġdisple ase
Ġdisgu iser
Ġrobb ing
Ġwarri or
Ġflow ed
Ġflow ered
ĠTar quins
Ġrain bow
Ġremoved ness
Ġwhit est
Ġwhit eness
Ġrepose th
Ġprick ing
Ġprick ed
Ġcoff er
Ġcoff ins
Ġcareless ness
Ġgrat itude
Ġwanting al
Ġcurt ail
Ġabsolute ly
Ġblem ished
Ġblem ishes
Ġfierce ly
Ġmodest ies
Ġforswear ing
Ġfeather s
Ġchaste ly
Ġshrewd ly
Ġshroud s
Ġshroud ed
Ġsubstit ution
Remember ing
Ġtorture r
Ġpenitent ly
Ġconceal ing
Ġtrespass es
Ġsepulch res
Aw akes
Aw hile
Fl ow
Fl ies
Fl utter
Find s
Find ing
Jo g
Mis used
Mis think
Mis cause
Mis carried
Mis guide
Mis construe
Mist rust
Methought s
Villain s
Wit ty
cap ital
ext ended
ext empore
ext remity
ext racting
got ha
great er
great ness
off ence
off icious
off ences
pardon ne
pret ending
war ks
war ning
war mentfully
ĠAs sist
Ġtou ched
Ġtou gher
Ġtail ors
Ġale house
Ġsn atch
Ġsn ail
Ġsn ip
Ġsn arl
Ġsn arling
Ġsn eaping
Ġsn apper
Ġmil ch
Ġmil king
Ġbon fires
Ġbag s
Ġbag pipe
Ġfr isk
Ġfix es
Ġdower y
Ġlur ks
Ġlance d
Ġlance th
Ġnar ged
Ġnet tled
Ġnice ty
Ġnumb ness
Ġhind s
Ġhoney comb
Ġped lars
Ġpear ls
Ġpath s
Ġpath way
Ġpath ways
ĠIt alian
atri ces
Ġbere aves
Ġbere aved
Ġink y
Ġink les
Ġink ling
Ġhabit ed
Ġhabit ation
Ġnoted ly
Ġstern ness
Ġdeaf ness
Ġvent ed
Ġvent urous
Ġupright eously
Ġblast ing
Ġblast ed
ĠGree ks
Ġswore st
ĠSee ly
ĠOur self
ĠBr other
ĠBr utus
ĠBen net
ĠBen edicite
ĠBur ton
Ġarrest s
Ġunst aid
Ġunst uff
Ġunst anched
Ġunst ringed
Ġunst ooping
Ġunse ver
Ġunse asonable
Ġunfe eling
Ġproclam ations
Ġsav ageness
Ġeng aged
Ġeng aol
Ġrans ack
Ġalms man
Ġexam ine
Ġflourish ing
Ġtroop ing
Ġpern ici
them selves
Ġscatter s
Ġappea ll
Ġappea sed
Ġappea reth
Ġbegu il
Ġbegu iles
Ġchildish ness
Ġreply ing
Ġtrif le
Ġtrif ling
Ġaccident al
Ġsubd ues
Ġcheap est
Ġconfirm ation
Ġboast s
Ġboast ing
Ġdrag ons
Ġserp ents
Ġserp igo
Ġbeaut ify
Ġdepend ent
Ġdepend ant
Ġdepend ency
Ġdrunken ly
Ġmonarch ize
Ġvel ure
Ġliberal ity
Ġproport ions
Ġsacrif ices
Ġsacrif icing
Play ers
Ġoccup y
Ġoccup ations
Ġunfold s
Ġunfold ing
where fore
where upon
Ġtyrann ical
Ġmoral ity
Ġapprehend ed
Ġcompanion ship
Ġcherish ing
Ġnuptial s
Af resh
Add ed
Add ress
Bre aking
Bra ch
Bra ved
Bra gs
Div ide
Div ides
Div ided
Follow ing
Ho isted
Ho lloa
Ho lla
Six th
Six score
Virt uous
Wr it
Yield s
Yield ed
cor rupt
cus hion
cont empt
cont ract
cont roversy
cons ent
cons idered
cons pectuities
cons idering
fri ends
lain ness
shi ft
ĠThy self
Ġeter nity
Ġtard ied
Ġtack les
Ġtack led
Ġtack ling
Ġtack lings
Ġtren chers
Ġaud it
Ġaud acious
Ġsed uce
Ġsed uced
Ġsess a
Ġsau ce
Ġsau ced
Ġsurp assing
Ġwet her
Ġwave d
Ġwave rer
Ġbill ows
Ġbill ets
Ġbill eted
Ġbru it
Ġbru nt
Ġbru ise
Ġbru ised
Ġbol ts
Ġbol ster
Ġfin er
Ġfin ished
Ġfant asy
Ġfret ted
itch ment
Ġcat ches
Ġcat ched
Ġcat alo
Ġcent uries
Ġcent uri
Ġcook s
Ġlun acy
Ġtops ail
Ġpor ch
Ġpor ridge
Ġpor ringer
Ġpill ory
Ġpill ars
Ġpent ecost
Ġpick ing
Ġpick lock
Ġpomp ous
Ġheight en
Ġgn ats
Ġgn arling
Ġgn arled
Ġgains aying
Ġgains ays
see ing
seem s
seem ed
Ġinv ited
Ġinv incible
Ġinv isible
Ġinv iolable
Ġhail stone
Ġstead ed
Ġrend s
Ġrend ers
urb ing
alter ies
Ġsoci able
Ġsoci eties
Ġdem ise
Ġdem igod
Ġsevere st
Ġsevere ly
Ġlock ed
Ġlock ram
Ġspread ing
iliar ly
Ġvast idity
Ġshru b
Ġshru bs
Ġshru gs
Ġshru nk
ĠEly sium
Ġconsequ ently
Ġconcer ning
Ġblot ted
ĠLook ing
ĠSc ales
ĠSc urvy
Ġgoss amer
Ġune asy
Ġune qual
Ġune lected
Ġunm eet
Ġunm ask
Ġunm arried
Ġunm oan
Ġunm indful
Ġunm usical
Ġunre al
Ġunre asonable
Ġunre asonably
Ġunre verend
Ġenc ertainties
Ġrouse d
Ġexceed er
Ġexcept ing
Ġexcept ions
Ġdesc ry
Ġdesc ription
Ġslight s
Ġslight ly
Ġslight ness
Ġslipp ers
ĠTew ar
Ġprefer r
Ġprefer ments
Ġclock s
Ġrack ing
Ġraven s
Ġraven ous
Ġimper fect
Ġimper tinent
Ġleg ion
Ġcompare l
Proceed ed
Proclaim s
Proclaim ed
Ġcop ious
Ġcop atain
Ġcoll ar
Ġcoll ect
Ġcoll ars
Ġcoll iers
Ġsmil est
Ġsmil ingly
Ġtravell ing
Ġtravell est
Ġtravell ers
Ġgoddess es
Ġfalcon er
Ġstrict ure
Ġcounsell ors
Ġbuzz ed
Ġbuzz ards
Ġattorney ed
Ġstraw s
Ġstraw berries
Ġprompt ure
Ġobsequ iously
Ġinfer r
Ġwax es
Ġwax en
Ġwax ed
Ġcrim ty
Ġprophes ied
Ġtroubl er
Ġtroubl est
Ġexped ience
Ġexped ient
Ġembra cing
Disp ark
Disp ute
Ġconclud es
Ġconclud est
Ġcompassion ate
Ġfrost s
Ġfrost y
Ġadverse ly
Ġceremon ies
Ġfreedom s
Ġnarrow ly
Ġransom ed
Cont end
Cont empt
Cont ract
Cont aining
Cont rolling
Dep art
Dep ose
Dep ress
Dep osed
Dep osing
Fore warn
Fore running
Fall s
Foul er
Gra cious
Gra ze
Gra mercy
Kind ly
Kind ness
Part ly
Part ake
Purs ue
Purs ued
Rel ate
Rel ish
Rel enting
Tra il
Tra itor
Tra vel
Tra itors
Tra velling
Talk ers
Teach ing
av ouch
av ouches
bell y
bell ied
cat ched
cat cher
cond ition
cond uit
cond uct
dist ant
dist raught
dist inctly
dist raction
dist urbing
hors ing
kn it
kn ife
know est
know ledge
met e
mour ners
serv ices
tong ue
wh ither
wh ite
wh istling
Ġach ing
Ġsow ing
had st
Ġbul ks
Ġbul warks
Ġbows prit
Ġbail iff
Ġfre er
Ġfre elier
Ġfre ckled
Ġfif es
Ġfif th
Ġfil m
Ġfil th
Ġfount ains
Ġfrank ly
Ġdot ant
Ġded ication
Ġded icated
Ġcro p
Ġcro ssed
Ġcand les
Ġcool s
Ġcool ing
Ġla vish
Ġthw arted
Ġthw arting
Ġthw artings
Ġpow dered
Ġpour ing
Ġpest ilent
Ġpru dent
Ġpru dence
Ġpant ry
Ġpant ler
Ġpant aloon
Ġpup ils
strong er
ompl ished
Ġgather ing
att entiveness
Ġhaunt ed
Ġeight een
Ġeff use
Ġeff usion
ado ed
ado ption
Ġstink ingly
Ġstag s
Ġstag ger
Ġsteep ed
Ġrein forcement
Ġdece ase
Ġdece ivest
Ġdeform ed
Ġdeform ities
Ġsearch ing
Ġann als
Ġann ual
Ġansw e
Ġancest or
Ġancest ry
Ġvul gars
Ġamaz ing
Ġconc ord
Ġconc upiscible
Ġconc ubine
Ġcanop ies
Ġswoon ed
ĠSly s
Ġusure ly
Ġusure rs
Ġunpro perly
Ġunpro fitable
Ġhoar se
Ġsap ling
Ġsack buts
Ġplan ets
Ġplan ched
Ġpock ets
Ġrhe ums
Ġrhe tor
Ġranc orous
Ġdiso beys
Ġdissemb ler
Ġdissemb lers
Ġalar ms
Ġfox es
Ġfox ship
Ġrig or
Ġrig orous
Ġflock s
ĠKent ishmen
Ġplebe ii
Ġnighting ales
Ġappoint ing
Ġappoint ments
Ġcontri butors
Ġharl ots
Ġbestri des
Ġcozen ing
Ġcozen ed
Ġcozen ers
Ġbrand ish
Ġimpeach ments
Ġmisc arry
Ġmisc reant
Ġmisc arries
Ġdevour ing
Ġbelong ing
Ġbelong ings
Ġgrim ly
Ġgrass y
Ġgrass hoppers
Ġstrait ness
Ġstrang th
Ġstrang led
Ġstrang ling
Attend ing
Ġcraft ed
Ġcraft ily
Ġmerri er
Ġobsc ure
Ġobsc ene
Ġrequire th
Ġlearned ly
Command s
Command ed
Command ementance
Happ ier
Happ iness
Ġterr ors
Ġsingular ity
Ġsingular ities
Ġdistress ful
Ġgroom s
Ġcrook ed
Ġcrook back
Ġinterrupt s
Ġinterrupt ion
Ġsumm a
Ġsumm ons
Ġclean ly
Ġclean sed
Ġsurfeit ing
Ġpuiss ance
Ġmedic inal
Ġfamiliar ity
Ġmountain ous
Ġfleet ing
Ġcloak s
favour ing
Ġlinea ment
Ġlinea lly
Ġmanifest s
Ġmilk maid
Affection s
Murder ing
Aff ront
Aff rights
Bu y
Bu gle
Ban ished
Bold er
Ch oose
Ch ristian
Cle ar
Cle an
Cle ave
Cle omenes
Cast ing
Den ounced
Dest ruction
Def y
Def iance
Def init
Def ormed
Direct itude
Er ror
End ue
Fit zwater
Fill ip
Imp rison
Imp arts
Imp airing
Music ian
Music ians
Obey ing
Pres uming
Pres erver
Qu arrel
Ren own
Sin c
Sin fully
Sus an
Sus pect
Sus pecting
Sus picion
Suff er
Suff iced
Suff iceth
bon net
bur rows
bur then
bur thens
best raught
best owed
bel ieve
bel oved
bel ieving
co ated
co zen
cast le
dra b
dra goned
ele ct
gentle men
gentle woman
jud gment
mo ves
nut megs
pre pared
pre posterous
pre vailing
por ter
put ting
past ime
pres ent
su itors
su ited
sick ness
since rely
somet hing
who se
who lesome
ĠU ndone
Ġtur tles
Ġtea m
Ġtea ches
Ġtea cheth
Ġtea chest
Ġtink ers
Ġtreat s
Ġack nowledged
Ġmant led
report s
has ar
Ġfan cies
Ġfet tle
Ġfet locks
Ġfulf ill
Ġfulf illed
Ġder ivative
Ġdil igent
Ġdrows iness
Ġdumb ness
Ġnon age
Ġnaught y
Ġyare ly
Ġyester day
Ġthrees core
Ġhy mns
Ġhy perbol
Ġhood ed
Ġhood wink
Ġom itted
Ġpuff s
Ġheal thy
Ġgam ester
Ġgaz es
Ġgaz ers
Ġgeld ed
Ġbeet les
Ġbeads men
sec rets
sec urity
Ġinve ctives
Ġinvent ions
Ġhaw k
Ġhaw ks
Ġhaw king
Ġhaw thorn
Ġhall ooed
Ġweed ed
rip g
Ġstu pefied
Ġstark ly
Ġstring less
Ġrent s
Ġdeceive able
Ġdefect ive
Ġbutter y
Ġbutter flies
Ġsear chers
Ġsequ ent
Ġsequ ence
Ġsugg est
Ġsugg estion
thought s
Ġfaction ary
ĠCle opatra
Ġkna vish
Ġvi and
Ġvi ands
Ġvig ilant
Ġvass als
Ġshout ing
Ġshower ing
Ġwhet ted
Ġblister s
Forth light
Forbid s
Forbid den
Forbid denly
ĠGentle men
Ġhatch ing
ĠLam bert
Ġcann on
feel ing
feel ingly
Ġarbit rating
Ġarbit rement
Ġunple ased
Ġunrest rained
Ġworshi pp
ĠHear t
Ġquaint ly
ĠWh om
ĠWh ither
ĠWh ite
ĠWh itsun
Ġpoll ed
Ġpoll ution
Ġdisl odged
Ġdisorder ly
Ins ult
Ins isting
Ins ulting
Ins olent
Infer ring
Infer reth
Ġabst ains
Ġabst ract
Ġabod ing
Ġabod ements
Ġfold s
Ġfold ed
Ġexact ing
Ġridd les
Ġridd ling
Ġripen ing
Ġslack ness
ĠTur key
Ġprec ursors
Ġclap s
Ġperd onato
Ġperd urably
ĠDor icle
Ġwrang lin
Ġpreserv ative
Ġscru ples
Ġscru pulous
Ġchival rous
Ġremiss ness
Ġappl a
Ġappell ants
Ġmale factors
Ġconspir ator
ĠJer onimy
ĠJun ius
Ġchap less
Ġchap eless
Ġneedle work
Ġconfer ring
Ġimpud ence
Ġimpud ently
Ġbeseem s
Ġundergo ing
Ġbox es
Ġdenial s
Ġobser ver
Ġobser ved
Ġsupport ance
Ġsuppli ants
Ġaffright s
Ġaffright ed
Ġsuffice th
Ġinfring ed
Ġinfirm ities
Ġprofan ed
Ġprofan eness
Ġdishon esty
Ġdishon oured
Ġdisting uished
Ġdisturb ers
Ġtax es
Ġtax ations
Ġembass ies
Ġembass ade
scap es
Ġcaparison ed
Sub ject
Sub jects
Sub dues
Sub mished
Measure d
Measure less
Ġcounterpo ise
Ġcounterpo ints
Ġbald pate
Ġhunger ly
Ġadmir ation
Ġadmir able
Ġstarve th
Repent ed
Arm ies
Ġmagic ian
Ġargos ies
Ġunfeigned ly
Ġvulgar ly
Ġharlot ry
Ġeloqu ent
ĠFrancis can
Ġindifferent ly
Bore s
Che er
Che ated
Che quering
Dou ble
Dro pping
Ele cted
Fri end
Fri ars
Fri days
Gu ess
Gu ard
Gu iltier
Gold en
Hard ly
Less er
Mount ed
Opp ose
Opp osed
Opp osing
Pe er
Pe ering
Pe RDINA
Pit iful
Red ime
Red eem
Ref use
Ref used
Ref using
Sel ves
Sland ering
Sleep ing
Tran sl
Trem bled
bre ach
bre aking
bre aker
bro ad
bro ken
bro iled
ball ad
ball ads
cour t
cour ted
cour teous
custom ers
custom ary
dro ps
dro pping
dro pper
doubt less
fan cies
honest ly
lord ship
need s
need ed
oft ener
part icular
part iculars
ris en
sl aughter
sil ent
sorrow s
sorrow ing
spo kes
vill anous
viol ent
viol ator
wr it
wr ath
wr itten
widow ed
worth s
ĠNot e
Ġtil ter
Ġau ger
Ġaust ereness
Ġmot ions
Ġming ling
Ġmart ial
Ġmart yr
inc ensed
inc haritable
Ġwra p
hast e
Ġfester ing
Ġdart ing
Ġdun geon
Ġdaint ies
Ġdaint iness
Ġdaint iest
Ġcy mbals
Ġced ars
Ġcas a
Ġcard inal
Ġcard maker
Ġcele brate
Ġlame ly
Ġlass es
Ġlecher ous
Ġna Kain
Ġnymph s
Ġthra ldom
Ġthres her
Ġhook s
Ġox en
Ġox lips
Ġost ler
Ġoce ans
Ġtoss ing
Ġphe eze
Ġpir ates
Ġpith y
Ġpul se
Ġpull er
Ġpip es
Ġpip ing
Ġpals y
Ġhew s
Ġhedge hog
stit ute
stit ches
stool s
ange l
Ġgle ek
Ġgiv est
Ġgiv ish
Ġgiv ings
Ġbeho ves
Ġbecom ing
Ġbecom ed
Ġbecom est
Ġinhabit able
Ġhab its
Ġhaven s
Ġforn icatress
keep er
keep ers
Ġeg ally
Ġel vish
Ġew ers
Ġemp ire
Ġemp oison
Ġemp iric
Ġsty le
Ġstam per
Ġstart les
Ġstart led
Ġstew s
Ġstew ed
Ġstray s
Ġstray ing
Ġstates man
Ġstates ma
Ġkern el
Ġrevers o
lying est
Ġassemb lies
Ġascend s
Ġdol ours
geon ly
Ġsevent y
Ġherds man
Ġant iquity
Ġant ipodes
Ġant ique
Ġspar rows
Ġsparing ly
ĠCy nthia
ĠCot swold
ĠCom mend
ĠCom mandments
Ġvest ure
Ġvio let
Ġvap our
Ġvap ours
Ġvap orous
Ġatone ment
Ġwheres oever
Ġconver t
Ġconvers es
Ġblasp heme
Forget ting
ĠGuild fords
Ġwasp ish
ersha de
ĠBER LAND
ĠBel man
ĠBel ieve
ĠBel gia
ĠBret agne
Ġunman n
Ġunman ly
Ġunman ner
Ġunlo ad
Ġunlo ving
Ġunlo ads
Ġunsc our
Ġunsc ann
Ġunsc arr
Ġunivers ity
Ġunthrif ts
ĠHad st
Ġquest s
Ġquest ions
Ġjar ring
Ġjump eth
Ġprover bs
ĠPil ates
Ġplent ifully
ĠWith in
Ġencom pas
Ġenfranch ise
Ġenfranch ised
Ġenfranch isement
Ġoutst rip
pted ly
ĠAE acides
ĠAE sop
ĠAE neas
ĠAg ripp
ĠAg enor
ĠAg amemn
ĠAt las
ĠAfri can
Ġdiscipl ined
Inf use
Inf used
Inf using
Ġexha le
Ġrip ens
Ġribb ors
Ġflour ishes
Ġflour isheth
Beg an
Beg un
Ġpartial ize
Ġadul terate
Ġadorn s
Ġadorn ed
Ġprep ation
Ġprep aring
Ġprep utation
Ġclos er
Ġclos ure
Ġclos eness
Ġpresum ptuous
Ġprescri be
Ġscra pe
Ġscra ping
Ġscra ped
Ġscare crow
Ġcontem ning
Ġrub ies
ĠJud ases
Ġendow ments
Ġendea vour
Ġtraged ian
Ġchest s
Ġchest nut
beha lf
beha vior
Ġglister s
Ġglister in
Ġglister ing
Ġhandsome ly
Ġthrong ing
Ġchoo son
Ġchid est
Ġchron icles
Ġchron icle
Ġchron icled
Ġundert akes
Unb ind
Unb uckle
Unb uckling
Unw ieldy
Ġhumane ly
Ġwelcom er
Ġattent ion
Ġdiscred it
Ġdiscred its
Ġdiscred ited
Ġdiscreet ly
comb inate
Ġobst ruction
Ġobst inate
Ġobst acles
Ġmete or
Ġmete ors
Ġdispro ve
Ġdispro ved
Ġdispro portion
Ġinflu ence
Ġforefather s
Ġforetell s
Ġquarre lled
Ġexecut ors
Ġparag ment
Ġrecount ed
Ġvehe mency
Ġdistemper ature
Ġstirru ps
Ġcrad led
Revol t
Revol ving
Revol ts
Ġbarb arians
Ġexpost ure
Ġintercept s
Ġintercept ed
Ġmalicious ly
Ġpenny worths
Ġcaus est
Conf irm
Conf ounds
Conf usion
Ġdooms day
Ġcontinu iagement
Ġtempor ary
Envir on
eye ing
Desp air
Except ing
Ġedict s
Ġescap es
Ġambassad ors
appare l
Ġvanqu isher
Ġbasil isks
exec uted
Ġgrumb lings
Ġcombat ants
Ġsymp athi
Ġdimm ing
Condemn ed
Rich ly
Ġtimorous ly
Ġdifferen cy
ĠValent ine
ĠValent io
ĠValent inus
Witness ing
warrant ed
Ġengross ing
Divine ly
contin ue
contin ued
contin ency
Ġmasqu ing
Ġprodigal ity
Ġabundant ly
knock s
knock ing
Ġannoy ance
Ġclergy man
Ġfathom s
Ġcannib ally
Ġdistinguish ment
Ġmalignant ly
FRANCIS CO
Glad ly
Juliet ta
Aim ing
Ant ony
Ant oni
Ben volio
Ben efactors
Bea uty
Bea utiful
Bare ly
Bare headed
Co g
Co in
Cor rupt
Cor rection
Cra ft
Cra ged
Dr oop
Dr inking
Dre aming
Dre amt
Dig est
Dig ressing
Emb race
Emb arqu
Ens ues
Ens uing
Fan cies
Fam ous
Fam iliarly
Fast en
Gro an
Gro ping
Grief s
Him self
Hea vy
Hea viness
Hist onions
Honour able
KA TARINA
Le ads
Le ontes
Lim it
Lim ps
List en
Man ifest
Matter s
Maid en
Mortal ity
New s
Need s
Ple ad
Ple ads
Pri est
Pri vy
Pra ise
Pra ised
Pur ge
Pur chase
Ra ise
Ra ised
Rec over
Rec oil
Roy a
Roy ally
Sk ulking
Sk ipper
Sl ave
Sl augh
Sn eak
Sn akes
Sed uced
Sed ucing
Spl it
Spl itting
Sham est
Safe ly
Ty rants
Ty rannical
Tor ment
Tor ments
Tick led
Tick ling
Temper ing
Temper ance
Us urp
Us urps
Vile ly
Wind y
Wish ing
Wise ly
bu ilt
bu zz
bew asted
bew itchment
bount iful
bount eous
bring ings
bawd ry
cre eping
car ries
cum stance
cup board
dam n
dam ned
ev ils
fit ing
fool ish
fair ly
home ly
hus band
mod ations
mock ed
pur chased
sm utch
sight s
sound er
spe eding
spe ech
sign et
suck ing
suck ers
spect atorship
suff erance
suff icient
sub ject
sub stitute
tre asonable
tre acherous
tri cks
tri umphant
turn s
tail ors
vis itation
vis aged
virt ue
virt ues
vict ory
wor st
wor ms
wall ed
wag er
walk ing
Ġess ay
Ġess ence
heir s
Ġavail s
Ġsci ences
Ġsci atica
Ġmam met
Ġmam mocked
Ġmoth s
Ġmoth y
Ġmol es
Ġmol to
Ġmak eth
Ġmusc les
Ġmusc adel
Ġwool vish
Ġwip ing
Ġwip ed
reb used
reb ellion
requ est
requ iring
Ġbout ed
Ġbough s
Ġbaw ling
Ġbaw cock
Ġbount iful
Ġbount eous
Ġbunch back
Ġfust y
Ġfust ian
Ġfel on
Ġfel ony
Ġfert ile
Ġfert ility
Ġfitt est
Ġfitt eth
Ġfidd ler
Ġfidd lest
erth rown
erth rows
erween s
Ġdom estic
Ġdom ineer
Ġdul ness
Ġdul cet
Ġdau b
Ġdau phin
Ġdall ies
Ġdall ied
Ġdial s
Ġdaunt less
Ġdally ing
Ġdiff ers
Ġdiff icult
Ġdawn ing
Ġcu ore
Ġcu ps
Ġcel erity
Ġcel estial
Ġcull ion
Ġcrick et
Ġcrick ets
Ġlag ging
Ġlave nder
Ġnurs ing
Ġnurs ery
Ġthorough ly
Ġhild ing
Ġhild ings
Ġtot ally
Ġtot tering
Ġps alms
Ġps alteries
Ġpea ces
Ġpea ches
Ġpag man
Ġpag ans
Ġpars on
Ġpars ley
ĠImp ute
ĠImp rimis
Ġhest s
stock ings
Ġgore d
Ġgest ure
Ġglo be
Ġglo oming
Ġgames ome
Ġgamb old
Ġgamb ols
Ġbede w
Ġbede ck
Ġbemo an
Ġbemo iled
sever al
Ġmyr tle
Ġmyr ripg
Ġinher its
Ġinher itor
Ġhal bert
Ġhal berds
Ġmeas les
Ġmeas uring
Ġmeek ness
Ġepit ome
Ġepit aph
riend ship
Ġstif le
Ġstif led
Ġstee ly
Ġstee led
Ġkitche n
Ġkitche ns
Ġrehe arse
Ġrehe arsed
Ġreel ing
Ġreek y
Ġrenounce ment
Ġsol um
Ġassemble d
estor ative
estim ation
Ġnodd ing
Ġnodd le
Ġseed ness
Ġsust ain
Ġsust aining
Ġspray s
Ġspright ly
Ġspright fully
Ġspawn ed
ĠCon stable
ĠCon queror
ĠCat ling
ĠCret e
ĠCret an
ĠCop itol
ĠCop hetua
ĠRe ason
ĠRe beck
Ġvall ey
Ġvall eys
Ġvaunt s
Ġvaunt ingly
Ġshin eth
Ġproro gue
Ġproro gued
Ġamount s
Ġampl er
Ġampl ified
ĠEthi ope
ĠEthi opian
Ġconn ive
Ġconst ancy
Ġconst ruction
Ġconvenient ly
Ġbloss oming
Ġbloss oms
Fors ake
Fors low
embra ces
embra ced
Ġsheath ing
Heir s
ĠLy cur
ĠLy nn
Ġheretic s
ĠSh ould
ĠSh rug
ĠSm ile
ĠSm alus
ĠOlymp us
ĠOlymp ian
Ġarr as
Ġunadvised ly
Ġunhapp ied
Ġunhapp iness
ĠHung ary
ĠHung erford
ĠHoll a
ĠHoll anders
ĠVINC ENT
Ġjaunt ing
Ġhoard ing
ĠWood stock
ĠWood ville
Ġencl osed
Ġencl oseth
Ġenvir on
Ġenvir oned
Ġrou g
Ġrou gher
Ġrar ity
Ġrar ities
harm ing
Ġdisea sed
Ġdisea bly
Ġdisfig ure
Ġdisfig ured
Inst ead
Inst inctively
Inter pretation
Incl ining
Incl inable
Ġhearken ing
Ġfoem en
Ġfoem an
Ġdesir ous
Ġriot ous
Ġflout ed
ĠTiber io
Ġtwin n
Ġprecept s
Ġclang our
Ġclapp ing
Ġperfid ious
Ġperfid iously
Ġpresag ing
Ġpresag eth
Ġmoons hine
Ġrav in
Ġrav isher
abs olver
Ġbegn aw
Ġbegn awn
Ġchildhood s
Ġreplen ish
Ġreplen ished
Ġreprehend ed
Ġrum ours
Ġrum ourer
Ġruff ian
Ġruff ians
Ġrubb ing
Ġrubb ish
Ġpeep eth
Ġresp ites
Ġresp esses
Ġtriv ia
Ġtriv ial
Ġaccom pt
Ġaccom modations
Ġaccid en
Ġaccid ents
Ġpurg ation
Ġpurg atory
Ġcompet itors
Ġcompet ency
Provo kes
Provo ked
Proportion able
Profan ed
Profan ers
Ġcog itation
Ġcox comb
Ġcox combs
Ġcoven ant
Ġcoven ants
Ġcovet ous
Ġsubs isting
Ġsubs idies
intell igence
Ġlightn ings
Ġlightn ifies
Ġmisdoubt eth
Unc ase
Unc haritably
Ġbelie vest
Ġboil ing
Short en
Ġdiscom fort
Ġdiscom fited
Att ach
Att orney
Ġpromis eth
Ġcrafts men
compl aint
compl aints
command ed
Ġobserv ance
Ġobserv ation
Ġunclean ness
Ġunclean liness
Ġsadd est
Ġsadd les
shot ten
Spur r
Ġforewarn ed
Ġcarbon adoed
Ġcarcass es
Ġdelicious ness
Ġdistaff s
Ġdistrib ute
Ġdistrib ution
Ġextir p
Ġextir pate
Ġtroub lesome
Requ ite
Requ ires
Rebell ious
Ġundes erved
Ġundes cried
Ġfraught ing
spring ing
Ġpenet rate
Ġpenet rable
Ġscarf s
Ġbene ath
Ġbene volences
Ġinsur rection
Ġinsur rections
Ġmedd ling
Ġmedd ler
counterfeit ly
Success ful
Success ively
Ġtemporiz er
Ġtemporiz ed
Ġindu ction
Ġindu ctions
Ġindust ry
Ġindust riously
Ġreflect ing
Ġsimpl eness
Ġsimpl icity
grand father
grand sire
Ġcontrar ious
Ġcontrar iety
Negle ct
Negle cted
Ġcambric s
Deserved ly
Despite ful
conf essed
conf irmed
Ġunsk ilful
Ġunsk ilfully
Ġunsway able
Ado pts
Ado ptedly
Ġesp y
Ġesp ouse
Ġdrive th
Scorn s
Scorn ing
Ġirks ome
Ġconjur ation
Ġconjur ations
Ġtransform ations
Ġmagn anim
Ġmagn ific
Ġpolitic ly
Ġimmod est
Ġimmod erate
Ġimpossib ility
Ġimpossib ilities
Consort ed
Ġrecomfort ed
Ġrecomfort ure
Ġintelligen cing
Ġintelligen cer
Account ant
Ġmultip ly
Ġmultip lying
Ġmultitud es
Ġmultitud inous
Ġcorrect ing
Condition ally
Immediate ly
thank ful
ĠQu oint
ĠQu intus
Ġsteer age
Ġshamef ast
Ġshamef ully
Ġvillanous ly
Courageous ly
Flatter ing
conscience d
friend ship
Ġtestimon ies
Ġtestimon ied
obst inate
obst acles
Ġconcern ings
Ġconcern eth
Present ed
occup ation
supp ort
supp osed
Ġhypocr ite
Ġhypocr isy
ĠRoger o
Ġviper ous
Ġcontradict s
ĠFlorent ine
ĠFlorent ius
Trans form
Trans parent
Ġaugment ing
Ġaugment ed
Ġcelebr ation
Ġcelebr ated
Ġbehove ful
Ġblasphem y
Ġblasphem ous
Ġoutstret ch
Ġoutstret ched
Ġadulter y
Ġadulter ous
Ġcontempl ate
Ġcontempl ation
execution er
instru ments
instru ctions
learned ly
Ġunposs ess
Ġunposs ible
Ġprolix ity
Ġprolix ious
Ag reep
Av aunt
Ach ieve
Ang er
Amb itious
Avo id
Abs olute
Bo ils
Bas ins
Bro ken
Bast a
Bond age
Bef o
Bles sed
Bark lough
BOLINGBRO KE
Boling broke
Baptist a
Bastard s
Bene ath
Bacc are
Bened icite
Blem ish
Cy prus
Cha plain
Car ouse
Cour tsied
Cher ish
Cur ster
Cam est
Cho ler
Crow d
Cost ly
Cance l
Char ges
Count ing
Calm ly
Carn ally
Chor us
Cuc ullus
Current s
Dw elt
Dar raign
Dri ving
Das hes
Dru ms
Dish onourable
Dick y
Dec line
Dab bled
Diss entious
Drum mer
Disting uish
Dazz le
Es pecially
Est eem
Fe ather
Fi end
Fro zen
Fil th
Fight s
Fert ile
Feel ing
Fright ing
French woman
Fresh ly
Fidd ler
Gal en
GARD ENER
Gall op
Gross ly
GENT LEMEN
Graybe ard
Hour ly
Hill oa
Hid est
Hus band
Hook ing
Hoy day
Hunt ing
Hung ary
Hop ing
Ing rate
Ign omy
JO SEPH
Jew el
Kiss ing
Li k
Land lord
Lust y
Lecher y
Labour ing
Min ion
Mut ually
Mad est
Mas ks
Mal iciously
Maint ains
Miss hapen
Mang les
NICH OLAS
Number ing
NUR SE
Nich olas
Obs erved
Obed ience
Pat ricians
Ped ascule
Prom otion
Paint ing
Pew ter
Paul ina
Prey s
Petition ers
Priam i
Rod e
Round ly
Rum our
Ros aline
Rans oming
Remn ants
Ridd ling
Sle w
Sore ly
Sear ch
Serv ile
Sud denly
Salt iers
Sac red
Seld om
Slu iced
School masters
Satisf y
Tr adition
Tre ason
Tar quin
Tres sel
Tap ster
Tab ours
TOP HES
Tempt ations
Trim m
TANTI TOPHES
Trick ly
Tinct ure
Ut ter
Ung overn
Vo ice
Var let
VOMER DIA
Wa fting
Wor st
Wot ting
Wed ges
Wra pp
Wret ches
Weap ons
Wreck ed
ben cher
bec ause
bag s
burn ing
bold ness
breed ing
build ing
bait ings
balance d
cir cumstance
cand le
card inally
cong ealed
col oured
crown ed
cli ents
cab ins
cens ured
crick et
coff in
din ner
dow ry
det ects
dance d
div ining
diffe rence
deaf ening
fow ling
fur red
fru its
fant astic
fath om
forn ication
fles h
fron ts
frank lins
furb ish
grow ing
god dess
gall ant
glo sses
gran ate
gird ling
gener al
gawd ed
greet ings
hows oever
hung ry
jer kin
kill er
kitche n
list ening
lab oured
mut inies
mill iner
might st
mout hed
mel ted
maint ained
merc hant
mortal ity
mask it
mumm ers
nie ces
nove lty
nines core
nstant ly
necess ary
opp osite
pat ents
pri zed
pru nes
pry ing
pac ing
pict ure
pip es
prick ing
rde rer
rmount s
sle ekly
sad dle
scent ed
sleep ing
tim be
tap sters
tren cher
trim med
trib une
temper ance
uld ers
vass als
wou ns
wid ower
whi pping
want on
wol f
waken ed
whis per
wait ing
yield s
yester day
Ġic icle
Ġix ty
Ġiv ory
Ġvers al
Ġzen ith
Ġtir ra
Ġtas sel
Ġtal ons
Ġtast es
Ġtart ness
Ġtind er
Ġtak eth
Ġtun ers
Ġtund ish
Ġtua e
Ġtawd ry
Ġtug ging
Ġtipt oe
help ed
Ġald erman
Ġaed iles
Ġaub urn
Ġaug urer
Ġsor ceries
Ġshat e
Ġske in
Ġsist or
Ġsough d
Ġsiz es
Ġmit igate
Ġment ioned
Ġmand rakes
Ġmul berry
Ġmic rocos
Ġmun iments
Ġmalk in
Ġmeth ink
Ġmpaw ring
Ġmuzz led
invent ory
inno cence
Ġwan ed
Ġwal nut
Ġwist ly
Ġwren s
Ġwrench ing
Ġwadd led
revere nce
revol ving
Ġtheat re
Ġbis hops
Ġbor ing
Ġber ries
Ġbir ch
Ġbapt ized
Ġfad ings
Ġfas hen
Ġfost ered
Ġfren zy
Ġfeal ty
Ġfund amental
Ġfrust rate
Ġfeder ary
Ġfranch ises
Ġferry man
Ġfishi fied
erborn e
Ġdir ges
Ġdut ies
Ġdus ky
Ġdray men
Ġdild os
Ġdict ator
Ġdici pline
Ġcust ard
Ġcic atrices
Ġcun n
Ġcough ing
Ġcran ks
Ġcors let
Ġcale ndar
Ġcac odemon
Ġcels a
Ġcip aused
Ġcadd isses
Ġcripp le
Ġcudge l
enem y
Ġlat ches
Ġlear nt
Ġlep ther
Ġleak y
Ġluke warm
Ġlull aby
Ġlitt ered
Ġlaud is
Ġlawn s
Ġlux ury
Ġnut shell
Ġnour isheth
Ġnur ses
Ġnam eless
Ġnum be
Ġnerv y
Ġnomin ation
Ġnapp ing
Ġnipp le
Ġnufien cence
Ġthund ers
Ġthomas ks
Ġhuse wife
Ġhoof s
Ġhipp ed
Ġobe isance
Ġosp rey
Ġopin ions
Ġomn ipotent
Ġtoget he
Ġyounk er
Ġpan gs
Ġpom ander
Ġpome granate
Ġpam per
Ġpho enix
Ġprow ess
Ġpend ent
Ġpep pered
Ġpall abris
Ġpel ican
Ġpec uliar
Ġpoul tice
Ġpied ness
Ġpalt ry
Ġpester ing
Ġponi ards
ĠIng ratitude
ĠIcar us
Ġheif er
stol en
stick s
steal ing
straw berries
Ġgad ding
Ġgart ered
Ġgem s
Ġgig lots
Ġgli b
Ġgab ble
Ġgawd s
Ġgrum ble
Ġgang rened
Ġgerman e
Ġgraybe ards
Ġbever age
Ġbechan ced
Ġbehest s
Ġmyster ies
Ġincom parable
Ġinund ation
Ġincess ant
Ġinsp ired
Ġinvest ed
Ġinaus picious
Ġinvoc ation
Ġinev itable
Ġinaccess ible
Ġinequal ity
Ġmeag re
Ġmeac ock
Ġmechan ics
chos en
christ en
Ġump ire
Ġwelf are
Ġweals men
Ġeart hen
Ġeun uch
Ġelf locks
Ġeclip sed
Ġwithdra wn
entire ly
ribb on
Ġstur dy
Ġstig matic
Ġstum blest
Ġstub ble
Ġstitter p
Ġstitcher y
Ġstomacher s
Ġkil n
assemb ly
Ġrever sed
Ġrect orship
Ġrevent ed
Ġrecept acle
Ġreiter ate
Ġreech y
raven ing
Ġsobri ety
Ġdeme an
Ġdemer its
Ġdelect able
Ġdexter ity
establ ished
Ġshamb les
Ġnoont ide
usurp ed
Ġbutche red
Ġsept entrion
Ġsemic ircle
Thrust s
Ġallig ator
Ġsuret ies
Ġsudd ise
thres hold
thorough ly
Ġhermit age
Ġspic ery
Ġspang le
Ġsppro ves
Ġfaci ant
ĠCond ition
ĠCreat or
ĠCice ly
ĠCount ess
ĠCushi ons
ĠCaucas us
ĠCrass us
Ġknead ed
ANOTH ER
ĠRem ember
ĠRhes us
ĠRouge mont
Ġvic ar
Ġvoy age
Ġvary ing
Ġvip ers
Ġvaul ty
Ġvouchsa fed
Ġshred s
Ġupbra idings
Ġupturn ed
Ġuplift ed
quick en
quench ing
Ġpranc ing
Ġcomment ing
ĠMach iavel
ĠMenel aus
ĠMerrim an
ĠMediter ranean
ĠEdm und
ĠEsse x
Ġconven ience
Ġconject ure
Ġconcept ion
Ġcongea led
Ġcongreg ations
Ġconsecr ated
Ġblaw ford
Ġblaz ing
Forsp ent
embass ies
ĠGol gotha
ĠGall ia
ĠGab riel
ĠGris sel
ĠGerman s
ĠGrind stone
Ġshedd ing
Hered itary
ĠLiv ia
ĠLombard y
Ġswound ed
Ġsweep s
Ġbrist led
ĠSound post
ĠServ in
ĠSey mour
ĠSpir its
ĠSug arsop
ĠSpan ish
ĠSiby l
ĠSabb ath
ĠSarac ens
ĠSomerv ille
ĠSeteb os
ĠSemiram is
ĠBlo ssom
ĠBian co
ĠBalt hasar
ĠBohem ian
ĠBarth ol
ĠBreck nock
ĠBrid get
ĠBosw orth
ĠBinac a
ĠBentiv olii
ĠBordea ux
ĠBeaum ond
Ġgobl ins
Ġunci vil
Ġunsw ept
Ġunrel enting
Ġunso il
Ġunmer iting
Ġunsh unned
Ġunfol ve
Ġunright ful
Ġunsp here
Ġunmit igable
Ġunhop ed
Ġunex amined
Ġunroll ed
Ġunatt ainted
Ġunhur tful
Ġunchild ed
Ġunviol able
Ġunintell igent
Ġungrave ly
Ġunroo sted
Ġunvul nerable
Ġunrespect ive
ĠHump hrey
ĠHyr cania
ĠHAST INGS
ĠVel utus
ĠVict orious
ĠVirg ilia
ĠVitra vio
ĠVolumn ia
Asso ciated
Ġquiver ing
Ġjun kets
Ġjolthe ads
Ġgraci ou
Ġhogs head
Ġhosp itable
Ġhollown ess
Ġprope rer
Ġprolo gue
Ġprogn ostication
Ġprosec ute
Ġprogen y
Ġprosely tes
Ġsaff ron
ĠPier ce
ĠPud ding
ĠPetru cio
ĠPub lius
ĠPeg asus
ĠPenel ope
ĠPubl icola
ĠPygm alion
ĠPimper nell
Ġplun ge
Ġplack ets
Ġplaint ain
Ġplaus ible
ĠWinc ot
ĠWorship ful
ĠWatert on
Ġenfor pore
Ġenchan tment
Ġenact s
Ġenfold ings
Ġenstra ved
Ġenlarge ment
Ġpoper in
Ġposit ively
defend er
ĠAff righted
ĠAud ience
ĠApo llos
ĠArist otle
ĠAuthor ity
ĠAub rey
ĠAEd iles
Ġtrunche on
Ġhandkerc hers
Ġwholes omest
Ġmarjor am
Ġwhences oever
Ġdisli ken
Ġdiscl osed
Ġdisadv antage
Ġdisann uls
Ġdisbur den
Infect ed
Insp ire
Inestim able
Ġalab aster
Ġalac rity
Sovere ign
Ġexche quer
Ġexult ation
Ġexten uate
Ġexclam ations
Ġexquis ite
Ġwarrong ed
Ġflaunt s
Ġslught e
Ġslumb ers
Ġslugg ard
Ġbetrot hed
ĠTyb alts
ĠTues day
ĠTurp h
ĠTrip oli
ĠTrit on
ĠTroil us
Ġtwang ling
Isab el
Begu iled
Begg ars
Ġbreech ing
ĠKeep down
Ġparticip ate
plebe ians
Ġadding ness
Ġpreach ment
Ġpreten ces
Ġpremed itation
Ġprejud icial
Ġprefix ed
Ġpredic ament
Ġcommiss ions
Ġclipp ing
Ġsweetme ats
Ġtradition al
Ġpercus sion
Ġpersec utor
ĠDaint ry
ĠDuns more
ĠDaph ne
ĠDaed alus
ĠDiom ede
ĠClaud ly
ĠClarib el
Ġscaff old
Ġscoff s
Ġscald ing
Ġscurril ous
perfor mance
perform ing
Ġramp ing
Ġrabb it
Ġremonst rance
ĠFalcon bridge
Ġappertain ing
Ġapprent icehood
Ġwhirl winds
swallow ed
Ġuntrus sing
ĠMarseill es
Ġreprob ate
Ġrudd iness
Ġrudes by
Ġconsumm ate
ĠJew ry
ĠJac ob
ĠJepht hah
Ġpebb les
Ġpeopl icy
Ġleop ards
Ġenthra lled
Ġwitting ly
Ġacclam ations
Ġcoach makers
Ġcollo p
Ġcobble d
Ġcobwe bs
Ġcharact s
Ġguerd on
Ġsmothe red
Strat ford
Ġforthcom ing
Ġbanisher s
Ġconfisc ation
Ġimprim endum
Ġdoubl eness
Ġwoefull est
ĠAngelic a
Ġmispl aces
Ġmisplace d
Ġmisapp lied
Ġmisbeha ved
Ġmisinter pret
Ġmisbegot ten
Ġchirur geonly
Ġchrosp iles
Ġunderpro p
Ġgodfather s
Unpl agued
Unlike ly
Unmer itable
Unsh out
Unsa voury
Unseem ly
Unpeople d
Unhapp ily
Uninhabit able
Upbra id
Ġhumbl er
Ġoverfl ow
Ġoverwe igh
Ġoverwhelm ing
Ġoverween ing
Ġbedazz led
Ġcourtez ans
Ġinstitution s
Ġassoci ate
penny worth
Ġmerchand ise
Ġmercatant e
Ġdepop ulate
compan ions
Ġsupplic ation
Ġmetaphysic s
Ġdeflow ered
Ġdefinit ive
solem ness
solemn ity
Ġdispossess ing
undisc overed
ĠLucre ce
withdraw ing
Spraw l
Common ly
Compr ising
Complot ted
Haberdas her
negl igent
ĠNecess ity
Ġterrest rial
ĠHelen a
ĠHecub a
Ġaggra vate
Ġdistribut ed
Ġcorpor al
Ġcorrespond ent
Ġconsulshi ps
Ġquarrelishmen ch
Swarm ing
Ġinterpre ters
Ġundoubt ful
Ġundisc ernible
Ġprinco x
spav ins
Ġopprob riously
Ġopportun ity
ĠPlantagen ets
counsell or
Ġcautel ous
Ġgallimau fry
Ġsurviv or
Ġstrugg le
Ġuttere th
Ġapricock s
Ġunconstra in
Abhor red
Subscri bed
ĠXanthipp e
Ġpettit oes
Deceit ful
nymph s
ĠProte us
Enfranch isement
Envelo pe
Ġmounteban k
Dispro pertied
Dismant le
Ġunfashion able
Ġunwitting l
Ġunwedgea ble
Ġprovinci al
profess es
proclam ation
prophe cy
Ġimaginat io
Exact ly
Exped ient
Expres seth
confess ion
Ġunsatisf ied
Advantag ing
Advertis ing
Ġdrizz le
ĠyokUCH astisful
Ġloathsom eness
Ġdecrease d
Ġambusc adoes
Preoccup ied
Scrat ches
Scoff ing
Scratch ing
Ġirrevoc able
Ġbondsl ave
Ġportcull is
Ġangelic al
Ġtransgress ing
Ġsanctimon ious
safest s
Ġdiverse ly
Ġdiamond s
Ġcupboard ing
ĠCalib ans
ĠSocr ates
ĠProdig al
Ġpoltro ons
dispers ing
ĠCoppers pur
ĠBergam o
ĠBermoot hes
PHILI P
Ġzodia cs
Ġsycam ore
Ġwingdall s
ĠDevons hire
Immod erately
Ġsuperstit iously
ĠBurton heath
Ġcatalo gue
Ġcenturi ons
conduct ing
Ġrhetor ic
Definit ively
bonnet ed
Ġhyperbol ical
Transl ate
ĠnaKain a
Ġempiric utic
Ġencompas seth
ĠAgripp a
ĠAgamemn on
Ġsympathi ze
Embarqu ements
sufficient ly
triumphant ly
Ġfiddlest ick
Ġdifficult ies
Ġepitaph s
ĠLycur guses
Ġmagnanim ity
Ġmagnific ence
Agreep on
Barklough ly
fantastic oes
Ġmicrocos m
