{
  "version": "1.0",
  "truncation": null,
  "padding": null,
  "added_tokens": [
    {
      "id": 0,
      "content": "<|endoftext|>",
      "single_word": false,
      "lstrip": false,
      "rstrip": false,
      "normalized": true,
      "special": true
    }
  ],
  "normalizer": null,
  "pre_tokenizer": {
    "type": "ByteLevel",
    "add_prefix_space": false,
    "trim_offsets": true,
    "use_regex": true
  },
  "post_processor": {
    "type": "ByteLevel",
    "add_prefix_space": true,
    "trim_offsets": false,
    "use_regex": true
  },
  "decoder": {
    "type": "ByteLevel",
    "add_prefix_space": true,
    "trim_offsets": true,
    "use_regex": true
  },
  "model": {
    "type": "BPE",
    "dropout": null,
    "unk_token": null,
    "continuing_subword_prefix": "",
    "end_of_word_suffix": "",
    "fuse_unk": false,
    "byte_fallback": false,
    "vocab": {
      "<|endoftext|>": 0,
      "!": 1,
      "\"": 2,
      "#": 3,
      "$": 4,
      "%": 5,
      "&": 6,
      "'": 7,
      "(": 8,
      ")": 9,
      "*": 10,
      "+": 11,
      ",": 12,
      "-": 13,
      ".": 14,
      "/": 15,
      "0": 16,
      "1": 17,
      "2": 18,
      "3": 19,
      "4": 20,
      "5": 21,
      "6": 22,
      "7": 23,
      "8": 24,
      "9": 25,
      ":": 26,
      ";": 27,
      "<": 28,
      "=": 29,
      ">": 30,
      "?": 31,
      "@": 32,
      "A": 33,
      "B": 34,
      "C": 35,
      "D": 36,
      "E": 37,
      "F": 38,
      "G": 39,
      "H": 40,
      "I": 41,
      "J": 42,
      "K": 43,
      "L": 44,
      "M": 45,
      "N": 46,
      "O": 47,
      "P": 48,
      "Q": 49,
      "R": 50,
      "S": 51,
      "T": 52,
      "U": 53,
      "V": 54,
      "W": 55,
      "X": 56,
      "Y": 57,
      "Z": 58,
      "[": 59,
      "\\": 60,
      "]": 61,
      "^": 62,
      "_": 63,
      "`": 64,
      "a": 65,
      "b": 66,
      "c": 67,
      "d": 68,
      "e": 69,
      "f": 70,
      "g": 71,
      "h": 72,
      "i": 73,
      "j": 74,
      "k": 75,
      "l": 76,
      "m": 77,
      "n": 78,
      "o": 79,
      "p": 80,
      "q": 81,
      "r": 82,
      "s": 83,
      "t": 84,
      "u": 85,
      "v": 86,
      "w": 87,
      "x": 88,
      "y": 89,
      "z": 90,
      "{": 91,
      "|": 92,
      "}": 93,
      "~": 94,
      "¡": 95,
      "¢": 96,
      "£": 97,
      "¤": 98,
      "¥": 99,
      "¦": 100,
      "§": 101,
      "¨": 102,
      "©": 103,
      "ª": 104,
      "«": 105,
      "¬": 106,
      "®": 107,
      "¯": 108,
      "°": 109,
      "±": 110,
      "²": 111,
      "³": 112,
      "´": 113,
      "µ": 114,
      "¶": 115,
      "·": 116,
      "¸": 117,
      "¹": 118,
      "º": 119,
      "»": 120,
      "¼": 121,
      "½": 122,
      "¾": 123,
      "¿": 124,
      "À": 125,
      "Á": 126,
      "Â": 127,
      "Ã": 128,
      "Ä": 129,
      "Å": 130,
      "Æ": 131,
      "Ç": 132,
      "È": 133,
      "É": 134,
      "Ê": 135,
      "Ë": 136,
      "Ì": 137,
      "Í": 138,
      "Î": 139,
      "Ï": 140,
      "Ð": 141,
      "Ñ": 142,
      "Ò": 143,
      "Ó": 144,
      "Ô": 145,
      "Õ": 146,
      "Ö": 147,
      "×": 148,
      "Ø": 149,
      "Ù": 150,
      "Ú": 151,
      "Û": 152,
      "Ü": 153,
      "Ý": 154,
      "Þ": 155,
      "ß": 156,
      "à": 157,
      "á": 158,
      "â": 159,
      "ã": 160,
      "ä": 161,
      "å": 162,
      "æ": 163,
      "ç": 164,
      "è": 165,
      "é": 166,
      "ê": 167,
      "ë": 168,
      "ì": 169,
      "í": 170,
      "î": 171,
      "ï": 172,
      "ð": 173,
      "ñ": 174,
      "ò": 175,
      "ó": 176,
      "ô": 177,
      "õ": 178,
      "ö": 179,
      "÷": 180,
      "ø": 181,
      "ù": 182,
      "ú": 183,
      "û": 184,
      "ü": 185,
      "ý": 186,
      "þ": 187,
      "ÿ": 188,
      "Ā": 189,
      "ā": 190,
      "Ă": 191,
      "ă": 192,
      "Ą": 193,
      "ą": 194,
      "Ć": 195,
      "ć": 196,
      "Ĉ": 197,
      "ĉ": 198,
      "Ċ": 199,
      "ċ": 200,
      "Č": 201,
      "č": 202,
      "Ď": 203,
      "ď": 204,
      "Đ": 205,
      "đ": 206,
      "Ē": 207,
      "ē": 208,
      "Ĕ": 209,
      "ĕ": 210,
      "Ė": 211,
      "ė": 212,
      "Ę": 213,
      "ę": 214,
      "Ě": 215,
      "ě": 216,
      "Ĝ": 217,
      "ĝ": 218,
      "Ğ": 219,
      "ğ": 220,
      "Ġ": 221,
      "ġ": 222,
      "Ģ": 223,
      "ģ": 224,
      "Ĥ": 225,
      "ĥ": 226,
      "Ħ": 227,
      "ħ": 228,
      "Ĩ": 229,
      "ĩ": 230,
      "Ī": 231,
      "ī": 232,
      "Ĭ": 233,
      "ĭ": 234,
      "Į": 235,
      "į": 236,
      "İ": 237,
      "ı": 238,
      "Ĳ": 239,
      "ĳ": 240,
      "Ĵ": 241,
      "ĵ": 242,
      "Ķ": 243,
      "ķ": 244,
      "ĸ": 245,
      "Ĺ": 246,
      "ĺ": 247,
      "Ļ": 248,
      "ļ": 249,
      "Ľ": 250,
      "ľ": 251,
      "Ŀ": 252,
      "ŀ": 253,
      "Ł": 254,
      "ł": 255,
      "Ń": 256,
      "Ġt": 257,
      "he": 258,
      "Ġa": 259,
      "ou": 260,
      "Ġs": 261,
      "Ġm": 262,
      "in": 263,
      "Ġw": 264,
      "re": 265,
      "ha": 266,
      "nd": 267,
      "Ġthe": 268,
      "Ġb": 269,
      "is": 270,
      "or": 271,
      "Ġf": 272,
      "er": 273,
      "ll": 274,
      "it": 275,
      "on": 276,
      "Ġd": 277,
      "Ġc": 278,
      "es": 279,
      "en": 280,
      "Ġl": 281,
      "Ġn": 282,
      "Ġy": 283,
      "Ġth": 284,
      "ar": 285,
      "Ġh": 286,
      "Ġo": 287,
      "Ġto": 288,
      "Ġyou": 289,
      "Ġp": 290,
      "hat": 291,
      "ĠI": 292,
      "Ġhe": 293,
      "ve": 294,
      "ot": 295,
      "st": 296,
      "Ġand": 297,
      "ow": 298,
      "ing": 299,
      "an": 300,
      "Ġof": 301,
      "om": 302,
      "Ġg": 303,
      "at": 304,
      "Ġbe": 305,
      "se": 306,
      "Ġmy": 307,
      "ce": 308,
      "Ġin": 309,
      "Ġha": 310,
      "le": 311,
      "ay": 312,
      "ld": 313,
      "ir": 314,
      "et": 315,
      "ed": 316,
      "ut": 317,
      "im": 318,
      "Ġme": 319,
      "ith": 320,
      "'s": 321,
      "Ġnot": 322,
      "ch": 323,
      "Ġthat": 324,
      "gh": 325,
      "Ġis": 326,
      "And": 327,
      "Ġfor": 328,
      "ke": 329,
      "Ġu": 330,
      "our": 331,
      "Ġwe": 332,
      "oo": 333,
      "ill": 334,
      "Ġe": 335,
      "her": 336,
      "Ġwith": 337,
      "ent": 338,
      "Ġit": 339,
      "Ġyour": 340,
      "ad": 341,
      "ri": 342,
      "Ġst": 343,
      "Ġthou": 344,
      "'d": 345,
      "Ġk": 346,
      "ome": 347,
      "Ġhis": 348,
      "ght": 349,
      "EN": 350,
      "as": 351,
      "ord": 352,
      "The": 353,
      "id": 354,
      "Ġre": 355,
      "Ġhave": 356,
      "ly": 357,
      "ra": 358,
      "IN": 359,
      "Ġhim": 360,
      "Ġli": 361,
      "ur": 362,
      "IO": 363,
      "Ġthis": 364,
      "al": 365,
      "Ġso": 366,
      "Ġas": 367,
      "Ġde": 368,
      "Ġon": 369,
      "ore": 370,
      "ro": 371,
      "AR": 372,
      "hi": 373,
      "ould": 374,
      "ood": 375,
      "ain": 376,
      "ck": 377,
      "ver": 378,
      "est": 379,
      "ess": 380,
      "Ġsha": 381,
      "Ġthy": 382,
      "ea": 383,
      "Ġdo": 384,
      "Ġwill": 385,
      "am": 386,
      "Ġno": 387,
      "and": 388,
      "us": 389,
      "Ġbut": 390,
      "if": 391,
      "US": 392,
      "ge": 393,
      "Ġse": 394,
      "Th": 395,
      "Ġall": 396,
      "Ġsu": 397,
      "ake": 398,
      "To": 399,
      "th": 400,
      "ion": 401,
      "Ġher": 402,
      "ru": 403,
      "ter": 404,
      "ard": 405,
      "Ġan": 406,
      "han": 407,
      "Ġlo": 408,
      "ell": 409,
      "ear": 410,
      "Ġsp": 411,
      "Ġthee": 412,
      "Ġfa": 413,
      "Ġour": 414,
      "Ġby": 415,
      "Ġshall": 416,
      "UC": 417,
      "il": 418,
      "Ġare": 419,
      "ING": 420,
      "ĠC": 421,
      "rom": 422,
      "Ġne": 423,
      "ho": 424,
      "Ġkn": 425,
      "That": 426,
      "AN": 427,
      "ĠR": 428,
      "ast": 429,
      "Ġv": 430,
      "ct": 431,
      "ER": 432,
      "OR": 433,
      "ous": 434,
      "Ġwhat": 435,
      "ight": 436,
      "Ġsh": 437,
      "ul": 438,
      "ant": 439,
      "ES": 440,
      "ET": 441,
      "Ġ'": 442,
      "sel": 443,
      "Ġup": 444,
      "art": 445,
      "qu": 446,
      "But": 447,
      "row": 448,
      "Ġgood": 449,
      "ine": 450,
      "Ġlord": 451,
      "ath": 452,
      "nt": 453,
      "ust": 454,
      "hich": 455,
      "'ll": 456,
      "Ġpr": 457,
      "Ġat": 458,
      "Ġcom": 459,
      "one": 460,
      "Ġman": 461,
      "ĠM": 462,
      "What": 463,
      "Ġam": 464,
      "Ġwhe": 465,
      "ĠE": 466,
      "KING": 467,
      "end": 468,
      "Ġcon": 469,
      "ic": 470,
      "ble": 471,
      "ry": 472,
      "ong": 473,
      "ie": 474,
      "Ġbl": 475,
      "ive": 476,
      "ven": 477,
      "Ġfrom": 478,
      "For": 479,
      "are": 480,
      "em": 481,
      "ĠG": 482,
      "od": 483,
      "Ġshe": 484,
      "au": 485,
      "Ġthem": 486,
      "out": 487,
      "Ġmore": 488,
      "IC": 489,
      "Ġwas": 490,
      "oth": 491,
      "He": 492,
      "ol": 493,
      "other": 494,
      "Ġsir": 495,
      "Ġhat": 496,
      "ĠL": 497,
      "Ġif": 498,
      "Ġnow": 499,
      "ost": 500,
      "ind": 501,
      "LO": 502,
      "Ġthere": 503,
      "Ġwould": 504,
      "Ġcan": 505,
      "IUS": 506,
      "ers": 507,
      "self": 508,
      "Ġknow": 509,
      "ep": 510,
      "fe": 511,
      "ARD": 512,
      "ond": 513,
      "ather": 514,
      "res": 515,
      "ate": 516,
      "Ġsay": 517,
      "Ġhere": 518,
      "Ġtheir": 519,
      "pp": 520,
      "Ġlove": 521,
      "Ġsw": 522,
      "Ġbr": 523,
      "Ġor": 524,
      "all": 525,
      "ĠS": 526,
      "Ġthan": 527,
      "--": 528,
      "Ġus": 529,
      "Ġking": 530,
      "Ġthen": 531,
      "ĠO": 532,
      "Ġthey": 533,
      "ĠB": 534,
      "Ġar": 535,
      "Ġgo": 536,
      "My": 537,
      "Ġlet": 538,
      "Ġun": 539,
      "ig": 540,
      "Ġwor": 541,
      "ure": 542,
      "ĠH": 543,
      "ink": 544,
      "ort": 545,
      "fore": 546,
      "hy": 547,
      "ĠV": 548,
      "Ġmay": 549,
      "el": 550,
      "As": 551,
      "ame": 552,
      "ish": 553,
      "Ġcome": 554,
      "Ġqu": 555,
      "Whe": 556,
      "ook": 557,
      "ves": 558,
      "LI": 559,
      "Ġwell": 560,
      "KE": 561,
      "Ġhath": 562,
      "Ġj": 563,
      "Ġone": 564,
      "irst": 565,
      "You": 566,
      "Ġmake": 567,
      "reat": 568,
      "ak": 569,
      "gain": 570,
      "Ġmust": 571,
      "ng": 572,
      "ound": 573,
      "Ġgra": 574,
      "Ġho": 575,
      "ue": 576,
      "Ġwere": 577,
      "ci": 578,
      "eak": 579,
      "Ġlike": 580,
      "Ġsee": 581,
      "ity": 582,
      "TIO": 583,
      "Ġpro": 584,
      "Ġshould": 585,
      "Ġsa": 586,
      "ĠP": 587,
      "um": 588,
      "Ġmad": 589,
      "Ġpl": 590,
      "AU": 591,
      "RO": 592,
      "pe": 593,
      "Ġfather": 594,
      "Ġhad": 595,
      "Ġdid": 596,
      "ime": 597,
      "Ġupon": 598,
      "ON": 599,
      "ice": 600,
      "Ġtoo": 601,
      "ĠW": 602,
      "ist": 603,
      "ence": 604,
      "ward": 605,
      "ose": 606,
      "man": 607,
      "own": 608,
      "Ġdeath": 609,
      "Ġen": 610,
      "ful": 611,
      "nce": 612,
      "un": 613,
      "Ġpo": 614,
      "de": 615,
      "Ġr": 616,
      "Ġspeak": 617,
      "IS": 618,
      "io": 619,
      "Ġout": 620,
      "entle": 621,
      "pt": 622,
      "Ġwhich": 623,
      "ICH": 624,
      "OL": 625,
      "Ġagain": 626,
      "DU": 627,
      "Ġhow": 628,
      "Ġfri": 629,
      "DUKE": 630,
      "EL": 631,
      "ick": 632,
      "ĠA": 633,
      "Ġheart": 634,
      "Ġtru": 635,
      "Ġhand": 636,
      "Ġyet": 637,
      "CA": 638,
      "ance": 639,
      "Thou": 640,
      "ENTIO": 641,
      "very": 642,
      "With": 643,
      "ICHARD": 644,
      "ign": 645,
      "Ġsome": 646,
      "If": 647,
      "Ġwho": 648,
      "Which": 649,
      "ire": 650,
      "ies": 651,
      "Ġmar": 652,
      "orn": 653,
      "Ġwhen": 654,
      "Ġhon": 655,
      "Ġoff": 656,
      "ĠY": 657,
      "Ġmine": 658,
      "ince": 659,
      "har": 660,
      "Ġdis": 661,
      "Ġson": 662,
      "INC": 663,
      "'t": 664,
      "In": 665,
      "ack": 666,
      "Ġal": 667,
      "We": 668,
      "wn": 669,
      "Ġhea": 670,
      "Ġsuch": 671,
      "First": 672,
      "uch": 673,
      "Ġhear": 674,
      "ec": 675,
      "ness": 676,
      "oy": 677,
      "LA": 678,
      "Ġtime": 679,
      "AB": 680,
      "Of": 681,
      "Ġbrother": 682,
      "ither": 683,
      "UE": 684,
      "Why": 685,
      "Ġgive": 686,
      "Ġblood": 687,
      "No": 688,
      "Ġab": 689,
      "Ġfo": 690,
      "Ġthese": 691,
      "ise": 692,
      "Ġday": 693,
      "Ġear": 694,
      "Ġro": 695,
      "So": 696,
      "Ġex": 697,
      "Ġlife": 698,
      "TER": 699,
      "eet": 700,
      "Ġtell": 701,
      "ĠII": 702,
      "This": 703,
      "ĠRICHARD": 704,
      "ag": 705,
      "UCH": 706,
      "Ġlook": 707,
      "oul": 708,
      "age": 709,
      "ther": 710,
      "Ġword": 711,
      "erv": 712,
      "Ġthink": 713,
      "Ġwhere": 714,
      "ef": 715,
      "een": 716,
      "Ġey": 717,
      "UCES": 718,
      "GLO": 719,
      "Ġtake": 720,
      "UCESTER": 721,
      "ings": 722,
      "GLOUCESTER": 723,
      "ave": 724,
      "not": 725,
      "rown": 726,
      "Ġdes": 727,
      "ady": 728,
      "Ġfriend": 729,
      "ase": 730,
      "urse": 731,
      "How": 732,
      "Ġgentle": 733,
      "RY": 734,
      "Ġri": 735,
      "QUE": 736,
      "way": 737,
      "Ġlea": 738,
      "QUEEN": 739,
      "Ġmost": 740,
      "ĠOF": 741,
      "Ġart": 742,
      "Ġwar": 743,
      "INCENTIO": 744,
      "tis": 745,
      "Ġfl": 746,
      "Where": 747,
      "Ġsl": 748,
      "Ġhonour": 749,
      "LAN": 750,
      "ment": 751,
      "Ġmuch": 752,
      "urn": 753,
      "Ġbet": 754,
      "Ġmade": 755,
      "Now": 756,
      "ĠT": 757,
      "Ġtw": 758,
      "LE": 759,
      "Ġfear": 760,
      "Ġhast": 761,
      "ff": 762,
      "aught": 763,
      "Is": 764,
      "ENRY": 765,
      "ĠGod": 766,
      "ough": 767,
      "ved": 768,
      "Be": 769,
      "ber": 770,
      "igh": 771,
      "ap": 772,
      "ee": 773,
      "Ġbre": 774,
      "ower": 775,
      "cc": 776,
      "ĠK": 777,
      "Ġmen": 778,
      "orrow": 779,
      "Ġgreat": 780,
      "tle": 781,
      "Ġcou": 782,
      "Ġnever": 783,
      "Who": 784,
      "iz": 785,
      "uke": 786,
      "old": 787,
      "Ġfair": 788,
      "Ġnew": 789,
      "ĠRome": 790,
      "aster": 791,
      "ORK": 792,
      "ĠVINCENTIO": 793,
      "ation": 794,
      "Ġpart": 795,
      "ss": 796,
      "ree": 797,
      "ide": 798,
      "INIUS": 799,
      "It": 800,
      "Or": 801,
      "ple": 802,
      "Ġad": 803,
      "Ġcall": 804,
      "Ġheaven": 805,
      "Ġany": 806,
      "Ġpre": 807,
      "Ġcomm": 808,
      "DW": 809,
      "Your": 810,
      "Ġstand": 811,
      "Ġcannot": 812,
      "DWARD": 813,
      "LUC": 814,
      "Ġbeen": 815,
      "ears": 816,
      "Ġcl": 817,
      "ass": 818,
      "UM": 819,
      "Ġnoble": 820,
      "Ġpray": 821,
      "Ġtrue": 822,
      "Ġname": 823,
      "Ġsweet": 824,
      ",--": 825,
      "PET": 826,
      "Ġdoth": 827,
      "Come": 828,
      "MEN": 829,
      "hing": 830,
      "ouse": 831,
      "Ġown": 832,
      "TH": 833,
      "aw": 834,
      "Ġtr": 835,
      "Ġper": 836,
      "Ġple": 837,
      "There": 838,
      "ife": 839,
      "ull": 840,
      "Ay": 841,
      "ĠD": 842,
      "Ġwr": 843,
      "Ġway": 844,
      "Ġdone": 845,
      "Ġother": 846,
      "Ġhead": 847,
      "li": 848,
      "the": 849,
      "Ġmean": 850,
      "red": 851,
      "aint": 852,
      "dward": 853,
      "Ġnight": 854,
      "Ġbefore": 855,
      "ĠCl": 856,
      "When": 857,
      "ME": 858,
      "ace": 859,
      "to": 860,
      "Ġnor": 861,
      "Ġpres": 862,
      "ause": 863,
      "Ġworld": 864,
      "ROME": 865,
      "MENEN": 866,
      "Ġsc": 867,
      "Ġbear": 868,
      "ROMEO": 869,
      "MENENIUS": 870,
      "TES": 871,
      "ger": 872,
      "per": 873,
      "ving": 874,
      "Ġsoul": 875,
      "Ġboth": 876,
      "Ġdead": 877,
      "Here": 878,
      "aughter": 879,
      "OM": 880,
      "Ġmo": 881,
      "Ġchi": 882,
      "Then": 883,
      "Ġqueen": 884,
      "RUCH": 885,
      "PETRUCH": 886,
      "PETRUCHIO": 887,
      "Than": 888,
      "able": 889,
      "Ġvery": 890,
      "By": 891,
      "Ġke": 892,
      "Ġra": 893,
      "ite": 894,
      "Ġrem": 895,
      "ab": 896,
      "ĠF": 897,
      "Ġdown": 898,
      "GR": 899,
      "Ġapp": 900,
      "Ġwh": 901,
      "Ġcont": 902,
      "HA": 903,
      "lo": 904,
      "ĠLord": 905,
      "les": 906,
      "ty": 907,
      "Ġmyself": 908,
      "Ġarm": 909,
      "Sec": 910,
      "IOLAN": 911,
      "ction": 912,
      "ORIOLAN": 913,
      "Second": 914,
      "ORIOLANUS": 915,
      "CORIOLANUS": 916,
      "less": 917,
      "Ġthus": 918,
      "sw": 919,
      "Ġbeing": 920,
      "ĠEdward": 921,
      "Ġgrace": 922,
      "Ġleave": 923,
      "Nor": 924,
      "ran": 925,
      "Ġbeg": 926,
      "Ġunt": 927,
      "ress": 928,
      "BA": 929,
      "land": 930,
      "Ġma": 931,
      "Ġmother": 932,
      "Ġold": 933,
      "INA": 934,
      "Ġeyes": 935,
      "itiz": 936,
      "ĠEDWARD": 937,
      "ps": 938,
      "Ġim": 939,
      "ĠMar": 940,
      "itizen": 941,
      "for": 942,
      "me": 943,
      "Let": 944,
      "Ġwife": 945,
      "Ġlong": 946,
      "Ġchild": 947,
      "Ġever": 948,
      "Ġrep": 949,
      "Ġlive": 950,
      "Ġpoor": 951,
      "She": 952,
      "Ġaway": 953,
      "Ġaf": 954,
      "Ġwom": 955,
      "Ġstay": 956,
      "ĠIII": 957,
      "wick": 958,
      "Ġmight": 959,
      "ks": 960,
      "led": 961,
      "eace": 962,
      "come": 963,
      "nder": 964,
      "Ġdie": 965,
      "Ġru": 966,
      "arwick": 967,
      "ows": 968,
      "Ġcons": 969,
      "ĠJ": 970,
      "oud": 971,
      "atch": 972,
      "Ġfriends": 973,
      "Tis": 974,
      "hall": 975,
      "iss": 976,
      "ison": 977,
      "Ġcour": 978,
      "Ġpe": 979,
      "Ġcomes": 980,
      "ĠYORK": 981,
      "Ġcrown": 982,
      "Ġle": 983,
      "Ġhouse": 984,
      "Ġhar": 985,
      "Ġmany": 986,
      "LEON": 987,
      "uck": 988,
      "ELLA": 989,
      "ABELLA": 990,
      "LEONTES": 991,
      "ISABELLA": 992,
      "Ġbetter": 993,
      "ian": 994,
      "erc": 995,
      "Ġthought": 996,
      "Ġrest": 997,
      "His": 998,
      "RAN": 999,
      "Ġent": 1000,
      "Ġset": 1001,
      "ors": 1002,
      "Ġlie": 1003,
      "che": 1004,
      "well": 1005,
      "Ġwit": 1006,
      "atter": 1007,
      "ĠWarwick": 1008,
      "JU": 1009,
      "Nay": 1010,
      "LIET": 1011,
      "JULIET": 1012,
      "ts": 1013,
      "Ġtong": 1014,
      "ought": 1015,
      "ittle": 1016,
      "Ġdaughter": 1017,
      "Ġgone": 1018,
      "CE": 1019,
      "DY": 1020,
      "MI": 1021,
      "rant": 1022,
      "Ġprince": 1023,
      "LADY": 1024,
      "TA": 1025,
      "ied": 1026,
      "Ġnothing": 1027,
      "ENCE": 1028,
      "Ġres": 1029,
      "Ġkeep": 1030,
      "BR": 1031,
      "VOL": 1032,
      "Not": 1033,
      "Well": 1034,
      "ces": 1035,
      "ier": 1036,
      "Ġsle": 1037,
      "ont": 1038,
      "Go": 1039,
      "os": 1040,
      "Ġthose": 1041,
      "Ġgri": 1042,
      "Ġface": 1043,
      "Ġlords": 1044,
      "Ġagainst": 1045,
      "hard": 1046,
      "SIC": 1047,
      "Ġtri": 1048,
      "Ġhence": 1049,
      "ool": 1050,
      "une": 1051,
      "SICINIUS": 1052,
      "ford": 1053,
      "ious": 1054,
      "lse": 1055,
      "Ġbest": 1056,
      "Ġlittle": 1057,
      "ardon": 1058,
      "akes": 1059,
      "Ġnews": 1060,
      "ew": 1061,
      "ud": 1062,
      "Ġhour": 1063,
      "Ġyoung": 1064,
      "Ġfoll": 1065,
      "Ġacc": 1066,
      "ark": 1067,
      "sed": 1068,
      "LUCIO": 1069,
      "On": 1070,
      "Ġpur": 1071,
      "Ġend": 1072,
      "Ġkind": 1073,
      "ilt": 1074,
      "ield": 1075,
      "ork": 1076,
      "Ġthing": 1077,
      "Ġhimself": 1078,
      "alk": 1079,
      "Ġcomp": 1080,
      "ST": 1081,
      "ale": 1082,
      "Ġpri": 1083,
      "Thy": 1084,
      "iness": 1085,
      "ret": 1086,
      "Ġpower": 1087,
      "ĠIV": 1088,
      "Ġelse": 1089,
      "ried": 1090,
      "Ġstill": 1091,
      "ichard": 1092,
      "Ġtwo": 1093,
      "Pro": 1094,
      "cl": 1095,
      "ft": 1096,
      "ile": 1097,
      "ins": 1098,
      "Ġco": 1099,
      "Ġcha": 1100,
      "Ġput": 1101,
      "Ġgu": 1102,
      "Ġdear": 1103,
      "RI": 1104,
      "Sir": 1105,
      "Ġfirst": 1106,
      "ason": 1107,
      "ail": 1108,
      "ect": 1109,
      "men": 1110,
      "Ġtill": 1111,
      "Ġsm": 1112,
      "ert": 1113,
      "Ġpeace": 1114,
      "uty": 1115,
      "hile": 1116,
      "Ġsub": 1117,
      "cious": 1118,
      "Ġunto": 1119,
      "Ġback": 1120,
      "Ġdre": 1121,
      "Ġhus": 1122,
      "Ġearth": 1123,
      "ZAB": 1124,
      "band": 1125,
      "ray": 1126,
      "yal": 1127,
      "Ġtra": 1128,
      "Ġbid": 1129,
      "orse": 1130,
      "Ġfind": 1131,
      "Ġcould": 1132,
      "ETH": 1133,
      "ĠELI": 1134,
      "Ġwords": 1135,
      "Ġcount": 1136,
      "Ġtongue": 1137,
      "ZABETH": 1138,
      "ĠELIZABETH": 1139,
      "Have": 1140,
      "ople": 1141,
      "Ġhigh": 1142,
      "Ġneed": 1143,
      "Ġtherefore": 1144,
      "St": 1145,
      "ius": 1146,
      "int": 1147,
      "ren": 1148,
      "enry": 1149,
      "Ġhope": 1150,
      "ĠYork": 1151,
      "HENRY": 1152,
      "get": 1153,
      "lp": 1154,
      "tw": 1155,
      "Ġfell": 1156,
      "Ġthine": 1157,
      "vere": 1158,
      "uth": 1159,
      "Ġforth": 1160,
      "eech": 1161,
      "Ġhusband": 1162,
      "MER": 1163,
      "Ġbra": 1164,
      "Ġduke": 1165,
      "Ġhome": 1166,
      "eth": 1167,
      "Ġseem": 1168,
      "Ġright": 1169,
      "fort": 1170,
      "ix": 1171,
      "Ġban": 1172,
      "Ġlady": 1173,
      "ĠRomeo": 1174,
      "CL": 1175,
      "GE": 1176,
      "WIC": 1177,
      "ged": 1178,
      "ĠWhat": 1179,
      "rer": 1180,
      "ister": 1181,
      "hip": 1182,
      "ĠVI": 1183,
      "WICK": 1184,
      "UT": 1185,
      "WAR": 1186,
      "ach": 1187,
      "Ġmind": 1188,
      "Ġche": 1189,
      "Ġthough": 1190,
      "Ġpeople": 1191,
      "WARWICK": 1192,
      "LET": 1193,
      "Nurse": 1194,
      "PU": 1195,
      "be": 1196,
      "Ġchar": 1197,
      "Ġlaw": 1198,
      "ird": 1199,
      "ĠCitizen": 1200,
      "ĠHENRY": 1201,
      "ĠHenry": 1202,
      "PULET": 1203,
      "MIO": 1204,
      "Ġbri": 1205,
      "They": 1206,
      "Ġonce": 1207,
      "Ġconf": 1208,
      "HAM": 1209,
      "Shall": 1210,
      "Ġtre": 1211,
      "Ġwhy": 1212,
      "Ġchan": 1213,
      "Ġgl": 1214,
      "ĠRichard": 1215,
      "Ġshow": 1216,
      "Ġsaid": 1217,
      "Ġhands": 1218,
      "ervant": 1219,
      "EY": 1220,
      "eed": 1221,
      "Ġcause": 1222,
      "Ġnone": 1223,
      "ousin": 1224,
      "Ġimp": 1225,
      "IAN": 1226,
      "Ġmaster": 1227,
      "Ġpass": 1228,
      "ates": 1229,
      "Ġlight": 1230,
      "Ġjoy": 1231,
      "From": 1232,
      "Yet": 1233,
      "Ġbod": 1234,
      "Ġdou": 1235,
      "Ġfort": 1236,
      "Ġbring": 1237,
      "All": 1238,
      "BRO": 1239,
      "Ġmist": 1240,
      "Ġwo": 1241,
      "Ġnat": 1242,
      "Ġevery": 1243,
      "UCKING": 1244,
      "INGBRO": 1245,
      "ESS": 1246,
      "OLINGBRO": 1247,
      "BRUT": 1248,
      "UCKINGHAM": 1249,
      "BRUTUS": 1250,
      "BUCKINGHAM": 1251,
      "Good": 1252,
      "TRAN": 1253,
      "iet": 1254,
      "lt": 1255,
      "ĠBOLINGBRO": 1256,
      "Ġroyal": 1257,
      "TRANIO": 1258,
      "Do": 1259,
      "Will": 1260,
      "bt": 1261,
      "vost": 1262,
      "Ġtears": 1263,
      "its": 1264,
      "Ġlast": 1265,
      "Ġthr": 1266,
      "Ġwhose": 1267,
      "ĠBOLINGBROKE": 1268,
      "NE": 1269,
      "PER": 1270,
      "TIS": 1271,
      "cle": 1272,
      "lf": 1273,
      "pose": 1274,
      "vy": 1275,
      "ary": 1276,
      "arry": 1277,
      "ult": 1278,
      "ĠMAR": 1279,
      "swer": 1280,
      "Cl": 1281,
      "Ġbes": 1282,
      "ory": 1283,
      "Ġpardon": 1284,
      "Ġheard": 1285,
      "Ġhapp": 1286,
      "ĠAn": 1287,
      "Ġplease": 1288,
      "GAR": 1289,
      "Ġmis": 1290,
      "Ġboy": 1291,
      "Ġcame": 1292,
      "ens": 1293,
      "Ġland": 1294,
      "Ġdev": 1295,
      "roke": 1296,
      "Ġjust": 1297,
      "Ġplace": 1298,
      "Ġwrong": 1299,
      "Ġpresent": 1300,
      "GARET": 1301,
      "eel": 1302,
      "mb": 1303,
      "Ġsince": 1304,
      "Ġsorrow": 1305,
      "Ġfull": 1306,
      "Ġstate": 1307,
      "ORD": 1308,
      "Ġafter": 1309,
      "MIL": 1310,
      "ĠMARGARET": 1311,
      "ATH": 1312,
      "ock": 1313,
      "Ġcare": 1314,
      "Ġere": 1315,
      "Ġkill": 1316,
      "selves": 1317,
      "GRE": 1318,
      "HOR": 1319,
      "Our": 1320,
      "cent": 1321,
      "sand": 1322,
      "Ġfar": 1323,
      "ition": 1324,
      "Ġch": 1325,
      "Ġless": 1326,
      "Ġhelp": 1327,
      "Ġmeet": 1328,
      "Ġunder": 1329,
      "esty": 1330,
      "ANGE": 1331,
      "arence": 1332,
      "Ġhold": 1333,
      "ANGELO": 1334,
      "Ġgod": 1335,
      "Ġthousand": 1336,
      "ARINA": 1337,
      "Ġshame": 1338,
      "Ġwhom": 1339,
      "Ġfollow": 1340,
      "CU": 1341,
      "Un": 1342,
      "air": 1343,
      "day": 1344,
      "ons": 1345,
      "Ġpat": 1346,
      "ceive": 1347,
      "Ġweep": 1348,
      "Ġsun": 1349,
      "thy": 1350,
      "cius": 1351,
      "Ġenem": 1352,
      "Ġabout": 1353,
      "Ġeye": 1354,
      "An": 1355,
      "KATH": 1356,
      "iol": 1357,
      "Ġbus": 1358,
      "Ġfal": 1359,
      "Ġfool": 1360,
      "Ġhither": 1361,
      "Ġfall": 1362,
      "KATHARINA": 1363,
      "iv": 1364,
      "Ġcousin": 1365,
      "irt": 1366,
      "asure": 1367,
      "urde": 1368,
      "Ġanswer": 1369,
      "Ġhate": 1370,
      "Ġmaid": 1371,
      "LUS": 1372,
      "Up": 1373,
      "Ġi": 1374,
      "ount": 1375,
      "Ġmakes": 1376,
      "Ġinto": 1377,
      "imes": 1378,
      "ESCA": 1379,
      "Ġgentleman": 1380,
      "ĠKing": 1381,
      "Ġwoman": 1382,
      "Ġgrief": 1383,
      "ESCALUS": 1384,
      "Hath": 1385,
      "ject": 1386,
      "ove": 1387,
      "Ġstri": 1388,
      "ĠEng": 1389,
      "ild": 1390,
      "ling": 1391,
      "Ġstre": 1392,
      "UCHESS": 1393,
      "Ġcoun": 1394,
      "DUCHESS": 1395,
      "pher": 1396,
      "Ġturn": 1397,
      "Ġhum": 1398,
      "Ġover": 1399,
      "Ġdost": 1400,
      "Ġcomfort": 1401,
      "ices": 1402,
      "Ġgracious": 1403,
      "ĠDuke": 1404,
      "Ġsleep": 1405,
      "Ġtalk": 1406,
      "itor": 1407,
      "Ġbel": 1408,
      "ute": 1409,
      "alt": 1410,
      "urderer": 1411,
      "IA": 1412,
      "Lord": 1413,
      "morrow": 1414,
      "Ġwilt": 1415,
      "Ġbo": 1416,
      "Ġbu": 1417,
      "Ġgr": 1418,
      "Ġbed": 1419,
      "Ġinde": 1420,
      "Ġret": 1421,
      "gelo": 1422,
      "ĠClarence": 1423,
      "ĠMarcius": 1424,
      "Ġcourt": 1425,
      "Ġbody": 1426,
      "God": 1427,
      "ere": 1428,
      "ans": 1429,
      "omet": 1430,
      "Ġwel": 1431,
      "Ġatt": 1432,
      "ieve": 1433,
      "Ġprove": 1434,
      "Ġplay": 1435,
      "CAMIL": 1436,
      "CAMILLO": 1437,
      "FRI": 1438,
      "ily": 1439,
      "ience": 1440,
      "Ġsound": 1441,
      "ised": 1442,
      "Ġdra": 1443,
      "ade": 1444,
      "Ġdeed": 1445,
      "Ġthank": 1446,
      "FRIAR": 1447,
      "TEN": 1448,
      "Ġser": 1449,
      "Ġfight": 1450,
      "Ġinst": 1451,
      "Ġuse": 1452,
      "illain": 1453,
      "hold": 1454,
      "Ġvo": 1455,
      "Provost": 1456,
      "ĠAngelo": 1457,
      "HORTEN": 1458,
      "Ġfalse": 1459,
      "Ġindeed": 1460,
      "HORTENS": 1461,
      "Sh": 1462,
      "Ġhas": 1463,
      "Ġeven": 1464,
      "Ġsovere": 1465,
      "Ġanother": 1466,
      "Ġprison": 1467,
      "Ġsword": 1468,
      "Ġgrave": 1469,
      "pect": 1470,
      "Ġfellow": 1471,
      "Upon": 1472,
      "pherd": 1473,
      "HORTENSIO": 1474,
      ",'": 1475,
      "COM": 1476,
      "Even": 1477,
      "PTIS": 1478,
      "dd": 1479,
      "eal": 1480,
      "pl": 1481,
      "ury": 1482,
      "Ġass": 1483,
      "Ġadv": 1484,
      "Ġtruth": 1485,
      "BAPTIS": 1486,
      "Ġbanish": 1487,
      "COMINIUS": 1488,
      "BAPTISTA": 1489,
      "CUS": 1490,
      "TOL": 1491,
      "of": 1492,
      "pen": 1493,
      "ouch": 1494,
      "Ġmerc": 1495,
      "Ġmatter": 1496,
      "Ġwant": 1497,
      "Ġcur": 1498,
      "Ġgi": 1499,
      "Ġreven": 1500,
      "Ġreason": 1501,
      "fect": 1502,
      "AUTOL": 1503,
      "Ġrather": 1504,
      "Ġcountry": 1505,
      "AUTOLY": 1506,
      ".'": 1507,
      "Are": 1508,
      "MAR": 1509,
      "rance": 1510,
      "Ġwish": 1511,
      "Ġdan": 1512,
      "Ġyears": 1513,
      "Ġlies": 1514,
      "Ġonly": 1515,
      "Ġsend": 1516,
      "Third": 1517,
      "Ġvirt": 1518,
      "UMIO": 1519,
      "Ġarms": 1520,
      "Ġdream": 1521,
      "Ġfortune": 1522,
      "Ġbusiness": 1523,
      "AUTOLYCUS": 1524,
      "Al": 1525,
      "More": 1526,
      "Would": 1527,
      "ior": 1528,
      "ms": 1529,
      "ĠBut": 1530,
      "hed": 1531,
      "Ġsent": 1532,
      "Ġpers": 1533,
      "any": 1534,
      "Ġstra": 1535,
      "Ġstran": 1536,
      "Ġdisc": 1537,
      "Ġdoubt": 1538,
      "At": 1539,
      "BEN": 1540,
      "NOR": 1541,
      "by": 1542,
      "der": 1543,
      "ia": 1544,
      "ener": 1545,
      "ARENCE": 1546,
      "Ġholy": 1547,
      "Ġbreath": 1548,
      "Ġcommand": 1549,
      "LUCENTIO": 1550,
      "GRUMIO": 1551,
      "Clown": 1552,
      "PRO": 1553,
      "SPER": 1554,
      "Ġsen": 1555,
      "Ġsea": 1556,
      "itt": 1557,
      "ars": 1558,
      "Ġprom": 1559,
      "ator": 1560,
      "Ġsold": 1561,
      "Ġspir": 1562,
      "Ġenough": 1563,
      "VOLIO": 1564,
      "CLARENCE": 1565,
      "PROSPER": 1566,
      "PROSPERO": 1567,
      "ken": 1568,
      "Ġwind": 1569,
      "Ġlay": 1570,
      "Ġpity": 1571,
      "Ġbea": 1572,
      "Ġhang": 1573,
      "Ġlives": 1574,
      "Ġshalt": 1575,
      "Ġfare": 1576,
      "Ġswear": 1577,
      "erving": 1578,
      "Ġremem": 1579,
      "BENVOLIO": 1580,
      "ham": 1581,
      "Ġfoul": 1582,
      "Ġfree": 1583,
      "Ġdare": 1584,
      "Ġcra": 1585,
      "Ġdep": 1586,
      "Ġsec": 1587,
      "Ġvillain": 1588,
      "Ġproud": 1589,
      "ĠMurderer": 1590,
      "gainst": 1591,
      "ague": 1592,
      "LAND": 1593,
      "ĠKate": 1594,
      "Ġcontent": 1595,
      "MERCU": 1596,
      "Ġnature": 1597,
      "Ġhappy": 1598,
      "Ġwelcome": 1599,
      "MERCUTIO": 1600,
      "POM": 1601,
      "Tw": 1602,
      "com": 1603,
      "ike": 1604,
      "unt": 1605,
      "Ġtend": 1606,
      "Ġsister": 1607,
      "Ġsomet": 1608,
      "hal": 1609,
      "Ġcity": 1610,
      "Ġgre": 1611,
      "Ġget": 1612,
      "Ġint": 1613,
      "eter": 1614,
      "Ġwithin": 1615,
      "Ġkiss": 1616,
      "ester": 1617,
      "Ġsaw": 1618,
      "Ġmadam": 1619,
      "POMP": 1620,
      "LINA": 1621,
      "PAU": 1622,
      "apt": 1623,
      "use": 1624,
      "Ġserv": 1625,
      "Ġthree": 1626,
      "Ġoath": 1627,
      "vers": 1628,
      "Were": 1629,
      "Ġbeseech": 1630,
      "GREMIO": 1631,
      "Ġsovereign": 1632,
      "PAULINA": 1633,
      "YORK": 1634,
      "yb": 1635,
      "Ġmer": 1636,
      "Ġborn": 1637,
      "Ġfire": 1638,
      "ery": 1639,
      "Ġyield": 1640,
      "Ġhorse": 1641,
      "Ġyours": 1642,
      "Ġyourself": 1643,
      "Ġfaith": 1644,
      "ĠCome": 1645,
      "ANT": 1646,
      "Ġmeans": 1647,
      "Ġgods": 1648,
      "POMPEY": 1649,
      "NIA": 1650,
      "OLI": 1651,
      "RENCE": 1652,
      "XEN": 1653,
      "ient": 1654,
      "rong": 1655,
      "ĠNor": 1656,
      "Ġaw": 1657,
      "Ġwhile": 1658,
      "Ġden": 1659,
      "Ġthings": 1660,
      "Ġob": 1661,
      "anc": 1662,
      "usic": 1663,
      "Ġsupp": 1664,
      "Ġspo": 1665,
      "onder": 1666,
      "Ġlooks": 1667,
      "eft": 1668,
      "Ġbreak": 1669,
      "UMNIA": 1670,
      "like": 1671,
      "ches": 1672,
      "VOLUMNIA": 1673,
      "Ġsubject": 1674,
      "gether": 1675,
      "OLIXEN": 1676,
      "OLIXENES": 1677,
      "GON": 1678,
      "Her": 1679,
      "POLIXENES": 1680,
      "gu": 1681,
      "up": 1682,
      "Ġdru": 1683,
      "enger": 1684,
      "Ġlam": 1685,
      "ĠLAU": 1686,
      "Ġmark": 1687,
      "Ġbloody": 1688,
      "Ġmaj": 1689,
      "Ġchildren": 1690,
      "Ġtraitor": 1691,
      "centio": 1692,
      "ybalt": 1693,
      "BY": 1694,
      "Say": 1695,
      "Ġtem": 1696,
      "Ġwin": 1697,
      "Ġwound": 1698,
      "rem": 1699,
      "Ġcond": 1700,
      "Ġlate": 1701,
      "Ġbeat": 1702,
      "essenger": 1703,
      "INGS": 1704,
      "ĠServing": 1705,
      "Ġcommon": 1706,
      "HAST": 1707,
      "form": 1708,
      "ertain": 1709,
      "Ġmistress": 1710,
      "ĠLAURENCE": 1711,
      "ĠServingman": 1712,
      "BER": 1713,
      "ID": 1714,
      "broke": 1715,
      "mp": 1716,
      "ring": 1717,
      "Ġaff": 1718,
      "Ġsin": 1719,
      "Ġsight": 1720,
      "Ġmet": 1721,
      "Ġtold": 1722,
      "Ġrequ": 1723,
      "Ġseen": 1724,
      "Ġval": 1725,
      "Ġuncle": 1726,
      "Ġsave": 1727,
      "Ġwoe": 1728,
      "Ġmajesty": 1729,
      "HASTINGS": 1730,
      "CLI": 1731,
      "Look": 1732,
      "Take": 1733,
      "Was": 1734,
      "ac": 1735,
      "ever": 1736,
      "Ġsit": 1737,
      "rel": 1738,
      "Ġleft": 1739,
      "Ġsoon": 1740,
      "Ġdef": 1741,
      "Ġsure": 1742,
      "Though": 1743,
      "Ġdeser": 1744,
      "UMBER": 1745,
      "THUMBER": 1746,
      "Therefore": 1747,
      "ĠEngland": 1748,
      "Ġreturn": 1749,
      "NORTHUMBER": 1750,
      "Ġtender": 1751,
      "CLIF": 1752,
      "NORTHUMBERLAND": 1753,
      "so": 1754,
      "ten": 1755,
      "vent": 1756,
      "Ġsad": 1757,
      "Ġmon": 1758,
      "Ġgener": 1759,
      "ides": 1760,
      "idow": 1761,
      "Ġdoes": 1762,
      "ters": 1763,
      "Ġheavy": 1764,
      "Ġpurpose": 1765,
      "Ġthrough": 1766,
      "Ġmercy": 1767,
      "CLIFF": 1768,
      "Ah": 1769,
      "PR": 1770,
      "bl": 1771,
      "dom": 1772,
      "ĠAN": 1773,
      "hes": 1774,
      "Ġcho": 1775,
      "Ġdeep": 1776,
      "Ġgold": 1777,
      "unes": 1778,
      "CAPULET": 1779,
      "Ġmarry": 1780,
      "Ġfoot": 1781,
      "Ġdays": 1782,
      "ments": 1783,
      "ĠJul": 1784,
      "Ġdanger": 1785,
      "Ġfarewell": 1786,
      "ĠANNE": 1787,
      "Did": 1788,
      "aim": 1789,
      "ict": 1790,
      "mer": 1791,
      "no": 1792,
      "sh": 1793,
      "Ġill": 1794,
      "Ġcold": 1795,
      "Ġheir": 1796,
      "Ġgrow": 1797,
      "ceed": 1798,
      "ours": 1799,
      "Ġwithout": 1800,
      "ross": 1801,
      "ifford": 1802,
      "Ġlost": 1803,
      "earn": 1804,
      "ignior": 1805,
      "INCE": 1806,
      "Ġwarrant": 1807,
      "Ġstrange": 1808,
      "PRINCE": 1809,
      "Give": 1810,
      "az": 1811,
      "aid": 1812,
      "ca": 1813,
      "Ġtimes": 1814,
      "Ġwat": 1815,
      "oriol": 1816,
      "Ġnurse": 1817,
      "Ġtogether": 1818,
      "enty": 1819,
      "Ġask": 1820,
      "Ġsuff": 1821,
      "ĠMont": 1822,
      "arewell": 1823,
      "oling": 1824,
      "Ġpluck": 1825,
      "Ġreport": 1826,
      "Ġliege": 1827,
      "Ġspirit": 1828,
      "Had": 1829,
      "Wh": 1830,
      "ner": 1831,
      "ues": 1832,
      "xt": 1833,
      "Ġair": 1834,
      "ced": 1835,
      "ets": 1836,
      "ains": 1837,
      "ush": 1838,
      "Ġloss": 1839,
      "Ġfault": 1840,
      "aud": 1841,
      "Ġsays": 1842,
      "ĠBoling": 1843,
      "Ġjo": 1844,
      "Ġears": 1845,
      "Ġbetw": 1846,
      "Ġhaste": 1847,
      "Whose": 1848,
      "One": 1849,
      "Ġbelieve": 1850,
      "ALO": 1851,
      "FID": 1852,
      "Ġage": 1853,
      "outh": 1854,
      "Ġcry": 1855,
      "Ġlearn": 1856,
      "Ġthyself": 1857,
      "ĠCA": 1858,
      "aking": 1859,
      "AUFID": 1860,
      "Ġslain": 1861,
      "ĠClifford": 1862,
      "Ġentreat": 1863,
      "ixt": 1864,
      "Ġdevil": 1865,
      "Should": 1866,
      "ĠJuliet": 1867,
      "ĠBolingbroke": 1868,
      "AUFIDIUS": 1869,
      "May": 1870,
      "ges": 1871,
      "Ġord": 1872,
      "Ġmur": 1873,
      "ined": 1874,
      "Ġbat": 1875,
      "Ġbold": 1876,
      "Ġfly": 1877,
      "Ġfound": 1878,
      "Ġnear": 1879,
      "Ġtoward": 1880,
      "oman": 1881,
      "ution": 1882,
      "These": 1883,
      "Ġfast": 1884,
      "Ġworthy": 1885,
      "Ġfriar": 1886,
      "Ġdisp": 1887,
      "ĠFrance": 1888,
      "Ġjustice": 1889,
      "Ġground": 1890,
      "Ġperson": 1891,
      "Ġremember": 1892,
      "Ġservice": 1893,
      "ĠCAPULET": 1894,
      "Can": 1895,
      "FL": 1896,
      "IZ": 1897,
      "Like": 1898,
      "Some": 1899,
      "ial": 1900,
      "night": 1901,
      "und": 1902,
      "vo": 1903,
      "Ġsil": 1904,
      "Ġpast": 1905,
      "Ġvis": 1906,
      "ORIZ": 1907,
      "ĠLu": 1908,
      "ured": 1909,
      "Ġquick": 1910,
      "entleman": 1911,
      "Ġtrust": 1912,
      "Ġalone": 1913,
      "Ġinstru": 1914,
      "Ġstraight": 1915,
      "Ġbeauty": 1916,
      "FLORIZ": 1917,
      "FLORIZEL": 1918,
      "CIUS": 1919,
      "SE": 1920,
      "Tell": 1921,
      "VER": 1922,
      "bs": 1923,
      "gs": 1924,
      "with": 1925,
      "ĠHere": 1926,
      "Ġtouch": 1927,
      "ina": 1928,
      "ithe": 1929,
      "Ġduty": 1930,
      "Ġcurse": 1931,
      "enator": 1932,
      "ĠIs": 1933,
      "Ġgrant": 1934,
      "Ġinf": 1935,
      "Ġiss": 1936,
      "adam": 1937,
      "Ġstrong": 1938,
      "Ġready": 1939,
      "ION": 1940,
      "Ġlose": 1941,
      "aunt": 1942,
      "Ġbrought": 1943,
      "ĠSenator": 1944,
      "ĠHast": 1945,
      "Ġposs": 1946,
      "Ġdesire": 1947,
      "Ġrun": 1948,
      "Ġhard": 1949,
      "Ġenemy": 1950,
      "Ġrevenge": 1951,
      "Ġgeneral": 1952,
      "audio": 1953,
      "!'": 1954,
      "Against": 1955,
      "Sp": 1956,
      "ible": 1957,
      "ning": 1958,
      "ship": 1959,
      "Ġmin": 1960,
      "Ġmorn": 1961,
      "Ġfore": 1962,
      "cept": 1963,
      "Ġwear": 1964,
      "Ġdeli": 1965,
      "amill": 1966,
      "Ġcanst": 1967,
      "Ġknows": 1968,
      "fection": 1969,
      "inks": 1970,
      "Ġquar": 1971,
      "umber": 1972,
      "Ġmarried": 1973,
      "ĠTybalt": 1974,
      "Shepherd": 1975,
      "Ġconfess": 1976,
      "Bec": 1977,
      "RICHARD": 1978,
      "cester": 1979,
      "eep": 1980,
      "lou": 1981,
      "pare": 1982,
      "ua": 1983,
      "ĠYou": 1984,
      "Ġwoo": 1985,
      "Ġfield": 1986,
      "Ġhell": 1987,
      "Ġitself": 1988,
      "riage": 1989,
      "Ġread": 1990,
      "ols": 1991,
      "Ġprof": 1992,
      "Ġexec": 1993,
      "Ġtwenty": 1994,
      "Ġstands": 1995,
      "Ġthoughts": 1996,
      "ched": 1997,
      "Ġhours": 1998,
      "Ġcharge": 1999,
      "Ġstreng": 2000,
      "Ġcounsel": 2001,
      "MARCIUS": 2002,
      "SEBA": 2003,
      "ithee": 2004,
      "Com": 2005,
      "Ha": 2006,
      "OW": 2007,
      "Till": 2008,
      "cess": 2009,
      "fol": 2010,
      "most": 2011,
      "Ġwret": 2012,
      "Ġfur": 2013,
      "ones": 2014,
      "Ġdiv": 2015,
      "Ġcar": 2016,
      "Ġyouth": 2017,
      "Ġpar": 2018,
      "Ġpost": 2019,
      "ingham": 2020,
      "Ġhalf": 2021,
      "oop": 2022,
      "Thus": 2023,
      "Ġspeed": 2024,
      "ĠRi": 2025,
      "Ġwork": 2026,
      "Ġjud": 2027,
      "ump": 2028,
      "Ġhearts": 2029,
      "Ġdesp": 2030,
      "Ġfearful": 2031,
      "Ġmock": 2032,
      "STIAN": 2033,
      "ĠMontague": 2034,
      "ĠHastings": 2035,
      "Away": 2036,
      "BION": 2037,
      "DEL": 2038,
      "MON": 2039,
      "OP": 2040,
      "ne": 2041,
      "now": 2042,
      "you": 2043,
      "ĠN": 2044,
      "ĠThe": 2045,
      "Ġter": 2046,
      "Ġten": 2047,
      "Ġwhi": 2048,
      "Ġbos": 2049,
      "Ġdam": 2050,
      "Ġcut": 2051,
      "ench": 2052,
      "Ġbehold": 2053,
      "Ġinc": 2054,
      "Ġeach": 2055,
      "ads": 2056,
      "Ġrec": 2057,
      "Ġdel": 2058,
      "ift": 2059,
      "ĠCoriol": 2060,
      "ortal": 2061,
      "Ġmarriage": 2062,
      "ĠClaudio": 2063,
      "itizens": 2064,
      "Ġharm": 2065,
      "uckingham": 2066,
      "Ġresol": 2067,
      "Ġhighness": 2068,
      "amillo": 2069,
      "loucester": 2070,
      "SEBASTIAN": 2071,
      "BIONDEL": 2072,
      "Ġbosom": 2073,
      "BIONDELLO": 2074,
      "HER": 2075,
      "Madam": 2076,
      "iers": 2077,
      "ĠHe": 2078,
      "Ġtit": 2079,
      "Ġact": 2080,
      "Ġsat": 2081,
      "Ġbound": 2082,
      "ished": 2083,
      "Ġye": 2084,
      "Ġopen": 2085,
      "ents": 2086,
      "rah": 2087,
      "alm": 2088,
      "ĠCap": 2089,
      "Ġshort": 2090,
      "Ġknown": 2091,
      "ĠBuckingham": 2092,
      "Ġseek": 2093,
      "Ġstrike": 2094,
      "Ġattend": 2095,
      "Ġserve": 2096,
      "Ġmurder": 2097,
      "folk": 2098,
      "Farewell": 2099,
      "Marry": 2100,
      "See": 2101,
      "chan": 2102,
      "ging": 2103,
      "Ġve": 2104,
      "ĠAU": 2105,
      "Ġtale": 2106,
      "Ġag": 2107,
      "Ġside": 2108,
      "Ġwast": 2109,
      "rest": 2110,
      "Ġbit": 2111,
      "Ġbreat": 2112,
      "Ġfeel": 2113,
      "Ġdish": 2114,
      "Ġpra": 2115,
      "let": 2116,
      "Ġsto": 2117,
      "ander": 2118,
      "ONIO": 2119,
      "Ġheavens": 2120,
      "Ġtrib": 2121,
      "Ġcompany": 2122,
      "MERLE": 2123,
      "Ġdraw": 2124,
      "Ġvoices": 2125,
      "ANTONIO": 2126,
      "Pray": 2127,
      "ZALO": 2128,
      "bly": 2129,
      "fid": 2130,
      "hood": 2131,
      "Ġsing": 2132,
      "Ġsake": 2133,
      "Ġwatch": 2134,
      "Ġwidow": 2135,
      "Ġdr": 2136,
      "Ġdist": 2137,
      "Ġcor": 2138,
      "Ġpale": 2139,
      "oose": 2140,
      "Ġstir": 2141,
      "Ġsuit": 2142,
      "Ġloving": 2143,
      "Ġcoming": 2144,
      "ĠGentleman": 2145,
      "ĠGloucester": 2146,
      "ĠLanc": 2147,
      "Ġthanks": 2148,
      "Ġpoint": 2149,
      "Ġhonest": 2150,
      "Ġgentlemen": 2151,
      "Ġclose": 2152,
      "Ġcloud": 2153,
      "Ġwithal": 2154,
      "ethinks": 2155,
      "MIONE": 2156,
      "Ġenemies": 2157,
      "Ġsomething": 2158,
      "GONZALO": 2159,
      "Ġsuffer": 2160,
      "Ġstrength": 2161,
      "ĠAUMERLE": 2162,
      "ĠLancaster": 2163,
      "LORD": 2164,
      "Unt": 2165,
      "cher": 2166,
      "fter": 2167,
      "ives": 2168,
      "uff": 2169,
      "ĠTh": 2170,
      "Ġmusic": 2171,
      "Ġwonder": 2172,
      "rew": 2173,
      "Ġpie": 2174,
      "oward": 2175,
      "Ġgar": 2176,
      "Ġgates": 2177,
      "race": 2178,
      "ils": 2179,
      "Ġnext": 2180,
      "Ġknew": 2181,
      "els": 2182,
      "Ġdidst": 2183,
      "Ġpleasure": 2184,
      "Ġwomen": 2185,
      "Ġcourse": 2186,
      "ianca": 2187,
      "Ġenter": 2188,
      "Ġbrave": 2189,
      "Ġchee": 2190,
      "ceived": 2191,
      "Ġdeliver": 2192,
      "HERMIONE": 2193,
      "Ġtitle": 2194,
      "DIO": 2195,
      "EDWARD": 2196,
      "vour": 2197,
      "Ġta": 2198,
      "Ġty": 2199,
      "Ġsick": 2200,
      "Ġwa": 2201,
      "Ġwis": 2202,
      "ready": 2203,
      "Ġbur": 2204,
      "isf": 2205,
      "Ġfit": 2206,
      "etch": 2207,
      "etru": 2208,
      "Ġforb": 2209,
      "Ġweak": 2210,
      "Ġem": 2211,
      "Ġeither": 2212,
      "ash": 2213,
      "Ġlips": 2214,
      "rust": 2215,
      "Ġthemselves": 2216,
      "Ġjest": 2217,
      "AUDIO": 2218,
      "Ġabs": 2219,
      "Ġbreast": 2220,
      "Ġpret": 2221,
      "Ġsouls": 2222,
      "Ġconsul": 2223,
      "Ġgrie": 2224,
      "claim": 2225,
      "CLAUDIO": 2226,
      "Ġchange": 2227,
      "Ġgiven": 2228,
      "Ġmerry": 2229,
      "ĠNorfolk": 2230,
      "Most": 2231,
      "Messenger": 2232,
      "Servant": 2233,
      "kes": 2234,
      "lst": 2235,
      "po": 2236,
      "ses": 2237,
      "ufid": 2238,
      "Ġsk": 2239,
      "Ġsame": 2240,
      "Ġsign": 2241,
      "Ġwall": 2242,
      "Ġbad": 2243,
      "Ġfour": 2244,
      "Ġcast": 2245,
      "ĠIf": 2246,
      "Ġgave": 2247,
      "Ġbecome": 2248,
      "irth": 2249,
      "chio": 2250,
      "Ġforg": 2251,
      "Ġforget": 2252,
      "oof": 2253,
      "ries": 2254,
      "Ġreg": 2255,
      "urp": 2256,
      "ions": 2257,
      "ĠCamillo": 2258,
      "Ġven": 2259,
      "ends": 2260,
      "ĠBianca": 2261,
      "Ġworse": 2262,
      "ĠPom": 2263,
      "Ġplain": 2264,
      "Ġtook": 2265,
      "Ġalong": 2266,
      "Ġrich": 2267,
      "Being": 2268,
      "ranio": 2269,
      "RAND": 2270,
      "MIRAND": 2271,
      "twas": 2272,
      "Ġcheer": 2273,
      "CLIFFORD": 2274,
      "Ġorder": 2275,
      "etruchio": 2276,
      "ufidius": 2277,
      "HN": 2278,
      "OHN": 2279,
      "SA": 2280,
      "gare": 2281,
      "nk": 2282,
      "ns": 2283,
      "ting": 2284,
      "hem": 2285,
      "Ġwed": 2286,
      "Ġbook": 2287,
      "Ġdu": 2288,
      "Ġlad": 2289,
      "Ġpay": 2290,
      "anus": 2291,
      "Ġgro": 2292,
      "chm": 2293,
      "Ġliber": 2294,
      "east": 2295,
      "Ġself": 2296,
      "rows": 2297,
      "Ġbless": 2298,
      "Ġsworn": 2299,
      "Ġpoison": 2300,
      "Ġoffice": 2301,
      "Ġalready": 2302,
      "Before": 2303,
      "awd": 2304,
      "Ġmove": 2305,
      "twere": 2306,
      "Unless": 2307,
      "Ġpatience": 2308,
      "Ġvirtue": 2309,
      "Ġbetween": 2310,
      "ĠHereford": 2311,
      "Ġissue": 2312,
      "Ġmorning": 2313,
      "Ġquarrel": 2314,
      "Ġfurther": 2315,
      "Ġsatisf": 2316,
      "MIRANDA": 2317,
      "garet": 2318,
      "IR": 2319,
      "Make": 2320,
      "Sw": 2321,
      "SON": 2322,
      "Since": 2323,
      "ip": 2324,
      "rist": 2325,
      "she": 2326,
      "uous": 2327,
      "used": 2328,
      "Ġac": 2329,
      "oun": 2330,
      "Ġservant": 2331,
      "Ġmouth": 2332,
      "Ġwise": 2333,
      "Ġburn": 2334,
      "orge": 2335,
      "Ġfrown": 2336,
      "Ġdro": 2337,
      "Ġdire": 2338,
      "Ġcr": 2339,
      "esh": 2340,
      "stand": 2341,
      "owers": 2342,
      "ats": 2343,
      "Ġred": 2344,
      "Ġsoft": 2345,
      "each": 2346,
      "Ġsucc": 2347,
      "Ġloves": 2348,
      "icer": 2349,
      "Ġblack": 2350,
      "ally": 2351,
      "ĠSignior": 2352,
      "Ġgoes": 2353,
      "cient": 2354,
      "Ġprop": 2355,
      "Ġsons": 2356,
      "Ġfoe": 2357,
      "Ġext": 2358,
      "ĠTower": 2359,
      "Ġtrou": 2360,
      "Ġbegg": 2361,
      "Ġbegin": 2362,
      "Ġsoldiers": 2363,
      "Ġrequest": 2364,
      "Ġbattle": 2365,
      "ĠLucentio": 2366,
      "chmond": 2367,
      "AS": 2368,
      "Call": 2369,
      "Must": 2370,
      "NT": 2371,
      "Re": 2372,
      "Such": 2373,
      "bb": 2374,
      "ires": 2375,
      "mber": 2376,
      "over": 2377,
      "that": 2378,
      "ures": 2379,
      "ung": 2380,
      "ĠFor": 2381,
      "Ġbar": 2382,
      "Ġfeast": 2383,
      "Ġdark": 2384,
      "Ġcase": 2385,
      "Ġthri": 2386,
      "aris": 2387,
      "Ġtown": 2388,
      "ots": 2389,
      "irm": 2390,
      "Ġev": 2391,
      "empt": 2392,
      "ĠLond": 2393,
      "Ġworth": 2394,
      "ĠVols": 2395,
      "elcome": 2396,
      "ĠAufidius": 2397,
      "Ġexp": 2398,
      "Ġwars": 2399,
      "Ġflatter": 2400,
      "Ġpresence": 2401,
      "TESBY": 2402,
      "ĠMargaret": 2403,
      "Ġmighty": 2404,
      "Ġconsent": 2405,
      "Ġrespect": 2406,
      "Ġpriv": 2407,
      "Ġbrief": 2408,
      "dden": 2409,
      "Alas": 2410,
      "Ġspoke": 2411,
      "Because": 2412,
      "ĠLondon": 2413,
      "LY": 2414,
      "mand": 2415,
      "pes": 2416,
      "ught": 2417,
      "Ġsigh": 2418,
      "Ġbow": 2419,
      "Ġble": 2420,
      "ona": 2421,
      "onour": 2422,
      "Ġhot": 2423,
      "Ġgot": 2424,
      "Ġinter": 2425,
      "Ġund": 2426,
      "Ġemb": 2427,
      "ided": 2428,
      "Ġsum": 2429,
      "Ġancient": 2430,
      "ĠCh": 2431,
      "Ġneither": 2432,
      "Ġvict": 2433,
      "ĠGe": 2434,
      "Ġkings": 2435,
      "Ġthence": 2436,
      "CATESBY": 2437,
      "Ġdread": 2438,
      "Ġbride": 2439,
      "Ġvoice": 2440,
      "aptist": 2441,
      "Ġdeny": 2442,
      "Ġwounds": 2443,
      "Ġdangerous": 2444,
      "Ġwater": 2445,
      "Whom": 2446,
      "Both": 2447,
      "BIAN": 2448,
      "JOHN": 2449,
      "Lest": 2450,
      "Rome": 2451,
      "REY": 2452,
      "Yes": 2453,
      "iant": 2454,
      "king": 2455,
      "Ġest": 2456,
      "Ġmal": 2457,
      "Ġmortal": 2458,
      "Ġbab": 2459,
      "Ġfra": 2460,
      "llow": 2461,
      "Ġcoward": 2462,
      "Ġhur": 2463,
      "Ġoften": 2464,
      "Ġhaving": 2465,
      "right": 2466,
      "Ġspeech": 2467,
      "Ġvow": 2468,
      "ults": 2469,
      "antage": 2470,
      "Ġprin": 2471,
      "emn": 2472,
      "Ġloved": 2473,
      "ĠSir": 2474,
      "ĠBaptist": 2475,
      "Ġworship": 2476,
      "LIA": 2477,
      "Ġsac": 2478,
      "Ġsafe": 2479,
      "ĠParis": 2480,
      "ired": 2481,
      "ainted": 2482,
      "BAL": 2483,
      "Ġprincely": 2484,
      "BRA": 2485,
      "Ġseems": 2486,
      "bey": 2487,
      "Ġthrone": 2488,
      "Ġbuy": 2489,
      "Ġdeeds": 2490,
      "Ġjoin": 2491,
      "Ġvisit": 2492,
      "VERS": 2493,
      "ĠRichmond": 2494,
      "Ġbitter": 2495,
      "ĠGeorge": 2496,
      "BIANCA": 2497,
      "BOW": 2498,
      "GUE": 2499,
      "cy": 2500,
      "lish": 2501,
      "rt": 2502,
      "sp": 2503,
      "ura": 2504,
      "ĠThou": 2505,
      "Ġign": 2506,
      "ĠThis": 2507,
      "Ġbawd": 2508,
      "Ġfres": 2509,
      "Ġfetch": 2510,
      "Ġcol": 2511,
      "Ġcross": 2512,
      "essed": 2513,
      "Ġlim": 2514,
      "Ġthrow": 2515,
      "Ġopp": 2516,
      "Ġpen": 2517,
      "otion": 2518,
      "ated": 2519,
      "urs": 2520,
      "urch": 2521,
      "cks": 2522,
      "iff": 2523,
      "Ġsudden": 2524,
      "ilty": 2525,
      "Ġprot": 2526,
      "oney": 2527,
      "ĠGAU": 2528,
      "ĠLady": 2529,
      "ĠSaint": 2530,
      "ĠServant": 2531,
      "Ġkingdom": 2532,
      "ortens": 2533,
      "ĠPl": 2534,
      "ELBOW": 2535,
      "Ġslave": 2536,
      "Ġprepare": 2537,
      "ully": 2538,
      "Ġheads": 2539,
      "Ġscorn": 2540,
      "Ġmoon": 2541,
      "Ġrage": 2542,
      "Ġappear": 2543,
      "Ġlead": 2544,
      "Ġwitness": 2545,
      "TAGUE": 2546,
      "RIVERS": 2547,
      "itted": 2548,
      "Ġpromise": 2549,
      "Ġlament": 2550,
      "Ġvaliant": 2551,
      "ĠIsab": 2552,
      "Speak": 2553,
      "Ġdrink": 2554,
      "ĠBaptista": 2555,
      "ĠGAUNT": 2556,
      "ortensio": 2557,
      "Bes": 2558,
      "Ere": 2559,
      "Hold": 2560,
      "TY": 2561,
      "Welcome": 2562,
      "but": 2563,
      "coun": 2564,
      "ees": 2565,
      "ls": 2566,
      "ler": 2567,
      "nown": 2568,
      "oint": 2569,
      "sc": 2570,
      "sper": 2571,
      "ued": 2572,
      "will": 2573,
      "xford": 2574,
      "ĠKING": 2575,
      "Ġbro": 2576,
      "ities": 2577,
      "Ġca": 2578,
      "Ġcle": 2579,
      "Ġcreat": 2580,
      "Ġow": 2581,
      "Ġgall": 2582,
      "Ġforward": 2583,
      "Ġeat": 2584,
      "Ġkins": 2585,
      "Their": 2586,
      "Ġfaults": 2587,
      "Ġknock": 2588,
      "Ġviol": 2589,
      "antag": 2590,
      "Ġprithee": 2591,
      "ĠMy": 2592,
      "Ġwash": 2593,
      "aken": 2594,
      "ĠPetruchio": 2595,
      "Ġoffer": 2596,
      "Ġalmost": 2597,
      "Ġleast": 2598,
      "Ġflesh": 2599,
      "ĠTranio": 2600,
      "Ġprayers": 2601,
      "Ġtriump": 2602,
      "Ġcompl": 2603,
      "Ġchamber": 2604,
      "Ġsmall": 2605,
      "Ġpatient": 2606,
      "Ġtribunes": 2607,
      "Ġsuccess": 2608,
      "Romeo": 2609,
      "Yea": 2610,
      "aul": 2611,
      "bed": 2612,
      "hind": 2613,
      "joy": 2614,
      "ohem": 2615,
      "vest": 2616,
      "Ġid": 2617,
      "Ġaction": 2618,
      "Ġmid": 2619,
      "ines": 2620,
      "Ġbase": 2621,
      "Ġfie": 2622,
      "Ġdest": 2623,
      "Ġcap": 2624,
      "Ġlack": 2625,
      "Ġnay": 2626,
      "Ġhide": 2627,
      "Ġpain": 2628,
      "inger": 2629,
      "athar": 2630,
      "Ġbec": 2631,
      "Ġbeast": 2632,
      "ley": 2633,
      "Ġreb": 2634,
      "raw": 2635,
      "als": 2636,
      "alth": 2637,
      "thumber": 2638,
      "rum": 2639,
      "Ġang": 2640,
      "host": 2641,
      "asters": 2642,
      "feit": 2643,
      "aked": 2644,
      "umb": 2645,
      "pey": 2646,
      "Ġperform": 2647,
      "Ġscar": 2648,
      "Ġappro": 2649,
      "Stay": 2650,
      "Stand": 2651,
      "Ġpresently": 2652,
      "Ġdepart": 2653,
      "Ġpossess": 2654,
      "MONTAGUE": 2655,
      "ĠChrist": 2656,
      "atharina": 2657,
      "thumberland": 2658,
      "Con": 2659,
      "DI": 2660,
      "GI": 2661,
      "IEL": 2662,
      "Pl": 2663,
      "Peace": 2664,
      "VIR": 2665,
      "Whi": 2666,
      "bit": 2667,
      "ding": 2668,
      "eem": 2669,
      "fully": 2670,
      "him": 2671,
      "ying": 2672,
      "your": 2673,
      "Ġtear": 2674,
      "Ġsur": 2675,
      "Ġwert": 2676,
      "rey": 2677,
      "Ġben": 2678,
      "Ġfill": 2679,
      "Ġfond": 2680,
      "Ġlab": 2681,
      "Ġthither": 2682,
      "arl": 2683,
      "Ġins": 2684,
      "eds": 2685,
      "Ġform": 2686,
      "Ġeas": 2687,
      "Ġstru": 2688,
      "Ġshad": 2689,
      "though": 2690,
      "Ġourselves": 2691,
      "Ġgoodly": 2692,
      "Ġwhence": 2693,
      "Ġblows": 2694,
      "ĠGREY": 2695,
      "Ġusurp": 2696,
      "cience": 2697,
      "Ġtrump": 2698,
      "Ġhearing": 2699,
      "Ġslaughter": 2700,
      "Ġwrit": 2701,
      "perate": 2702,
      "Ġaffection": 2703,
      "ledge": 2704,
      "Ġguilty": 2705,
      "Ġchance": 2706,
      "PERDI": 2707,
      "Ġvirtuous": 2708,
      "Ġsoldier": 2709,
      "Ġsubjects": 2710,
      "Ġdefend": 2711,
      "Ġquickly": 2712,
      "Ġexecution": 2713,
      "Ġdamn": 2714,
      "ural": 2715,
      "ohemia": 2716,
      "GILIA": 2717,
      "VIRGILIA": 2718,
      "PERDITA": 2719,
      "Doth": 2720,
      "SET": 2721,
      "SLY": 2722,
      "VINCENTIO": 2723,
      "gg": 2724,
      "iest": 2725,
      "mit": 2726,
      "ror": 2727,
      "ze": 2728,
      "Ġut": 2729,
      "Ġtor": 2730,
      "Ġap": 2731,
      "Ġay": 2732,
      "Ġsho": 2733,
      "Ġmatch": 2734,
      "Ġmild": 2735,
      "Ġwild": 2736,
      "read": 2737,
      "Ġbirth": 2738,
      "isure": 2739,
      "Ġfled": 2740,
      "Ġfier": 2741,
      "ony": 2742,
      "Ġcertain": 2743,
      "Ġyear": 2744,
      "arn": 2745,
      "Ġpu": 2746,
      "Ġpit": 2747,
      "Ġinj": 2748,
      "Ġinno": 2749,
      "edant": 2750,
      "Ġur": 2751,
      "Ġliving": 2752,
      "vern": 2753,
      "Think": 2754,
      "rue": 2755,
      "Ġknee": 2756,
      "Ġkneel": 2757,
      "astard": 2758,
      "ustom": 2759,
      "ĠSt": 2760,
      "ĠOxford": 2761,
      "Ġquiet": 2762,
      "Ġproceed": 2763,
      "ĠPaul": 2764,
      "Ġhadst": 2765,
      "Ġoffence": 2766,
      "Ġpleas": 2767,
      "force": 2768,
      "Ġslew": 2769,
      "Ġlawful": 2770,
      "Ġglad": 2771,
      "Ġweeping": 2772,
      "Ġawhile": 2773,
      "Ġdeserved": 2774,
      "ĠCoriolanus": 2775,
      "Ġforbid": 2776,
      "Ġpretty": 2777,
      "ĠPompey": 2778,
      "Fa": 2779,
      "Mar": 2780,
      "Master": 2781,
      "PAR": 2782,
      "RA": 2783,
      "awn": 2784,
      "dge": 2785,
      "gue": 2786,
      "ked": 2787,
      "med": 2788,
      "oor": 2789,
      "ual": 2790,
      "vol": 2791,
      "zen": 2792,
      "Ġshi": 2793,
      "Ġmed": 2794,
      "Ġmod": 2795,
      "Ġwalk": 2796,
      "Ġfat": 2797,
      "Ġfam": 2798,
      "lly": 2799,
      "aring": 2800,
      "Ġocc": 2801,
      "set": 2802,
      "Ġhap": 2803,
      "lease": 2804,
      "Ġmeasure": 2805,
      "Ġforsw": 2806,
      "adua": 2807,
      "ords": 2808,
      "Ġreign": 2809,
      "Ġlived": 2810,
      "Ġdoom": 2811,
      "ames": 2812,
      "rupt": 2813,
      "iles": 2814,
      "Ġneck": 2815,
      "ended": 2816,
      "Ġwouldst": 2817,
      "Ġgovern": 2818,
      "Ġletter": 2819,
      "Ġletters": 2820,
      "Ġunc": 2821,
      "Ġunk": 2822,
      "Ġworst": 2823,
      "Ġspeaks": 2824,
      "Ġmarch": 2825,
      "ighb": 2826,
      "ĠKatharina": 2827,
      "Ġgreater": 2828,
      "then": 2829,
      "Ġremain": 2830,
      "Ġleisure": 2831,
      "Ġtreason": 2832,
      "IANA": 2833,
      "Ġchoose": 2834,
      "ĠEnglish": 2835,
      "MARIANA": 2836,
      "Ġsense": 2837,
      "remio": 2838,
      "Ġcondemn": 2839,
      "Ġbreathe": 2840,
      "Ġdishonour": 2841,
      "Ġclouds": 2842,
      "Ġladies": 2843,
      "Ġliberty": 2844,
      "Ġignor": 2845,
      "ĠIsabel": 2846,
      "counter": 2847,
      "antagen": 2848,
      "rumio": 2849,
      "Ġangry": 2850,
      "PARIS": 2851,
      ":'": 2852,
      "Ab": 2853,
      "Am": 2854,
      "Int": 2855,
      "Out": 2856,
      "Su": 2857,
      "Too": 2858,
      "While": 2859,
      "aves": 2860,
      "acle": 2861,
      "dle": 2862,
      "house": 2863,
      "oss": 2864,
      "rim": 2865,
      "rous": 2866,
      "under": 2867,
      "ĠX": 2868,
      "Ġsus": 2869,
      "Ġsort": 2870,
      "Ġmorrow": 2871,
      "Ġwon": 2872,
      "Ġfe": 2873,
      "Ġfine": 2874,
      "Ġfive": 2875,
      "Ġdry": 2876,
      "Ġdrown": 2877,
      "Ġcru": 2878,
      "eness": 2879,
      "Ġlow": 2880,
      "Ġlan": 2881,
      "Ġlist": 2882,
      "Ġlaid": 2883,
      "Ġodd": 2884,
      "Ġobey": 2885,
      "Ġpet": 2886,
      "Ġheld": 2887,
      "vel": 2888,
      "ster": 2889,
      "ingly": 2890,
      "Ġoft": 2891,
      "ators": 2892,
      "Ġbend": 2893,
      "Ġbehind": 2894,
      "Ġnote": 2895,
      "Ġstor": 2896,
      "Ġstain": 2897,
      "ider": 2898,
      "Ġaside": 2899,
      "Ġdog": 2900,
      "Ġnob": 2901,
      "Ġnoise": 2902,
      "Ġseat": 2903,
      "Ġfavour": 2904,
      "Ġknees": 2905,
      "Ġvain": 2906,
      "Ġshows": 2907,
      "ĠMerc": 2908,
      "Ġblow": 2909,
      "Ġshepherd": 2910,
      "ĠBohemia": 2911,
      "ĠHortensio": 2912,
      "ounds": 2913,
      "Ġprosper": 2914,
      "Ġabove": 2915,
      "Ġhonours": 2916,
      "ize": 2917,
      "Ġcontin": 2918,
      "Ġlonger": 2919,
      "Ġwomb": 2920,
      "osition": 2921,
      "Ġneeds": 2922,
      "uthor": 2923,
      "Ġlands": 2924,
      "Ġchurch": 2925,
      "Ġprisoner": 2926,
      "Ġbanishment": 2927,
      "Ġsecond": 2928,
      "Ġsecret": 2929,
      "Ġdrunk": 2930,
      "Ġtemp": 2931,
      "Ġgolden": 2932,
      "Ġdispatch": 2933,
      "undred": 2934,
      "Ġpiece": 2935,
      "Ġtrouble": 2936,
      "Ġfresh": 2937,
      "Ġbecause": 2938,
      "antagenet": 2939,
      "!--": 2940,
      ";'": 2941,
      "De": 2942,
      "DOR": 2943,
      "EW": 2944,
      "Hark": 2945,
      "LAR": 2946,
      "Me": 2947,
      "Pr": 2948,
      "Pardon": 2949,
      "TIUS": 2950,
      "ban": 2951,
      "ffect": 2952,
      "iance": 2953,
      "iled": 2954,
      "ny": 2955,
      "ude": 2956,
      "ĠNow": 2957,
      "Ġtent": 2958,
      "Ġauthor": 2959,
      "Ġsch": 2960,
      "Ġsaint": 2961,
      "Ġmut": 2962,
      "Ġbig": 2963,
      "Ġbones": 2964,
      "erle": 2965,
      "itors": 2966,
      "Ġcitizens": 2967,
      "Ġlen": 2968,
      "Ġlust": 2969,
      "Ġlau": 2970,
      "Ġthreat": 2971,
      "Ġhundred": 2972,
      "vey": 2973,
      "ang": 2974,
      "omin": 2975,
      "ceit": 2976,
      "Ġind": 2977,
      "ety": 2978,
      "Ġeffect": 2979,
      "Ġyourselves": 2980,
      "Ġstood": 2981,
      "Ġstud": 2982,
      "Ġsteal": 2983,
      "asion": 2984,
      "Ġref": 2985,
      "Ġrevere": 2986,
      "Ġsole": 2987,
      "Ġdepose": 2988,
      "ARIEL": 2989,
      "ease": 2990,
      "ular": 2991,
      "Ġmanner": 2992,
      "ieu": 2993,
      "Ġblessed": 2994,
      "ĠGo": 2995,
      "ĠGaunt": 2996,
      "ĠGremio": 2997,
      "Ġshed": 2998,
      "ĠLet": 2999,
      "ĠLEW": 3000,
      "Ġgrand": 3001,
      "Ġproclaim": 3002,
      "Ġsaf": 3003,
      "ĠPr": 3004,
      "ume": 3005,
      "ĠWatch": 3006,
      "istress": 3007,
      "Ġrough": 3008,
      "Ġexc": 3009,
      "Ġdesperate": 3010,
      "Ġslander": 3011,
      "Ġadd": 3012,
      "Ġprecious": 3013,
      "Ġappare": 3014,
      "Ġconscience": 3015,
      "Ġentertain": 3016,
      "ontent": 3017,
      "Ġlordship": 3018,
      "Ġpurs": 3019,
      "Ġpride": 3020,
      "Sirrah": 3021,
      "atesby": 3022,
      "Ġdouble": 3023,
      "Ġsentence": 3024,
      "ĠNorthumberland": 3025,
      "Ġobed": 3026,
      "Ġtowards": 3027,
      "ĠCapu": 3028,
      "Unto": 3029,
      "Ġwisdom": 3030,
      "Ġvenge": 3031,
      "Sweet": 3032,
      "Ġvictory": 3033,
      "Ġkinsman": 3034,
      "ĠXI": 3035,
      "LARTIUS": 3036,
      "ĠLEWIS": 3037,
      "ĠWatchman": 3038,
      "Bel": 3039,
      "Could": 3040,
      "En": 3041,
      "Either": 3042,
      "Hear": 3043,
      "MP": 3044,
      "Pedant": 3045,
      "RTIS": 3046,
      "bray": 3047,
      "den": 3048,
      "good": 3049,
      "gment": 3050,
      "hn": 3051,
      "mon": 3052,
      "vail": 3053,
      "which": 3054,
      "head": 3055,
      "Ġsim": 3056,
      "Ġsour": 3057,
      "Ġmount": 3058,
      "Ġmethinks": 3059,
      "Ġmoney": 3060,
      "Ġmasters": 3061,
      "rent": 3062,
      "rence": 3063,
      "have": 3064,
      "Ġbroke": 3065,
      "Ġfru": 3066,
      "Ġfought": 3067,
      "Ġfew": 3068,
      "Ġdied": 3069,
      "Ġcapt": 3070,
      "Ġpun": 3071,
      "stant": 3072,
      "owbray": 3073,
      "Ġhair": 3074,
      "irl": 3075,
      "utio": 3076,
      "Ġeld": 3077,
      "Ġsteel": 3078,
      "estion": 3079,
      "Ġdoing": 3080,
      "iful": 3081,
      "Ġseal": 3082,
      "Ġsever": 3083,
      "ility": 3084,
      "ĠCa": 3085,
      "cted": 3086,
      "ETER": 3087,
      "ĠEarl": 3088,
      "Ġconqu": 3089,
      "icious": 3090,
      "ĠGrumio": 3091,
      "othing": 3092,
      "Ġknowledge": 3093,
      "Ġswift": 3094,
      "ĠHow": 3095,
      "ĠPadua": 3096,
      "umerle": 3097,
      "osed": 3098,
      "Ġenjoy": 3099,
      "Ġran": 3100,
      "ĠAnt": 3101,
      "Within": 3102,
      "Ġalive": 3103,
      "ways": 3104,
      "Ġwarm": 3105,
      "Ġflowers": 3106,
      "LEY": 3107,
      "ations": 3108,
      "Ġbears": 3109,
      "Ġdeadly": 3110,
      "Ġkept": 3111,
      "Ġarmy": 3112,
      "ĠJo": 3113,
      "Ġguest": 3114,
      "Ġguard": 3115,
      "Ġglory": 3116,
      "Ġwoes": 3117,
      "CURTIS": 3118,
      "comes": 3119,
      "ANTI": 3120,
      "eeper": 3121,
      "Ġwretched": 3122,
      "Ġdespair": 3123,
      "Ġcheeks": 3124,
      "Ġforgot": 3125,
      "SAMP": 3126,
      "ointed": 3127,
      "Ġlabour": 3128,
      "Faith": 3129,
      "'re": 3130,
      ":--": 3131,
      "BU": 3132,
      "Br": 3133,
      "Bet": 3134,
      "Citizens": 3135,
      "Dis": 3136,
      "EX": 3137,
      "bury": 3138,
      "ey": 3139,
      "gra": 3140,
      "his": 3141,
      "my": 3142,
      "pir": 3143,
      "rison": 3144,
      "take": 3145,
      "ĠAnd": 3146,
      "Ġtry": 3147,
      "Ġteach": 3148,
      "Ġaid": 3149,
      "ounce": 3150,
      "reed": 3151,
      "Ġbastard": 3152,
      "orious": 3153,
      "Ġfart": 3154,
      "ern": 3155,
      "ited": 3156,
      "Ġdance": 3157,
      "Ġdeter": 3158,
      "Ġcorn": 3159,
      "Ġcred": 3160,
      "Ġcried": 3161,
      "Ġthro": 3162,
      "Ġpal": 3163,
      "Ġhel": 3164,
      "Ġhealth": 3165,
      "Ġgent": 3166,
      "leep": 3167,
      "ask": 3168,
      "Ġliest": 3169,
      "Ġdeg": 3170,
      "Ġdemand": 3171,
      "Ġshake": 3172,
      "eaven": 3173,
      "ament": 3174,
      "Ġbutcher": 3175,
      "Ġherself": 3176,
      "Ġspent": 3177,
      "Ġvile": 3178,
      "ĠMaster": 3179,
      "ĠMowbray": 3180,
      "Ġamong": 3181,
      "Ġwhether": 3182,
      "ppy": 3183,
      "Ġunf": 3184,
      "Ġunw": 3185,
      "Ġquoth": 3186,
      "Ġprov": 3187,
      "Ġplant": 3188,
      "ĠWhy": 3189,
      "Ġencounter": 3190,
      "Ġrot": 3191,
      "Ġofficer": 3192,
      "Ġbrothers": 3193,
      "Ġabro": 3194,
      "Ġearly": 3195,
      "Ġrid": 3196,
      "Ġhonourable": 3197,
      "Ġcalls": 3198,
      "Ġmoved": 3199,
      "Ġremed": 3200,
      "Ġwhite": 3201,
      "Ġcontr": 3202,
      "ewis": 3203,
      "Ġaccount": 3204,
      "Ġkindred": 3205,
      "Ġpriest": 3206,
      "Ġguess": 3207,
      "Ġcharity": 3208,
      "Ġunderstand": 3209,
      "Ġfoolish": 3210,
      "Ġcounter": 3211,
      "Ġhumble": 3212,
      "Ġdreams": 3213,
      "Ġpromised": 3214,
      "GONUS": 3215,
      "Ġwinter": 3216,
      "Ġvalour": 3217,
      "Ġwretch": 3218,
      "Ġjudge": 3219,
      "Ġbeggar": 3220,
      "Ġsummer": 3221,
      "Ġtriumph": 3222,
      "Ġstruck": 3223,
      "Ġcruel": 3224,
      "ANTIGONUS": 3225,
      "SAMPSON": 3226,
      "BURY": 3227,
      "Ġdeterm": 3228,
      "Fear": 3229,
      "Lo": 3230,
      "Mine": 3231,
      "Made": 3232,
      "TCLIFF": 3233,
      "fall": 3234,
      "mble": 3235,
      "ners": 3236,
      "pro": 3237,
      "whe": 3238,
      "heart": 3239,
      "Ġmour": 3240,
      "ining": 3241,
      "Ġwre": 3242,
      "Ġwail": 3243,
      "Ġba": 3244,
      "orthy": 3245,
      "Ġfaint": 3246,
      "ites": 3247,
      "Ġdin": 3248,
      "Ġdwell": 3249,
      "Ġyea": 3250,
      "Ġthie": 3251,
      "Ġhung": 3252,
      "omas": 3253,
      "Ġga": 3254,
      "Ġforce": 3255,
      "Ġweary": 3256,
      "Ġease": 3257,
      "Ġstars": 3258,
      "roy": 3259,
      "ify": 3260,
      "Ġseven": 3261,
      "Ġanon": 3262,
      "Ġours": 3263,
      "ĠRoman": 3264,
      "Ġvie": 3265,
      "Ġblame": 3266,
      "ĠLewis": 3267,
      "Ġthereof": 3268,
      "Ġgoing": 3269,
      "eless": 3270,
      "ĠWill": 3271,
      "Ġenvy": 3272,
      "Ġrise": 3273,
      "Ġthinks": 3274,
      "Ġparty": 3275,
      "Ġadm": 3276,
      "Ġothers": 3277,
      "ians": 3278,
      "Ġkindness": 3279,
      "Ġchast": 3280,
      "Ġbids": 3281,
      "Ġbright": 3282,
      "Ġglass": 3283,
      "Ġcrave": 3284,
      "Twas": 3285,
      "Ġgreet": 3286,
      "Ġmonth": 3287,
      "Ġminister": 3288,
      "Ġwalls": 3289,
      "Ġsatisfied": 3290,
      "Ġextrem": 3291,
      "ĠVolsces": 3292,
      "Ġprivate": 3293,
      "Ġidle": 3294,
      "Ġscarce": 3295,
      "Ġbenef": 3296,
      "RATCLIFF": 3297,
      "Ġlaugh": 3298,
      "Ġvengeance": 3299,
      "Ġview": 3300,
      "AL": 3301,
      "After": 3302,
      "Bid": 3303,
      "BIS": 3304,
      "Fie": 3305,
      "Gentle": 3306,
      "HOP": 3307,
      "Ne": 3308,
      "Never": 3309,
      "Signior": 3310,
      "True": 3311,
      "Under": 3312,
      "oot": 3313,
      "ope": 3314,
      "roth": 3315,
      "rate": 3316,
      "shall": 3317,
      "te": 3318,
      "ted": 3319,
      "vish": 3320,
      "vious": 3321,
      "woman": 3322,
      "Ġwither": 3323,
      "Ġwench": 3324,
      "rees": 3325,
      "Ġbird": 3326,
      "orous": 3327,
      "Ġfirm": 3328,
      "erable": 3329,
      "llo": 3330,
      "Ġcir": 3331,
      "Ġcam": 3332,
      "Ġcorse": 3333,
      "enes": 3334,
      "Ġlest": 3335,
      "Ġhol": 3336,
      "Ġpack": 3337,
      "vell": 3338,
      "ating": 3339,
      "cell": 3340,
      "Ġincl": 3341,
      "Ġformer": 3342,
      "riar": 3343,
      "Ġstone": 3344,
      "Ġrel": 3345,
      "Ġreceived": 3346,
      "Ġdeal": 3347,
      "arden": 3348,
      "Ġspe": 3349,
      "Ġsport": 3350,
      "Ġfaire": 3351,
      "Ġneighb": 3352,
      "ANLEY": 3353,
      "Ġshrew": 3354,
      "antua": 3355,
      "Ġconcl": 3356,
      "Ġconvey": 3357,
      "ement": 3358,
      "allow": 3359,
      "ĠBarn": 3360,
      "Ġarri": 3361,
      "Ġunb": 3362,
      "ĠHer": 3363,
      "ĠVin": 3364,
      "Ġmayst": 3365,
      "Ġquite": 3366,
      "IST": 3367,
      "Ġtruly": 3368,
      "Ġdism": 3369,
      "Off": 3370,
      "Ġfoes": 3371,
      "Ġroot": 3372,
      "Ġwherefore": 3373,
      "Ġflower": 3374,
      "lock": 3375,
      "Ġimag": 3376,
      "Ġtrial": 3377,
      "Ġcover": 3378,
      "ailor": 3379,
      "Ġsmo": 3380,
      "rench": 3381,
      "Ġfellows": 3382,
      "Ġchanged": 3383,
      "Ġhumour": 3384,
      "Ġboot": 3385,
      "Ġreasons": 3386,
      "Ġdeputy": 3387,
      "Ġcondition": 3388,
      "Ġjudgment": 3389,
      "Ġwhilst": 3390,
      "change": 3391,
      "Ġtyrant": 3392,
      "Ġacqu": 3393,
      "Ġevil": 3394,
      "BALT": 3395,
      "TYBALT": 3396,
      "Whilst": 3397,
      "Ġeasy": 3398,
      "ĠMercutio": 3399,
      "Ġschool": 3400,
      "Ġexcuse": 3401,
      "Ġfruit": 3402,
      "ĠJohn": 3403,
      "Ġabroad": 3404,
      "'?": 3405,
      "Bl": 3406,
      "Des": 3407,
      "Ex": 3408,
      "KEN": 3409,
      "Methinks": 3410,
      "Put": 3411,
      "Tut": 3412,
      "aff": 3413,
      "after": 3414,
      "con": 3415,
      "ek": 3416,
      "ead": 3417,
      "more": 3418,
      "pin": 3419,
      "son": 3420,
      "ta": 3421,
      "ub": 3422,
      "would": 3423,
      "Ġed": 3424,
      "Ġver": 3425,
      "Ġtaken": 3426,
      "ndeed": 3427,
      "Ġbrow": 3428,
      "Ġbite": 3429,
      "Ġbrows": 3430,
      "Ġfain": 3431,
      "Ġfeed": 3432,
      "erona": 3433,
      "erset": 3434,
      "itol": 3435,
      "Ġdust": 3436,
      "Ġdull": 3437,
      "enance": 3438,
      "Ġthunder": 3439,
      "Ġpains": 3440,
      "anley": 3441,
      "omerset": 3442,
      "Ġgown": 3443,
      "Ġgrown": 3444,
      "Ġghost": 3445,
      "Ġgirl": 3446,
      "Ġgarden": 3447,
      "Ġbeha": 3448,
      "utland": 3449,
      "Ġmeat": 3450,
      "Ġstab": 3451,
      "Ġstoop": 3452,
      "ident": 3453,
      "idings": 3454,
      "ract": 3455,
      "think": 3456,
      "Ġspring": 3457,
      "Ġfares": 3458,
      "ilia": 3459,
      "ĠComin": 3460,
      "ĠCatesby": 3461,
      "Ġknave": 3462,
      "AND": 3463,
      "ĠRutland": 3464,
      "aste": 3465,
      "Ġvice": 3466,
      "Ġshore": 3467,
      "Ġproof": 3468,
      "ĠMantua": 3469,
      "Ġblest": 3470,
      "Ġblind": 3471,
      "Ġsirrah": 3472,
      "Ġunl": 3473,
      "Ġuns": 3474,
      "Ġmayor": 3475,
      "Ġquestion": 3476,
      "Ġhollow": 3477,
      "cians": 3478,
      "Ġprovost": 3479,
      "ĠWe": 3480,
      "ĠAl": 3481,
      "ĠAumerle": 3482,
      "Without": 3483,
      "Ġhonesty": 3484,
      "Ġwherein": 3485,
      "ursed": 3486,
      "Ġleaves": 3487,
      "Ġtwice": 3488,
      "aper": 3489,
      "ĠKeeper": 3490,
      "Ġprevent": 3491,
      "there": 3492,
      "ĠMars": 3493,
      "Ġrepent": 3494,
      "Ġtraitors": 3495,
      "Ġimport": 3496,
      "Ġwrongs": 3497,
      "Ġburied": 3498,
      "Ġswords": 3499,
      "ealous": 3500,
      "place": 3501,
      "Alack": 3502,
      "Ġsenate": 3503,
      "Ġgreen": 3504,
      "Ġaffair": 3505,
      "acher": 3506,
      "Ġchoice": 3507,
      "azed": 3508,
      "Ġdivine": 3509,
      "ĠCorioli": 3510,
      "Ġstop": 3511,
      "Ġtyran": 3512,
      "Ġprophe": 3513,
      "Ġembrace": 3514,
      "Ġmalice": 3515,
      "Ġsacred": 3516,
      "BRAKEN": 3517,
      "ĠPlantagenet": 3518,
      "Ġfiery": 3519,
      "Ġinnocent": 3520,
      "Ġleng": 3521,
      "Ġsafety": 3522,
      "ĠPrince": 3523,
      "ĠCapulet": 3524,
      "BISHOP": 3525,
      "ĠVincentio": 3526,
      "ĠCominius": 3527,
      "BRAKENBURY": 3528,
      "?'": 3529,
      "Ad": 3530,
      "DER": 3531,
      "DON": 3532,
      "Edward": 3533,
      "FORD": 3534,
      "GOR": 3535,
      "Hence": 3536,
      "Indeed": 3537,
      "MIST": 3538,
      "Once": 3539,
      "Richard": 3540,
      "RESS": 3541,
      "VAL": 3542,
      "act": 3543,
      "cha": 3544,
      "dy": 3545,
      "draw": 3546,
      "eld": 3547,
      "jo": 3548,
      "op": 3549,
      "oly": 3550,
      "oard": 3551,
      "pet": 3552,
      "sing": 3553,
      "sic": 3554,
      "what": 3555,
      "Ġes": 3556,
      "ĠTo": 3557,
      "ĠThere": 3558,
      "Ġaim": 3559,
      "Ġavo": 3560,
      "Ġsits": 3561,
      "Ġwag": 3562,
      "rehe": 3563,
      "Ġbark": 3564,
      "orry": 3565,
      "Ġfury": 3566,
      "Ġfinger": 3567,
      "Ġdri": 3568,
      "Ġcarry": 3569,
      "Ġcustom": 3570,
      "enen": 3571,
      "Ġyo": 3572,
      "Ġhit": 3573,
      "anch": 3574,
      "Ġgross": 3575,
      "Ġinform": 3576,
      "edious": 3577,
      "Ġused": 3578,
      "Ġweeds": 3579,
      "Ġele": 3580,
      "Ġeag": 3581,
      "Ġstat": 3582,
      "Ġstones": 3583,
      "asc": 3584,
      "Ġasleep": 3585,
      "hire": 3586,
      "Ġdoor": 3587,
      "amp": 3588,
      "Ġnose": 3589,
      "Ġallow": 3590,
      "this": 3591,
      "ardine": 3592,
      "Ġanger": 3593,
      "Ġloath": 3594,
      "Ġloyal": 3595,
      "ellow": 3596,
      "Ġspake": 3597,
      "Ġnecess": 3598,
      "Ġknight": 3599,
      "Ġvantage": 3600,
      "ctise": 3601,
      "Ġshr": 3602,
      "Ġoracle": 3603,
      "ĠSomerset": 3604,
      "ĠOVER": 3605,
      "Myself": 3606,
      "hysic": 3607,
      "elve": 3608,
      "Ġsail": 3609,
      "Ġplague": 3610,
      "Ġround": 3611,
      "Ġfright": 3612,
      "icked": 3613,
      "Ġalways": 3614,
      "Ġrock": 3615,
      "Ġdesign": 3616,
      "Ġflat": 3617,
      "Wherein": 3618,
      "Ġadieu": 3619,
      "Ġprevail": 3620,
      "Ġclaim": 3621,
      "Ġprayer": 3622,
      "Ġtroth": 3623,
      "Ġperceive": 3624,
      "Ġplead": 3625,
      "OMER": 3626,
      "OMAS": 3627,
      "Ġrude": 3628,
      "Ġtongues": 3629,
      "Ġguilt": 3630,
      "Ġsmile": 3631,
      "Ġsubst": 3632,
      "twixt": 3633,
      "Ġimprison": 3634,
      "Ġcares": 3635,
      "GREGOR": 3636,
      "Ġdrawn": 3637,
      "Ġassist": 3638,
      "itting": 3639,
      "Ġrememb": 3640,
      "unts": 3641,
      "Ġsupper": 3642,
      "Ġtempt": 3643,
      "Ġdeserve": 3644,
      "Ġdelight": 3645,
      "ĠCapitol": 3646,
      "Ġpractise": 3647,
      "ĠThomas": 3648,
      "Ġcheek": 3649,
      "Ġempt": 3650,
      "Ġabsence": 3651,
      "Ġdrop": 3652,
      "Ġcreature": 3653,
      "Ġtrumpets": 3654,
      "Ġutter": 3655,
      "ĠPaulina": 3656,
      "Ġignorant": 3657,
      "Ġlangu": 3658,
      "Ġauthority": 3659,
      "Ġsimple": 3660,
      "Brother": 3661,
      "Ġrotten": 3662,
      "Ġremedy": 3663,
      "Ġcirc": 3664,
      "ĠBarnardine": 3665,
      "DERBY": 3666,
      "DONE": 3667,
      "MISTRESS": 3668,
      "enenius": 3669,
      "ĠOVERDONE": 3670,
      "GREGORY": 3671,
      "Art": 3672,
      "CH": 3673,
      "Dost": 3674,
      "MA": 3675,
      "OX": 3676,
      "Poor": 3677,
      "Res": 3678,
      "RICH": 3679,
      "SOMER": 3680,
      "Turn": 3681,
      "ault": 3682,
      "cing": 3683,
      "fl": 3684,
      "father": 3685,
      "ien": 3686,
      "mn": 3687,
      "mion": 3688,
      "nat": 3689,
      "par": 3690,
      "port": 3691,
      "ron": 3692,
      "thi": 3693,
      "yard": 3694,
      "ĠWhere": 3695,
      "Ġtune": 3696,
      "Ġtidings": 3697,
      "Ġtedious": 3698,
      "held": 3699,
      "Ġaught": 3700,
      "Ġship": 3701,
      "Ġsens": 3702,
      "inous": 3703,
      "Ġwent": 3704,
      "Ġwings": 3705,
      "Ġwont": 3706,
      "Ġwives": 3707,
      "Ġwicked": 3708,
      "haps": 3709,
      "isa": 3710,
      "ises": 3711,
      "onounce": 3712,
      "Ġdur": 3713,
      "Ġcre": 3714,
      "Ġcal": 3715,
      "Ġcell": 3716,
      "Ġcure": 3717,
      "Ġcries": 3718,
      "esy": 3719,
      "ene": 3720,
      "Ġlar": 3721,
      "Ġnumber": 3722,
      "Ġthrust": 3723,
      "Ġhid": 3724,
      "Ġtop": 3725,
      "Ġpil": 3726,
      "Ġpair": 3727,
      "othe": 3728,
      "Ġbelly": 3729,
      "Ġbecomes": 3730,
      "semb": 3731,
      "cend": 3732,
      "utes": 3733,
      "utation": 3734,
      "iment": 3735,
      "rious": 3736,
      "Ġstar": 3737,
      "Ġsteed": 3738,
      "ashi": 3739,
      "Ġreceive": 3740,
      "Ġdec": 3741,
      "Ġdew": 3742,
      "Ġdeceived": 3743,
      "Ġshar": 3744,
      "ards": 3745,
      "hant": 3746,
      "ERIA": 3747,
      "ouses": 3748,
      "Ġshri": 3749,
      "ĠMusic": 3750,
      "Ġamb": 3751,
      "ongs": 3752,
      "ĠGrey": 3753,
      "Ġsheep": 3754,
      "Ġtherein": 3755,
      "ĠSic": 3756,
      "ĠVerona": 3757,
      "Ġjealous": 3758,
      "Ġproper": 3759,
      "Ġshouldst": 3760,
      "Ġplot": 3761,
      "unning": 3762,
      "Ġrash": 3763,
      "Ġrasc": 3764,
      "Ġoutward": 3765,
      "Ġwhole": 3766,
      "Ġoffend": 3767,
      "ĠYour": 3768,
      "Ġalas": 3769,
      "Ġheav": 3770,
      "Ġearn": 3771,
      "eeth": 3772,
      "Ġflight": 3773,
      "aughters": 3774,
      "Ġcommend": 3775,
      "PETER": 3776,
      "Ġmeaning": 3777,
      "aced": 3778,
      "Ġchief": 3779,
      "love": 3780,
      "loved": 3781,
      "Ġbegins": 3782,
      "Ġruin": 3783,
      "ission": 3784,
      "Ġresign": 3785,
      "Ġkeeps": 3786,
      "Ġfollows": 3787,
      "ethought": 3788,
      "Ġbanished": 3789,
      "Ġtread": 3790,
      "Ġtreacher": 3791,
      "Ġpassing": 3792,
      "Ġwoful": 3793,
      "Ġdevise": 3794,
      "Ġfollowers": 3795,
      "Ġfools": 3796,
      "Ġmaids": 3797,
      "Show": 3798,
      "Ġadvise": 3799,
      "Ġwanton": 3800,
      "Ġgives": 3801,
      "Ġborne": 3802,
      "Ġawake": 3803,
      "Ġlamb": 3804,
      "Ġcondu": 3805,
      "aze": 3806,
      "Ġbetwixt": 3807,
      "Ġsilence": 3808,
      "Ġprofess": 3809,
      "Ġdespite": 3810,
      "MOND": 3811,
      "Ġgarments": 3812,
      "pollo": 3813,
      "Ġcastle": 3814,
      "Ġthrive": 3815,
      "Ġexpress": 3816,
      "Ġundone": 3817,
      "Ġdreadful": 3818,
      "Ġbabe": 3819,
      "ursday": 3820,
      "Ġprotect": 3821,
      "Besides": 3822,
      "Ġviolent": 3823,
      "Ġpubl": 3824,
      "Ġfatal": 3825,
      "Ġoccasion": 3826,
      "Into": 3827,
      "Ġdeposed": 3828,
      "Ġfarther": 3829,
      "Ġthroat": 3830,
      "Ġbenefit": 3831,
      "pinion": 3832,
      "Ġaffairs": 3833,
      "VALERIA": 3834,
      "OXFORD": 3835,
      "RICHMOND": 3836,
      "SOMERSET": 3837,
      "mione": 3838,
      "BUS": 3839,
      "Great": 3840,
      "HY": 3841,
      "LIUS": 3842,
      "MOP": 3843,
      "Pre": 3844,
      "Per": 3845,
      "Rem": 3846,
      "Sc": 3847,
      "Tybalt": 3848,
      "Tailor": 3849,
      "Very": 3850,
      "app": 3851,
      "bow": 3852,
      "eg": 3853,
      "eous": 3854,
      "gle": 3855,
      "hor": 3856,
      "hore": 3857,
      "iond": 3858,
      "nes": 3859,
      "oe": 3860,
      "oat": 3861,
      "pr": 3862,
      "ser": 3863,
      "tune": 3864,
      "we": 3865,
      "Ġer": 3866,
      "Ġir": 3867,
      "Ġtort": 3868,
      "Ġtaste": 3869,
      "Ġsan": 3870,
      "Ġsix": 3871,
      "Ġsorry": 3872,
      "Ġwood": 3873,
      "Ġwine": 3874,
      "Ġwond": 3875,
      "Ġwander": 3876,
      "Ġband": 3877,
      "Ġbond": 3878,
      "itude": 3879,
      "Ġdet": 3880,
      "Ġdue": 3881,
      "Ġlend": 3882,
      "Ġloud": 3883,
      "Ġnine": 3884,
      "Ġnames": 3885,
      "arch": 3886,
      "Ġpin": 3887,
      "Ġport": 3888,
      "Ġpawn": 3889,
      "Ġpaper": 3890,
      "Ġphysic": 3891,
      "Ġheed": 3892,
      "Ġgain": 3893,
      "Ġgage": 3894,
      "Ġbelike": 3895,
      "Ġbeheld": 3896,
      "Ġinfect": 3897,
      "ldom": 3898,
      "eding": 3899,
      "Ġweight": 3900,
      "Ġweap": 3901,
      "ills": 3902,
      "Ġequ": 3903,
      "Ġstore": 3904,
      "Ġstep": 3905,
      "Ġstock": 3906,
      "Ġstuff": 3907,
      "Ġreward": 3908,
      "Ġrenown": 3909,
      "rand": 3910,
      "Ġlip": 3911,
      "Ġdeare": 3912,
      "room": 3913,
      "eave": 3914,
      "usion": 3915,
      "iffe": 3916,
      "Ġseas": 3917,
      "Ġsup": 3918,
      "thou": 3919,
      "Ġange": 3920,
      "Ġlod": 3921,
      "ello": 3922,
      "Ġspend": 3923,
      "Ġspare": 3924,
      "hop": 3925,
      "Ġvan": 3926,
      "Ġshut": 3927,
      "ustice": 3928,
      "ĠMOW": 3929,
      "ĠMenenius": 3930,
      "Ġconj": 3931,
      "olix": 3932,
      "Ġsway": 3933,
      "Ġbrook": 3934,
      "ĠBona": 3935,
      "Ġunnat": 3936,
      "ĠHarry": 3937,
      "Ġquit": 3938,
      "Ġhop": 3939,
      "imely": 3940,
      "Ġenvious": 3941,
      "Ġdisd": 3942,
      "Ġdiss": 3943,
      "ABHOR": 3944,
      "Ġrob": 3945,
      "Ġexile": 3946,
      "Ġexcell": 3947,
      "Ġgentlewoman": 3948,
      "Ġtwelve": 3949,
      "Ġparts": 3950,
      "Ġprey": 3951,
      "Ġtrans": 3952,
      "Ġperil": 3953,
      "Ġperish": 3954,
      "iteous": 3955,
      "ĠFriar": 3956,
      "Ġwhither": 3957,
      "swain": 3958,
      "Ġuntil": 3959,
      "Ġaffect": 3960,
      "ĠJove": 3961,
      "Ġlegs": 3962,
      "orses": 3963,
      "Ġaccus": 3964,
      "STANLEY": 3965,
      "Ġprize": 3966,
      "Ġchair": 3967,
      "Ġcountenance": 3968,
      "MILLIUS": 3969,
      "ounty": 3970,
      "Ġhumbly": 3971,
      "Ġcourtesy": 3972,
      "ploy": 3973,
      "Ġadvantage": 3974,
      "Ġcurst": 3975,
      "Ġspirits": 3976,
      "Two": 3977,
      "Ġintend": 3978,
      "ancy": 3979,
      "Ġsilver": 3980,
      "Ġpossible": 3981,
      "Having": 3982,
      "Ġdelay": 3983,
      "Ġresolve": 3984,
      "ĠThursday": 3985,
      "Ġwedding": 3986,
      "Ġsighs": 3987,
      "Ġhurt": 3988,
      "BRAY": 3989,
      "Ġcolour": 3990,
      "Ġprepared": 3991,
      "Ġbroken": 3992,
      "Ġclear": 3993,
      "ĠChristian": 3994,
      "Ġshadow": 3995,
      "Ġdamned": 3996,
      "Ġpleasant": 3997,
      "Ġforsworn": 3998,
      "Ġsusp": 3999,
      "Ġstorm": 4000,
      "Ġnobles": 4001,
      "Death": 4002,
      "Ġthreaten": 4003,
      "Ġpunish": 4004,
      "ĠCaius": 4005,
      "EXETER": 4006,
      "Ġpalace": 4007,
      "Ġwreck": 4008,
      "Ġdinner": 4009,
      "Ġspeci": 4010,
      "Ġneighbour": 4011,
      "Ġremembrance": 4012,
      "Ġempty": 4013,
      "MAMILLIUS": 4014,
      "ĠMusician": 4015,
      "BUSHY": 4016,
      "MOPSA": 4017,
      "iondello": 4018,
      "Ġsanct": 4019,
      "ĠMOWBRAY": 4020,
      "olixenes": 4021,
      "ABHORSON": 4022,
      "CY": 4023,
      "Cousin": 4024,
      "Ed": 4025,
      "Hast": 4026,
      "Know": 4027,
      "None": 4028,
      "Nothing": 4029,
      "Ret": 4030,
      "Right": 4031,
      "Rep": 4032,
      "Sha": 4033,
      "Widow": 4034,
      "born": 4035,
      "can": 4036,
      "clock": 4037,
      "do": 4038,
      "ered": 4039,
      "grace": 4040,
      "lar": 4041,
      "mity": 4042,
      "pass": 4043,
      "sa": 4044,
      "urious": 4045,
      "wise": 4046,
      "yond": 4047,
      "ĠWhen": 4048,
      "Ġtut": 4049,
      "Ġtable": 4050,
      "Ġscept": 4051,
      "Ġmaint": 4052,
      "Ġmiss": 4053,
      "Ġmurderer": 4054,
      "Ġmaking": 4055,
      "Ġmotion": 4056,
      "Ġwi": 4057,
      "Ġwot": 4058,
      "Ġwol": 4059,
      "rease": 4060,
      "Ġbot": 4061,
      "Ġbas": 4062,
      "Ġbare": 4063,
      "Ġball": 4064,
      "Ġbud": 4065,
      "ising": 4066,
      "Ġfle": 4067,
      "Ġfee": 4068,
      "Ġfashi": 4069,
      "erved": 4070,
      "Ġdi": 4071,
      "Ġdign": 4072,
      "Ġdies": 4073,
      "Ġdag": 4074,
      "Ġdaughters": 4075,
      "Ġcens": 4076,
      "Ġcup": 4077,
      "Ġcalm": 4078,
      "Ġcunning": 4079,
      "Ġnaked": 4080,
      "Ġopinion": 4081,
      "Ġtomb": 4082,
      "Ġpure": 4083,
      "Ġpainted": 4084,
      "Ġpiteous": 4085,
      "ote": 4086,
      "ane": 4087,
      "omen": 4088,
      "Ġgate": 4089,
      "Ġbew": 4090,
      "Ġbeloved": 4091,
      "sequ": 4092,
      "irg": 4093,
      "Ġmend": 4094,
      "ourish": 4095,
      "Ġweigh": 4096,
      "enture": 4097,
      "Ġstory": 4098,
      "urance": 4099,
      "Ġones": 4100,
      "ARCH": 4101,
      "amed": 4102,
      "Ġseest": 4103,
      "Those": 4104,
      "Three": 4105,
      "Ġsuck": 4106,
      "ruly": 4107,
      "Ġfail": 4108,
      "ĠCal": 4109,
      "ĠRom": 4110,
      "ERCY": 4111,
      "ants": 4112,
      "que": 4113,
      "Ġgoodness": 4114,
      "Ġpronounce": 4115,
      "Ġcomple": 4116,
      "Ġamen": 4117,
      "outs": 4118,
      "Ġhatred": 4119,
      "Ġtheirs": 4120,
      "ĠSo": 4121,
      "Ġkingly": 4122,
      "ĠBiondello": 4123,
      "igence": 4124,
      "Ġquench": 4125,
      "Ġjour": 4126,
      "Ġhopes": 4127,
      "cio": 4128,
      "cian": 4129,
      "Ġseeing": 4130,
      "ĠPro": 4131,
      "ĠPeter": 4132,
      "ĠPisa": 4133,
      "ĠPolixenes": 4134,
      "ĠPERCY": 4135,
      "umble": 4136,
      "Ġroom": 4137,
      "Ġrose": 4138,
      "Ġexpect": 4139,
      "Ġslow": 4140,
      "Ġado": 4141,
      "THAS": 4142,
      "THOMAS": 4143,
      "Ġperfect": 4144,
      "Ġperpet": 4145,
      "ĠDid": 4146,
      "Ġwrath": 4147,
      "Ġways": 4148,
      "Thanks": 4149,
      "Ġremains": 4150,
      "ĠFl": 4151,
      "lesome": 4152,
      "Ġrepair": 4153,
      "Ġcourage": 4154,
      "Ġcrowns": 4155,
      "Ġlean": 4156,
      "Ġhark": 4157,
      "Ġwits": 4158,
      "Ġfolly": 4159,
      "Ġaccess": 4160,
      "Ġaccuse": 4161,
      "Only": 4162,
      "Ġends": 4163,
      "Ġendure": 4164,
      "Ġcompass": 4165,
      "Ġneedful": 4166,
      "Ġtremb": 4167,
      "Ġjoys": 4168,
      "Ġjoyful": 4169,
      "Ġfortunes": 4170,
      "Ġmistake": 4171,
      "Ġnatural": 4172,
      "Ġhappiness": 4173,
      "Ġpleased": 4174,
      "Ġmisery": 4175,
      "Ġmiserable": 4176,
      "Ġchide": 4177,
      "Ġattempt": 4178,
      "Ġassurance": 4179,
      "Ġadvance": 4180,
      "Ġpersu": 4181,
      "Ġdiscontent": 4182,
      "Ġsenators": 4183,
      "Ġdares": 4184,
      "Ġcrack": 4185,
      "Ġsometime": 4186,
      "Ġintent": 4187,
      "Ġdenied": 4188,
      "Ġspoken": 4189,
      "Ġdrum": 4190,
      "Ġmarket": 4191,
      "Ġwounded": 4192,
      "cape": 4193,
      "Ġwaters": 4194,
      "Ġdisposition": 4195,
      "Ġinstruct": 4196,
      "Ġinstrument": 4197,
      "Ġcursed": 4198,
      "Ġgranted": 4199,
      "ĠRivers": 4200,
      "ney": 4201,
      "ĠNap": 4202,
      "Ġterror": 4203,
      "Ġwhiles": 4204,
      "Ġresolved": 4205,
      "chance": 4206,
      "Ġpraise": 4207,
      "Ġcorrupt": 4208,
      "Ġburthen": 4209,
      "Ġemploy": 4210,
      "Ġgriev": 4211,
      "Ġduked": 4212,
      "Ġgroan": 4213,
      "Ġaccept": 4214,
      "Ġdrops": 4215,
      "Ġprinces": 4216,
      "Ġprincess": 4217,
      "BALTHAS": 4218,
      "Ġcolours": 4219,
      "Ġpenit": 4220,
      "Ġprotest": 4221,
      "Ġowe": 4222,
      "ĠStanley": 4223,
      "Ġgovernment": 4224,
      "Ġpetition": 4225,
      "Ġcontinue": 4226,
      "Prithee": 4227,
      "Ġsolemn": 4228,
      "Ġobedience": 4229,
      "Believe": 4230,
      "Ġseveral": 4231,
      "Ġconquer": 4232,
      "Ġcredit": 4233,
      "Ġcontrary": 4234,
      "hearted": 4235,
      "Ġlanguage": 4236,
      "Ġcircum": 4237,
      "Ġdurst": 4238,
      "Ġpublic": 4239,
      "Ġunnatural": 4240,
      "Ġdukedom": 4241,
      "BALTHASAR": 4242,
      "?--": 4243,
      "Ar": 4244,
      "App": 4245,
      "Amen": 4246,
      "Bear": 4247,
      "Boat": 4248,
      "Father": 4249,
      "FOL": 4250,
      "GH": 4251,
      "Heaven": 4252,
      "Love": 4253,
      "Might": 4254,
      "Mark": 4255,
      "OS": 4256,
      "Post": 4257,
      "Page": 4258,
      "Please": 4259,
      "SO": 4260,
      "Set": 4261,
      "Save": 4262,
      "bear": 4263,
      "cer": 4264,
      "ex": 4265,
      "fer": 4266,
      "from": 4267,
      "go": 4268,
      "gers": 4269,
      "how": 4270,
      "iven": 4271,
      "just": 4272,
      "lic": 4273,
      "na": 4274,
      "oved": 4275,
      "same": 4276,
      "uary": 4277,
      "val": 4278,
      "vours": 4279,
      "yr": 4280,
      "ĊĊ": 4281,
      "ĠNay": 4282,
      "ĠThey": 4283,
      "Ġtest": 4284,
      "Ġtide": 4285,
      "Ġteeth": 4286,
      "hest": 4287,
      "Ġsink": 4288,
      "Ġmor": 4289,
      "Ġmat": 4290,
      "Ġmag": 4291,
      "Ġmile": 4292,
      "happy": 4293,
      "ishop": 4294,
      "Ġfro": 4295,
      "Ġfame": 4296,
      "erd": 4297,
      "itus": 4298,
      "Ġcease": 4299,
      "ences": 4300,
      "Ġled": 4301,
      "Ġnought": 4302,
      "Ġyonder": 4303,
      "aries": 4304,
      "Ġhost": 4305,
      "Ġhunt": 4306,
      "Ġhouses": 4307,
      "Ġhorses": 4308,
      "Ġpol": 4309,
      "Ġpowers": 4310,
      "strous": 4311,
      "omp": 4312,
      "Ġgru": 4313,
      "atic": 4314,
      "atience": 4315,
      "Ġbeyond": 4316,
      "Ġhaz": 4317,
      "uted": 4318,
      "chie": 4319,
      "Ġisle": 4320,
      "Ġisland": 4321,
      "ourage": 4322,
      "Ġeast": 4323,
      "Ġits": 4324,
      "ades": 4325,
      "Ġkin": 4326,
      "idence": 4327,
      "Ġrepe": 4328,
      "Ġrealm": 4329,
      "Ġdebt": 4330,
      "Ġshape": 4331,
      "uses": 4332,
      "ified": 4333,
      "Ġseize": 4334,
      "Ġspite": 4335,
      "Ġfaces": 4336,
      "ĠCan": 4337,
      "Ġknife": 4338,
      "ĠROS": 4339,
      "Ġvirg": 4340,
      "Ġshun": 4341,
      "Ġcomest": 4342,
      "Ġmanners": 4343,
      "ĠMessenger": 4344,
      "ĠEl": 4345,
      "icion": 4346,
      "icular": 4347,
      "Ġblock": 4348,
      "Ġblush": 4349,
      "ared": 4350,
      "ĠGood": 4351,
      "olute": 4352,
      "Ġhereafter": 4353,
      "Ġswallow": 4354,
      "Ġbrings": 4355,
      "ĠST": 4356,
      "ĠBl": 4357,
      "Ġqual": 4358,
      "Young": 4359,
      "akest": 4360,
      "Ġprovo": 4361,
      "ument": 4362,
      "Ġfathers": 4363,
      "ĠWho": 4364,
      "Ġens": 4365,
      "Ġenmity": 4366,
      "Ġring": 4367,
      "CAS": 4368,
      "ĠYet": 4369,
      "Ġalter": 4370,
      "Ġlooking": 4371,
      "Ġfriendly": 4372,
      "Ġflies": 4373,
      "Ġslay": 4374,
      "ĠTake": 4375,
      "tled": 4376,
      "Ġfairly": 4377,
      "Ġadver": 4378,
      "Ġadvers": 4379,
      "Ġclo": 4380,
      "Ġtrade": 4381,
      "Ġwrite": 4382,
      "they": 4383,
      "Ġscope": 4384,
      "Ġscene": 4385,
      "Ġkey": 4386,
      "ĠFrench": 4387,
      "Ġapprehe": 4388,
      "Ġcontract": 4389,
      "Ġarmour": 4390,
      "ctions": 4391,
      "Ġuntimely": 4392,
      "ression": 4393,
      "Ġimm": 4394,
      "forth": 4395,
      "Ġrule": 4396,
      "Ġleads": 4397,
      "Ġwitch": 4398,
      "Ġslept": 4399,
      "Ġaccord": 4400,
      "Ġpurcha": 4401,
      "Ġcock": 4402,
      "orset": 4403,
      "Still": 4404,
      "Ġbraw": 4405,
      "Ġbrain": 4406,
      "Ġseeming": 4407,
      "Ġglorious": 4408,
      "Ġimposs": 4409,
      "Ġpassage": 4410,
      "Ġbodies": 4411,
      "Ġundertake": 4412,
      "Ġhateful": 4413,
      "Ġmaiden": 4414,
      "Ġstrew": 4415,
      "Ġturns": 4416,
      "uteous": 4417,
      "Ġboar": 4418,
      "Ġassured": 4419,
      "Ġwants": 4420,
      "Ġcurses": 4421,
      "Ġdiscover": 4422,
      "NORFOL": 4423,
      "Ġcommanded": 4424,
      "Ġhanging": 4425,
      "Ġfreely": 4426,
      "Ġcontented": 4427,
      "Ġgrey": 4428,
      "Ġdrums": 4429,
      "Ġafford": 4430,
      "Ġdeserves": 4431,
      "Ġcholer": 4432,
      "noon": 4433,
      "Ġgrows": 4434,
      "Comm": 4435,
      "Ġterms": 4436,
      "Ġincrease": 4437,
      "Ġresolution": 4438,
      "Ġshortly": 4439,
      "Ġvex": 4440,
      "Ġabsent": 4441,
      "Ġvenom": 4442,
      "Ġgroans": 4443,
      "Ġrespected": 4444,
      "Ġprivile": 4445,
      "Ġframe": 4446,
      "Beseech": 4447,
      "Ġcomplain": 4448,
      "Ġapproach": 4449,
      "Ġtorment": 4450,
      "Ġunknown": 4451,
      "Ġodds": 4452,
      "Ġprosperous": 4453,
      "DORCAS": 4454,
      "Ġstudy": 4455,
      "Ġreverend": 4456,
      "Ġapparel": 4457,
      "Ġcaptain": 4458,
      "Ġdegree": 4459,
      "Ġmourn": 4460,
      "Ġcamest": 4461,
      "ĠHermione": 4462,
      "Ġsmooth": 4463,
      "Ġlarge": 4464,
      "Ġsharp": 4465,
      "Ġdisdain": 4466,
      "Ġexcellent": 4467,
      "Ġsceptre": 4468,
      "Ġdagger": 4469,
      "ĠNaples": 4470,
      "Boatswain": 4471,
      "ĠROSS": 4472,
      "NORFOLK": 4473,
      "AEd": 4474,
      "Boy": 4475,
      "Came": 4476,
      "Cons": 4477,
      "DIN": 4478,
      "Dear": 4479,
      "FER": 4480,
      "Ghost": 4481,
      "Has": 4482,
      "Long": 4483,
      "Mistress": 4484,
      "NSO": 4485,
      "RR": 4486,
      "Roman": 4487,
      "Worthy": 4488,
      "aces": 4489,
      "aily": 4490,
      "bri": 4491,
      "bra": 4492,
      "ds": 4493,
      "dis": 4494,
      "fret": 4495,
      "gl": 4496,
      "gar": 4497,
      "iate": 4498,
      "ipp": 4499,
      "kin": 4500,
      "ker": 4501,
      "law": 4502,
      "nal": 4503,
      "ping": 4504,
      "pul": 4505,
      "sha": 4506,
      "time": 4507,
      "uce": 4508,
      "wife": 4509,
      "Ġtame": 4510,
      "Ġtaught": 4511,
      "Ġtap": 4512,
      "Ġable": 4513,
      "Ġsqu": 4514,
      "Ġsins": 4515,
      "Ġsouth": 4516,
      "Ġmill": 4517,
      "Ġmessenger": 4518,
      "iny": 4519,
      "ints": 4520,
      "reg": 4521,
      "reland": 4522,
      "reme": 4523,
      "Ġbury": 4524,
      "isper": 4525,
      "Ġfig": 4526,
      "Ġfeet": 4527,
      "Ġfurn": 4528,
      "ering": 4529,
      "ita": 4530,
      "itation": 4531,
      "Ġdig": 4532,
      "Ġdress": 4533,
      "Ġdaily": 4534,
      "Ġchat": 4535,
      "Ġcatch": 4536,
      "ency": 4537,
      "Ġlark": 4538,
      "Ġthorn": 4539,
      "arm": 4540,
      "Ġpare": 4541,
      "Ġpurse": 4542,
      "ĠIreland": 4543,
      "ances": 4544,
      "Ġgift": 4545,
      "atcl": 4546,
      "Ġbef": 4547,
      "Ġbeard": 4548,
      "Ġbethink": 4549,
      "Ġmel": 4550,
      "Ġmere": 4551,
      "Ġmeant": 4552,
      "Ġweather": 4553,
      "Ġwept": 4554,
      "rib": 4555,
      "rif": 4556,
      "rick": 4557,
      "ricians": 4558,
      "Ġstol": 4559,
      "Ġstamp": 4560,
      "Ġrecom": 4561,
      "Ġrevol": 4562,
      "ales": 4563,
      "aline": 4564,
      "Ġsore": 4565,
      "Ġwilling": 4566,
      "Ġwillingly": 4567,
      "Ġnobl": 4568,
      "Ġnobly": 4569,
      "andal": 4570,
      "Ġseason": 4571,
      "Ġspr": 4572,
      "Ġspur": 4573,
      "ĠCo": 4574,
      "ĠCons": 4575,
      "ĠRos": 4576,
      "Ġvows": 4577,
      "Ġvault": 4578,
      "Ġcomb": 4579,
      "ĠMil": 4580,
      "Ġamazed": 4581,
      "Ġconce": 4582,
      "Ġconceit": 4583,
      "Ġconstant": 4584,
      "icy": 4585,
      "ares": 4586,
      "ember": 4587,
      "Help": 4588,
      "oler": 4589,
      "Ġlovely": 4590,
      "Ġswell": 4591,
      "ĠBe": 4592,
      "ĠBer": 4593,
      "Ġarg": 4594,
      "Ġunp": 4595,
      "Ġunless": 4596,
      "Ġworn": 4597,
      "Ġworthi": 4598,
      "elt": 4599,
      "Ġjew": 4600,
      "Ġgraves": 4601,
      "ĠPray": 4602,
      "Ġruth": 4603,
      "ĠAd": 4604,
      "ĠApollo": 4605,
      "harge": 4606,
      "Ġdisper": 4607,
      "Noble": 4608,
      "Ġabhor": 4609,
      "Ġroar": 4610,
      "Ġrogue": 4611,
      "Soft": 4612,
      "Ġtells": 4613,
      "Ġwhereof": 4614,
      "Ġdesert": 4615,
      "Ġwarlike": 4616,
      "ĠTitus": 4617,
      "Ġtwain": 4618,
      "Ġfears": 4619,
      "Ġhasty": 4620,
      "Ġgreatest": 4621,
      "oldier": 4622,
      "Ġparticular": 4623,
      "Ġcalled": 4624,
      "Ġcommitted": 4625,
      "Ġclam": 4626,
      "Ġperj": 4627,
      "Ġperforce": 4628,
      "ĠDo": 4629,
      "Ġwrought": 4630,
      "liament": 4631,
      "Ġnorth": 4632,
      "Ġpress": 4633,
      "Ġrap": 4634,
      "Ġraise": 4635,
      "ĠFarewell": 4636,
      "ĠFroth": 4637,
      "Ġwhore": 4638,
      "Ġbegun": 4639,
      "Ġconsider": 4640,
      "ĠJack": 4641,
      "Ġpeers": 4642,
      "Ġresist": 4643,
      "Ġaccused": 4644,
      "Ġkindly": 4645,
      "Ġcompan": 4646,
      "Ġsmiles": 4647,
      "Ġfinds": 4648,
      "Ġcounty": 4649,
      "Stri": 4650,
      "Ġbrace": 4651,
      "Ġcharged": 4652,
      "Ġpassion": 4653,
      "Clarence": 4654,
      "GREEN": 4655,
      "Ġholds": 4656,
      "Ġstreets": 4657,
      "Ġboots": 4658,
      "Ġbuild": 4659,
      "Ġsoundly": 4660,
      "Ġserves": 4661,
      "Ġinstant": 4662,
      "Ġadvice": 4663,
      "Ġgiving": 4664,
      "Ġrevenged": 4665,
      "Ġsends": 4666,
      "Ġwinds": 4667,
      "Ġhanged": 4668,
      "Ġdarest": 4669,
      "Ġsometimes": 4670,
      "Ġintell": 4671,
      "Ġservices": 4672,
      "Ġobject": 4673,
      "Ġsupposed": 4674,
      "Ġtemper": 4675,
      "Whither": 4676,
      "ALONSO": 4677,
      "ĠLucio": 4678,
      "Ġhardly": 4679,
      "Ġparliament": 4680,
      "Ġrecord": 4681,
      "Ġveins": 4682,
      "Ġwaste": 4683,
      "Ġbreathed": 4684,
      "Ġstopp": 4685,
      "Until": 4686,
      "Ġpieces": 4687,
      "Ġgarland": 4688,
      "Ġwait": 4689,
      "Ġforbear": 4690,
      "Ġgrieve": 4691,
      "Ġsky": 4692,
      "ĠPomfret": 4693,
      "Ġdirect": 4694,
      "Ġthrice": 4695,
      "Ġestate": 4696,
      "Ġoppos": 4697,
      "TYRR": 4698,
      "Ġdestroy": 4699,
      "Ġaffections": 4700,
      "Ġurged": 4701,
      "Ġfamous": 4702,
      "Ġhaply": 4703,
      "About": 4704,
      "Supp": 4705,
      "DORSET": 4706,
      "Ġlusty": 4707,
      "Ġelder": 4708,
      "Ġcounterfeit": 4709,
      "Ġthief": 4710,
      "Gentlemen": 4711,
      "Ġarrived": 4712,
      "Ġbehalf": 4713,
      "ĠMarshal": 4714,
      "Ġavoid": 4715,
      "Ġimprisonment": 4716,
      "untsman": 4717,
      "Ġrascal": 4718,
      "Ġearnest": 4719,
      "Ġtreacherous": 4720,
      "Ġconduct": 4721,
      "Ġprotector": 4722,
      "Ġsuspicion": 4723,
      "Ġspecial": 4724,
      "Ġsanctuary": 4725,
      "Ġmaintain": 4726,
      "ĠRomans": 4727,
      "Ġjourney": 4728,
      "Ġperpetual": 4729,
      "Ġgrievous": 4730,
      "Ġvirgin": 4731,
      "DINAND": 4732,
      "FERDINAND": 4733,
      "atcliff": 4734,
      "ĠConspir": 4735,
      "TYRREL": 4736,
      ";--": 4737,
      "Acc": 4738,
      "Bring": 4739,
      "Coriol": 4740,
      "IL": 4741,
      "Keep": 4742,
      "Leave": 4743,
      "Makes": 4744,
      "PH": 4745,
      "UGH": 4746,
      "Vols": 4747,
      "Wilt": 4748,
      "cra": 4749,
      "des": 4750,
      "dig": 4751,
      "eat": 4752,
      "fa": 4753,
      "fess": 4754,
      "foot": 4755,
      "fellow": 4756,
      "faced": 4757,
      "grim": 4758,
      "groom": 4759,
      "ib": 4760,
      "iving": 4761,
      "kind": 4762,
      "master": 4763,
      "maid": 4764,
      "new": 4765,
      "oes": 4766,
      "say": 4767,
      "some": 4768,
      "ties": 4769,
      "uit": 4770,
      "uing": 4771,
      "upt": 4772,
      "vior": 4773,
      "xeter": 4774,
      "zz": 4775,
      "Ġz": 4776,
      "Ġing": 4777,
      "ĠThen": 4778,
      "ĠTherefore": 4779,
      "Ġtaunt": 4780,
      "Ġtask": 4781,
      "Ġapt": 4782,
      "Ġaunt": 4783,
      "Ġsy": 4784,
      "Ġsal": 4785,
      "Ġsire": 4786,
      "Ġmult": 4787,
      "ination": 4788,
      "Ġwing": 4789,
      "Ġwide": 4790,
      "Ġwhip": 4791,
      "Ġwaking": 4792,
      "reen": 4793,
      "hand": 4794,
      "Ġbade": 4795,
      "isbury": 4796,
      "Ġfi": 4797,
      "Ġfood": 4798,
      "Ġfrow": 4799,
      "Ġfun": 4800,
      "Ġfires": 4801,
      "Ġfancy": 4802,
      "erve": 4803,
      "erby": 4804,
      "llen": 4805,
      "onci": 4806,
      "Ġdow": 4807,
      "Ġdim": 4808,
      "Ġdying": 4809,
      "Ġcher": 4810,
      "Ġcere": 4811,
      "esar": 4812,
      "essel": 4813,
      "enant": 4814,
      "Ġlin": 4815,
      "Ġnail": 4816,
      "Ġyond": 4817,
      "Ġthird": 4818,
      "Ġhor": 4819,
      "Ġhie": 4820,
      "Ġoak": 4821,
      "Ġpi": 4822,
      "Ġpot": 4823,
      "Ġpound": 4824,
      "Ġpier": 4825,
      "vet": 4826,
      "ater": 4827,
      "ative": 4828,
      "sell": 4829,
      "semble": 4830,
      "Ġinqu": 4831,
      "etite": 4832,
      "eder": 4833,
      "utenant": 4834,
      "Ġfors": 4835,
      "Ġforced": 4836,
      "Ġforfeit": 4837,
      "ourse": 4838,
      "ourth": 4839,
      "Ġevent": 4840,
      "adv": 4841,
      "aded": 4842,
      "Ġsting": 4843,
      "Ġstro": 4844,
      "Ġstout": 4845,
      "Ġstret": 4846,
      "Ġstroke": 4847,
      "Ġreck": 4848,
      "Ġrejo": 4849,
      "rac": 4850,
      "Ġlion": 4851,
      "alus": 4852,
      "alisbury": 4853,
      "Ġsooth": 4854,
      "Ġdeb": 4855,
      "Ġdeceit": 4856,
      "roll": 4857,
      "ested": 4858,
      "earer": 4859,
      "amb": 4860,
      "ams": 4861,
      "aming": 4862,
      "Ġalliance": 4863,
      "Ġsuc": 4864,
      "Ġsue": 4865,
      "run": 4866,
      "ruction": 4867,
      "Ġlovest": 4868,
      "ellion": 4869,
      "Ġspl": 4870,
      "Ġsple": 4871,
      "Ġspect": 4872,
      "Ġfawn": 4873,
      "ilence": 4874,
      "ilts": 4875,
      "Ġknaves": 4876,
      "Ġvessel": 4877,
      "ulate": 4878,
      "arts": 4879,
      "nty": 4880,
      "ĠMay": 4881,
      "ĠExeter": 4882,
      "Ġconfe": 4883,
      "Ġblunt": 4884,
      "ĠGive": 4885,
      "ĠLe": 4886,
      "ĠLau": 4887,
      "LOUGH": 4888,
      "Ġsaying": 4889,
      "Ġbran": 4890,
      "ĠSoldier": 4891,
      "Ġung": 4892,
      "Ġunjust": 4893,
      "Ġunhappy": 4894,
      "ignty": 4895,
      "LIS": 4896,
      "Ġmuster": 4897,
      "ĠWell": 4898,
      "ĠWIL": 4899,
      "Ġenforce": 4900,
      "deem": 4901,
      "ĠAll": 4902,
      "irect": 4903,
      "Ġoffended": 4904,
      "Ġdisgrace": 4905,
      "Ġalack": 4906,
      "Ġalike": 4907,
      "Ġalthough": 4908,
      "Ġabide": 4909,
      "Ġaboard": 4910,
      "Ġexchange": 4911,
      "ages": 4912,
      "Ġdesires": 4913,
      "Ġdescend": 4914,
      "ased": 4915,
      "Ġflood": 4916,
      "Ġslaves": 4917,
      "Ġbetray": 4918,
      "Ġbetimes": 4919,
      "Ġnewly": 4920,
      "Ġparting": 4921,
      "Ġpartly": 4922,
      "Ġcommons": 4923,
      "Ġcommission": 4924,
      "Ġstanding": 4925,
      "Ġclim": 4926,
      "ullus": 4927,
      "ĠDe": 4928,
      "ĠDorset": 4929,
      "ĠDerby": 4930,
      "Ġwrink": 4931,
      "thee": 4932,
      "aints": 4933,
      "Ġbearing": 4934,
      "Ġrare": 4935,
      "Ġrail": 4936,
      "Ġremorse": 4937,
      "Ġappeal": 4938,
      "Ġappetite": 4939,
      "Ġwhisper": 4940,
      "Ġcontempt": 4941,
      "Ġimage": 4942,
      "ĠMarian": 4943,
      "forced": 4944,
      "Ġrust": 4945,
      "Ġruled": 4946,
      "Ġhousehold": 4947,
      "ercy": 4948,
      "Ġrestra": 4949,
      "Ġsets": 4950,
      "osing": 4951,
      "Ġtrick": 4952,
      "Ġyoungest": 4953,
      "Ġpowerful": 4954,
      "clam": 4955,
      "Ġchase": 4956,
      "Ġcharac": 4957,
      "Ġputs": 4958,
      "RIAN": 4959,
      "Ġsmell": 4960,
      "Ġrights": 4961,
      "Ġtreasure": 4962,
      "Ġtremble": 4963,
      "Ġmistrust": 4964,
      "Ġnative": 4965,
      "iety": 4966,
      "Ġboys": 4967,
      "Ġpatricians": 4968,
      "Ġweeps": 4969,
      "Ġbelow": 4970,
      "Lords": 4971,
      "Ġretire": 4972,
      "Ġsovereignty": 4973,
      "Ġassure": 4974,
      "ouchsa": 4975,
      "Ġcurrent": 4976,
      "Twere": 4977,
      "Ġoaths": 4978,
      "Ġmerit": 4979,
      "Ġfaithful": 4980,
      "upon": 4981,
      "Ġaffli": 4982,
      "Ġdefence": 4983,
      "Ġsurely": 4984,
      "should": 4985,
      "Ġjoint": 4986,
      "Cannot": 4987,
      "Ġsilent": 4988,
      "Ġinstruments": 4989,
      "Ġprofit": 4990,
      "Ġbeholding": 4991,
      "Ġreconci": 4992,
      "Ġago": 4993,
      "Ġagree": 4994,
      "Ġsingle": 4995,
      "Ġcorre": 4996,
      "Ġsickness": 4997,
      "Ġweakness": 4998,
      "Ġprett": 4999,
      "Ġregal": 5000,
      "Ġregard": 5001,
      "Ġbooks": 5002,
      "Ġbarren": 5003,
      "Ġbeasts": 5004,
      "eeming": 5005,
      "Ġtrumpet": 5006,
      "Ġpitch": 5007,
      "Ġshield": 5008,
      "Ġunkind": 5009,
      "Ġsuspect": 5010,
      "Ġtempest": 5011,
      "Ġreverence": 5012,
      "Ġapparent": 5013,
      "Ġentertainment": 5014,
      "Ġobedient": 5015,
      "ĠAnti": 5016,
      "Better": 5017,
      "Ġhelm": 5018,
      "Ġgently": 5019,
      "Ġdetermined": 5020,
      "Ġholp": 5021,
      "Ġfairest": 5022,
      "Ġedge": 5023,
      "Ġstabb": 5024,
      "Ġtyranny": 5025,
      "Ġlength": 5026,
      "Ġyoke": 5027,
      "ancholy": 5028,
      "ienna": 5029,
      "Ġpilgrim": 5030,
      "ĠSicilia": 5031,
      "Ġequal": 5032,
      "Ġfashion": 5033,
      "Ġdignity": 5034,
      "Ġcomplex": 5035,
      "Ġcircumst": 5036,
      "yrrel": 5037,
      "Ġaccording": 5038,
      "Ġimpossible": 5039,
      "AEdile": 5040,
      "Ġparent": 5041,
      "Ġmelancholy": 5042,
      "ĠMilan": 5043,
      "Volsce": 5044,
      "Ġfroward": 5045,
      "Ġconference": 5046,
      "LOUGHBY": 5047,
      "ĠWILLOUGHBY": 5048,
      ".--": 5049,
      "AD": 5050,
      "Cry": 5051,
      "Cond": 5052,
      "CLE": 5053,
      "Down": 5054,
      "Draw": 5055,
      "Each": 5056,
      "FRO": 5057,
      "Fair": 5058,
      "Hail": 5059,
      "IT": 5060,
      "Im": 5061,
      "Kn": 5062,
      "King": 5063,
      "Lay": 5064,
      "Lie": 5065,
      "Lady": 5066,
      "Many": 5067,
      "OMEN": 5068,
      "Ri": 5069,
      "Rather": 5070,
      "Se": 5071,
      "Sm": 5072,
      "Son": 5073,
      "Somet": 5074,
      "Tush": 5075,
      "Warwick": 5076,
      "Woe": 5077,
      "Ye": 5078,
      "af": 5079,
      "ax": 5080,
      "acc": 5081,
      "action": 5082,
      "br": 5083,
      "bod": 5084,
      "bation": 5085,
      "cr": 5086,
      "cate": 5087,
      "cure": 5088,
      "cence": 5089,
      "cary": 5090,
      "eb": 5091,
      "eve": 5092,
      "fold": 5093,
      "ghan": 5094,
      "give": 5095,
      "iver": 5096,
      "iam": 5097,
      "long": 5098,
      "look": 5099,
      "mong": 5100,
      "mory": 5101,
      "ollow": 5102,
      "rs": 5103,
      "rat": 5104,
      "rough": 5105,
      "than": 5106,
      "tic": 5107,
      "teen": 5108,
      "tles": 5109,
      "uries": 5110,
      "wear": 5111,
      "weal": 5112,
      "ĠQ": 5113,
      "Ġtim": 5114,
      "Ġtro": 5115,
      "Ġtres": 5116,
      "Ġtall": 5117,
      "Ġtakes": 5118,
      "Ġtarry": 5119,
      "here": 5120,
      "oubt": 5121,
      "Ġsalt": 5122,
      "Ġsnow": 5123,
      "Ġmir": 5124,
      "Ġmood": 5125,
      "Ġmess": 5126,
      "Ġmirth": 5127,
      "inct": 5128,
      "Ġwid": 5129,
      "Ġwest": 5130,
      "Ġwake": 5131,
      "Ġward": 5132,
      "Ġwink": 5133,
      "Ġbuck": 5134,
      "ories": 5135,
      "erves": 5136,
      "iter": 5137,
      "itable": 5138,
      "onest": 5139,
      "onation": 5140,
      "Ġdiffe": 5141,
      "Ġcrow": 5142,
      "Ġcost": 5143,
      "Ġcaught": 5144,
      "Ġchall": 5145,
      "Ġciv": 5146,
      "Ġlent": 5147,
      "Ġline": 5148,
      "Ġlap": 5149,
      "Ġnap": 5150,
      "Ġyes": 5151,
      "Ġthin": 5152,
      "Ġthir": 5153,
      "Ġthick": 5154,
      "Ġthread": 5155,
      "Ġhorn": 5156,
      "Ġope": 5157,
      "Ġtoad": 5158,
      "Ġtoil": 5159,
      "Ġtooth": 5160,
      "Ġpee": 5161,
      "Ġpause": 5162,
      "hath": 5163,
      "ĠIta": 5164,
      "othes": 5165,
      "stable": 5166,
      "stery": 5167,
      "aning": 5168,
      "omach": 5169,
      "Ġgaze": 5170,
      "ature": 5171,
      "Ġmystery": 5172,
      "Ġinfection": 5173,
      "lets": 5174,
      "imble": 5175,
      "Ġmelt": 5176,
      "Ġmemory": 5177,
      "illy": 5178,
      "illing": 5179,
      "herit": 5180,
      "Ġste": 5181,
      "Ġstick": 5182,
      "Ġstumble": 5183,
      "asp": 5184,
      "ases": 5185,
      "Ġrece": 5186,
      "Ġreap": 5187,
      "Ġredeem": 5188,
      "Ġlift": 5189,
      "Ġliken": 5190,
      "alse": 5191,
      "Ġdeck": 5192,
      "Ġdecl": 5193,
      "Ġsham": 5194,
      "ushy": 5195,
      "ushes": 5196,
      "Ġsell": 5197,
      "Ġsees": 5198,
      "Ġseiz": 5199,
      "Ġseldom": 5200,
      "Ġsepul": 5201,
      "Through": 5202,
      "Ġsuper": 5203,
      "Ġsuitor": 5204,
      "Ġsullen": 5205,
      "thing": 5206,
      "Ġlover": 5207,
      "Ġspy": 5208,
      "Ġfact": 5209,
      "Ġnegle": 5210,
      "Ġknot": 5211,
      "Ġvar": 5212,
      "Ġvill": 5213,
      "Ġvol": 5214,
      "ulf": 5215,
      "seless": 5216,
      "Ġmanif": 5217,
      "Ġmanage": 5218,
      "ĠMin": 5219,
      "Ġamiss": 5220,
      "ical": 5221,
      "aughan": 5222,
      "Ġhated": 5223,
      "ĠLart": 5224,
      "ersu": 5225,
      "pping": 5226,
      "Ġswain": 5227,
      "ĠSalisbury": 5228,
      "Ġunwill": 5229,
      "ĠHis": 5230,
      "ĠHeaven": 5231,
      "ĠVen": 5232,
      "ĠVal": 5233,
      "ĠVienna": 5234,
      "Whether": 5235,
      "Ġjot": 5236,
      "cies": 5237,
      "Ġshoulder": 5238,
      "ĠPerd": 5239,
      "iced": 5240,
      "Ġdeaths": 5241,
      "Ġpoints": 5242,
      "ĠAway": 5243,
      "Ġheartily": 5244,
      "Ġwholesome": 5245,
      "Ġmarks": 5246,
      "Ġoffic": 5247,
      "Ġdisple": 5248,
      "Ġdisgu": 5249,
      "Ġabused": 5250,
      "Ġrobb": 5251,
      "Ġexerc": 5252,
      "Ġdescent": 5253,
      "Ġripe": 5254,
      "Ġride": 5255,
      "Ġleague": 5256,
      "Ġwarri": 5257,
      "Ġflow": 5258,
      "Ġslip": 5259,
      "ĠTar": 5260,
      "ĠTell": 5261,
      "ĠTyrrel": 5262,
      "Ġbred": 5263,
      "Ġheavenly": 5264,
      "Ġclothes": 5265,
      "Ġsweeter": 5266,
      "Ġperhaps": 5267,
      "Ġscold": 5268,
      "Ġscandal": 5269,
      "Ġrain": 5270,
      "Ġraised": 5271,
      "Ġremove": 5272,
      "Ġremoved": 5273,
      "Ġappointed": 5274,
      "Ġwhit": 5275,
      "ĠLords": 5276,
      "Ġbegan": 5277,
      "Ġrepose": 5278,
      "Ġharsh": 5279,
      "Ġkeeper": 5280,
      "Ġyounger": 5281,
      "Ġaccursed": 5282,
      "Ġprick": 5283,
      "Ġcoff": 5284,
      "Ġdearly": 5285,
      "Ġsubtle": 5286,
      "fortune": 5287,
      "Ġminds": 5288,
      "Ġlaws": 5289,
      "Ġmischance": 5290,
      "Ġdevotion": 5291,
      "Ġafternoon": 5292,
      "Ġcareless": 5293,
      "Uncle": 5294,
      "Anon": 5295,
      "Ġgriefs": 5296,
      "Ġcounc": 5297,
      "Ġhuman": 5298,
      "Ġgrat": 5299,
      "Ġserved": 5300,
      "Ġfalsehood": 5301,
      "Ġadventure": 5302,
      "Ġwanting": 5303,
      "Ġcurt": 5304,
      "Ġcountrymen": 5305,
      "Ġvirtues": 5306,
      "Ġstranger": 5307,
      "itten": 5308,
      "Ġwindows": 5309,
      "Ġbeauteous": 5310,
      "Ġsecure": 5311,
      "Ġyielded": 5312,
      "Ġsupply": 5313,
      "Ġcommonweal": 5314,
      "soever": 5315,
      "Ġmonstrous": 5316,
      "Ġmonument": 5317,
      "Didst": 5318,
      "Ġheirs": 5319,
      "Ġgrowing": 5320,
      "Ġvisage": 5321,
      "Ġtrusty": 5322,
      "Ġinstruction": 5323,
      "Ġinfant": 5324,
      "Ġminute": 5325,
      "Ġforeign": 5326,
      "Ġincen": 5327,
      "Ġfeeling": 5328,
      "Ġburst": 5329,
      "Ġabsolute": 5330,
      "Ġfourteen": 5331,
      "Ġforgive": 5332,
      "Ġplainly": 5333,
      "Ġselfsame": 5334,
      "Ġsatisfy": 5335,
      "Ġservants": 5336,
      "Ġmouths": 5337,
      "Ġfrowns": 5338,
      "Ġredress": 5339,
      "Ġblem": 5340,
      "Ġbridegroom": 5341,
      "Ġbabes": 5342,
      "speak": 5343,
      "Ġgallant": 5344,
      "Ġrebellion": 5345,
      "Ġshadows": 5346,
      "Ġwriting": 5347,
      "Ġfierce": 5348,
      "Ġpleasing": 5349,
      "Ġmodest": 5350,
      "Ġmodesty": 5351,
      "Ġforswear": 5352,
      "Among": 5353,
      "Ġfeather": 5354,
      "banished": 5355,
      "Ġbigger": 5356,
      "Betw": 5357,
      "Ġchaste": 5358,
      "terer": 5359,
      "Ġfairer": 5360,
      "Ġshrewd": 5361,
      "Ġdismal": 5362,
      "Ġacquaint": 5363,
      "Ġprophet": 5364,
      "Ġeagle": 5365,
      "Ġshroud": 5366,
      "Ġflatterer": 5367,
      "Ġsubstit": 5368,
      "othecary": 5369,
      "Ġsteeds": 5370,
      "Remember": 5371,
      "Ġiron": 5372,
      "Ġtorture": 5373,
      "Ġwondrous": 5374,
      "Ġrenowned": 5375,
      "Ġdearest": 5376,
      "Return": 5377,
      "Ġballad": 5378,
      "Ġtrembling": 5379,
      "Ġpenitent": 5380,
      "Ġpolicy": 5381,
      "Ġrepeal": 5382,
      "Ġadversaries": 5383,
      "Ġpurchase": 5384,
      "Commend": 5385,
      "Ġprivilege": 5386,
      "ĠRosaline": 5387,
      "Ġconceal": 5388,
      "ĠConspirator": 5389,
      "Coriolanus": 5390,
      "Ġdowry": 5391,
      "Ġpierce": 5392,
      "Ġstrokes": 5393,
      "Ġsucceed": 5394,
      "ĠMayor": 5395,
      "ĠLaurence": 5396,
      "ĠMariana": 5397,
      "ouchsafe": 5398,
      "ADRIAN": 5399,
      "CLEOMEN": 5400,
      "FROTH": 5401,
      "Ġtrespass": 5402,
      "Ġcivil": 5403,
      "Ġthirty": 5404,
      "ĠItaly": 5405,
      "Ġsepulch": 5406,
      "Ġexercise": 5407,
      "CLEOMENES": 5408,
      "AM": 5409,
      "Aw": 5410,
      "BAR": 5411,
      "CRO": 5412,
      "Courage": 5413,
      "Dare": 5414,
      "EPH": 5415,
      "Fl": 5416,
      "Find": 5417,
      "Get": 5418,
      "Jo": 5419,
      "Mis": 5420,
      "Men": 5421,
      "Mist": 5422,
      "Making": 5423,
      "Methought": 5424,
      "NARD": 5425,
      "Oh": 5426,
      "Petruchio": 5427,
      "RUT": 5428,
      "Sound": 5429,
      "SIR": 5430,
      "Tranio": 5431,
      "UR": 5432,
      "Villain": 5433,
      "WA": 5434,
      "Wit": 5435,
      "aven": 5436,
      "bble": 5437,
      "boy": 5438,
      "cest": 5439,
      "call": 5440,
      "cue": 5441,
      "cap": 5442,
      "ded": 5443,
      "dess": 5444,
      "done": 5445,
      "ders": 5446,
      "duke": 5447,
      "ext": 5448,
      "gy": 5449,
      "got": 5450,
      "great": 5451,
      "iar": 5452,
      "ips": 5453,
      "light": 5454,
      "mas": 5455,
      "made": 5456,
      "nken": 5457,
      "oon": 5458,
      "off": 5459,
      "ped": 5460,
      "phy": 5461,
      "peak": 5462,
      "pardon": 5463,
      "pret": 5464,
      "rity": 5465,
      "ratch": 5466,
      "sire": 5467,
      "tom": 5468,
      "tend": 5469,
      "ug": 5470,
      "vive": 5471,
      "vied": 5472,
      "vided": 5473,
      "war": 5474,
      "xe": 5475,
      "ĠAs": 5476,
      "Ġtou": 5477,
      "Ġtig": 5478,
      "Ġtail": 5479,
      "Ġale": 5480,
      "Ġages": 5481,
      "Ġaxe": 5482,
      "Ġsn": 5483,
      "Ġmain": 5484,
      "Ġmil": 5485,
      "Ġmethought": 5486,
      "inate": 5487,
      "Ġwakes": 5488,
      "reet": 5489,
      "rets": 5490,
      "Ġbon": 5491,
      "Ġbore": 5492,
      "Ġbag": 5493,
      "Ġbrown": 5494,
      "Ġborrow": 5495,
      "ision": 5496,
      "orough": 5497,
      "Ġfr": 5498,
      "Ġfish": 5499,
      "Ġfix": 5500,
      "Ġfreed": 5501,
      "erity": 5502,
      "erily": 5503,
      "ital": 5504,
      "itiff": 5505,
      "Ġdate": 5506,
      "Ġdower": 5507,
      "esu": 5508,
      "enge": 5509,
      "Ġlur": 5510,
      "Ġlance": 5511,
      "Ġlower": 5512,
      "Ġluck": 5513,
      "Ġnar": 5514,
      "Ġnet": 5515,
      "Ġnest": 5516,
      "Ġnice": 5517,
      "Ġnumb": 5518,
      "Ġnupt": 5519,
      "Ġyon": 5520,
      "Ġthirst": 5521,
      "Ġthumb": 5522,
      "arried": 5523,
      "Ġhom": 5524,
      "Ġhind": 5525,
      "Ġhig": 5526,
      "Ġhire": 5527,
      "Ġhoney": 5528,
      "Ġtoy": 5529,
      "Ġtomorrow": 5530,
      "Ġped": 5531,
      "Ġpear": 5532,
      "Ġpath": 5533,
      "Ġpage": 5534,
      "Ġpaint": 5535,
      "ĠIt": 5536,
      "Ġheat": 5537,
      "Ġheels": 5538,
      "owl": 5539,
      "ingers": 5540,
      "Ġgid": 5541,
      "atri": 5542,
      "atest": 5543,
      "Ġbere": 5544,
      "Ġbefall": 5545,
      "sey": 5546,
      "cels": 5547,
      "Ġink": 5548,
      "Ġhare": 5549,
      "Ġhaught": 5550,
      "Ġhabit": 5551,
      "ayed": 5552,
      "Ġnoted": 5553,
      "keley": 5554,
      "Ġweal": 5555,
      "Ġwealth": 5556,
      "oops": 5557,
      "hern": 5558,
      "Ġwithdraw": 5559,
      "rich": 5560,
      "rible": 5561,
      "Ġstale": 5562,
      "Ġstern": 5563,
      "Ġstomach": 5564,
      "order": 5565,
      "rage": 5566,
      "INE": 5567,
      "Ġlivery": 5568,
      "Ġliking": 5569,
      "urrey": 5570,
      "Ġdeaf": 5571,
      "Ġshare": 5572,
      "Ġshapes": 5573,
      "Ġdove": 5574,
      "Ġdogs": 5575,
      "Ġdozen": 5576,
      "Ġwills": 5577,
      "ands": 5578,
      "ushing": 5579,
      "ifts": 5580,
      "Ġsuits": 5581,
      "Ġhers": 5582,
      "ardel": 5583,
      "Ġanointed": 5584,
      "Ġspit": 5585,
      "Ġourself": 5586,
      "Ġshallow": 5587,
      "ĠCounty": 5588,
      "Ġneat": 5589,
      "Ġvent": 5590,
      "Ġshook": 5591,
      "Ġshines": 5592,
      "Ġupright": 5593,
      "Ġgoods": 5594,
      "Ġprime": 5595,
      "Ġconceive": 5596,
      "icate": 5597,
      "icio": 5598,
      "icles": 5599,
      "iege": 5600,
      "ieved": 5601,
      "Ġblast": 5602,
      "emper": 5603,
      "ĠGree": 5604,
      "ola": 5605,
      "olved": 5606,
      "Ġsirs": 5607,
      "ĠLicio": 5608,
      "Ġthereby": 5609,
      "ept": 5610,
      "eping": 5611,
      "Ġswore": 5612,
      "Ġsweat": 5613,
      "Ġorn": 5614,
      "ĠSee": 5615,
      "ĠShore": 5616,
      "ĠSCRO": 5617,
      "ĠOur": 5618,
      "ĠOff": 5619,
      "ĠBr": 5620,
      "ĠBy": 5621,
      "ĠBen": 5622,
      "ĠBur": 5623,
      "Ġarrest": 5624,
      "Ġlets": 5625,
      "Ġunst": 5626,
      "Ġunse": 5627,
      "Ġunfe": 5628,
      "Ġworm": 5629,
      "ĠVaughan": 5630,
      "aker": 5631,
      "ueen": 5632,
      "Ġlikely": 5633,
      "Ġproclam": 5634,
      "Ġsav": 5635,
      "ĠPlease": 5636,
      "ĠPETER": 5637,
      "Ġmadness": 5638,
      "Ġplaces": 5639,
      "ĠWilts": 5640,
      "Ġeng": 5641,
      "unate": 5642,
      "Ġrans": 5643,
      "Ġtrunk": 5644,
      "Ġsomewhat": 5645,
      "orney": 5646,
      "Ġoffices": 5647,
      "harged": 5648,
      "Ġdisgra": 5649,
      "Ġalms": 5650,
      "Ġabuse": 5651,
      "Ġexam": 5652,
      "Ġtelling": 5653,
      "agues": 5654,
      "Ġlooked": 5655,
      "Ġthinking": 5656,
      "Ġwhereon": 5657,
      "Ġflourish": 5658,
      "Whereto": 5659,
      "Ġfearing": 5660,
      "bert": 5661,
      "Ġbreed": 5662,
      "Ġgreatness": 5663,
      "Ġparted": 5664,
      "Ġtroop": 5665,
      "Ġtroops": 5666,
      "Ġpern": 5667,
      "lied": 5668,
      "them": 5669,
      "ainty": 5670,
      "Ġnights": 5671,
      "Ġscatter": 5672,
      "ables": 5673,
      "ĠFare": 5674,
      "Ġappea": 5675,
      "loves": 5676,
      "Ġgraced": 5677,
      "rank": 5678,
      "Ġbegu": 5679,
      "Ġbeget": 5680,
      "Ġchildish": 5681,
      "Ġreply": 5682,
      "Ġconsort": 5683,
      "ercing": 5684,
      "cheth": 5685,
      "ontes": 5686,
      "Ġtrif": 5687,
      "Ġaccident": 5688,
      "Ġprice": 5689,
      "Ġsubd": 5690,
      "Ġbacks": 5691,
      "twill": 5692,
      "Ġforthwith": 5693,
      "Ġbank": 5694,
      "Ġcheap": 5695,
      "Ġcharm": 5696,
      "Ġconfirm": 5697,
      "Ġlightning": 5698,
      "Ġroyalty": 5699,
      "Does": 5700,
      "posed": 5701,
      "Ġbesides": 5702,
      "Ġhappily": 5703,
      "ĠAnne": 5704,
      "mbers": 5705,
      "Ġsorrows": 5706,
      "Ġcareful": 5707,
      "Ġlesser": 5708,
      "Ġmeeting": 5709,
      "Ġfalls": 5710,
      "Ġstrive": 5711,
      "Ġsleeping": 5712,
      "Ġboast": 5713,
      "Ġdrag": 5714,
      "Ġserp": 5715,
      "pense": 5716,
      "Ġdiscourse": 5717,
      "Ġbreathing": 5718,
      "Ġsenseless": 5719,
      "Ġbeaut": 5720,
      "Ġhangs": 5721,
      "hamed": 5722,
      "Ġcraves": 5723,
      "Ġdepend": 5724,
      "Ġgrew": 5725,
      "Ġspoil": 5726,
      "gues": 5727,
      "Ġdrunken": 5728,
      "Ġlambs": 5729,
      "Ġbeats": 5730,
      "IDAM": 5731,
      "Ġaffords": 5732,
      "Ġsights": 5733,
      "Ġmetal": 5734,
      "acles": 5735,
      "Ġsadness": 5736,
      "Ġmonster": 5737,
      "Ġmonarch": 5738,
      "Ġsuffic": 5739,
      "Ġboldly": 5740,
      "Ġstronger": 5741,
      "Ġexecute": 5742,
      "Ġexecuted": 5743,
      "Ġcarried": 5744,
      "Ġvel": 5745,
      "Ġpraises": 5746,
      "Ġcoronation": 5747,
      "Ġwaves": 5748,
      "Ġburnt": 5749,
      "Ġliberal": 5750,
      "Ġblessing": 5751,
      "Ġburns": 5752,
      "Ġburning": 5753,
      "Ġdirection": 5754,
      "Ġproport": 5755,
      "Ġbleeding": 5756,
      "Ġestim": 5757,
      "Ġsacrif": 5758,
      "Ġjoints": 5759,
      "Ġbitterly": 5760,
      "Ġlimit": 5761,
      "Ġlimbs": 5762,
      "scalus": 5763,
      "Ġcaitiff": 5764,
      "Ġviolence": 5765,
      "Ġtriumphant": 5766,
      "Ġsuccession": 5767,
      "Ġactions": 5768,
      "Ġmidnight": 5769,
      "Ġcaps": 5770,
      "Ġrebels": 5771,
      "umbling": 5772,
      "Ġpossession": 5773,
      "Play": 5774,
      "Ġexecutioner": 5775,
      "Ġtorch": 5776,
      "Ġpitiful": 5777,
      "Ġinjury": 5778,
      "Ġurge": 5779,
      "March": 5780,
      "Marcius": 5781,
      "Ġmeddle": 5782,
      "Ġoccup": 5783,
      "Ġuncles": 5784,
      "Ġignorance": 5785,
      "Ġnobility": 5786,
      "Ġchurchyard": 5787,
      "Ġsaints": 5788,
      "Ġrefuse": 5789,
      "headed": 5790,
      "ĠCaesar": 5791,
      "Ġrank": 5792,
      "Ġguests": 5793,
      "Ġunfold": 5794,
      "Ġdetermine": 5795,
      "where": 5796,
      "Ġhungry": 5797,
      "ĠWilliam": 5798,
      "Ġmonths": 5799,
      "Ġextremity": 5800,
      "Ġbirds": 5801,
      "Ġinclined": 5802,
      "Ġcovert": 5803,
      "Ġprevented": 5804,
      "Ġtyrann": 5805,
      "Ġescape": 5806,
      "Ġwager": 5807,
      "Ġstatue": 5808,
      "Ġnecessity": 5809,
      "Ġsubstance": 5810,
      "Ġsenses": 5811,
      "Ġweapon": 5812,
      "Ġsteps": 5813,
      "Ġangel": 5814,
      "Ġconjure": 5815,
      "Ġthreatening": 5816,
      "Ġwolf": 5817,
      "Ġcensure": 5818,
      "ARCHIDAM": 5819,
      "ĠDido": 5820,
      "Ġmoral": 5821,
      "chief": 5822,
      "ĠElbow": 5823,
      "ĠSTEPH": 5824,
      "Ġapprehend": 5825,
      "Ġimmortal": 5826,
      "Ġtapster": 5827,
      "ribunes": 5828,
      "ĠBerkeley": 5829,
      "Ġjewel": 5830,
      "Ġruthless": 5831,
      "Ġdispersed": 5832,
      "Ġclamour": 5833,
      "Ġrapier": 5834,
      "Ġcompanion": 5835,
      "Strike": 5836,
      "Ġopposite": 5837,
      "Ġzeal": 5838,
      "Ġcherish": 5839,
      "Ġstretch": 5840,
      "Ġrejoice": 5841,
      "ambio": 5842,
      "Ġspleen": 5843,
      "Ġcharacter": 5844,
      "Ġprettiest": 5845,
      "Ġchallenge": 5846,
      "Ġpeevish": 5847,
      "Ġlikeness": 5848,
      "ĠLartius": 5849,
      "ĠPerdita": 5850,
      "Ġofficers": 5851,
      "Ġcommonwealth": 5852,
      "Ġsepulchre": 5853,
      "BARNARD": 5854,
      "RUTLAND": 5855,
      "Ġnuptial": 5856,
      "Ġgiddy": 5857,
      "ĠSCROOP": 5858,
      "ĠOfficer": 5859,
      "ĠWiltshire": 5860,
      "ARCHIDAMUS": 5861,
      "ĠSTEPHEN": 5862,
      "BARNARDINE": 5863,
      "Af": 5864,
      "Add": 5865,
      "Bre": 5866,
      "Bra": 5867,
      "BAN": 5868,
      "Ca": 5869,
      "Camillo": 5870,
      "Content": 5871,
      "Div": 5872,
      "Ever": 5873,
      "Eng": 5874,
      "Else": 5875,
      "Full": 5876,
      "Follow": 5877,
      "False": 5878,
      "GO": 5879,
      "Ga": 5880,
      "Gard": 5881,
      "Gentleman": 5882,
      "Ho": 5883,
      "Hic": 5884,
      "Henry": 5885,
      "Hortensio": 5886,
      "Lu": 5887,
      "Live": 5888,
      "MOR": 5889,
      "Much": 5890,
      "Name": 5891,
      "Old": 5892,
      "Patience": 5893,
      "Persu": 5894,
      "Saw": 5895,
      "Six": 5896,
      "TON": 5897,
      "Toward": 5898,
      "TMOR": 5899,
      "Virt": 5900,
      "Wr": 5901,
      "WES": 5902,
      "Women": 5903,
      "Yield": 5904,
      "ZWA": 5905,
      "ald": 5906,
      "back": 5907,
      "cor": 5908,
      "cus": 5909,
      "cont": 5910,
      "cons": 5911,
      "dal": 5912,
      "fri": 5913,
      "gn": 5914,
      "gged": 5915,
      "horse": 5916,
      "iban": 5917,
      "lor": 5918,
      "low": 5919,
      "lain": 5920,
      "may": 5921,
      "nel": 5922,
      "pray": 5923,
      "sen": 5924,
      "shi": 5925,
      "wd": 5926,
      "wer": 5927,
      "wing": 5928,
      "was": 5929,
      "women": 5930,
      "water": 5931,
      "zed": 5932,
      "Ġice": 5933,
      "Ġought": 5934,
      "ĠThy": 5935,
      "Ġeter": 5936,
      "Ġtard": 5937,
      "Ġtack": 5938,
      "Ġtree": 5939,
      "Ġtren": 5940,
      "Ġtired": 5941,
      "Ġtakest": 5942,
      "hen": 5943,
      "Ġah": 5944,
      "Ġaud": 5945,
      "Ġaged": 5946,
      "oured": 5947,
      "Ġsed": 5948,
      "Ġsess": 5949,
      "Ġsau": 5950,
      "Ġsings": 5951,
      "Ġsought": 5952,
      "Ġsurp": 5953,
      "Ġsilly": 5954,
      "Ġmas": 5955,
      "Ġmould": 5956,
      "iners": 5957,
      "Ġwet": 5958,
      "Ġwave": 5959,
      "Ġwaked": 5960,
      "reant": 5961,
      "habit": 5962,
      "ndy": 5963,
      "Ġbay": 5964,
      "Ġbill": 5965,
      "Ġbent": 5966,
      "Ġbru": 5967,
      "Ġbol": 5968,
      "Ġbalm": 5969,
      "ishes": 5970,
      "isement": 5971,
      "orth": 5972,
      "oriz": 5973,
      "Ġfin": 5974,
      "Ġfant": 5975,
      "Ġfret": 5976,
      "Ġfray": 5977,
      "Ġfever": 5978,
      "Ġfelt": 5979,
      "Ġfardel": 5980,
      "itch": 5981,
      "oned": 5982,
      "onus": 5983,
      "onstant": 5984,
      "Ġcat": 5985,
      "Ġcent": 5986,
      "Ġcook": 5987,
      "Ġlour": 5988,
      "Ġlun": 5989,
      "Ġnigh": 5990,
      "Ġomit": 5991,
      "Ġtops": 5992,
      "Ġpor": 5993,
      "Ġpill": 5994,
      "Ġpent": 5995,
      "Ġphi": 5996,
      "Ġpick": 5997,
      "Ġpace": 5998,
      "Ġpaid": 5999,
      "Ġpush": 6000,
      "Ġpalm": 6001,
      "Ġpomp": 6002,
      "ĠIn": 6003,
      "Ġhera": 6004,
      "Ġheight": 6005,
      "ann": 6006,
      "omes": 6007,
      "Ġgn": 6008,
      "Ġgap": 6009,
      "Ġgains": 6010,
      "Ġgoose": 6011,
      "Ġgifts": 6012,
      "athe": 6013,
      "athed": 6014,
      "Ġbell": 6015,
      "Ġbeams": 6016,
      "see": 6017,
      "seem": 6018,
      "Ġinv": 6019,
      "Ġhail": 6020,
      "iring": 6021,
      "ednes": 6022,
      "uts": 6023,
      "utch": 6024,
      "Ġmew": 6025,
      "Ġmembers": 6026,
      "Ġforty": 6027,
      "Ġweek": 6028,
      "ently": 6029,
      "riel": 6030,
      "Ġstead": 6031,
      "Ġhist": 6032,
      "Ġrend": 6033,
      "Ġrear": 6034,
      "Ġreach": 6035,
      "Ġrevel": 6036,
      "raid": 6037,
      "Ġlions": 6038,
      "Ġlikes": 6039,
      "Ġlivest": 6040,
      "urb": 6041,
      "urgh": 6042,
      "urtis": 6043,
      "alter": 6044,
      "Ġsoil": 6045,
      "Ġsoci": 6046,
      "Ġaspect": 6047,
      "Ġashamed": 6048,
      "Ġdem": 6049,
      "rog": 6050,
      "ARLIS": 6051,
      "verty": 6052,
      "Ġsevere": 6053,
      "Ġseated": 6054,
      "Thine": 6055,
      "Things": 6056,
      "Ġalleg": 6057,
      "three": 6058,
      "Ġherd": 6059,
      "tering": 6060,
      "Ġanch": 6061,
      "Ġload": 6062,
      "Ġlock": 6063,
      "Ġlovers": 6064,
      "ellows": 6065,
      "Ġspot": 6066,
      "Ġspread": 6067,
      "Ġfavours": 6068,
      "ilful": 6069,
      "iliar": 6070,
      "ĠCurtis": 6071,
      "ĠCARLIS": 6072,
      "ĠRatcliff": 6073,
      "ĠRaven": 6074,
      "Ġvast": 6075,
      "ORGE": 6076,
      "Ġshru": 6077,
      "arted": 6078,
      "ĠMistress": 6079,
      "Ġamain": 6080,
      "Ġamends": 6081,
      "Ġambit": 6082,
      "Ġamorous": 6083,
      "ĠEm": 6084,
      "ĠEly": 6085,
      "ĠELY": 6086,
      "ĠEscalus": 6087,
      "Ġconsequ": 6088,
      "Ġconcer": 6089,
      "icle": 6090,
      "iece": 6091,
      "Ġblot": 6092,
      "arers": 6093,
      "ĠGreen": 6094,
      "Ġshel": 6095,
      "ĠLook": 6096,
      "Ġknowing": 6097,
      "resh": 6098,
      "Ġswears": 6099,
      "Ġbrat": 6100,
      "ĠSc": 6101,
      "ĠShall": 6102,
      "ĠSurrey": 6103,
      "ĠBushy": 6104,
      "Ġgoss": 6105,
      "Ġune": 6106,
      "Ġunm": 6107,
      "Ġunre": 6108,
      "igent": 6109,
      "igonus": 6110,
      "ĠHim": 6111,
      "ĠHark": 6112,
      "ĠHuntsman": 6113,
      "elsh": 6114,
      "eliver": 6115,
      "LIBAN": 6116,
      "Ġgrain": 6117,
      "Ġlikewise": 6118,
      "Ġproved": 6119,
      "Ġprocess": 6120,
      "Ġprodig": 6121,
      "umed": 6122,
      "ĠWas": 6123,
      "ĠWould": 6124,
      "ĠWelsh": 6125,
      "isting": 6126,
      "Ġenc": 6127,
      "uns": 6128,
      "Ġpoverty": 6129,
      "Ġrate": 6130,
      "Ġrouse": 6131,
      "Ġspeaking": 6132,
      "Ġoutrage": 6133,
      "ption": 6134,
      "ELAND": 6135,
      "ickle": 6136,
      "CALIBAN": 6137,
      "Withdraw": 6138,
      "igned": 6139,
      "Ġmars": 6140,
      "Ġmarvel": 6141,
      "Ġmarvell": 6142,
      "Ġdisin": 6143,
      "Ġdisease": 6144,
      "Ġabund": 6145,
      "Ġexceed": 6146,
      "Ġexcept": 6147,
      "agot": 6148,
      "aged": 6149,
      "Ġdesc": 6150,
      "Ġriches": 6151,
      "Whereof": 6152,
      "Ġslight": 6153,
      "Ġslipp": 6154,
      "Ġbetide": 6155,
      "ĠTew": 6156,
      "Behold": 6157,
      "Ġbread": 6158,
      "Ġcouple": 6159,
      "Ġparties": 6160,
      "Ġpartner": 6161,
      "idered": 6162,
      "Ġprefer": 6163,
      "Ġclock": 6164,
      "Ġsweetly": 6165,
      "ulls": 6166,
      "Ġwritten": 6167,
      "these": 6168,
      "Ġpresume": 6169,
      "Ġworldly": 6170,
      "Ġscratch": 6171,
      "perience": 6172,
      "Ġmoves": 6173,
      "Thank": 6174,
      "Ġrack": 6175,
      "Ġraven": 6176,
      "ably": 6177,
      "ĠFIT": 6178,
      "Ġdownright": 6179,
      "Ġcontro": 6180,
      "loso": 6181,
      "ranch": 6182,
      "BAGO": 6183,
      "Ġimper": 6184,
      "Ġreputation": 6185,
      "Ġafraid": 6186,
      "Ġstays": 6187,
      "Ġmightst": 6188,
      "Ġrue": 6189,
      "Ġleg": 6190,
      "Ġlect": 6191,
      "Ġlewd": 6192,
      "Ġrestore": 6193,
      "Ġentrance": 6194,
      "Ġtricks": 6195,
      "Ġbestow": 6196,
      "Ġpurge": 6197,
      "Ġpurple": 6198,
      "Ġended": 6199,
      "Ġcompare": 6200,
      "Prove": 6201,
      "Proceed": 6202,
      "Proclaim": 6203,
      "Ġcop": 6204,
      "Ġcoll": 6205,
      "Ġputting": 6206,
      "Ġsmil": 6207,
      "Ġsmother": 6208,
      "Ġdrew": 6209,
      "Ġearthly": 6210,
      "Ġtrain": 6211,
      "Ġtravell": 6212,
      "Ġbidding": 6213,
      "Ġcouldst": 6214,
      "Ġhopeful": 6215,
      "Ġbrains": 6216,
      "GEORGE": 6217,
      "Ġcheque": 6218,
      "being": 6219,
      "Ġbridal": 6220,
      "Ġconfound": 6221,
      "Ġmisfortune": 6222,
      "Ġlanded": 6223,
      "Ġgoddess": 6224,
      "Another": 6225,
      "Ġbusy": 6226,
      "Ġfalcon": 6227,
      "Ġstrict": 6228,
      "Ġcounsell": 6229,
      "Ġbuzz": 6230,
      "Ġretired": 6231,
      "Ġcourtier": 6232,
      "Ġcourteous": 6233,
      "erest": 6234,
      "Ġattain": 6235,
      "Ġattorney": 6236,
      "Ġsounds": 6237,
      "Ġsounded": 6238,
      "Ġadvised": 6239,
      "Ġrevenges": 6240,
      "Although": 6241,
      "Ġstraw": 6242,
      "Ġcommands": 6243,
      "Ġprompt": 6244,
      "Ġcram": 6245,
      "Ġvillains": 6246,
      "Ġcontents": 6247,
      "Ġinteg": 6248,
      "Ġkisses": 6249,
      "aptain": 6250,
      "Ġyields": 6251,
      "Ġobsequ": 6252,
      "guard": 6253,
      "gundy": 6254,
      "upid": 6255,
      "Ġwinters": 6256,
      "Ġbeaten": 6257,
      "acy": 6258,
      "Ġsooner": 6259,
      "ventry": 6260,
      "venture": 6261,
      "blood": 6262,
      "Ġchose": 6263,
      "Ġchosen": 6264,
      "Hadst": 6265,
      "Ġdevilish": 6266,
      "Ġboldness": 6267,
      "unday": 6268,
      "Ġinfer": 6269,
      "Becomes": 6270,
      "Ġwooing": 6271,
      "Ġreadiness": 6272,
      "Ġprofane": 6273,
      "Comes": 6274,
      "Comfort": 6275,
      "Ġdivor": 6276,
      "Ġyouthful": 6277,
      "Ġterm": 6278,
      "Ġstops": 6279,
      "Ġdroop": 6280,
      "Ġcloudy": 6281,
      "chers": 6282,
      "Ġmusicians": 6283,
      "Ġwax": 6284,
      "Ġgrieves": 6285,
      "Ġgrieved": 6286,
      "Ġskill": 6287,
      "Ġsignal": 6288,
      "Ġsignify": 6289,
      "Ġcheerly": 6290,
      "Ġsatisfaction": 6291,
      "Swear": 6292,
      "Ġcrim": 6293,
      "Ġprophes": 6294,
      "Ġextreme": 6295,
      "Ġtroubl": 6296,
      "overn": 6297,
      "Ġdarkness": 6298,
      "Ġtowns": 6299,
      "Ġexped": 6300,
      "Ġflattering": 6301,
      "Ġbowels": 6302,
      "Ġembra": 6303,
      "Ġesteem": 6304,
      "Ġfrail": 6305,
      "Ġcowardly": 6306,
      "Ġhurl": 6307,
      "spurgh": 6308,
      "Ġlamentable": 6309,
      "Ġeaten": 6310,
      "Ġkinsmen": 6311,
      "Ġmiddle": 6312,
      "Ġdestruction": 6313,
      "Ġdeparture": 6314,
      "Plantagenet": 6315,
      "Ġfondly": 6316,
      "Ġinsol": 6317,
      "Ġusurping": 6318,
      "Ġapace": 6319,
      "Ġshop": 6320,
      "Ġshoes": 6321,
      "Ġmildness": 6322,
      "Ġgladly": 6323,
      "mediate": 6324,
      "volio": 6325,
      "Ġships": 6326,
      "Ġtreasons": 6327,
      "Ġcondemned": 6328,
      "Above": 6329,
      "Ġlists": 6330,
      "Ġpetty": 6331,
      "Ġstorms": 6332,
      "Ġtemples": 6333,
      "Ġmutinous": 6334,
      "Ġgrandam": 6335,
      "Ġgrandsire": 6336,
      "Ġeldest": 6337,
      "Ġconquest": 6338,
      "ĠAntigonus": 6339,
      "Disp": 6340,
      "EXTON": 6341,
      "Ġbastards": 6342,
      "Ġhelps": 6343,
      "Ġamongst": 6344,
      "Ġprovide": 6345,
      "Ġthieves": 6346,
      "Ġgreeting": 6347,
      "Ġministers": 6348,
      "Neither": 6349,
      "rateful": 6350,
      "Ġconclud": 6351,
      "Ġconclude": 6352,
      "Ġdismiss": 6353,
      "Officer": 6354,
      "Ġimagine": 6355,
      "Ġacquainted": 6356,
      "Ġghostly": 6357,
      "Ġbehavior": 6358,
      "join": 6359,
      "Ġeleven": 6360,
      "Ġdesigns": 6361,
      "Ġtempted": 6362,
      "Ġshrift": 6363,
      "Ġheavier": 6364,
      "Perhaps": 6365,
      "Ġerrand": 6366,
      "Ġwandering": 6367,
      "Ġbands": 6368,
      "Ġdetest": 6369,
      "Ġweapons": 6370,
      "Ġvanity": 6371,
      "Ġrobes": 6372,
      "Ġtransport": 6373,
      "Ġaccusation": 6374,
      "Shalt": 6375,
      "Ġbottom": 6376,
      "ĠCaliban": 6377,
      "Ġcompassion": 6378,
      "Ġpersuade": 6379,
      "Ġdiscontented": 6380,
      "Appear": 6381,
      "iveness": 6382,
      "Ġtestim": 6383,
      "Ġfrost": 6384,
      "Ġhazard": 6385,
      "ĠBlunt": 6386,
      "Ġprovoked": 6387,
      "Ġadverse": 6388,
      "Ġkeys": 6389,
      "Ġfigure": 6390,
      "Ġfurnish": 6391,
      "Ġrecompense": 6392,
      "Ġrevolt": 6393,
      "ĠCoventry": 6394,
      "Ġintelligence": 6395,
      "Ġtaunts": 6396,
      "Ġfiend": 6397,
      "Ġceremon": 6398,
      "advised": 6399,
      "Ġreckon": 6400,
      "ĠLeontes": 6401,
      "Ġreconcile": 6402,
      "Ġunkindness": 6403,
      "Ġpilgrimage": 6404,
      "Ġparents": 6405,
      "Ġseized": 6406,
      "Ġneglect": 6407,
      "ĠMinola": 6408,
      "ĠVenice": 6409,
      "Ġwarriors": 6410,
      "Ġblemish": 6411,
      "Ġfreedom": 6412,
      "Ġnarrow": 6413,
      "ĠBurgundy": 6414,
      "Ġproclamation": 6415,
      "Ġsavage": 6416,
      "Ġransom": 6417,
      "Ġexample": 6418,
      "Ġpernicious": 6419,
      "Ġvelvet": 6420,
      "Ġproportion": 6421,
      "Ġtyrannous": 6422,
      "Gaoler": 6423,
      "Gardener": 6424,
      "Lucentio": 6425,
      "Towards": 6426,
      "TMORELAND": 6427,
      "WESTMORELAND": 6428,
      "ZWATER": 6429,
      "Ġphiloso": 6430,
      "Ġherald": 6431,
      "ednesday": 6432,
      "Ġallegiance": 6433,
      "ĠCARLISLE": 6434,
      "ĠRavenspurgh": 6435,
      "Ġambitious": 6436,
      "ĠFITZWATER": 6437,
      "BAGOT": 6438,
      "Ġintegrity": 6439,
      "Ġphilosophy": 6440,
      "Ac": 6441,
      "Bound": 6442,
      "Cont": 6443,
      "Catesby": 6444,
      "Dep": 6445,
      "Fore": 6446,
      "Five": 6447,
      "Fall": 6448,
      "Foul": 6449,
      "Fetch": 6450,
      "Gra": 6451,
      "Gives": 6452,
      "Grace": 6453,
      "Hie": 6454,
      "Harry": 6455,
      "Hang": 6456,
      "Justice": 6457,
      "Kind": 6458,
      "Lies": 6459,
      "Lead": 6460,
      "Mur": 6461,
      "Part": 6462,
      "Peter": 6463,
      "Purs": 6464,
      "Rel": 6465,
      "Sit": 6466,
      "Send": 6467,
      "Ten": 6468,
      "Tra": 6469,
      "Talk": 6470,
      "Touch": 6471,
      "Teach": 6472,
      "Truly": 6473,
      "Ur": 6474,
      "Vouchsafe": 6475,
      "Verily": 6476,
      "Wert": 6477,
      "Zounds": 6478,
      "av": 6479,
      "ape": 6480,
      "aving": 6481,
      "bes": 6482,
      "bour": 6483,
      "bell": 6484,
      "board": 6485,
      "cat": 6486,
      "cond": 6487,
      "cock": 6488,
      "dist": 6489,
      "down": 6490,
      "daughter": 6491,
      "eves": 6492,
      "fend": 6493,
      "fts": 6494,
      "gly": 6495,
      "gic": 6496,
      "hors": 6497,
      "ipe": 6498,
      "ipt": 6499,
      "kn": 6500,
      "kest": 6501,
      "know": 6502,
      "len": 6503,
      "last": 6504,
      "lance": 6505,
      "lace": 6506,
      "liness": 6507,
      "longs": 6508,
      "met": 6509,
      "mour": 6510,
      "much": 6511,
      "miss": 6512,
      "mistress": 6513,
      "ob": 6514,
      "oble": 6515,
      "open": 6516,
      "post": 6517,
      "pite": 6518,
      "pular": 6519,
      "pothecary": 6520,
      "rish": 6521,
      "roof": 6522,
      "sent": 6523,
      "sion": 6524,
      "serv": 6525,
      "tin": 6526,
      "tell": 6527,
      "tong": 6528,
      "tied": 6529,
      "trees": 6530,
      "uc": 6531,
      "uge": 6532,
      "uiv": 6533,
      "uild": 6534,
      "ually": 6535,
      "vir": 6536,
      "wh": 6537,
      "weet": 6538,
      "work": 6539,
      "were": 6540,
      "ycor": 6541,
      "ĠFirst": 6542,
      "Ġtrow": 6543,
      "Ġtie": 6544,
      "Ġtorn": 6545,
      "Ġtied": 6546,
      "Ġtaking": 6547,
      "heard": 6548,
      "Ġach": 6549,
      "Ġafe": 6550,
      "Ġsow": 6551,
      "Ġsong": 6552,
      "Ġsides": 6553,
      "Ġsixt": 6554,
      "Ġmom": 6555,
      "Ġmouse": 6556,
      "Ġmates": 6557,
      "Ġmurde": 6558,
      "Ġmask": 6559,
      "inu": 6560,
      "inal": 6561,
      "inies": 6562,
      "inces": 6563,
      "Ġwore": 6564,
      "had": 6565,
      "hage": 6566,
      "Ġbul": 6567,
      "Ġbows": 6568,
      "Ġbail": 6569,
      "Ġbounty": 6570,
      "Ġfre": 6571,
      "Ġfif": 6572,
      "Ġfil": 6573,
      "Ġfol": 6574,
      "Ġfrant": 6575,
      "Ġfount": 6576,
      "Ġfift": 6577,
      "Ġfingers": 6578,
      "Ġfrank": 6579,
      "eries": 6580,
      "Ġdot": 6581,
      "Ġded": 6582,
      "Ġdine": 6583,
      "Ġdried": 6584,
      "Ġdined": 6585,
      "Ġdash": 6586,
      "Ġdiest": 6587,
      "Ġcord": 6588,
      "Ġcro": 6589,
      "Ġcand": 6590,
      "Ġcab": 6591,
      "Ġcool": 6592,
      "Ġcrows": 6593,
      "Ġcords": 6594,
      "ening": 6595,
      "enches": 6596,
      "Ġla": 6597,
      "Ġlute": 6598,
      "Ġlads": 6599,
      "Ġlying": 6600,
      "Ġnort": 6601,
      "Ġnamed": 6602,
      "Ġnimble": 6603,
      "Ġthw": 6604,
      "Ġthrown": 6605,
      "Ġtoken": 6606,
      "Ġpow": 6607,
      "Ġpour": 6608,
      "Ġpest": 6609,
      "Ġpru": 6610,
      "Ġpant": 6611,
      "Ġpup": 6612,
      "Ġpict": 6613,
      "Ġheel": 6614,
      "otland": 6615,
      "stra": 6616,
      "strong": 6617,
      "ompl": 6618,
      "Ġgust": 6619,
      "Ġgather": 6620,
      "Ġgaunt": 6621,
      "att": 6622,
      "Ġbeef": 6623,
      "Ġinward": 6624,
      "Ġhag": 6625,
      "Ġhalt": 6626,
      "Ġhaunt": 6627,
      "aying": 6628,
      "etition": 6629,
      "iments": 6630,
      "Ġmeed": 6631,
      "Ġmeal": 6632,
      "Ġnotice": 6633,
      "ourn": 6634,
      "Ġwears": 6635,
      "Ġeight": 6636,
      "Ġeff": 6637,
      "enting": 6638,
      "ado": 6639,
      "adventure": 6640,
      "ril": 6641,
      "rial": 6642,
      "Ġstem": 6643,
      "Ġstink": 6644,
      "Ġstag": 6645,
      "Ġsteep": 6646,
      "Ġstiff": 6647,
      "Ġkites": 6648,
      "asant": 6649,
      "iders": 6650,
      "Ġrein": 6651,
      "Ġresemb": 6652,
      "Ġrevive": 6653,
      "rament": 6654,
      "Ġlick": 6655,
      "Ġlief": 6656,
      "uring": 6657,
      "alks": 6658,
      "Ġashes": 6659,
      "Ġdeer": 6660,
      "Ġdece": 6661,
      "Ġdeform": 6662,
      "roach": 6663,
      "ainst": 6664,
      "Ġshade": 6665,
      "Ġdole": 6666,
      "amy": 6667,
      "amity": 6668,
      "aments": 6669,
      "Ġnod": 6670,
      "Ġnoon": 6671,
      "anders": 6672,
      "ushi": 6673,
      "Ġbutt": 6674,
      "Ġsearch": 6675,
      "Throw": 6676,
      "Ġann": 6677,
      "Ġansw": 6678,
      "Ġancest": 6679,
      "Ġlodge": 6680,
      "Ġloathed": 6681,
      "ella": 6682,
      "Ġspark": 6683,
      "Ġspurs": 6684,
      "Ġspider": 6685,
      "ĠCambio": 6686,
      "ĠCupid": 6687,
      "Ġvul": 6688,
      "Ġvouch": 6689,
      "cts": 6690,
      "ctor": 6691,
      "ousins": 6692,
      "Ġwhatsoever": 6693,
      "Ġshot": 6694,
      "Ġshown": 6695,
      "ules": 6696,
      "antime": 6697,
      "arthage": 6698,
      "Ġprate": 6699,
      "Ġprating": 6700,
      "Ġmanhood": 6701,
      "Ġamaz": 6702,
      "ĠEven": 6703,
      "Ġconc": 6704,
      "ication": 6705,
      "Ġblue": 6706,
      "Ġblown": 6707,
      "Ġbliss": 6708,
      "Ġblaze": 6709,
      "Ġblushing": 6710,
      "ived": 6711,
      "ively": 6712,
      "embroke": 6713,
      "Ġtheme": 6714,
      "olve": 6715,
      "ĠLove": 6716,
      "Ġthereto": 6717,
      "Ġcanop": 6718,
      "eptune": 6719,
      "Ġherein": 6720,
      "Ġswoon": 6721,
      "Ġbranch": 6722,
      "Ġorator": 6723,
      "ĠSly": 6724,
      "ĠSunday": 6725,
      "ĠSycor": 6726,
      "Ġusure": 6727,
      "ĠBagot": 6728,
      "Ġarise": 6729,
      "Ġarray": 6730,
      "Ġunlike": 6731,
      "Ġunpro": 6732,
      "Ġunruly": 6733,
      "Ġworser": 6734,
      "ĠHave": 6735,
      "Ġmustard": 6736,
      "Ġgraces": 6737,
      "Ġhoar": 6738,
      "Ġlikeli": 6739,
      "Ġseeks": 6740,
      "Ġsap": 6741,
      "Ġsack": 6742,
      "Ġsaved": 6743,
      "ĠPoor": 6744,
      "Ġplan": 6745,
      "peian": 6746,
      "ĠWest": 6747,
      "ĠWednesday": 6748,
      "Ġenforced": 6749,
      "Ġenrich": 6750,
      "fulness": 6751,
      "unis": 6752,
      "uned": 6753,
      "Ġpock": 6754,
      "Ġpopular": 6755,
      "death": 6756,
      "Ġrhe": 6757,
      "Ġranc": 6758,
      "Ġrush": 6759,
      "Ġroof": 6760,
      "Ġrushes": 6761,
      "Ġoffences": 6762,
      "Ġdiso": 6763,
      "Ġdissemb": 6764,
      "Ġalar": 6765,
      "Ġaloud": 6766,
      "Ġalso": 6767,
      "Ġheap": 6768,
      "ABRA": 6769,
      "Ġbrotherhood": 6770,
      "Ġfox": 6771,
      "Ġroses": 6772,
      "Ġroaring": 6773,
      "Ġrig": 6774,
      "Ġleap": 6775,
      "Ġleaving": 6776,
      "Ġflock": 6777,
      "Ġslily": 6778,
      "ĠTime": 6779,
      "ĠTroy": 6780,
      "ĠTribunes": 6781,
      "ĠKent": 6782,
      "Ġcommends": 6783,
      "Ġcler": 6784,
      "Ġnobleman": 6785,
      "Ġsweetest": 6786,
      "awful": 6787,
      "Ġtrim": 6788,
      "Ġperfection": 6789,
      "Ġplebe": 6790,
      "ĠDian": 6791,
      "Ġwring": 6792,
      "Ġotherwise": 6793,
      "lier": 6794,
      "their": 6795,
      "Ġmeaner": 6796,
      "Ġnighting": 6797,
      "together": 6798,
      "Ġpreserve": 6799,
      "Ġscore": 6800,
      "Ġmoe": 6801,
      "Ġmoving": 6802,
      "Ġmoiety": 6803,
      "Ġrace": 6804,
      "ĠFourth": 6805,
      "Ġdownfall": 6806,
      "GREY": 6807,
      "Ġappears": 6808,
      "Ġappoint": 6809,
      "Ġwhist": 6810,
      "Ġcontri": 6811,
      "sweet": 6812,
      "Northumberland": 6813,
      "Ġmothers": 6814,
      "Ġeverlast": 6815,
      "ksbury": 6816,
      "ĠJup": 6817,
      "Ġcourts": 6818,
      "Ġpeer": 6819,
      "Ġlevel": 6820,
      "Ġharl": 6821,
      "Ġharvest": 6822,
      "Ġharbour": 6823,
      "Ġrests": 6824,
      "Ġsettled": 6825,
      "attern": 6826,
      "oses": 6827,
      "Ġfaced": 6828,
      "Ġhenceforth": 6829,
      "Ġbestri": 6830,
      "Ġaccomp": 6831,
      "Ġendured": 6832,
      "Ġcompound": 6833,
      "Thyself": 6834,
      "Ġcoat": 6835,
      "Ġcoast": 6836,
      "Ġcozen": 6837,
      "Ġchamp": 6838,
      "Ġdearth": 6839,
      "inted": 6840,
      "twould": 6841,
      "Ġbrand": 6842,
      "Ġhomely": 6843,
      "isterous": 6844,
      "Ġcharges": 6845,
      "Ġconfidence": 6846,
      "Ġconfeder": 6847,
      "Ġtrees": 6848,
      "Ġchances": 6849,
      "Ġchanging": 6850,
      "Ġimpeach": 6851,
      "Ġlights": 6852,
      "Ġroyalties": 6853,
      "Ġlasting": 6854,
      "ulting": 6855,
      "Ġbeside": 6856,
      "Ġmisc": 6857,
      "Ġmischief": 6858,
      "Ġdevour": 6859,
      "Ġwronged": 6860,
      "Ġfully": 6861,
      "Ġafterward": 6862,
      "Ġholding": 6863,
      "Ġpatron": 6864,
      "Ġfallen": 6865,
      "Ġfalling": 6866,
      "Ġstrife": 6867,
      "Ġhumility": 6868,
      "Ġtalking": 6869,
      "Ġbelong": 6870,
      "Ġbelieved": 6871,
      "Ġboisterous": 6872,
      "Ġgrim": 6873,
      "Ġgrass": 6874,
      "Ġdram": 6875,
      "Ġserious": 6876,
      "Ġmerchant": 6877,
      "Ġrevenue": 6878,
      "Ġdancing": 6879,
      "Ġpersons": 6880,
      "Ġstrait": 6881,
      "Ġstrang": 6882,
      "Ġdischarge": 6883,
      "Ġdoubtful": 6884,
      "Attend": 6885,
      "ittany": 6886,
      "Ġwindow": 6887,
      "Ġhangman": 6888,
      "Ġcraft": 6889,
      "Ġproudest": 6890,
      "Twixt": 6891,
      "Ġintents": 6892,
      "Ġmerri": 6893,
      "Ġyielding": 6894,
      "Ġobsc": 6895,
      "Ġbreaks": 6896,
      "Ġtemple": 6897,
      "Ġlately": 6898,
      "Ġrequire": 6899,
      "Ġvalue": 6900,
      "Ġdefy": 6901,
      "Ġtenderness": 6902,
      "sooth": 6903,
      "Ġsadly": 6904,
      "shine": 6905,
      "Ġgrowth": 6906,
      "Ġwatery": 6907,
      "Ġasking": 6908,
      "ĠMontagues": 6909,
      "Ġreported": 6910,
      "Ġcrying": 6911,
      "Ġlearning": 6912,
      "Ġlearned": 6913,
      "Ġentreaty": 6914,
      "Ġentreaties": 6915,
      "Ġdevils": 6916,
      "Ġmurders": 6917,
      "Ġbattles": 6918,
      "Ġsilk": 6919,
      "Ġruns": 6920,
      "Ġrevengeful": 6921,
      "Ġminutes": 6922,
      "Ġforehead": 6923,
      "Ġquarter": 6924,
      "Ġconfessor": 6925,
      "Command": 6926,
      "Happ": 6927,
      "Happy": 6928,
      "Ġspeedy": 6929,
      "Ġdespised": 6930,
      "ĠNed": 6931,
      "ĠNeptune": 6932,
      "Ġterr": 6933,
      "Ġrecreant": 6934,
      "Ġdelicate": 6935,
      "Ġharmony": 6936,
      "Ġbosoms": 6937,
      "Ġacts": 6938,
      "Ġattended": 6939,
      "Ġmurderous": 6940,
      "Ġveil": 6941,
      "Ġsingular": 6942,
      "Ġdistress": 6943,
      "Ġsuitors": 6944,
      "Ġclosed": 6945,
      "Ġsuffering": 6946,
      "Ġmusician": 6947,
      "Ġwaits": 6948,
      "Ġburden": 6949,
      "Ġbreasts": 6950,
      "Ġwedded": 6951,
      "Ġdukes": 6952,
      "Ġpays": 6953,
      "Ġgroom": 6954,
      "shearing": 6955,
      "Ġwisely": 6956,
      "Ġcrook": 6957,
      "Ġcrush": 6958,
      "eshrew": 6959,
      "standing": 6960,
      "Ġredempt": 6961,
      "Ġbeggars": 6962,
      "Read": 6963,
      "Ready": 6964,
      "ĠFortune": 6965,
      "Ġfeasts": 6966,
      "Ġevils": 6967,
      "ĠVolscians": 6968,
      "ĠVolscian": 6969,
      "Ġbowl": 6970,
      "Ġinterrupt": 6971,
      "Ġundo": 6972,
      "Ġsumm": 6973,
      "Ġbaby": 6974,
      "Ġframed": 6975,
      "Ġsacrament": 6976,
      "Ġsafely": 6977,
      "Ġsafeguard": 6978,
      "Ġignoble": 6979,
      "Ġoppression": 6980,
      "Ġsuddenly": 6981,
      "Ġleaden": 6982,
      "Ġlamentation": 6983,
      "ĠIsabella": 6984,
      "Ġdrinking": 6985,
      "Ġcauses": 6986,
      "Ġclean": 6987,
      "Ġowes": 6988,
      "Ġcomplaint": 6989,
      "Ġsmallest": 6990,
      "Ġmidst": 6991,
      "Ġmidwife": 6992,
      "Ġdestiny": 6993,
      "Ġapproved": 6994,
      "Ġapprobation": 6995,
      "Stands": 6996,
      "Confess": 6997,
      "Whiles": 6998,
      "Ġsurfeit": 6999,
      "Ġinsinu": 7000,
      "Ġeasily": 7001,
      "Ġdamnable": 7002,
      "Ġutmost": 7003,
      "Ġapart": 7004,
      "Ġmildly": 7005,
      "Ġpuiss": 7006,
      "Ġpitied": 7007,
      "Ġinjustice": 7008,
      "Ġproceedings": 7009,
      "Ġmedic": 7010,
      "Ġmodel": 7011,
      "Ġfamiliar": 7012,
      "Ġreigns": 7013,
      "ossess": 7014,
      "Ġlowly": 7015,
      "Ġbending": 7016,
      "Ġprosperity": 7017,
      "Ġtroubled": 7018,
      "Meantime": 7019,
      "Ġlenity": 7020,
      "Ġslanderous": 7021,
      "Ġpursue": 7022,
      "Ġpursuit": 7023,
      "ĠCapulets": 7024,
      "Ġmountain": 7025,
      "Ġunworthy": 7026,
      "Ġprovided": 7027,
      "when": 7028,
      "Ġglasses": 7029,
      "Ġextremes": 7030,
      "Ġconclusion": 7031,
      "Ġunlook": 7032,
      "Ġunluck": 7033,
      "ĠAlban": 7034,
      "Ġaims": 7035,
      "Ġavoided": 7036,
      "Ġdrift": 7037,
      "Ġeager": 7038,
      "Ġstatutes": 7039,
      "Ġloathsome": 7040,
      "Ġloyalty": 7041,
      "Ġguiltless": 7042,
      "Ġsensible": 7043,
      "Ġcrept": 7044,
      "Ġcalamity": 7045,
      "Ġpilot": 7046,
      "Ġchiefest": 7047,
      "Prepare": 7048,
      "Ġpinch": 7049,
      "Ġinfected": 7050,
      "Ġstocks": 7051,
      "Ġdearer": 7052,
      "Ġangels": 7053,
      "Ġlodged": 7054,
      "Ġlodging": 7055,
      "cannot": 7056,
      "Ġtutor": 7057,
      "Ġwipe": 7058,
      "Ġfleet": 7059,
      "Ġadvanced": 7060,
      "Ġcorruption": 7061,
      "Ġmagist": 7062,
      "Ġcloak": 7063,
      "bric": 7064,
      "Ġstolen": 7065,
      "Ġnobleness": 7066,
      "Ġsprings": 7067,
      "Ġswelling": 7068,
      "Ġabhorr": 7069,
      "Ġperjured": 7070,
      "Ġinstantly": 7071,
      "Suppose": 7072,
      "craft": 7073,
      "favour": 7074,
      "Ġmultitude": 7075,
      "Ġlinea": 7076,
      "Ġnails": 7077,
      "Ġpiercing": 7078,
      "Ġinquire": 7079,
      "Ġbranches": 7080,
      "Ġclimate": 7081,
      "Ġwrinkled": 7082,
      "Ġwhispering": 7083,
      "Ġcorrection": 7084,
      "ĠAntium": 7085,
      "Ġcomplexion": 7086,
      "Ġcircumstance": 7087,
      "Lieutenant": 7088,
      "Sometime": 7089,
      "ĠQueen": 7090,
      "Ġmoody": 7091,
      "Ġsteward": 7092,
      "Ġvarlet": 7093,
      "Ġmanifest": 7094,
      "Ġunwilling": 7095,
      "ĠTarpeian": 7096,
      "Ġincensed": 7097,
      "Ġflatterers": 7098,
      "Ġsubstitute": 7099,
      "Mistake": 7100,
      "Ġtiger": 7101,
      "Ġmilk": 7102,
      "Ġnumbers": 7103,
      "Ġhinder": 7104,
      "Ġpearl": 7105,
      "Ġbereft": 7106,
      "Ġornaments": 7107,
      "ĠBrittany": 7108,
      "ĠBenvolio": 7109,
      "Ġunseen": 7110,
      "Ġdisgraced": 7111,
      "Ġtrifles": 7112,
      "Ġserpent": 7113,
      "Ġsufficient": 7114,
      "Ġestimation": 7115,
      "Ġoccupation": 7116,
      "Affection": 7117,
      "Break": 7118,
      "Virtue": 7119,
      "Ġeternal": 7120,
      "Ġtardy": 7121,
      "Ġsurpr": 7122,
      "Ġfantast": 7123,
      "Ġlunatic": 7124,
      "Ġhistory": 7125,
      "Ġconsequence": 7126,
      "Ġconcerns": 7127,
      "Ġmarshal": 7128,
      "Ġmarvellous": 7129,
      "ĠTewksbury": 7130,
      "Ġprophesy": 7131,
      "Ġceremonious": 7132,
      "Murder": 7133,
      "Urge": 7134,
      "uivant": 7135,
      "Ġafeard": 7136,
      "Ġsixteen": 7137,
      "Ġmoment": 7138,
      "Ġmurdered": 7139,
      "Ġfolks": 7140,
      "Ġfrantic": 7141,
      "Ġfifteen": 7142,
      "Ġcabin": 7143,
      "Ġnorthern": 7144,
      "ĠSycorax": 7145,
      "Ġlikelihood": 7146,
      "ABRAHAM": 7147,
      "ĠJupiter": 7148,
      "Ġredemption": 7149,
      "Again": 7150,
      "Aff": 7151,
      "AGE": 7152,
      "Aumerle": 7153,
      "Apollo": 7154,
      "Apothecary": 7155,
      "Bu": 7156,
      "Ban": 7157,
      "Best": 7158,
      "BON": 7159,
      "Bold": 7160,
      "Bless": 7161,
      "Ch": 7162,
      "Cle": 7163,
      "Cast": 7164,
      "Cold": 7165,
      "Carry": 7166,
      "Cursed": 7167,
      "Den": 7168,
      "Dest": 7169,
      "Def": 7170,
      "DION": 7171,
      "Direct": 7172,
      "Er": 7173,
      "End": 7174,
      "Every": 7175,
      "EMI": 7176,
      "Fit": 7177,
      "Fill": 7178,
      "Fourth": 7179,
      "Grand": 7180,
      "Groom": 7181,
      "Gainst": 7182,
      "Har": 7183,
      "High": 7184,
      "Huntsman": 7185,
      "Imp": 7186,
      "Just": 7187,
      "Keeper": 7188,
      "Left": 7189,
      "Music": 7190,
      "NATH": 7191,
      "Open": 7192,
      "Obey": 7193,
      "Pres": 7194,
      "PAGE": 7195,
      "Qu": 7196,
      "Ren": 7197,
      "Run": 7198,
      "Ratcliff": 7199,
      "Sin": 7200,
      "Sus": 7201,
      "Sic": 7202,
      "Suff": 7203,
      "Trust": 7204,
      "Tullus": 7205,
      "Wife": 7206,
      "Worse": 7207,
      "ais": 7208,
      "aches": 7209,
      "bon": 7210,
      "bat": 7211,
      "bid": 7212,
      "bur": 7213,
      "best": 7214,
      "bel": 7215,
      "bles": 7216,
      "bearer": 7217,
      "co": 7218,
      "cis": 7219,
      "cri": 7220,
      "core": 7221,
      "cast": 7222,
      "count": 7223,
      "cund": 7224,
      "dra": 7225,
      "door": 7226,
      "duce": 7227,
      "ele": 7228,
      "eks": 7229,
      "fed": 7230,
      "fly": 7231,
      "found": 7232,
      "franch": 7233,
      "gea": 7234,
      "gentle": 7235,
      "gage": 7236,
      "grown": 7237,
      "greed": 7238,
      "hur": 7239,
      "honour": 7240,
      "iqu": 7241,
      "ivers": 7242,
      "jud": 7243,
      "kens": 7244,
      "lm": 7245,
      "lu": 7246,
      "leness": 7247,
      "mo": 7248,
      "make": 7249,
      "mind": 7250,
      "mission": 7251,
      "net": 7252,
      "nut": 7253,
      "name": 7254,
      "never": 7255,
      "nothing": 7256,
      "oke": 7257,
      "overy": 7258,
      "occ": 7259,
      "ops": 7260,
      "opher": 7261,
      "ocate": 7262,
      "ph": 7263,
      "pre": 7264,
      "por": 7265,
      "pan": 7266,
      "put": 7267,
      "phan": 7268,
      "past": 7269,
      "pers": 7270,
      "pres": 7271,
      "ples": 7272,
      "su": 7273,
      "sick": 7274,
      "since": 7275,
      "such": 7276,
      "side": 7277,
      "somet": 7278,
      "scape": 7279,
      "ton": 7280,
      "ule": 7281,
      "uish": 7282,
      "uced": 7283,
      "ukes": 7284,
      "ueless": 7285,
      "vil": 7286,
      "vance": 7287,
      "wit": 7288,
      "who": 7289,
      "why": 7290,
      "witted": 7291,
      "yet": 7292,
      "ĠU": 7293,
      "Ġire": 7294,
      "ĠNo": 7295,
      "ĠThus": 7296,
      "Ġtha": 7297,
      "Ġton": 7298,
      "Ġtur": 7299,
      "Ġtea": 7300,
      "Ġtink": 7301,
      "Ġtreat": 7302,
      "Ġtents": 7303,
      "Ġtainted": 7304,
      "Ġtailor": 7305,
      "Ġtamed": 7306,
      "Ġtumble": 7307,
      "Ġack": 7308,
      "Ġafore": 7309,
      "Ġape": 7310,
      "Ġachie": 7311,
      "ouches": 7312,
      "Ġsith": 7313,
      "Ġsine": 7314,
      "Ġsitting": 7315,
      "Ġsands": 7316,
      "Ġsiege": 7317,
      "Ġmast": 7318,
      "Ġmant": 7319,
      "Ġmuse": 7320,
      "Ġmuff": 7321,
      "Ġmiles": 7322,
      "iner": 7323,
      "inius": 7324,
      "Ġwester": 7325,
      "Ġwilful": 7326,
      "reth": 7327,
      "report": 7328,
      "has": 7329,
      "haeth": 7330,
      "Ġbought": 7331,
      "Ġbench": 7332,
      "Ġbishop": 7333,
      "isk": 7334,
      "isher": 7335,
      "isome": 7336,
      "Ġfan": 7337,
      "Ġfet": 7338,
      "Ġfath": 7339,
      "Ġfem": 7340,
      "Ġfits": 7341,
      "Ġfulf": 7342,
      "erous": 7343,
      "erns": 7344,
      "lling": 7345,
      "itan": 7346,
      "once": 7347,
      "onio": 7348,
      "Ġder": 7349,
      "Ġdil": 7350,
      "Ġdame": 7351,
      "Ġdiet": 7352,
      "Ġdrows": 7353,
      "Ġdumb": 7354,
      "Ġcave": 7355,
      "Ġcuck": 7356,
      "Ġcrest": 7357,
      "Ġcrew": 7358,
      "Ġcurious": 7359,
      "Ġcushi": 7360,
      "Ġcousins": 7361,
      "ened": 7362,
      "Ġlink": 7363,
      "Ġlace": 7364,
      "Ġloose": 7365,
      "Ġlends": 7366,
      "Ġlung": 7367,
      "Ġlinger": 7368,
      "Ġlatest": 7369,
      "Ġnon": 7370,
      "Ġnaught": 7371,
      "Ġnourish": 7372,
      "Ġyare": 7373,
      "Ġyester": 7374,
      "Ġtho": 7375,
      "Ġthrees": 7376,
      "arison": 7377,
      "Ġhy": 7378,
      "Ġhill": 7379,
      "Ġhood": 7380,
      "Ġom": 7381,
      "Ġobt": 7382,
      "Ġtoe": 7383,
      "Ġtoads": 7384,
      "Ġtower": 7385,
      "Ġpine": 7386,
      "Ġpate": 7387,
      "Ġpuff": 7388,
      "Ġpedant": 7389,
      "Ġpounds": 7390,
      "Ġpattern": 7391,
      "Ġheal": 7392,
      "Ġheigh": 7393,
      "Ġheinous": 7394,
      "stone": 7395,
      "strel": 7396,
      "owick": 7397,
      "ank": 7398,
      "omenes": 7399,
      "Ġgam": 7400,
      "Ġgear": 7401,
      "Ġgame": 7402,
      "Ġgaz": 7403,
      "Ġgeld": 7404,
      "Ġgulf": 7405,
      "Ġgloves": 7406,
      "ato": 7407,
      "atient": 7408,
      "Ġbeet": 7409,
      "Ġbeads": 7410,
      "sec": 7411,
      "seth": 7412,
      "ceives": 7413,
      "ceiving": 7414,
      "Ġinve": 7415,
      "Ġinch": 7416,
      "Ġinvent": 7417,
      "Ġinherit": 7418,
      "Ġhaw": 7419,
      "Ġhall": 7420,
      "ays": 7421,
      "ediment": 7422,
      "imo": 7423,
      "ims": 7424,
      "Ġmellow": 7425,
      "Ġnotes": 7426,
      "Ġnotwith": 7427,
      "chool": 7428,
      "child": 7429,
      "Ġforces": 7430,
      "Ġforsooth": 7431,
      "key": 7432,
      "Ġugly": 7433,
      "Ġweed": 7434,
      "illed": 7435,
      "Ġelo": 7436,
      "Ġebb": 7437,
      "herited": 7438,
      "entious": 7439,
      "adem": 7440,
      "adise": 7441,
      "rip": 7442,
      "rion": 7443,
      "riam": 7444,
      "rief": 7445,
      "rieve": 7446,
      "Ġstu": 7447,
      "Ġstark": 7448,
      "Ġstring": 7449,
      "Ġstaff": 7450,
      "ghts": 7451,
      "asy": 7452,
      "asing": 7453,
      "asures": 7454,
      "idd": 7455,
      "iding": 7456,
      "Ġrent": 7457,
      "Ġrender": 7458,
      "raken": 7459,
      "rails": 7460,
      "raught": 7461,
      "Ġliar": 7462,
      "Ġliqu": 7463,
      "urvy": 7464,
      "alion": 7465,
      "Ġsolic": 7466,
      "Ġashore": 7467,
      "Ġdeceive": 7468,
      "Ġdefect": 7469,
      "aining": 7470,
      "verse": 7471,
      "verdone": 7472,
      "estiv": 7473,
      "eap": 7474,
      "earest": 7475,
      "Ġdoct": 7476,
      "Ġdoves": 7477,
      "Ġdoors": 7478,
      "Ġnoses": 7479,
      "using": 7480,
      "usiness": 7481,
      "Ġbutter": 7482,
      "ifth": 7483,
      "Ġsear": 7484,
      "Ġsequ": 7485,
      "Ġallies": 7486,
      "Ġsued": 7487,
      "Ġsung": 7488,
      "Ġsunder": 7489,
      "Ġsugg": 7490,
      "Ġsugar": 7491,
      "thw": 7492,
      "throw": 7493,
      "thought": 7494,
      "Ġherbs": 7495,
      "terate": 7496,
      "Ġantic": 7497,
      "Ġloins": 7498,
      "Ġlocks": 7499,
      "Ġsped": 7500,
      "Ġspilt": 7501,
      "Ġspices": 7502,
      "Ġspiders": 7503,
      "Ġfaction": 7504,
      "ĠCle": 7505,
      "ĠCaptain": 7506,
      "ĠCarthage": 7507,
      "Ġnegl": 7508,
      "hoeb": 7509,
      "Ġkna": 7510,
      "Ġkno": 7511,
      "Ġknit": 7512,
      "ANIEL": 7513,
      "ĠRo": 7514,
      "Ġvi": 7515,
      "Ġvine": 7516,
      "Ġvig": 7517,
      "Ġvass": 7518,
      "Ġvial": 7519,
      "Ġventure": 7520,
      "Ġshout": 7521,
      "Ġshower": 7522,
      "ulous": 7523,
      "quet": 7524,
      "Ġprint": 7525,
      "ĠMadam": 7526,
      "Whate": 7527,
      "Ġamend": 7528,
      "Ġwhet": 7529,
      "Ġwheel": 7530,
      "ending": 7531,
      "icial": 7532,
      "iel": 7533,
      "Ġblister": 7534,
      "Ġblade": 7535,
      "ivered": 7536,
      "venient": 7537,
      "Forth": 7538,
      "Forbear": 7539,
      "Forgive": 7540,
      "Forbid": 7541,
      "ĠGentle": 7542,
      "odowick": 7543,
      "olar": 7544,
      "olour": 7545,
      "Ġhatch": 7546,
      "ĠLam": 7547,
      "ĠLeave": 7548,
      "ĠLodowick": 7549,
      "Ġcann": 7550,
      "Ġcanker": 7551,
      "feel": 7552,
      "feits": 7553,
      "ressed": 7554,
      "ately": 7555,
      "ppet": 7556,
      "pped": 7557,
      "Ġbrass": 7558,
      "Ġorphan": 7559,
      "allel": 7560,
      "ĠShe": 7561,
      "ĠSpeak": 7562,
      "ĠSweet": 7563,
      "ĠBes": 7564,
      "ĠBraken": 7565,
      "Ġarch": 7566,
      "Ġargu": 7567,
      "Ġarbit": 7568,
      "Ġunple": 7569,
      "Ġunrest": 7570,
      "Ġworms": 7571,
      "Ġworshi": 7572,
      "ĠHa": 7573,
      "ĠHear": 7574,
      "ĠHerc": 7575,
      "elting": 7576,
      "Ġquake": 7577,
      "Ġquaint": 7578,
      "Ġjade": 7579,
      "reature": 7580,
      "Ġmusty": 7581,
      "Ġgraft": 7582,
      "Ġhole": 7583,
      "cip": 7584,
      "cially": 7585,
      "Ġprocure": 7586,
      "Ġshoulders": 7587,
      "ĠPercy": 7588,
      "ĠPatri": 7589,
      "ĠPembroke": 7590,
      "ĠPhaeth": 7591,
      "ĠPhoeb": 7592,
      "ums": 7593,
      "umes": 7594,
      "umps": 7595,
      "uments": 7596,
      "umny": 7597,
      "Ġmadest": 7598,
      "Ġmadman": 7599,
      "Ġplate": 7600,
      "Ġplaints": 7601,
      "people": 7602,
      "pecially": 7603,
      "ĠWh": 7604,
      "ĠWelcome": 7605,
      "ĠWales": 7606,
      "ĠWalter": 7607,
      "owned": 7608,
      "Ġpox": 7609,
      "Ġpoll": 7610,
      "Ġrats": 7611,
      "Ġrites": 7612,
      "Ġrising": 7613,
      "ptory": 7614,
      "ĠAh": 7615,
      "ĠAm": 7616,
      "ĠAr": 7617,
      "Ġtruer": 7618,
      "Thoughts": 7619,
      "Ġmarr": 7620,
      "Ġmarble": 7621,
      "Ġmariners": 7622,
      "Ġdisl": 7623,
      "Ġdissemble": 7624,
      "Ġdisorder": 7625,
      "Ins": 7626,
      "Infer": 7627,
      "acks": 7628,
      "Ġaloof": 7629,
      "Ġaltogether": 7630,
      "Ġhears": 7631,
      "echer": 7632,
      "eches": 7633,
      "Ġabst": 7634,
      "Ġabod": 7635,
      "Ġfold": 7636,
      "Ġfoil": 7637,
      "Ġearl": 7638,
      "Ġearldom": 7639,
      "Ġrod": 7640,
      "Ġrode": 7641,
      "Ġrocks": 7642,
      "Ġexclaim": 7643,
      "Ġexact": 7644,
      "Ġexperience": 7645,
      "agine": 7646,
      "Ġlooker": 7647,
      "ouls": 7648,
      "aved": 7649,
      "Ġridd": 7650,
      "Ġripen": 7651,
      "Ġrivers": 7652,
      "Ġwarn": 7653,
      "tised": 7654,
      "Ġflame": 7655,
      "Ġflint": 7656,
      "Wherefore": 7657,
      "Ġslack": 7658,
      "ĠTur": 7659,
      "ĠTullus": 7660,
      "ĠTunis": 7661,
      "Ġbreeding": 7662,
      "izab": 7663,
      "sses": 7664,
      "Ġadmit": 7665,
      "Ġprec": 7666,
      "Ġpreced": 7667,
      "Ġprerog": 7668,
      "Ġclap": 7669,
      "Ġprays": 7670,
      "Ġsweets": 7671,
      "aws": 7672,
      "Ġtrades": 7673,
      "Ġperd": 7674,
      "Ġperf": 7675,
      "Ġpermit": 7676,
      "Ġpledge": 7677,
      "ĠDor": 7678,
      "Ġwrang": 7679,
      "Ġwayward": 7680,
      "Ġheadstrong": 7681,
      "lip": 7682,
      "thens": 7683,
      "Ġpreserv": 7684,
      "Ġpreserved": 7685,
      "Ġscour": 7686,
      "Ġscru": 7687,
      "Ġscape": 7688,
      "Ġmoan": 7689,
      "Ġchival": 7690,
      "Ġqueens": 7691,
      "Ġrages": 7692,
      "Ġraging": 7693,
      "Ġraiment": 7694,
      "Ġragged": 7695,
      "Ġremiss": 7696,
      "abour": 7697,
      "ĠFear": 7698,
      "ĠFran": 7699,
      "Ġappl": 7700,
      "Ġapply": 7701,
      "Ġappell": 7702,
      "Ġarmed": 7703,
      "Norfolk": 7704,
      "range": 7705,
      "Ġbegot": 7706,
      "Ġmale": 7707,
      "Ġimmediate": 7708,
      "ĠMarch": 7709,
      "Ġlongest": 7710,
      "Ġreplied": 7711,
      "Ġrepetition": 7712,
      "Ġrepossess": 7713,
      "Ġafoot": 7714,
      "Ġconspir": 7715,
      "Ġconsumed": 7716,
      "Ġconsidered": 7717,
      "ĠJer": 7718,
      "ĠJun": 7719,
      "ĠJOHN": 7720,
      "ĠJesu": 7721,
      "Ġperem": 7722,
      "Ġlevy": 7723,
      "Ġentrails": 7724,
      "Ġlieutenant": 7725,
      "chelor": 7726,
      "Ġresort": 7727,
      "Ġrescue": 7728,
      "Ġtried": 7729,
      "Ġfollies": 7730,
      "Ġprivy": 7731,
      "Ġelsewhere": 7732,
      "Ġcoz": 7733,
      "Ġcoal": 7734,
      "Ġcoals": 7735,
      "Ġchap": 7736,
      "asonable": 7737,
      "ailing": 7738,
      "Ġpeaceful": 7739,
      "Ġbackward": 7740,
      "Ġcounted": 7741,
      "Ġhighway": 7742,
      "Ġneedle": 7743,
      "Ġneedless": 7744,
      "Stanley": 7745,
      "Ġhusbands": 7746,
      "Ġbraved": 7747,
      "Ġbanquet": 7748,
      "Ġladyship": 7749,
      "Ġminded": 7750,
      "Ġbribe": 7751,
      "Ġconfer": 7752,
      "Ġconfines": 7753,
      "Ġconfusion": 7754,
      "Ġglories": 7755,
      "Ġcaused": 7756,
      "Ġimpart": 7757,
      "Ġimpud": 7758,
      "Ġimpatience": 7759,
      "Ġimpression": 7760,
      "Ġimpatient": 7761,
      "Ġimpediment": 7762,
      "Ġlightly": 7763,
      "Ġlightness": 7764,
      "Ġbodes": 7765,
      "Ġmistaking": 7766,
      "Ġnatures": 7767,
      "Claudio": 7768,
      "Ġbeseem": 7769,
      "Ġpardons": 7770,
      "Ġhappier": 7771,
      "Ġmiseries": 7772,
      "Ġdevice": 7773,
      "Ġkilled": 7774,
      "Ġfarm": 7775,
      "Ġunderne": 7776,
      "Ġundergo": 7777,
      "Ġthousands": 7778,
      "Ġfollowing": 7779,
      "Ġsunshine": 7780,
      "Any": 7781,
      "Ġbush": 7782,
      "Ġstreet": 7783,
      "Ġstream": 7784,
      "Ġturned": 7785,
      "Ġcomfortable": 7786,
      "Ġsleeps": 7787,
      "Ġsleepy": 7788,
      "itories": 7789,
      "Ġbox": 7790,
      "Ġboon": 7791,
      "Ġboat": 7792,
      "Ġwelcomes": 7793,
      "Ġthankful": 7794,
      "Ġfights": 7795,
      "Ġfighting": 7796,
      "holds": 7797,
      "Ġfalsely": 7798,
      "Ġprisoners": 7799,
      "Ġassault": 7800,
      "Ġadvocate": 7801,
      "Ġmerciful": 7802,
      "Ġmatters": 7803,
      "Ġdangers": 7804,
      "Ġdreamt": 7805,
      "Ġdischarged": 7806,
      "enerate": 7807,
      "Ġcommanding": 7808,
      "Ġfouler": 7809,
      "Ġdared": 7810,
      "Ġsecrets": 7811,
      "Twill": 7812,
      "Twice": 7813,
      "Twenty": 7814,
      "Ġsisterhood": 7815,
      "versy": 7816,
      "Ġmerrim": 7817,
      "Ġawry": 7818,
      "Ġdenial": 7819,
      "Ġobser": 7820,
      "Ġsupport": 7821,
      "Ġsuppose": 7822,
      "Ġsuppli": 7823,
      "Ġbeating": 7824,
      "mph": 7825,
      "mpet": 7826,
      "Ġaffright": 7827,
      "Ġrequires": 7828,
      "Ġrequired": 7829,
      "Ġwoeful": 7830,
      "Ġreturned": 7831,
      "Ġtenderly": 7832,
      "blown": 7833,
      "Ġchop": 7834,
      "Ġdeeper": 7835,
      "Ġdeeply": 7836,
      "Ġfootman": 7837,
      "shining": 7838,
      "Ġcoldly": 7839,
      "azon": 7840,
      "Ġnursed": 7841,
      "Ġsuffice": 7842,
      "Ġplucks": 7843,
      "xton": 7844,
      "Ġairy": 7845,
      "Ġjocund": 7846,
      "Mayor": 7847,
      "Ġfasting": 7848,
      "Canst": 7849,
      "voke": 7850,
      "voided": 7851,
      "Ġsilken": 7852,
      "Ġinfring": 7853,
      "Ġinfirm": 7854,
      "Ġissued": 7855,
      "Ġstrongly": 7856,
      "Ġpossessed": 7857,
      "Ġminstrel": 7858,
      "Ġconfession": 7859,
      "pared": 7860,
      "Ġprofan": 7861,
      "Ġprofits": 7862,
      "Ġcounsels": 7863,
      "Commit": 7864,
      "Ġdivided": 7865,
      "Ġdivines": 7866,
      "Ġdivision": 7867,
      "Ġcarries": 7868,
      "Ġposterity": 7869,
      "Ġmocking": 7870,
      "Ġmockery": 7871,
      "nowledge": 7872,
      "ĠNature": 7873,
      "Ġterrible": 7874,
      "Ġwhipt": 7875,
      "Ġinconstant": 7876,
      "Ġrecover": 7877,
      "Ġharmless": 7878,
      "Ġresolute": 7879,
      "ĠHector": 7880,
      "Ġactor": 7881,
      "Ġagreed": 7882,
      "Ġbreathes": 7883,
      "Ġdishon": 7884,
      "Ġtribune": 7885,
      "Ġtribute": 7886,
      "Ġdraws": 7887,
      "Ġdisting": 7888,
      "Ġdisturb": 7889,
      "Ġdistressed": 7890,
      "Ġstirs": 7891,
      "Ġstirring": 7892,
      "Ġclosely": 7893,
      "Ġsufferance": 7894,
      "Ġwonderful": 7895,
      "Ġdeliverance": 7896,
      "Ġtax": 7897,
      "Ġwisest": 7898,
      "Ġskulls": 7899,
      "Ġsigns": 7900,
      "Ġforgiveness": 7901,
      "Ġregiment": 7902,
      "Ġcheerfully": 7903,
      "nsion": 7904,
      "Ġblessings": 7905,
      "Ġpoisonous": 7906,
      "shepherd": 7907,
      "Ġdireful": 7908,
      "Ġsuccor": 7909,
      "Ġbleeds": 7910,
      "Ġinterchange": 7911,
      "Ġembass": 7912,
      "Ġmalign": 7913,
      "Ġcowardice": 7914,
      "Ġhurried": 7915,
      "Ġvisitation": 7916,
      "Ġlimits": 7917,
      "Ġopposed": 7918,
      "Ġscorns": 7919,
      "Ġwitnesses": 7920,
      "scap": 7921,
      "Ġbroad": 7922,
      "Ġcreated": 7923,
      "Ġcreatures": 7924,
      "Ġknocks": 7925,
      "Ġchamberlain": 7926,
      "Ġidly": 7927,
      "Ġcaparison": 7928,
      "Ġhideous": 7929,
      "Ġbeastly": 7930,
      "Ġrebel": 7931,
      "Ġrebuke": 7932,
      "Ġscarlet": 7933,
      "ĠChristopher": 7934,
      "Ġfills": 7935,
      "Ġinsulting": 7936,
      "Ġstrumpet": 7937,
      "Ġpuppet": 7938,
      "Ġinjurious": 7939,
      "Ġinjuries": 7940,
      "Ġinnocence": 7941,
      "Ġfamish": 7942,
      "Ġgovernor": 7943,
      "Sub": 7944,
      "Ġfeat": 7945,
      "Ġdrunkard": 7946,
      "Measure": 7947,
      "Proud": 7948,
      "Ġscholar": 7949,
      "Ġmutiny": 7950,
      "Ġlustful": 7951,
      "Ġthreats": 7952,
      "Ġindiffe": 7953,
      "Ġindirect": 7954,
      "Ġsolely": 7955,
      "Ġgrandfather": 7956,
      "Ġsafer": 7957,
      "Ġpursued": 7958,
      "Ġsentenced": 7959,
      "Belike": 7960,
      "Enough": 7961,
      "Heart": 7962,
      "Ġmounting": 7963,
      "Ġcaptive": 7964,
      "ĠAntonio": 7965,
      "gracious": 7966,
      "piring": 7967,
      "Ġfarthest": 7968,
      "Ġthroats": 7969,
      "Ġgentler": 7970,
      "Ġdegrees": 7971,
      "Ġdemands": 7972,
      "Ġplants": 7973,
      "Ġremedies": 7974,
      "Ġcontrad": 7975,
      "Ġunderstanding": 7976,
      "Ġcounterpo": 7977,
      "Ġtriumphs": 7978,
      "whelm": 7979,
      "Ġmourning": 7980,
      "Ġbald": 7981,
      "Ġbachelor": 7982,
      "Ġfaintly": 7983,
      "Ġdwells": 7984,
      "Ġhunger": 7985,
      "Ġgait": 7986,
      "Ġgaol": 7987,
      "Ġgape": 7988,
      "Ġgaoler": 7989,
      "Ġadmir": 7990,
      "Ġadmitted": 7991,
      "Ġchastity": 7992,
      "Ġchastisement": 7993,
      "Ġextremest": 7994,
      "Ġscarcely": 7995,
      "tered": 7996,
      "Ġfirmly": 7997,
      "Ġholid": 7998,
      "Ġinclination": 7999,
      "Ġrelig": 8000,
      "Ġneighbours": 8001,
      "Ġunborn": 8002,
      "Ġimagination": 8003,
      "Ġbootless": 8004,
      "Ġconditions": 8005,
      "Ġschoolmaster": 8006,
      "Ġfruitful": 8007,
      "Ġfeeding": 8008,
      "Ġstooping": 8009,
      "Ġunlawful": 8010,
      "ĠAlas": 8011,
      "therefore": 8012,
      "Ġimportune": 8013,
      "Ġprophecy": 8014,
      "Ġlengthen": 8015,
      "actors": 8016,
      "Ġknightly": 8017,
      "Ġknighthood": 8018,
      "Ġshrink": 8019,
      "Ġroundly": 8020,
      "Ġfrighted": 8021,
      "Ġassistance": 8022,
      "Ġdelights": 8023,
      "Ġutterance": 8024,
      "paration": 8025,
      "portion": 8026,
      "Ġcreate": 8027,
      "Ġcalumny": 8028,
      "Ġstarve": 8029,
      "Ġdecay": 8030,
      "Ġshriek": 8031,
      "Ġambition": 8032,
      "Ġjealousies": 8033,
      "Ġrascals": 8034,
      "Ġtreachery": 8035,
      "Ġerror": 8036,
      "Ġwonders": 8037,
      "Ġlouder": 8038,
      "Ġports": 8039,
      "Ġphysician": 8040,
      "Ġweighty": 8041,
      "Ġrewards": 8042,
      "Ġsupreme": 8043,
      "Repent": 8044,
      "Shame": 8045,
      "doing": 8046,
      "Ġwolves": 8047,
      "Ġbaseness": 8048,
      "Ġbudge": 8049,
      "Ġdiadem": 8050,
      "Ġbeware": 8051,
      "ARCHBISHOP": 8052,
      "ĠCalais": 8053,
      "Ġpronounced": 8054,
      "ĠFlore": 8055,
      "ĠFloriz": 8056,
      "Ġtrembles": 8057,
      "Ġcracking": 8058,
      "Ġpenitence": 8059,
      "Ġconqueror": 8060,
      "Ġpublicly": 8061,
      "Arm": 8062,
      "Arise": 8063,
      "Ġmagic": 8064,
      "Ġfrozen": 8065,
      "Ġhazel": 8066,
      "ĠElizab": 8067,
      "ĠSTANLEY": 8068,
      "Ġadvertised": 8069,
      "Ġapprehension": 8070,
      "Ġwitchcraft": 8071,
      "Ġbrawl": 8072,
      "Ġbrawling": 8073,
      "Ġgreyh": 8074,
      "Ġcholeric": 8075,
      "Consider": 8076,
      "glass": 8077,
      "Ġmillions": 8078,
      "regory": 8079,
      "Ġthorns": 8080,
      "Ġbefal": 8081,
      "Ġbefits": 8082,
      "Ġmerely": 8083,
      "Ġnobler": 8084,
      "Ġargos": 8085,
      "Ġworthily": 8086,
      "Ġperjury": 8087,
      "Ġwhoreson": 8088,
      "Ġsyll": 8089,
      "Ġwinged": 8090,
      "Ġfunction": 8091,
      "Ġhorror": 8092,
      "Ġforsake": 8093,
      "Ġevents": 8094,
      "Ġdebase": 8095,
      "Ġsplit": 8096,
      "Ġclimb": 8097,
      "ĠDeath": 8098,
      "Ġrestraint": 8099,
      "Ġafflict": 8100,
      "ĠAntiates": 8101,
      "Ġcircumstances": 8102,
      "Knock": 8103,
      "Seize": 8104,
      "Small": 8105,
      "mongst": 8106,
      "Ġtimeless": 8107,
      "Ġwidows": 8108,
      "Ġnapkin": 8109,
      "Ġsuperfl": 8110,
      "Ġvillany": 8111,
      "Ġvolume": 8112,
      "Ġdispleasure": 8113,
      "Ġdisguised": 8114,
      "Ġscolding": 8115,
      "Ġcouncil": 8116,
      "Ġcouncils": 8117,
      "Ġcurtain": 8118,
      "Amongst": 8119,
      "Between": 8120,
      "Betwixt": 8121,
      "Join": 8122,
      "URREY": 8123,
      "Ġbaggage": 8124,
      "Ġhomage": 8125,
      "Ġhigher": 8126,
      "Ġpedlar": 8127,
      "Ġpainting": 8128,
      "Ġhaughty": 8129,
      "ĠGreece": 8130,
      "Ġunfeigned": 8131,
      "Ġappeared": 8132,
      "Ġconsorted": 8133,
      "Ġbankrupt": 8134,
      "Ġdragon": 8135,
      "Caius": 8136,
      "Evermore": 8137,
      "England": 8138,
      "Ġsaucy": 8139,
      "Ġcentre": 8140,
      "Ġsociety": 8141,
      "Ġanchor": 8142,
      "ĠEmilia": 8143,
      "Ġshelter": 8144,
      "ĠScotland": 8145,
      "ĠWelshmen": 8146,
      "Ġimperial": 8147,
      "Ġlecture": 8148,
      "Ġrestored": 8149,
      "Ġsmiling": 8150,
      "Ġinferior": 8151,
      "Ġdivorce": 8152,
      "Ġtroublous": 8153,
      "Ġexpedition": 8154,
      "Ġinsolence": 8155,
      "Dispatch": 8156,
      "Ġconcluded": 8157,
      "Ġtransported": 8158,
      "Ġtestimony": 8159,
      "Ġreckoning": 8160,
      "Touching": 8161,
      "posterous": 8162,
      "Ġcordial": 8163,
      "Ġpestilence": 8164,
      "Ġpupil": 8165,
      "omplish": 8166,
      "Ġvulgar": 8167,
      "Ġamazement": 8168,
      "Ġcanopy": 8169,
      "Ġpocket": 8170,
      "Ġrancour": 8171,
      "Ġdisobed": 8172,
      "Ġplebeians": 8173,
      "Ġnightingale": 8174,
      "Ġwhistle": 8175,
      "Ġharlot": 8176,
      "Ġmerrily": 8177,
      "Ġterritories": 8178,
      "Ġpuissant": 8179,
      "Ġmedicine": 8180,
      "BONA": 8181,
      "EMILIA": 8182,
      "Grandam": 8183,
      "Harp": 8184,
      "NATHANIEL": 8185,
      "iquity": 8186,
      "Ġtonight": 8187,
      "Ġachieved": 8188,
      "Ġsinew": 8189,
      "Ġwestern": 8190,
      "Ġfemale": 8191,
      "Ġcuckold": 8192,
      "Ġlungs": 8193,
      "Ġobtain": 8194,
      "Ġnotwithstanding": 8195,
      "Ġeloqu": 8196,
      "Ġsolicit": 8197,
      "estival": 8198,
      "Ġvineyard": 8199,
      "ĠBrakenbury": 8200,
      "ĠHercules": 8201,
      "ĠPatrician": 8202,
      "ĠPhaethon": 8203,
      "ĠPhoebus": 8204,
      "Ġprecedent": 8205,
      "Ġprerogative": 8206,
      "ĠFrancis": 8207,
      "Ġperemptory": 8208,
      "Ġunderneath": 8209,
      "Ġmerriment": 8210,
      "Ġindifferent": 8211,
      "ĠFlorizel": 8212,
      "ĠElizabeth": 8213,
      "'!": 8214,
      "'--": 8215,
      "Aufidius": 8216,
      "ALIS": 8217,
      "BL": 8218,
      "Bad": 8219,
      "Bore": 8220,
      "Breat": 8221,
      "Back": 8222,
      "Base": 8223,
      "Bohemia": 8224,
      "Beshrew": 8225,
      "Che": 8226,
      "Cut": 8227,
      "Chi": 8228,
      "Care": 8229,
      "CIS": 8230,
      "Crown": 8231,
      "Citizen": 8232,
      "Charge": 8233,
      "Dou": 8234,
      "Dro": 8235,
      "Die": 8236,
      "Ele": 8237,
      "EAR": 8238,
      "Far": 8239,
      "Fri": 8240,
      "Fly": 8241,
      "Fell": 8242,
      "Fine": 8243,
      "Found": 8244,
      "FRAN": 8245,
      "Fool": 8246,
      "Friar": 8247,
      "Fellow": 8248,
      "Gl": 8249,
      "Gu": 8250,
      "Gold": 8251,
      "Gloucester": 8252,
      "Grumio": 8253,
      "Girl": 8254,
      "Given": 8255,
      "Hard": 8256,
      "Host": 8257,
      "Hap": 8258,
      "Holy": 8259,
      "HOMAS": 8260,
      "Ill": 8261,
      "Jul": 8262,
      "Jesu": 8263,
      "Katharina": 8264,
      "Less": 8265,
      "Last": 8266,
      "Lend": 8267,
      "Little": 8268,
      "Lives": 8269,
      "Mount": 8270,
      "Mere": 8271,
      "Masters": 8272,
      "Mercy": 8273,
      "Near": 8274,
      "Night": 8275,
      "Nine": 8276,
      "Opp": 8277,
      "Oxford": 8278,
      "Pe": 8279,
      "Pit": 8280,
      "Perc": 8281,
      "Pale": 8282,
      "Red": 8283,
      "Rest": 8284,
      "Ref": 8285,
      "Sen": 8286,
      "Sent": 8287,
      "Sad": 8288,
      "Sel": 8289,
      "Sorrow": 8290,
      "Sto": 8291,
      "Sland": 8292,
      "Seal": 8293,
      "Sleep": 8294,
      "Souls": 8295,
      "Thi": 8296,
      "Tong": 8297,
      "Time": 8298,
      "Tran": 8299,
      "Takes": 8300,
      "Trem": 8301,
      "UNT": 8302,
      "Went": 8303,
      "Yonder": 8304,
      "ait": 8305,
      "aus": 8306,
      "afe": 8307,
      "aled": 8308,
      "acious": 8309,
      "against": 8310,
      "avoided": 8311,
      "bre": 8312,
      "bro": 8313,
      "ball": 8314,
      "book": 8315,
      "bred": 8316,
      "bham": 8317,
      "bhors": 8318,
      "business": 8319,
      "cour": 8320,
      "cas": 8321,
      "could": 8322,
      "corn": 8323,
      "cause": 8324,
      "chard": 8325,
      "certain": 8326,
      "cats": 8327,
      "cued": 8328,
      "custom": 8329,
      "content": 8330,
      "cency": 8331,
      "creature": 8332,
      "dan": 8333,
      "dent": 8334,
      "did": 8335,
      "dur": 8336,
      "dro": 8337,
      "dish": 8338,
      "dict": 8339,
      "doubt": 8340,
      "deliver": 8341,
      "ech": 8342,
      "every": 8343,
      "eress": 8344,
      "eases": 8345,
      "fes": 8346,
      "fan": 8347,
      "fty": 8348,
      "fix": 8349,
      "fellows": 8350,
      "gom": 8351,
      "gher": 8352,
      "gone": 8353,
      "gress": 8354,
      "gled": 8355,
      "gging": 8356,
      "govern": 8357,
      "hill": 8358,
      "hra": 8359,
      "honest": 8360,
      "ias": 8361,
      "ige": 8362,
      "iod": 8363,
      "iber": 8364,
      "iable": 8365,
      "iction": 8366,
      "iby": 8367,
      "journ": 8368,
      "ky": 8369,
      "lay": 8370,
      "lord": 8371,
      "lous": 8372,
      "lant": 8373,
      "live": 8374,
      "lves": 8375,
      "lorn": 8376,
      "lings": 8377,
      "lady": 8378,
      "min": 8379,
      "mast": 8380,
      "mak": 8381,
      "matter": 8382,
      "mary": 8383,
      "mony": 8384,
      "married": 8385,
      "nant": 8386,
      "none": 8387,
      "need": 8388,
      "oz": 8389,
      "oison": 8390,
      "oft": 8391,
      "oever": 8392,
      "phe": 8393,
      "pse": 8394,
      "pore": 8395,
      "pake": 8396,
      "pter": 8397,
      "pho": 8398,
      "part": 8399,
      "pence": 8400,
      "pire": 8401,
      "press": 8402,
      "position": 8403,
      "picious": 8404,
      "prison": 8405,
      "piece": 8406,
      "pril": 8407,
      "poses": 8408,
      "ris": 8409,
      "rings": 8410,
      "sl": 8411,
      "sir": 8412,
      "sil": 8413,
      "song": 8414,
      "sist": 8415,
      "sorrow": 8416,
      "sby": 8417,
      "sia": 8418,
      "spo": 8419,
      "school": 8420,
      "too": 8421,
      "tree": 8422,
      "true": 8423,
      "trick": 8424,
      "tsey": 8425,
      "ugh": 8426,
      "uity": 8427,
      "ubs": 8428,
      "ugg": 8429,
      "vill": 8430,
      "vion": 8431,
      "vity": 8432,
      "vice": 8433,
      "viol": 8434,
      "wr": 8435,
      "wind": 8436,
      "wish": 8437,
      "worn": 8438,
      "ween": 8439,
      "widow": 8440,
      "wench": 8441,
      "warn": 8442,
      "words": 8443,
      "worth": 8444,
      "yally": 8445,
      "ymph": 8446,
      "zwater": 8447,
      "Ġ&": 8448,
      "ĠĠ": 8449,
      "ĠNot": 8450,
      "ĠThese": 8451,
      "Ġtil": 8452,
      "Ġtum": 8453,
      "Ġtire": 8454,
      "Ġtatter": 8455,
      "Ġtides": 8456,
      "Ġtunes": 8457,
      "Ġtales": 8458,
      "Ġteeming": 8459,
      "Ġtumbling": 8460,
      "hence": 8461,
      "Ġau": 8462,
      "Ġaust": 8463,
      "Ġaery": 8464,
      "Ġaches": 8465,
      "Ġsly": 8466,
      "Ġsurn": 8467,
      "Ġsongs": 8468,
      "Ġmot": 8469,
      "Ġmow": 8470,
      "Ġming": 8471,
      "Ġmart": 8472,
      "Ġmum": 8473,
      "Ġmap": 8474,
      "Ġmass": 8475,
      "Ġmute": 8476,
      "inc": 8477,
      "inet": 8478,
      "inance": 8479,
      "inite": 8480,
      "inty": 8481,
      "Ġwra": 8482,
      "Ġware": 8483,
      "Ġwaken": 8484,
      "Ġwaning": 8485,
      "Ġwenches": 8486,
      "Ġwalks": 8487,
      "reef": 8488,
      "reement": 8489,
      "hast": 8490,
      "happ": 8491,
      "nders": 8492,
      "Ġbust": 8493,
      "Ġbone": 8494,
      "Ġbau": 8495,
      "Ġbind": 8496,
      "Ġbate": 8497,
      "Ġbide": 8498,
      "Ġbier": 8499,
      "Ġbale": 8500,
      "Ġbash": 8501,
      "Ġbills": 8502,
      "isc": 8503,
      "isle": 8504,
      "Ġfen": 8505,
      "Ġfed": 8506,
      "Ġfut": 8507,
      "Ġfate": 8508,
      "Ġfence": 8509,
      "Ġfile": 8510,
      "Ġfester": 8511,
      "Ġfitted": 8512,
      "Ġfees": 8513,
      "Ġfitting": 8514,
      "Ġfowl": 8515,
      "Ġfickle": 8516,
      "Ġfestival": 8517,
      "erman": 8518,
      "eria": 8519,
      "erwhelm": 8520,
      "itter": 8521,
      "itche": 8522,
      "oner": 8523,
      "Ġdart": 8524,
      "Ġdun": 8525,
      "Ġdaint": 8526,
      "Ġdastard": 8527,
      "Ġdaring": 8528,
      "Ġduteous": 8529,
      "Ġdainty": 8530,
      "Ġcy": 8531,
      "Ġcot": 8532,
      "Ġced": 8533,
      "Ġcas": 8534,
      "Ġcard": 8535,
      "Ġcele": 8536,
      "ennel": 8537,
      "Ġlain": 8538,
      "Ġlame": 8539,
      "Ġlass": 8540,
      "Ġlaughter": 8541,
      "Ġlaz": 8542,
      "Ġlecher": 8543,
      "Ġna": 8544,
      "Ġnearer": 8545,
      "Ġnerves": 8546,
      "Ġniece": 8547,
      "Ġnuns": 8548,
      "Ġnearest": 8549,
      "Ġnymph": 8550,
      "Ġninet": 8551,
      "Ġyew": 8552,
      "Ġyellow": 8553,
      "Ġthra": 8554,
      "Ġthres": 8555,
      "Ġthrew": 8556,
      "Ġthreef": 8557,
      "arr": 8558,
      "arse": 8559,
      "arth": 8560,
      "arling": 8561,
      "Ġhi": 8562,
      "Ġhook": 8563,
      "Ġhint": 8564,
      "Ġhounds": 8565,
      "Ġhills": 8566,
      "Ġox": 8567,
      "Ġost": 8568,
      "Ġoce": 8569,
      "Ġtoss": 8570,
      "Ġphe": 8571,
      "Ġpir": 8572,
      "Ġpith": 8573,
      "Ġpoo": 8574,
      "Ġpul": 8575,
      "Ġpull": 8576,
      "Ġpark": 8577,
      "Ġpens": 8578,
      "Ġpip": 8579,
      "Ġpotion": 8580,
      "Ġpines": 8581,
      "Ġpals": 8582,
      "Ġpiled": 8583,
      "ĠIrish": 8584,
      "Ġhen": 8585,
      "Ġhew": 8586,
      "Ġhedge": 8587,
      "oting": 8588,
      "oted": 8589,
      "stit": 8590,
      "stood": 8591,
      "stool": 8592,
      "strue": 8593,
      "staring": 8594,
      "owing": 8595,
      "owed": 8596,
      "ange": 8597,
      "anous": 8598,
      "another": 8599,
      "anks": 8600,
      "answer": 8601,
      "oming": 8602,
      "Ġgle": 8603,
      "Ġgay": 8604,
      "Ġgir": 8605,
      "Ġgilt": 8606,
      "Ġgiv": 8607,
      "Ġgild": 8608,
      "Ġgorge": 8609,
      "Ġginger": 8610,
      "Ġglove": 8611,
      "atin": 8612,
      "athan": 8613,
      "attle": 8614,
      "atory": 8615,
      "atiate": 8616,
      "Ġbeho": 8617,
      "Ġbecom": 8618,
      "sea": 8619,
      "cel": 8620,
      "Ġinhabit": 8621,
      "Ġhab": 8622,
      "Ġhaven": 8623,
      "lex": 8624,
      "lect": 8625,
      "lehill": 8626,
      "ayer": 8627,
      "ldren": 8628,
      "iry": 8629,
      "edy": 8630,
      "uto": 8631,
      "utus": 8632,
      "utches": 8633,
      "imple": 8634,
      "Ġnotorious": 8635,
      "cho": 8636,
      "chment": 8637,
      "Ġforn": 8638,
      "Ġforms": 8639,
      "Ġforlorn": 8640,
      "keep": 8641,
      "Ġweb": 8642,
      "ooing": 8643,
      "Ġeg": 8644,
      "Ġel": 8645,
      "Ġew": 8646,
      "Ġemp": 8647,
      "Ġegg": 8648,
      "hertsey": 8649,
      "rian": 8650,
      "ribe": 8651,
      "riends": 8652,
      "Ġsty": 8653,
      "Ġstam": 8654,
      "Ġstart": 8655,
      "Ġstall": 8656,
      "Ġstage": 8657,
      "Ġstew": 8658,
      "Ġstray": 8659,
      "Ġstates": 8660,
      "Ġsteter": 8661,
      "Ġstarts": 8662,
      "Ġstrat": 8663,
      "Ġkern": 8664,
      "Ġkennel": 8665,
      "ashy": 8666,
      "asci": 8667,
      "asite": 8668,
      "Ġrevers": 8669,
      "Ġrelish": 8670,
      "Ġrelease": 8671,
      "Ġrevell": 8672,
      "lying": 8673,
      "lysses": 8674,
      "rain": 8675,
      "raign": 8676,
      "racted": 8677,
      "Ġliars": 8678,
      "urity": 8679,
      "urther": 8680,
      "urps": 8681,
      "urbs": 8682,
      "urrent": 8683,
      "urope": 8684,
      "alf": 8685,
      "alo": 8686,
      "alance": 8687,
      "alty": 8688,
      "Ġsoar": 8689,
      "Ġsober": 8690,
      "Ġsolace": 8691,
      "Ġassemb": 8692,
      "Ġascend": 8693,
      "Ġaspiring": 8694,
      "Ġdeat": 8695,
      "rosby": 8696,
      "hilip": 8697,
      "oody": 8698,
      "ained": 8699,
      "verns": 8700,
      "Ġshamed": 8701,
      "Ġdol": 8702,
      "Ġdoit": 8703,
      "Ġdoings": 8704,
      "usc": 8705,
      "usale": 8706,
      "usual": 8707,
      "ussia": 8708,
      "ifter": 8709,
      "ifies": 8710,
      "geon": 8711,
      "geal": 8712,
      "Ġsex": 8713,
      "Ġsevent": 8714,
      "Ġsepar": 8715,
      "Thither": 8716,
      "Throng": 8717,
      "Ġallay": 8718,
      "Ġsues": 8719,
      "Ġsulp": 8720,
      "Told": 8721,
      "Together": 8722,
      "things": 8723,
      "thren": 8724,
      "thrif": 8725,
      "Ġherds": 8726,
      "rung": 8727,
      "ruised": 8728,
      "ternal": 8729,
      "arded": 8730,
      "Ġant": 8731,
      "Ġangu": 8732,
      "hance": 8733,
      "hanging": 8734,
      "Ġspar": 8735,
      "Ġspell": 8736,
      "Ġspear": 8737,
      "Ġspurn": 8738,
      "Ġspace": 8739,
      "Ġsparing": 8740,
      "Ġfails": 8741,
      "Ġfabric": 8742,
      "ĠCy": 8743,
      "ĠCot": 8744,
      "ĠCom": 8745,
      "ĠCast": 8746,
      "ĠCall": 8747,
      "ĠChertsey": 8748,
      "ĠCrosby": 8749,
      "Ġknell": 8750,
      "ĠRag": 8751,
      "ĠRoss": 8752,
      "ĠRussia": 8753,
      "asted": 8754,
      "astian": 8755,
      "Ġvest": 8756,
      "Ġvio": 8757,
      "Ġvap": 8758,
      "Ġvices": 8759,
      "Ġwhate": 8760,
      "ighton": 8761,
      "Ġshine": 8762,
      "Ġshouts": 8763,
      "ulation": 8764,
      "Ġupper": 8765,
      "qua": 8766,
      "quin": 8767,
      "quis": 8768,
      "quer": 8769,
      "qual": 8770,
      "quess": 8771,
      "quaint": 8772,
      "quiet": 8773,
      "Ġgoodman": 8774,
      "usters": 8775,
      "Ġpry": 8776,
      "Ġatone": 8777,
      "Ġmanly": 8778,
      "Ġmankind": 8779,
      "Ġmanacles": 8780,
      "Ġmangled": 8781,
      "ĠMab": 8782,
      "Ġamity": 8783,
      "Ġamended": 8784,
      "Ġwheres": 8785,
      "Ġwheels": 8786,
      "ĠEurope": 8787,
      "endom": 8788,
      "Ġconver": 8789,
      "Ġconvers": 8790,
      "Ġconvent": 8791,
      "Ġconstable": 8792,
      "icing": 8793,
      "ican": 8794,
      "icide": 8795,
      "icester": 8796,
      "bled": 8797,
      "Ġblots": 8798,
      "Ġblasp": 8799,
      "Forget": 8800,
      "areth": 8801,
      "eminate": 8802,
      "ĠGuild": 8803,
      "ĠGregory": 8804,
      "ods": 8805,
      "odity": 8806,
      "Ġsheets": 8807,
      "augh": 8808,
      "Ġwasp": 8809,
      "oln": 8810,
      "Ġhatches": 8811,
      "ĠLay": 8812,
      "ĠLud": 8813,
      "ĠLatin": 8814,
      "ersha": 8815,
      "ershire": 8816,
      "Ġknowest": 8817,
      "Ġsayest": 8818,
      "pper": 8819,
      "Ġswim": 8820,
      "Ġswine": 8821,
      "Ġswifter": 8822,
      "Ġbrine": 8823,
      "Ġbrittle": 8824,
      "Ġorchard": 8825,
      "allows": 8826,
      "ĠSay": 8827,
      "ĠSome": 8828,
      "ĠSix": 8829,
      "ĠShow": 8830,
      "ĠSeb": 8831,
      "ĠSURREY": 8832,
      "ĠSALIS": 8833,
      "Ġusing": 8834,
      "Ġusage": 8835,
      "ĠOf": 8836,
      "ĠOr": 8837,
      "ĠOnce": 8838,
      "ĠOverdone": 8839,
      "ĠBER": 8840,
      "ĠBel": 8841,
      "ĠBoy": 8842,
      "ĠBret": 8843,
      "ĠBrist": 8844,
      "ĠBrand": 8845,
      "ĠBishop": 8846,
      "Ġgoest": 8847,
      "Ġunity": 8848,
      "Ġunman": 8849,
      "Ġunaw": 8850,
      "Ġunlo": 8851,
      "Ġunsc": 8852,
      "Ġunacc": 8853,
      "Ġunivers": 8854,
      "Ġunavoided": 8855,
      "Ġunusual": 8856,
      "Ġunthrif": 8857,
      "igation": 8858,
      "ĠHad": 8859,
      "ĠHas": 8860,
      "ĠHallow": 8861,
      "hyme": 8862,
      "elpho": 8863,
      "Ġquest": 8864,
      "Whence": 8865,
      "Ġjar": 8866,
      "Ġjump": 8867,
      "aks": 8868,
      "cible": 8869,
      "cipl": 8870,
      "Ġprover": 8871,
      "Ġproff": 8872,
      "Ġproduce": 8873,
      "Ġsails": 8874,
      "ĠPut": 8875,
      "ĠPil": 8876,
      "ĠPriam": 8877,
      "ĠPhilip": 8878,
      "umn": 8879,
      "Ġmadly": 8880,
      "Ġplent": 8881,
      "ĠWith": 8882,
      "ĠWife": 8883,
      "Ġencom": 8884,
      "Ġenroll": 8885,
      "Ġenjoin": 8886,
      "Ġenfranch": 8887,
      "unch": 8888,
      "Ġrood": 8889,
      "Ġrings": 8890,
      "Ġrates": 8891,
      "Ġoutst": 8892,
      "pted": 8893,
      "pture": 8894,
      "Ġhowl": 8895,
      "ĠAE": 8896,
      "ĠAg": 8897,
      "ĠAt": 8898,
      "ĠAfri": 8899,
      "ĠAriel": 8900,
      "ĠAbhors": 8901,
      "ĠApril": 8902,
      "Ġtrudge": 8903,
      "Ġhandle": 8904,
      "Ġsomebod": 8905,
      "Ġmarquess": 8906,
      "ĠYes": 8907,
      "Ġdislike": 8908,
      "Ġdishes": 8909,
      "Ġdisposed": 8910,
      "Ġdiseases": 8911,
      "Ġdiscipl": 8912,
      "Inf": 8913,
      "acket": 8914,
      "Ġhearth": 8915,
      "oyal": 8916,
      "Ġability": 8917,
      "Ġabuses": 8918,
      "Ġfoaming": 8919,
      "Ġdaylight": 8920,
      "Ġroad": 8921,
      "Ġrope": 8922,
      "Ġrogues": 8923,
      "Ġroyally": 8924,
      "Ġexha": 8925,
      "Ġexternal": 8926,
      "Ġtellus": 8927,
      "agate": 8928,
      "agems": 8929,
      "Ġrip": 8930,
      "Ġribb": 8931,
      "Ġarticles": 8932,
      "Ġarticle": 8933,
      "Ġwary": 8934,
      "Ġwarning": 8935,
      "Ġflour": 8936,
      "Ġflag": 8937,
      "Ġflinty": 8938,
      "Ġslide": 8939,
      "Ġslanders": 8940,
      "ĠTHOMAS": 8941,
      "Ġfearless": 8942,
      "ffic": 8943,
      "oughby": 8944,
      "Beg": 8945,
      "Behind": 8946,
      "bery": 8947,
      "bering": 8948,
      "ighs": 8949,
      "apable": 8950,
      "Ġbrethren": 8951,
      "Ġgreatly": 8952,
      "izard": 8953,
      "Ġfairies": 8954,
      "Ġpartake": 8955,
      "Ġpartial": 8956,
      "Ġadul": 8957,
      "Ġadorn": 8958,
      "Ġadult": 8959,
      "Ġadder": 8960,
      "Ġcalling": 8961,
      "Ġprep": 8962,
      "Ġpregn": 8963,
      "Ġpreparation": 8964,
      "Ġcommit": 8965,
      "Ġcommodity": 8966,
      "Yourself": 8967,
      "Ġclos": 8968,
      "Ġclothe": 8969,
      "assad": 8970,
      "Ġperused": 8971,
      "Ġperiod": 8972,
      "ĠDion": 8973,
      "ĠDelpho": 8974,
      "liction": 8975,
      "livion": 8976,
      "Ġnightly": 8977,
      "tock": 8978,
      "Ġpresum": 8979,
      "Ġpresses": 8980,
      "Ġprescri": 8981,
      "Ġscra": 8982,
      "Ġscare": 8983,
      "Ġscars": 8984,
      "Ġscouts": 8985,
      "pery": 8986,
      "peror": 8987,
      "peration": 8988,
      "Ġmoans": 8989,
      "Ġmolehill": 8990,
      "Ġkeen": 8991,
      "Ġraw": 8992,
      "Ġrarest": 8993,
      "Ġraze": 8994,
      "Ġrabble": 8995,
      "Ġremote": 8996,
      "abb": 8997,
      "ĠFifth": 8998,
      "Ġcontem": 8999,
      "sworn": 9000,
      "Ġbegging": 9001,
      "ĠMark": 9002,
      "forward": 9003,
      "meant": 9004,
      "Ġlongs": 9005,
      "Ġlonging": 9006,
      "Ġrepaid": 9007,
      "Ġreproof": 9008,
      "Ġreprieve": 9009,
      "Ġlively": 9010,
      "Ġmightily": 9011,
      "Ġrub": 9012,
      "Ġrumour": 9013,
      "Ġconsume": 9014,
      "Ġconserves": 9015,
      "ĠJud": 9016,
      "ĠJule": 9017,
      "atching": 9018,
      "Ġfriendship": 9019,
      "Ġcourses": 9020,
      "Ġpeck": 9021,
      "Ġpeasant": 9022,
      "Ġcrowned": 9023,
      "Ġlevied": 9024,
      "Ġharms": 9025,
      "Ġharder": 9026,
      "Ġresteth": 9027,
      "Ġentire": 9028,
      "attery": 9029,
      "Ġtongueless": 9030,
      "Ġreserved": 9031,
      "Ġresidence": 9032,
      "Ġkeeping": 9033,
      "Ġslender": 9034,
      "ontague": 9035,
      "iously": 9036,
      "uddy": 9037,
      "Ġhourly": 9038,
      "Ġaccomplish": 9039,
      "Ġpurged": 9040,
      "Ġpurses": 9041,
      "Ġpurposes": 9042,
      "Ġendow": 9043,
      "Ġendea": 9044,
      "ieldy": 9045,
      "Ġcompell": 9046,
      "Ġcomposition": 9047,
      "Ġpricks": 9048,
      "retion": 9049,
      "Prosper": 9050,
      "Ġcoats": 9051,
      "Ġchain": 9052,
      "Ġchaff": 9053,
      "Ġchains": 9054,
      "Ġchafed": 9055,
      "ected": 9056,
      "Ġsmiled": 9057,
      "Ġsmelt": 9058,
      "ertainty": 9059,
      "Ġsuborn": 9060,
      "Ġsubsc": 9061,
      "Ġsubmission": 9062,
      "Ġsuburbs": 9063,
      "Ġhush": 9064,
      "Ġtraged": 9065,
      "Ġtragic": 9066,
      "Ġtraffic": 9067,
      "Ġneedy": 9068,
      "Stir": 9069,
      "two": 9070,
      "verent": 9071,
      "Ġbragg": 9072,
      "Ġbrazen": 9073,
      "Ġseemeth": 9074,
      "Ġrightly": 9075,
      "aching": 9076,
      "Ġchest": 9077,
      "Ġcheers": 9078,
      "beha": 9079,
      "bered": 9080,
      "Ġcharms": 9081,
      "Ġcharters": 9082,
      "Ġcharitable": 9083,
      "Ġconfined": 9084,
      "Ġtreble": 9085,
      "Ġchanges": 9086,
      "Ġglister": 9087,
      "Ġshowers": 9088,
      "Ġhandsome": 9089,
      "Ġimpose": 9090,
      "Ġpasses": 9091,
      "Ġdoub": 9092,
      "Ġfortnight": 9093,
      "Ġfortunate": 9094,
      "Ġbringing": 9095,
      "Ġmistook": 9096,
      "Ġthrong": 9097,
      "Clifford": 9098,
      "Ġbesiege": 9099,
      "ĠAnswer": 9100,
      "Ġpleaseth": 9101,
      "ension": 9102,
      "Ġjustly": 9103,
      "Ġjustify": 9104,
      "Ġplaced": 9105,
      "Ġwrongfully": 9106,
      "Ġchoo": 9107,
      "Ġchid": 9108,
      "Ġchides": 9109,
      "Ġchron": 9110,
      "Ġlesson": 9111,
      "Ġhelping": 9112,
      "Ġundert": 9113,
      "Unb": 9114,
      "Unw": 9115,
      "Ġsuns": 9116,
      "Angelo": 9117,
      "Ġbusied": 9118,
      "Ġfooling": 9119,
      "ivity": 9120,
      "Ġibat": 9121,
      "Ġwomanish": 9122,
      "jects": 9123,
      "overed": 9124,
      "Ġstrip": 9125,
      "Ġstride": 9126,
      "Ġstripes": 9127,
      "Ġturning": 9128,
      "Ġhumane": 9129,
      "Ġoverheard": 9130,
      "Ġoverthrow": 9131,
      "Ġcomforts": 9132,
      "Ġtalked": 9133,
      "Ġbelongs": 9134,
      "Ġbuilt": 9135,
      "Ġburial": 9136,
      "Ġwelcom": 9137,
      "Ġwelkin": 9138,
      "Ġattent": 9139,
      "Ġattach": 9140,
      "Ġplays": 9141,
      "Ġinstance": 9142,
      "Ġinstead": 9143,
      "plain": 9144,
      "Ġcurs": 9145,
      "Ġcurbs": 9146,
      "Ġgiant": 9147,
      "Ġreasonable": 9148,
      "Ġcountryman": 9149,
      "Ġwishing": 9150,
      "Ġdances": 9151,
      "Ġsending": 9152,
      "Alone": 9153,
      "Wouldst": 9154,
      "Ġstrain": 9155,
      "Ġdiscred": 9156,
      "Ġdiscords": 9157,
      "Ġdiscreet": 9158,
      "Ġdiscovery": 9159,
      "Ġdiscretion": 9160,
      "Ġdoubted": 9161,
      "Ġbreaths": 9162,
      "Ġcommandment": 9163,
      "Ġsenis": 9164,
      "Ġwinding": 9165,
      "Ġswearing": 9166,
      "Ġcrab": 9167,
      "Ġdepth": 9168,
      "comb": 9169,
      "comfort": 9170,
      "Ġtending": 9171,
      "Ġgreets": 9172,
      "Ġgetting": 9173,
      "Ġintends": 9174,
      "Ġintended": 9175,
      "Ġinterest": 9176,
      "Ġkissing": 9177,
      "Ġawe": 9178,
      "Ġawful": 9179,
      "Ġobst": 9180,
      "Ġobdur": 9181,
      "Ġoblivion": 9182,
      "Ġsupple": 9183,
      "Ġspoils": 9184,
      "Ġbreaking": 9185,
      "Hermione": 9186,
      "Ġlamp": 9187,
      "Ġtemperate": 9188,
      "Ġmete": 9189,
      "Ġrequite": 9190,
      "Ġrequital": 9191,
      "acre": 9192,
      "ackey": 9193,
      "Ġsoonest": 9194,
      "Ġdeserts": 9195,
      "Ġreturns": 9196,
      "soe": 9197,
      "Ġthroughly": 9198,
      "blind": 9199,
      "Ġchoke": 9200,
      "Ġmarrying": 9201,
      "Ġfooting": 9202,
      "ĠJulius": 9203,
      "show": 9204,
      "Ġcolder": 9205,
      "Ġwarrants": 9206,
      "Ġstrangely": 9207,
      "Ġasked": 9208,
      "ĠMontgom": 9209,
      "Ġplucked": 9210,
      "Whoop": 9211,
      "Ġentreated": 9212,
      "ixture": 9213,
      "Ġordinance": 9214,
      "Ġbats": 9215,
      "Ġdispro": 9216,
      "voc": 9217,
      "vocate": 9218,
      "Ġpastime": 9219,
      "Ġvisor": 9220,
      "Ġquicken": 9221,
      "Ġinfancy": 9222,
      "Ġinfamy": 9223,
      "Ġinflu": 9224,
      "Ġinfinite": 9225,
      "Ġissues": 9226,
      "Ġdesired": 9227,
      "Ġhardy": 9228,
      "Spoke": 9229,
      "Ġforest": 9230,
      "Ġforefather": 9231,
      "Ġforerun": 9232,
      "Ġforetell": 9233,
      "Ġwearing": 9234,
      "Ġdelivery": 9235,
      "Ġquarre": 9236,
      "Become": 9237,
      "Ġwooers": 9238,
      "Ġprofound": 9239,
      "Ġexecut": 9240,
      "Ġstrengthen": 9241,
      "cession": 9242,
      "Ġdivide": 9243,
      "Ġcarrion": 9244,
      "Ġparag": 9245,
      "Ġparadise": 9246,
      "Ġparlous": 9247,
      "Ġparasite": 9248,
      "Ġposts": 9249,
      "Ġposterns": 9250,
      "Ġspeedily": 9251,
      "ĠTheir": 9252,
      "Ġwhipped": 9253,
      "Ġincur": 9254,
      "Ġincapable": 9255,
      "Ġrecount": 9256,
      "ĠHelp": 9257,
      "Ġtitles": 9258,
      "Ġacting": 9259,
      "Ġopening": 9260,
      "Ġshorten": 9261,
      "Ġseeking": 9262,
      "Ġmurdering": 9263,
      "Seeking": 9264,
      "changing": 9265,
      "Ġvehe": 9266,
      "Ġagony": 9267,
      "Ġagreement": 9268,
      "Ġwasted": 9269,
      "Ġbites": 9270,
      "Ġbiting": 9271,
      "Ġpraised": 9272,
      "Ġstole": 9273,
      "Ġwatchful": 9274,
      "Ġdrinks": 9275,
      "Ġdistemper": 9276,
      "Ġstirru": 9277,
      "Ġclouded": 9278,
      "LORDS": 9279,
      "ĠThink": 9280,
      "Ġgarlic": 9281,
      "Ġenterpr": 9282,
      "voury": 9283,
      "Ġtape": 9284,
      "Ġsickly": 9285,
      "Ġwishes": 9286,
      "Ġfitter": 9287,
      "Ġemulation": 9288,
      "Ġconsuls": 9289,
      "Ġchangeling": 9290,
      "poor": 9291,
      "Ġskin": 9292,
      "Ġsignories": 9293,
      "Ġfourth": 9294,
      "Ġregion": 9295,
      "Ġregreet": 9296,
      "Ġcheerful": 9297,
      "Ġordering": 9298,
      "Ġorderly": 9299,
      "hematic": 9300,
      "Ġdug": 9301,
      "Ġducats": 9302,
      "Ġgrove": 9303,
      "Ġliberties": 9304,
      "Ġmoveables": 9305,
      "sheathe": 9306,
      "Ġfrowning": 9307,
      "Ġdropp": 9308,
      "Ġcrad": 9309,
      "Ġcrimes": 9310,
      "Ġcrutch": 9311,
      "Ġsoften": 9312,
      "Ġbeggary": 9313,
      "Revol": 9314,
      "bbot": 9315,
      "bbed": 9316,
      "bborn": 9317,
      "ĠForrest": 9318,
      "Ġbarb": 9319,
      "Ġbarr": 9320,
      "Ġbargain": 9321,
      "Ġfeasting": 9322,
      "Ġdarken": 9323,
      "Ġdarkly": 9324,
      "Ġevident": 9325,
      "Ġexpost": 9326,
      "Ġconsented": 9327,
      "Ġrespects": 9328,
      "Ġbriefly": 9329,
      "Ġbleed": 9330,
      "Ġgotten": 9331,
      "Ġintercept": 9332,
      "Ġintercession": 9333,
      "Ġsummon": 9334,
      "ĠChurch": 9335,
      "Ġvictorious": 9336,
[...]
