#version: 0.2
Ġ t
h e
Ġ a
i n
Ġt he
e r
o n
Ġ ,
r e
Ġ s
e d
Ġ w
Ġ o
n d
a t
Ġ .
o r
i t
Ġ c
e n
Ġ f
e s
i s
a r
Ġo f
a n
Ġ b
Ġ in
a l
in g
Ġ p
a s
Ġa nd
Ġt o
r o
i c
Ġ m
Ġ d
Ġ h
i on
o u
l e
Ġ T
Ġ re
Ġ =
Ġ A
Ġ S
i l
en t
Ġ "
Ġt h
Ġ 1
s t
Ġ C
Ġ l
e l
o m
a m
Ġ Ċ
Ġ e
Ġ n
Ġ @
a d
a c
Ġ M
Ġw as
u r
ĠT he
e c
Ġ on
l y
Ġ B
Ġ I
e t
Ġ '
o l
Ġ g
i d
i v
i m
Ġf or
i r
i g
- @
Ġ@ -@
t er
o t
Ġ H
Ġa s
u s
o w
u t
Ġs t
Ġ 2
a y
it h
Ġ P
at ion
v er
Ġb e
Ġw ith
Ġ he
Ġth at
Ġ R
e m
t h
Ġ D
u n
c e
Ġ F
Ġ is
u l
Ġw h
Ġb y
c h
Ġ )
Ġ (
Ġa l
Ġc on
Ġ N
Ġ W
r a
Ġa t
Ġ L
o s
Ġ G
er s
c t
Ġ1 9
Ġ it
ro m
a nd
Ġ J
Ġa n
he r
es t
u m
0 0
a g
is t
a in
a v
r i
o d
Ġ E
Ġ O
Ġf rom
Ġc om
Ġh is
o p
re s
i f
er e
or t
Ġp ro
i es
Ġ v
il l
Ġd e
p p
o re
l d
Ġ r
Ġw ere
Ġs u
ĠI n
Ġs e
on g
ig h
e w
at e
al l
a k
ar d
ic h
ar t
b er
an t
Ġo r
it y
u d
o c
at ed
a b
Ġ K
Ġc h
g h
Ġe x
q u
p t
Ġp l
ro u
es s
e ar
Ġ U
am e
iv e
Ġ â
ac k
Ġs h
Ġ k
Ġa re
ec t
Ġh ad
Ġâ Ģ
i an
ĠS t
s e
Ġwh ich
as t
re d
g e
ou r
o v
i p
m ent
Ġs p
Ġn ot
Ġ y
Ġ le
i al
in e
r it
o st
a p
u st
igh t
el l
ĠC h
or d
Ġ 3
Ġ u
ou n
i a
ic al
t her
is h
ar y
av e
o g
Ġ un
c l
Ġ2 00
ir st
Ġ V
ou s
ion s
Ġ ;
Ġa r
Ġin t
r u
id e
s o
Ġcom p
f ter
Ġb ut
Ġthe ir
Ġcon t
c c
u re
ou t
ou ld
Ġit s
Ġw he
Ġf irst
w o
Ġ2 0
p er
f f
he d
ĠâĢ ĵ
ow n
as s
ig n
Ġal so
u e
r y
or m
Ġc l
o k
u b
ĠH e
i e
at er
r an
om e
Ġre s
i re
Ġ :
on d
or k
e nd
Ġa d
Ġa b
m er
Ġ us
Ġ 4
ag e
Ġhe r
Ġ ro
Ġh ave
Ġ 5
l ow
Ġon e
Ġp er
Ġre c
Ġbe en
Ġh as
Ġt wo
. @
Ġ@ .@
im e
ĠT h
re e
ur ing
d u
al ly
en ce
p l
Ġ1 8
i le
ul t
Ġs c
l and
ou gh
it ion
i z
Ġa g
Ġwh o
Ġth is
ac h
ation s
Ġd is
ĠA l
r ic
Ġb ec
ĠI t
Ġa pp
Ġ j
Ġp art
oun t
a re
Ġd es
cl ud
ac t
el y
ad e
or y
Ġ20 1
Ġthe y
Ġo ver
Ġpl ay
o ver
i b
Ġm an
ou nd
Ġa fter
Ġy ear
en s
, @
Ġ@ ,@
i k
Ġof f
Ġs er
Ġat t
Ġ im
ct ion
Ġo ther
Ġ Y
ur n
p h
em ber
ac e
Ġin clud
an ce
res s
it e
Ġo ut
ic e
t e
Ġ en
ar k
an g
m an
e y
rou nd
w n
Ġint o
rou gh
Ġu p
Ġp re
nd er
Ġe v
re n
Ġ 6
Ġt ime
in t
w e
ĠO n
c ed
p ort
Ġcom m
w ard
in d
c es
am p
Ġt e
i ed
ĠU n
Ġw ould
v el
os e
Ġ 7
Ġw e
Ġm ore
ter n
it ed
Ġal l
ent s
ĠA n
l es
Ġh im
as on
Ġn e
ab le
is s
ri b
or s
ing s
o y
as ed
Ġs he
a w
at es
ro p
o od
at t
Ġc ent
as e
on e
Ġw ork
Ġp o
r al
i ous
ol d
or th
i x
ic t
g an
Ġ 9
il d
Ġre m
in al
Ġs ec
e p
a il
Ġf e
f orm
Ġe ar
Ġd uring
at h
Ġb et
Ġthe m
er ed
Ġwhe n
Ġcon s
Ġ 8
il m
ou th
v ed
r on
Ġk n
ĠA s
a us
f er
Ġm ost
ub l
Ġd ec
f t
ic k
Ġon ly
Ġs ong
w ay
Ġag ain
ak e
ĠS e
ol low
Ġn ew
u g
ĠM ar
ter s
ĠC om
ot h
Ġ19 9
re at
we en
ation al
on s
ĠA r
h ip
Ġth ree
Ġt r
Ġu nder
Ġg ame
o ok
is ion
Ġab out
oc k
Ġf l
Ġre l
o b
ol og
Ġc ol
Ġ 00
al s
Ġth an
Ġse ason
Ġp os
Ġbet ween
v e
Ġf ilm
Ġth rough
mer ic
f ore
Ġe nd
Ġc an
ĠA meric
Ġm e
Ġn um
or n
ĠE n
ĠN ew
i ew
Ġl ater
Ġde f
Ġre t
Ġas s
t ed
Ġwh ile
ul ar
an s
Ġch ar
Ġa ct
Ġsu b
h n
Ġ ver
Ġrec ord
t s
Ġpro du
Ġ ra
Ġp e
Ġp r
Ġre g
Ġwhe re
Ġm ade
am es
or ld
Ġfor m
at ing
Ġb u
Ġa c
Ġl ar
Ġm ov
Ġre le
Ġin ter
en er
e ver
he s
ur y
is hed
in es
Ġs ome
Ġf ollow
Ġs o
Ġw rit
ro s
Ġ qu
Ġc o
Ġd ay
Ġsp ec
Ġin c
ĠA t
Ġf our
Ġa m
iv ed
ĠL e
u al
Ġsec ond
Ġa cc
ĠR e
Ġ00 0
Ġus ed
in s
le ct
Ġin d
n ing
ik e
Ġbe fore
an k
b um
a id
i el
Ġsu pp
if ic
Ġsu ch
Ġm on
ran s
Ġm us
Ġ 0
ĠTh is
l l
ic s
Ġ1 0
il y
Ġ1 2
he n
Ġh igh
iv er
ĠS h
Ġc all
ĠB rit
Ġbe ing
Ġthe re
an y
Ġp ubl
a j
i o
Ġ ent
ar s
ĠS c
ow ever
ĠJ o
Ġs y
Ġs ur
Ġd o
ĠA ust
Ġyear s
Ġnum ber
Ġf ound
Ġe p
Ġl oc
Ġal bum
Ġt ra
Ġse ver
vel op
Ġagain st
Ġn o
t on
e k
Ġs et
ĠâĢ Ķ
Ġin v
if e
in ce
is ed
ot her
Ġb l
j ect
u c
i er
Ġ Z
em ent
Ġe m
t en
ir d
ĠEn g
Ġ /
Ġb oth
it ies
Ġp res
Ġinclud ing
Ġb ack
Ġser ies
ain ed
aus e
Ġthe n
Ġbec ame
it s
an e
ire ct
Ġw ell
y l
p r
od e
r am
is e
Ġkn own
ur ch
Ġt rans
Ġper form
Ġte am
Ġad d
id ent
al e
s on
Ġex p
Ġ1 6
ĠUn ited
Ġde p
u res
an n
a z
Ġ19 8
er t
Ġep is
in ed
Ġm ain
ro w
f ul
Ġp op
Ġre ce
iel d
Ġ19 4
Ġm et
th ough
Ġ1 5
over n
ow er
Ġs ing
i et
u ch
Ġ1 1
Ġman y
a ir
ros s
ĠA fter
Ġchar ac
Ġl ong
ĠI nd
Ġsever al
Ġdes c
at her
o ber
Ġre p
Ġcont in
Ġ est
Ġ1 7
Ġde velop
Ġo p
o ol
ĠAust ral
ĠAmeric an
Ġm ill
u p
iv ers
Ġg o
ut e
Ġs m
er n
el f
Ġor ig
l ed
Ġc ity
Ġbe gan
at ive
a red
Ġsh ow
Ġst ud
ĠG er
Ġm in
a u
Ġc re
un e
em b
d er
rou p
ĠW ar
ĠS he
ĠBrit ish
Ġal ong
a h
ĠM ay
v en
Ġp ol
Ġhe ad
Ġcomp le
a pt
Ġ19 7
Ġcent ury
ĠJo hn
u ed
Ġd id
Ġle ad
er m
Ġs ign
Ġ19 6
i red
Ġm il
Ġd irect
Ġsh ip
t il
Ġar t
u ally
Ġc ould
iz ed
Ġo b
Ġex t
Ġd own
i am
Ġear ly
le y
Ġh ist
v iew
Ġn ear
Ġc ar
Ġb el
Ġd if
Ġw ar
Ġo per
ĠC on
Ġin f
i ent
Ġb ro
ĠW h
ĠU S
Ġthe se
el s
Ġm at
Ġcall ed
o ot
Ġa ir
ĠB r
Ġim p
Ġm ay
Ġs aid
ak ing
Ġr un
Ġc rit
Ġk m
ĠI s
op le
ul l
ru ct
cc ess
Ġfe at
Ġepis ode
Ġdes ign
it t
u red
Ġl and
Ġin st
Ġres p
Ġdis c
ment s
ĠS p
im es
Ġd ist
Ġun til
Ġret urn
g est
Ġdesc rib
y p
ist s
Ġin s
ĠC l
Ġst art
Ġatt ack
x t
aj or
Ġpre v
id ed
os s
Ġan y
Ġf in
ĠB l
ĠA ug
ĠGer man
ĠAug ust
in k
Ġare a
am ed
ers on
ain s
ial ly
ĠSe pt
m y
er v
Ġpro v
en n
ib le
is m
ĠC ol
Ġth ough
Ġg ener
ĠSept ember
ĠC ar
Ġcon st
Ġ1 3
Ġp ass
Ġg overn
Ġn orth
ĠN orth
t y
Ġoff ic
an ge
ĠThe y
os ed
ĠCom m
Ġs ame
Ġo wn
Ġa round
ĠM an
Ġg roup
ov e
Ġop en
Ġbec ause
Ġsupp ort
ce pt
Ġrele ased
Ġmill ion
ĠP l
Ġe ff
et s
Ġus e
Ġl ike
i um
Ġs ix
Ġsm all
Ġo cc
as h
Ġsu ccess
Ġf inal
Ġc ount
ch ool
Ġad v
Ã ©
Ġb att
ĠJ u
Ġapp ear
Ġmus ic
ac ed
Ġg u
Ġs im
Ġpe ople
u es
st em
ĠW orld
Ġf am
ĠCh r
Ġfollow ing
ward s
iv ision
ĠD e
Ġb r
Ġcon c
Ġd am
ou se
Ġm od
Ġw in
Ġp h
ut h
ĠAl l
ĠH owever
in a
k e
u nd
il t
ian s
Ġcons id
Ġlar ge
Ġe ach
Ġ19 5
ĠJ une
ĠA d
om an
Ġres ult
c k
olog y
ut ion
ĠF or
o le
Ġ ed
at s
rop ical
Ġe le
iv es
ĠS outh
Ġan n
Ġ19 1
Ġf ive
Ġ %
Ġre port
Ġpo int
Ġcont ro
Ġcharac ter
ĠM e
g ed
Ġl ife
Ġs outh
Ġst r
Ġ1 4
ĠJ an
Ġv ar
ĠP ro
ra ph
er y
ĠB e
Ġg un
ord ing
e b
al es
Ġe ver
end ed
on y
Ġ19 3
at ely
Ġs ince
Ġp rom
Ġg r
ur al
a x
ĠG u
ĠO ct
Ġ Q
m ed
b le
ical ly
av y
ĠSt ates
o x
av ing
l ing
Ġwe ek
ore d
u ary
Ġst ate
Ġ $
Ġm ajor
ĠF ran
on t
Ġto ok
ĠOct ober
if ied
ĠN ov
t ing
y s
ect ion
ĠE u
ect ed
Ġw ill
em pt
ĠI I
iv ing
Ġrece ived
l ish
b all
Ġpart ic
Ġpubl ic
il ity
ĠJu ly
ra ft
Ġcl ass
a e
Ġre st
iss ion
Ġc are
ag ue
Ġt it
Ġplay ed
Ġl ine
Ġhe l
ĠD ec
Ġwh at
Ġb ook
Ġd et
ĠH er
ion al
Ġsy stem
p le
b y
Ġn ame
op s
ant s
Ġl ast
Ġn ow
Ġ2 5
Ġpro t
Ġp ort
Ġbu ild
ĠJan uary
Ġ [
Ġ ]
Ġinc re
a im
ĠC an
es p
Ġst orm
ĠChr ist
om et
Ġser v
Ġre f
iv ely
Ġ3 0
ĠM c
he l
Ġl ate
Ġinclud ed
ĠP h
Ġcon f
Ġd ue
ag es
Ġm ar
Ġt ri
ĠY ork
Ġdescrib ed
re t
d om
ĠD uring
a ur
Ġw on
ĠK ing
an c
Ġj ust
h am
Ġm uch
a pp
Ġsing le
ĠA pr
ap an
ĠApr il
Ġgovern ment
g in
Ġal low
n er
od y
. .
Ġs l
i od
ide o
Ġw orld
ĠJ apan
g et
Ġde ath
o ad
Ġapp ro
s ion
Ġatt empt
it al
Ġcomm and
ĠNov ember
Ġk ill
ro te
Ġan other
it ions
Ġle ft
Ġc amp
Ġm en
Ġ. ..
ent ly
Ġal though
a i
Ġwith in
Ġsh ort
Ġpos s
g er
Ġo ld
ĠP ar
or p
Ġn amed
ec h
Ġw rote
ĠEu rop
en e
ĠM us
Ġev en
Ġbu ilt
ur ther
Ġor gan
ra nd
c hed
Ġt urn
Ġto p
om in
pt ion
r act
Ġb ased
id ge
Ġtr ack
ay s
Ġpl ace
ĠMar ch
it ary
ĠB att
Ġpro g
Ġch ild
ren ch
Ġp ower
Ġth ird
ĠG e
ĠDec ember
Ġprev ious
n ess
Ġev ent
Ġp ar
Ġst ar
Ġspec ies
ul ation
ĠN ational
Ġ if
Ġc ap
Ġest ab
Ġv is
Ġdif fer
ard s
i pp
Ġs chool
ac hed
Ġbel ie
ĠB y
Ġver y
ĠA nd
Ġb re
un g
Ġp erson
Ġh ome
il ar
Ġd r
os p
Ġex pl
Ġper iod
l er
Ġw ater
an ces
Ġl ist
Ġre qu
ĠThe re
Ġg ames
Ġh al
m s
Ġt em
v es
am b
Ġh and
Ġre view
ivers ity
ĠC ity
ĠR iver
ĠF rench
Ġ19 2
qu e
Ġen g
is on
o int
ed er
Ġb est
Ġs ent
ag ed
Ġre pl
Ġth ose
iv en
Ġh um
id es
ĠEurop e
Ġw ind
Ġ1 00
Ġmon th
es e
en se
ĠH is
ĠW hen
oc i
ĠEng land
Ġm ed
s ide
Ġd est
ru ction
he st
at ure
Ġl ed
ĠN o
Ġc our
el t
Ġ201 0
Ġb o
Ġg reat
Ġc apt
en ces
ak en
le t
ĠF l
Ġfam ily
as ter
i ence
Ġ Â
Ġb as
Ġm ake
ĠSt e
m p
Ġv ideo
Ġorig inal
Ġo pp
Ġ200 8
Ġne xt
Ġc ame
in c
Ġd em
ak es
Ġt yp
ur ric
ent ion
Ġst ill
ĠCom p
Ġt erm
Ġs ide
Ġm ark
Ġmov ed
Ġro le
Ġle g
Ġcontin ued
ent ed
Ġst ory
ĠO r
al k
Ġf ew
Ġloc al
Ġw ay
Ġ200 9
Ġs old
Ġc aus
ĠD ivision
Ġw est
Ġhist ory
Ġm id
ot t
ĠCh urch
g y
at ter
i or
ĠT e
Ġv iew
l ine
b s
o on
Ġhe ld
re w
ut ed
Ġfor ces
ain ing
iv al
emb ers
Ġsu g
Ġa uth
Ġfor mer
ĠP r
Ġis s
Ġadd ition
re ad
Ġro ad
us s
ĠA m
ri end
le v
ĠB ro
en g
l u
Ġan t
Ġc over
Ġof ten
n e
ĠCh ar
s h
Ġe ast
Ġf urther
as tern
og raph
Ġconsid ered
Ġcare er
Ġeff ect
ĠE d
ĠW e
Ġst and
in ing
ar n
Ġto wn
ĠW ill
Ġcl aim
Ġr ight
Ġc r
ron t
Ġin it
Ġde b
amp ions
c hes
et er
Ġ2 1
Ġto t
Ġ200 7
ĠOn e
Ġpos ition
s elf
or ies
Ġex per
Ġd el
Ġar ch
Ġn ort
ĠSt ate
Ġmil itary
Ġmat ch
Ġ2 3
ĠW ith
en c
Ġd ra
ĠA b
Ġhal f
Ġt ropical
ĠA cc
tern ational
Ġsim ilar
Ġhel p
Ġsug gest
p ar
ro y
Ġstr ong
Ġ2 4
Ġdef e
Ġf ire
Ġcon v
is ter
Ġb and
ĠC ount
ĠR ec
Ġim port
Ġplay er
Ġre fer
Ġwith out
ĠG ener
Ġc ur
Ġre al
Ġpol it
al ion
Ġday s
Ġtr ad
urric ane
Ġpl an
Ġcomm un
es tern
Ġm embers
Ġ201 1
Ġt ake
ĠT r
Ġsp e
eb ru
e ad
Ġ X
Ġt w
Ġm y
ri ed
Ġcomp any
Ġcl ub
im ent
ĠP er
Ġcomm on
Ġa v
Ġam ong
Ġ2 2
Ġle vel
ens ive
Ġdiffer ent
on es
Ġy ou
Ġever y
Ġp ost
Ġrecord ed
Ġpro p
ot s
Ġ el
it ar
Ġh owever
ĠF ebru
ĠE ar
ĠAl though
ĠFebru ary
Ġe lect
Ġbe h
Ġinv ol
au gh
Ġf ore
Ġ201 2
ĠAustral ian
it er
ĠP ort
Ġrep res
e al
Ġ200 6
ĠEng lish
Ġar r
y n
ar r
Ġpubl ished
ĠA f
Ġ2 6
Ġl ow
iz e
ress ion
re en
y le
her n
ĠAcc ording
Ġf ind
Ġship s
Ġor der
le ar
Ġwrit ten
er ing
itt le
ou ther
Ġm ag
Ġt ro
at ic
b e
Ġv ict
Ġtot al
is c
ic es
pl oy
Ġf re
Ġp at
ro du
Ġrele ase
Ġorig in
outher n
ĠS u
ĠAustral ia
Ġf ield
Ġpartic ular
Ġsong s
Ġtit le
Ġbec ome
Ġf oot
ĠA ir
Ġcomp et
Ġ er
ĠAn g
is ing
ĠP ark
Ġreport ed
Ġcontro l
ĠGener al
Ġl ost
ĠM ich
ric k
Ġpro f
Ġor d
Ġpro ject
re et
us h
Ġcom b
ĠCan ad
Ġt imes
Ġh aving
ac es
se qu
Ġsur v
Ġf t
Ġg ave
Ġt er
ay ing
ĠC ent
Ġprodu ced
Ġst at
Ġver sion
ĠLe ague
Ġs k
Ġc y
ur s
es c
ĠE l
ampions hip
ĠAs s
re st
ĠW est
ĠUn iversity
Ġ !
Ġe qu
ren t
Ġl ight
ĠM in
ĠB ar
Ġ2 8
Ġprodu ction
iet y
oun g
Ġsign ific
Ġl ess
Ġch ang
Ġauth or
ir on
ĠGe or
re am
ab ly
our s
ail ed
ĠRe g
lev ision
Ġhist or
g es
Ġj o
ĠThe se
Ġne ver
Ġinf lu
ĠR ich
il le
Ġcount ry
qu ad
al d
Ã ¡
Ġg iven
ĠR oman
Ġar m
Ġa ff
Ġs ite
Ġm aking
Ġfor ce
Ġ &
Ġw ant
us ed
Ġ2 7
Ġinclud e
Ġreturn ed
ec hn
Ġpop ular
ĠAf ric
a ul
w ork
Ġs ol
Ġ5 0
Ġg round
n a
it her
Ġob s
Ġp ress
Ġe ight
ĠM iss
ver s
o ard
Ġs it
ĠR oad
Ġ201 3
Ġdest roy
ad es
iv il
Ġis land
ant ry
Ġcrit ic
at or
Ġn ight
Ġst ated
ĠL es
iz ation
Ġac ross
ĠP ol
in ation
as k
Ġst ruct
m e
Ġre ached
Ġch urch
ĠWill iam
Ġf ar
Ġdevelop ed
Ġse en
r ing
ff ic
a un
f ic
f ord
ap e
ĠAmeric a
Ġpop ulation
ĠWh ile
ĠJapan ese
Ġc ult
a ff
Ġl im
Ġpres ent
Ġmil es
Ġprog ram
Ġann oun
r ation
ree k
ĠS im
ĠS ong
i us
Ġf act
Ġc ross
um ent
Ġsignific ant
s p
Ġ2 9
Ġsh ould
Ġestab l
Ġear l
Ġ19 0
ĠJ ack
om b
Ġus ing
oy al
Ġchild ren
c ess
Ġre ad
om en
Ġa way
in ess
Ġn ov
g round
ĠL ond
Ġf riend
Ġr ad
Ġgun s
a ign
ĠO ld
olog ical
re g
Ġd iv
Ġhim self
ĠCount y
Ġh ow
Ġman ag
c raft
Ġp it
al th
ĠM ount
ĠD av
Ġdevelop ment
Ġestabl ished
ĠLond on
im ately
Ġmod ern
Ġb ody
Ġbatt le
Ġm m
Ġform ed
Ġthough t
e ared
Ġb ar
Ġp ra
Ġs ound
Ġperform ance
ig ade
ist ed
op e
Ġc ast
Ġh ig
Ġg en
Ġthrough out
i ers
Ġw ent
Ġf elt
Ġp ain
Ġare as
are n
ar ch
m ost
Ġc at
ĠI m
ri e
Ġkill ed
Ġw at
Ġto ur
ĠH igh
ĠSc ient
er o
Ġl aw
ut es
Ġpr im
ĠBl ack
Ġs omet
Ġf ight
Ġg ood
ĠN e
Ġsuccess ful
ĠC al
Ġint rodu
yl an
i ec
Ġd ied
Ġg l
em ents
Ġse ven
ĠD ylan
Ġnot ed
ord s
Ġc ou
ac y
ol l
ri pt
Ġr ange
ubl ic
f ield
it ive
Ġdisc over
Ġf ull
Ġto o
Ġst e
Ġimport ant
a f
Ġs oc
Ġm ount
ir c
Ġad m
Ġloc ated
Ġt en
Ġf ront
ĠE x
ĠAr my
Ġbl ack
Ġstart ed
Ġp ut
Ġdec l
Ġbuild ing
ĠE v
ie f
Ġne ed
ĠH a
Ġch art
ĠPh il
Ġ ide
Ġhum an
ic o
ĠG l
Ġ3 1
Ġact iv
Ġperform ed
Ġvar ious
ep end
ĠComp any
et h
os aur
Ġrem ained
Ġwrit ing
Ġc as
Ġl ook
Ġte levision
Ġfe et
f all
Ġse e
Ġtro ops
ĠO l
way s
Ġoffic ial
c on
re land
Ġf em
Ġf ather
ĠF eder
Ġcaus ed
it ted
Ġf un
Ġn ational
ĠI reland
Ġpo em
c om
Ġw id
Ġwh ite
og n
Ġh ouse
ĠT o
ĠJ ames
ri es
Ä ģ
Ġt echn
Ġhe avy
Ġinter est
ĠS ec
id ence
ĠH ar
Ġconst ruction
Ġa ge
Ġre d
Ġs um
he m
ar a
Ġg et
Ġ200 5
it ing
ĠM on
ĠH ist
Ġplay ers
uc k
g r
Ġst ri
Ġst yle
ĠP al
um p
a el
Ġent ire
Ġs w
Ġk e
id d
in o
ĠK e
Ġev ents
Ġdo es
Ġset t
ĠIs land
ĠR ober
our n
Ġm ix
Ġre v
Ġbe gin
Ġv ill
Ġab le
Ġrel ig
quad ron
ress ed
Ġco ast
Ġser ved
Ġpe ak
as ing
Ġcamp aign
Ġf av
ĠB ut
Ġpolit ical
Ġl ik
ĠY ou
en ced
Ġ4 0
Ġreg ion
lect ed
Ġcre ated
Ġt re
en ed
ĠC o
m ar
le et
Ġon ce
Ġg od
p or
id s
du ct
Ġf ig
ent h
ĠC are
ĠM ag
Ġfollow ed
ĠBatt alion
ant ic
Ġ18 9
Ġother s
ĠAt l
Ġprom ot
Ġp ri
Ġag re
Ġwork s
Ã Ń
Ġs on
st er
ab or
ĠâĢ Ļ
Ġro ute
Ġest im
l ess
Ġcomple ted
fic ult
Ġcon d
ell ing
Ġannoun ced
ĠC ro
Ġ200 4
he re
Ġbec om
d ay
ĠS y
Ġr ank
Ġle ast
Ġme et
Ġdif ficult
Ġc oun
Ġh old
ĠD u
Ġadd ed
Ġb all
iv id
ra b
Ġorigin ally
Ġv al
rough t
amp le
i que
an a
ĠS w
pl ay
ough t
ric t
Ġrel ations
Ġcharac ters
Ġocc ur
Ġf ac
Ġb us
Ġapp eared
Ġro ck
Ġmonth s
Ġc ert
ĠH am
Ġspec ial
b r
Ġ ident
ur b
k i
Ġs outhern
ra p
Ġcol le
Ġ round
Ġp red
Ġl oss
am ent
ect s
Ġb ase
Ġl ittle
od es
Ġcom ment
Ġass oci
c her
ĠM er
ĠR oyal
Ġcon n
ĠO ther
Ġpro cess
Ġsu per
Ġbro ad
Ġm i
ĠA ct
ĠS om
Ġinst ead
Ġdam age
Ġb orn
em y
al ity
Ġtrad ition
Ġ201 5
Ġair craft
c er
al y
et t
ĠKing dom
y ing
ĠR out
pp ed
Ġfeat ures
Ġ200 3
Ġa ud
or se
ĠT own
un k
Ġdec ided
Ġbeh ind
Ġcy cl
o ice
Ġl ack
Ġen c
Ġacc om
enc y
c il
Ġe astern
Ġkn ow
Ġserv ice
Ġre du
ĠR ep
Ġle t
ĠT wo
Ġg row
Ġnov el
o o
ĠS an
ĠM ad
Ġn on
um b
Ġv ol
Ġsu ff
ign ed
Ġ18 8
Ġhigh way
r ay
Ġa ward
Ġr iver
Ġcrit ics
he ast
Ġc irc
ĠE ast
Ġs aw
ĠScient ology
Ġt aken
Ġoper ations
ĠMe x
ĠRout e
Ġf if
Ġm ass
ĠM or
ĠB ra
Ġrec ogn
ĠMc C
m ing
Ġw ife
Ġto wards
Ġcl ose
ang u
Ġfour th
a ult
n ed
Ġa ver
Ġa ction
ĠS ome
ĠB ill
g g
Ġv oc
Ġe ither
ĠP res
Ġan im
op h
ĠSt reet
ĠCh ampionship
o ff
Ġevent ually
Ġt est
at a
at ors
ec ut
ist ic
ach ing
ĠDav id
Ġcl os
Ġre b
ĠS er
ĠFran ce
Ġrepres ent
Ġh urricane
ur g
ol ution
ill a
Ġse par
Ġsc ored
Ġapp oint
Ġsub sequ
al t
Ġl ive
Ġimp ro
c ast
Ġ z
ic a
Ġm other
Ġfor t
Ġal most
Ġpro ble
Ġcol l
Ġb ird
ĠW ales
Ġind ivid
Ġprof ess
Ġst age
if f
Ġ18 5
az ine
Ġnort hern
Ġst ars
Ġcom mer
ud e
Ġy oung
ĠMus ic
Ġc ut
Ġm iss
Ġse x
Ġc e
Ġf all
ĠF ollow
Ġ3 5
i ber
Ġw all
Ġre n
Ġas k
av al
ĠE m
Ġcent ral
ĠInd ian
Ġfeat ured
Ġc or
Ġl aun
ap er
ĠC up
ĠB o
ĠH ill
ĠN Y
Ġcre w
ograph y
o res
Ġd ou
ce ed
ĠG rand
Ġh on
ort s
Ġun its
med i
ĠR ock
ĠIn f
Ġex ample
i ol
Ġh ost
ot a
Ġr ul
Ġplay ing
Ġac cept
Ġmov e
Ġw omen
st on
st it
ul ly
Ġar g
Ġresp ons
Ġgener al
Ġbelie ved
ĠFollow ing
w est
ĠA g
end ing
Ġgo al
Ġ iron
Ġb rought
am a
em or
ch ie
Ġ5 00
Ġm ot
le ment
Ġk ing
ĠRober t
ĠCare y
Ġc ase
Ġto get
av es
ĠIn ternational
Ġtoget her
m en
u ation
ar ter
Ġm ater
ĠG od
Ġex c
Ġwind s
a ut
ĠS l
ĠB er
c ial
e um
Ġn uc
Ġde v
Ġpl aced
Ġlar gest
Ġdirect ed
Ġrelations hip
Ġm ph
ĠM ed
Ġst ru
ĠP art
ren g
Ġlead ing
Ġfin ished
i ation
Ġl angu
Ġint ens
wo od
Ġ18 6
Ġup on
Ġins p
Ġcour t
Ġs our
Ġm ember
ĠJ ew
Ġcont ract
Ġind ust
Ġprov ided
b oard
c o
ent ial
ĠP aul
Ġr ather
ĠBr igade
Ġweek s
he ad
Ġsh ot
Ġfl ood
Ġcur rent
v ing
ĠF rom
Ġopen ed
or ing
ĠD ay
ĠG ame
Ġse qu
Ġem ploy
u el
v ille
Ġc reat
Ġh y
ĠP e
art ment
ĠTh om
v al
ic ated
ish ing
Ġappear ance
Ġc ivil
Ġe y
ber t
ight s
c ing
Ġpro b
Ġv e
Ġinv est
ĠComm and
Ġopen ing
Ġele ments
g o
u le
Ġ -
ĠH en
Ġst reng
A F
ĠP re
Ġreg ular
i h
at in
Ġin form
as ion
ĠF irst
Ġdirect or
Ġdesign ed
Ġpoint s
Ġinvol ved
Ġearl ier
Ġc ost
Ġc ell
Ġh ours
id a
id ing
Ġy ards
Ġem b
Ġresp ect
Ġgener ally
Ġallow ed
h ing
Ġre ve
ict ion
Ġme as
ĠWh ite
ĠGeor ge
Ġf oc
Ġcon duct
ĠEurope an
Ġs aying
Ġout side
Ġposs ible
er ous
Ġbe g
ĠN avy
Ġme an
Ġqu ick
Ġb i
Ġb urn
ĠS m
ĠM y
ĠV iet
en es
Ġeng ine
Ġrepl aced
Ġwant ed
c ent
n ow
ĠM ark
Ġg ra
con om
l s
u k
Ġm er
Ġre act
ĠD ep
ap s
ell ow
n ar
ĠA c
ĠB est
Ġdes p
Ġvict ory
Ġw ood
ing ton
ec k
Ġh om
Ġex ist
Ġprevious ly
l iam
t ar
Ġf und
ĠC r
Ġl eng
ĠR h
Ġwork ing
Ġparticular ly
Ġestim ated
Ġab ove
Ġ18 7
Ġ201 4
Ġjo ined
t o
et work
Ġpr act
Ġmet res
ĠQ u
ĠChrist ian
ĠAng el
Ġbus iness
Ġ ill
Ġ esc
ĠM ost
ĠI r
ĠP ac
ĠR ed
z e
Ġc lear
ĠD esp
ĠK ore
Ġ200 1
ines e
ĠL ove
Ġse em
Ġ200 0
Ġne g
Ġtra vel
ann ed
ĠFl or
f or
os ition
ĠCh inese
Ġrem ov
Ġ197 0
s el
u ter
Ġa chie
it a
Ġh it
Ġfor ced
ul a
Ġdra w
ĠDesp ite
b or
m a
Ġc op
ĠH ouse
pp er
Ġdis s
liam ent
Ġl y
Ġwork ed
Ġtrans port
Ġav ail
Ġpra ised
Ġm ach
ĠC orp
ĠM o
ur t
Ġpro te
on st
Ġp ers
Ġp ast
Ġwith d
Ġtrans fer
Ġleng th
Ġb ur
Ġin j
Ġm ult
Ġsc ene
Ġpo et
r ated
Ġre ason
ec ess
ain t
ell ed
ĠZ eal
Ġstud y
ĠZeal and
n el
Ġs low
at ural
it z
Ġf r
Ġf ree
Ġth reat
ĠM ac
ĠL a
os ing
ĠV al
Ġra in
Ġmain t
ĠPl ay
Ġincre ased
p s
t ies
Ġcon dom
ĠO per
ĠK h
Ġres ear
ĠBrit ain
Ġord ered
st e
Ġconst ruct
ĠBatt le
e e
Ġth ink
Ġst ation
op p
ĠMich ael
Ġmater ial
m b
ĠR uss
ag o
ĠÂ °
ĠSu per
Ġ199 0
Ġreg ard
Ġob ject
ĠLes nar
ĠMex ico
ĠC reek
ĠB ay
ĠW al
ĠW il
ak er
Ġev idence
ĠAtl antic
n es
r d
ac ing
ĠL ater
ĠG al
Ġ4 5
ib ility
Ġacc ount
Ġfoot ball
Ġt rib
ĠG reat
Ġv iol
Ġrem ains
Ġra p
Ġsy n
Ġmanag er
Ġn omin
ĠM ary
ir th
Ġwh om
and ing
Ġpo or
Ġso on
Ġh ous
ĠH all
Ġw estern
an ia
ĠT or
Ġl ines
ĠD on
Ġr ace
Ġ6 0
Ġcent er
ific ation
ĠPac ific
Ġf ace
ch ing
ĠG overn
ĠEar ly
ĠRep ublic
u z
ĠO s
rib uted
read y
Ġhig hest
ĠFeder er
Ġ Ã
it es
le g
om s
Ġar my
ĠFlor ida
w h
Ġt reat
ul f
Ġra il
ĠQ ue
v est
ar ies
an ish
Ġd on
Ġg re
ĠP o
ĠG old
Ġch ange
Ġ200 2
Ġpartic ip
Ġturn ed
ĠÂ £
s hip
Ġn ine
Ġsur f
Ġfem ale
Ġaver age
l ict
Ġp en
ĠS chool
ess ion
ord an
Ġinter view
Ġarr ived
ĠRich ard
por ary
Ġy ard
Ġsign ed
Ġbre ak
Ġter rit
B C
Ġt aking
Ġp ur
ĠS ch
cl us
Ġits elf
Ġsub ject
Ġpr iv
ank s
Ġbl ock
Ġclaim ed
ĠInf antry
ĠO p
Ġdam aged
ĠHer o
Ġstruct ure
ecut ive
Ġavail able
er ved
Ġl ove
el er
Ġhe av
ĠG r
Ġcont r
Ġsur round
Ġcommer cial
ĠThom as
ou l
ĠJ ordan
Ġim medi
Ġstud io
Ġocc up
Ġdefe ated
Ġp iec
ou ri
ĠA pp
Ġinit ially
Ġcommun ity
Ġd ro
Ġh ard
ĠH ol
ab it
ĠUn ion
Ġtra ining
Ġbro ther
ĠReg iment
c hest
h ib
k y
Ġs ection
ar ily
Ġb ill
ver t
ĠOl iv
Ġdesp ite
b and
Ġc al
Ġn ames
ul ated
ĠO d
Ġdis p
Ġdep ression
gy pt
ĠPres ident
x imately
ĠA ward
ĠM et
Ġg old
ĠD r
ri an
Ġ3 6
ĠV ir
Ġt ru
ĠE gypt
Ġpass ed
ĠCanad a
Ġvill age
Ġ esp
Ġin ternational
Ġto ld
Ġe conom
Ġwh ose
Ġex cept
fer ence
Ġqu arter
Ġh ar
Ġal ready
ate g
ĠU nder
Ġ7 5
Ġincre asing
o or
Ġc ru
ar ters
il a
Ġl atter
ĠM a
ĠB el
ĠY ear
Ġ196 0
ĠCar ol
Ġrequ ired
Ġprob ably
Ġw ide
as es
ĠT om
ĠB us
ĠTh at
Ġpart s
Ġappoint ed
Ġst ates
ri ption
Ġk ey
Ġ3 8
Ġ18 3
Ġestab lish
ste in
ar i
ur ity
ra g
um e
ĠSc ott
Ġdeb ut
Ġrelig ious
ĠViet n
d own
in ist
or ation
Ġf ly
ĠT imes
Ġpro per
Ġpol ice
Ġcomple t
Ġgr ad
Ġsold iers
ĠAr t
Ġcap ital
ĠMiss ouri
ĠHen ry
A S
n ey
Ġl iter
Ġfor ward
th let
ran ch
Ġbet ter
Ġass ist
o id
á ĥ
Ġm ust
ĠT em
Ġab s
Ġcol on
Ġd en
Ġd ate
il ities
ĠN ot
Ġcom e
Ġde ad
Ġrem aining
Ġsuggest ed
Ġbegin ning
Ġs ize
at ory
Ġg ive
Ġan c
Ġen ough
Ġgo ing
Ġwin ning
Ġant i
Ġa p
Ġp ot
ĠT ra
ĠF ort
ab y
ab ility
Ġdec ision
Ġend ed
hen s
Ġdet erm
g u
it or
Ġf ailed
ĠS un
ĠH el
Ġwrit er
Ġacc ording
Ġind epend
Ġnear ly
ran g
at ives
Ġto uch
ĠT ech
ĠC ong
ĠM al
ol ic
ĠF e
ĠN ero
ĠAfric a
g l
k s
Ġs ect
ec ially
ĠF ilm
ĠInd ia
Ġgo als
Ġshow s
Ġcomple te
Ġph ys
Ġlangu age
Ġa ut
Ġm ight
ĠS quadron
Ġl ower
Ġsc ore
ĠChar les
Ġintrodu ced
Ã ³
on se
Ġf ut
ĠP et
um ents
Ġrem ain
Ġfe el
ĠAss oci
o f
Ġto w
ill ery
Ġrecord ing
Ġdep ict
Ġrun ning
Ġcapt ured
d en
Ġ ?
ĠC ard
ĠC amp
ĠM ont
ĠP eter
ĠO t
Ġsp ent
Ġle ague
ĠV ict
ric s
Ġ8 0
ron ic
Ġmin or
ĠSp anish
ĠGerman y
Ġed uc
ĠBro wn
augh ter
Ġpri or
Ġesp ecially
i est
l or
ĠM any
id ents
ĠP at
est s
Ġsupport ed
Ġappro ximately
Ġdestroy ed
Ġlim ited
ĠIr ish
g a
ar ing
ĠS ing
Ġch ap
ĠV ar
Ġint ended
Ġgroup s
Ġiss ue
ĠHist ory
ĠW he
Ġ198 0
Ġm ur
Ġd ivision
Ġn etwork
ĠM il
od ies
Ġde al
qu are
Ġim m
Ġreview s
Ġdiscover ed
Ġf leet
ĠM os
ra w
Ġk il
ry ing
Ġresp onse
Ġreve al
Ġs at
Ġd oc
ĠA wards
Ġst aff
Ġinclud es
Ġsomet imes
in ct
re ak
Ġsc reen
Ġoff ice
in ent
Ġf ood
il s
ĠN ort
ĠSt ud
Ġ18 4
Ġpos itive
Ġlar ger
Ġrun s
Ġarch ae
ĠCanad ian
Ġchang es
rie f
Ġcert ain
is es
Ġin n
ĠT ur
ĠW estern
ĠAn other
orn ing
Ġaddition al
Ġmag azine
Ġagre ed
f ect
Ġ ri
Ġm ale
Ġh app
ĠC oun
ord er
ĠCol le
Ġmix ed
b ack
h a
u ing
Ġs ch
ĠC our
ish op
pl es
Ġsc ript
Ġprov ide
ĠOld ham
Ġfight ing
Ġc he
an ies
ĠS oc
ĠP ri
Ġex am
qu arters
Ġj ourn
Ġsoc ial
Ġs em
Ġf ail
ic ation
Ġd omin
ad s
ĠJ e
Ġmost ly
i res
ly mp
Ġfeat ure
ĠFran k
ed y
le x
ĠB ur
ĠH urricane
Ġde ep
hed ral
Ġus ually
Ġpos itions
ann a
Ġfore st
Ġfre qu
Ġpress ure
ĠO lymp
Ġun s
Ġp air
Ġm ention
ch ange
Ġcomp l
Ġam ount
ĠII I
Ġtyp e
is er
Ġb omb
ir t
ig an
ĠH ot
ĠR ad
ĠL aw
ĠIn ter
ok e
Ġad op
Ġmin utes
Ġgu itar
f act
Ġ ens
at ively
ĠS erv
st ant
ir ing
ĠO ver
ĠU K
Ġ199 9
Ġcar ried
Ġrad io
osaur us
Ġbecom ing
Ġfut ure
Ġs il
um n
Ġsh own
ĠCh ina
Ġun c
te en
Ġ7 0
Ġsmall er
Ġdefe at
Ġsubsequ ently
is ions
ĠV er
osp ital
ĠOliv ier
b ers
Ġw ord
ĠT V
ĠT er
ĠS ince
Ġcon clud
ill s
Ġcont em
Ġpres ident
Ġfav or
Ġlik ely
m on
m ond
u nder
as y
ent y
ĠJ in
ĠE ver
ĠSt ar
Ġad apt
Ġ199 5
Ġteam s
Ġcoun ter
N A
he t
it te
ĠM art
Ġv ot
Ġper cent
ĠAn t
oy s
Ġrefer red
ĠJew ish
Ġquick ly
u als
Ġt ons
Ġw oman
ad y
ad ed
ĠB ack
Ġst ay
ĠR es
ĠD an
Ġ3 2
Ġu nd
Ġqu est
Ġent ered
Ġloc ation
Ġproble ms
r or
on na
Ġw ound
ou d
ĠC ath
om m
ĠB en
ĠR ac
ce an
and s
ĠO ff
per or
ĠGu itar
ĠVict or
i os
Ġin ters
Ġd er
Ġl o
ĠP enn
Ġnot es
Ġtem per
Ġrank ed
Ġfif th
ĠBill board
ĠAssoci ation
Ġb irth
im um
un t
Ġ4 00
Ġapp l
Ġprofess ional
g en
g ely
Ġf low
Ġb rief
Ġst ra
ra el
Ġrel ated
ĠSec ond
Ġke ep
Ġsurf ace
d le
Ġd i
ĠT ropical
im ate
if orn
Ġse a
Ġle aving
Ġun it
Ġmov ing
Ġind ic
Ġconc ern
ĠFor ce
Ġmed ia
w ell
Ġs elf
us p
Ġ3 3
Ġ9 0
Ġam b
Ġoffic ers
ĠMan ila
Ġmajor ity
Ġconstruct ed
n y
Ġth ick
Ġen v
Ġcons ist
Ġstud ents
Ġmin ute
Ġcomple x
Ġconc ert
Ġvis it
Ġide a
Ġsuff ered
Ġlaun ched
g ar
h y
r at
s es
an ced
and on
Ġattack ed
Ġrap id
ĠT our
ĠS ur
Ġsh oot
ĠIt al
Ġthem sel
Ġass igned
Ġ195 0
Ġprim ary
ĠVir gin
Ġthemsel ves
Ġm akes
Ġal ways
ĠL ight
ĠL atin
Ġover all
Ġlar gely
Ġart illery
Ġdisc uss
Ġeffect s
ĠCal iforn
n ers
Ġ ult
er a
ĠHe ad
ĠIs rael
Ġspe ed
Ġsum mer
ĠJ er
Ġle arn
Ġfilm s
Ġcre ate
ĠCent ral
Ġoccur red
Ġce le
ĠCoun cil
Ġc m
ĠT re
Ġre in
ĠS am
Ġl ink
ĠM r
ĠH ow
Ġr an
Ġcont ains
Ġ199 8
Ġcan n
Ġconsid er
aren t
Ġly rics
Ġc er
all ed
Ġatt ract
Ġprodu ct
Ġlong er
Ġcrit ical
Ġattack s
h ou
v ens
Ġc red
Ġd ark
Ġe mer
ac hes
th ing
ul pt
ĠW ood
ĠJ ose
Ġ3 00
ĠAr ch
Ġtra ffic
ĠBr ad
Ġinvest ig
ĠWhe eler
Ġf ans
ĠU p
ĠSt orm
Ġim age
Ġmet h
Ġsl ight
Ġbroad cast
ro wn
Ġl ived
ĠM ajor
Ġde g
land s
Ġmov ement
Ġmus ical
Ġ194 0
Ġappear s
Ġcontro ll
Ġincre ase
Ġstat us
ĠCro at
Ġkil omet
Ġsch ol
Ġl ab
ĠD em
Ġab andon
Ġj ob
Ġ201 6
Ġpre m
Ġcomm ission
und red
Ġconf lict
Ġexper ience
Ġprop osed
Ġcas ual
Ġask ed
ĠCaliforn ia
R A
Ġp urch
Ġd oll
Ġsc enes
Ġsc ulpt
Ġacc ess
Ġmon ey
itt ing
l in
Ġt ar
an i
im b
ĠH aw
Ġv oice
Ġj ud
ĠSe ver
Ġform s
Ġele ction
Ġgr ant
Ġlist ed
e x
z y
in ated
Ġb ow
ĠF ore
ri age
art s
Ġbel ow
Ġcommand er
Ġrequ est
inc ip
Ġinflu ence
Ġobs erv
Ġremov ed
m as
ĠC amb
ĠR oss
ce nd
ew ay
ous ly
Ġpart y
Ġcent re
ĠComm ission
Ġbr ing
Ġ193 0
ĠSte vens
Ġassoci ated
k en
er ve
er gy
ed ing
Ġc le
Ġd ram
Ġre ach
ĠS ov
Ġn ature
ĠR A
ĠD ist
Ġcon cept
Ġend ing
Ġme ant
Ġnum bers
Ġac qu
Ġd aughter
ĠR ob
and er
Ġpl anned
Ġser ious
Ġcycl one
ĠNort hern
Ġb ound
Ġm om
Ġd ed
ĠF I
ul u
Ġle ave
ru it
Ġdis m
Ġear th
Ġterm s
ĠEar th
ĠMich igan
Ġchang ed
ĠAfric an
Ġpriv ate
ĠRac hel
a wn
g ing
Ġth us
Ġl if
ĠB u
ĠL ake
um ed
Ġunder st
ĠAt t
Ġs usp
Ġb ad
Ġm orning
ĠA rab
Ġst one
ĠL ou
Ġpl at
Ġpl ot
Ġu pper
yl v
Ġperform ances
Ġperson al
Ġaward ed
Ġbird s
ĠCour t
I I
l o
it ation
it ect
ĠS al
Ġg ot
Ġpl ans
Ġun able
Ġwhe ther
Ġtr ade
Ġra re
Ġbuild ings
ĠTe x
Ġdou ble
at re
Ġl ay
ĠB C
ĠI f
ĠR ose
Ġcon ver
ri a
if y
Ġch all
Ġfl ight
Ġoper ation
Ġfin ally
Ġcult ure
Ġresear ch
t r
Ġt ell
Ġn atural
ir l
ĠD o
ĠD el
av en
ian o
ell ig
Ġwe ap
hip s
Ġrecord s
Ġinf antry
ĠCent er
Ġfoc us
Ġconduct ed
itte e
ĠH u
Ġas p
ĠJ im
ort un
Ġcomp ared
ĠTh ree
Ġsc hed
ail s
Ġcol lect
ĠCl ub
Ġiss ued
Ġcompet ition
Ġcomment ed
Ġstreng th
Ġmean ing
Ġt akes
Ġf ell
ĠS en
Ġl iving
ĠN ic
ĠJ ane
ect ive
Ġy et
ĠCh ic
ĠIt s
ail y
augh t
Ġaccom p
i ant
Ġd ig
ĠTh rough
Ġthem e
Ġcover ed
Ġmeth od
i qu
ĠT ay
Ġco ach
Ġpres ence
ven ue
Ġpol ic
Ġprev ent
Ġl og
ĠB ow
ĠF orm
if a
Ġ3 7
Ġ4 2
Ġnew sp
Ġra ised
Ġepis odes
Ġadv ance
Ġbatt les
Ġattempt ed
Ġfig ure
Ġindust ry
b ury
s en
Ġt alk
en ing
Ġb atter
ĠT rans
il i
us band
Ġhe alth
Ġoff ered
olog ist
ĠMus eum
Ġnort heast
Ġrespons ible
c ar
en on
Ġd one
ĠT w
ad o
ĠB ob
ist ics
ri al
ĠE mp
Ġcomp anies
Ġwho le
Ġear ned
Ġ199 3
ĠEn ter
Ġmark ed
Ġexper i
ĠPort ug
Ġimmedi ately
ĠColle ge
o ir
t ain
Ġo ur
Ġb ig
Ġto urn
Ġg iving
ĠH o
ĠG o
Ġv ia
oc r
Ġwe aken
Ġmat ches
ĠPar liament
Ġschool s
Ġer a
ĠPhil ipp
emor ial
Ġmur der
ĠTex as
r as
it ude
Ġp ark
ĠB oth
Ġst ories
ĠJ ust
Ġse lected
Ġ3 9
Ġpre p
Ġdirect ly
ipp ed
Ġhelp ed
Ġ +
Ġs al
al ys
Ġp urs
Ġ4 7
Ġ199 6
Ġstart ing
Ġph ot
ĠHa ifa
Ġbeg ins
ĠCorp s
ĠChic ago
b ar
Ġh undred
ĠS ar
Ġcomp osed
Ġ199 7
emb ly
ony m
Ġmar ried
Ġindivid ual
ĠAc ad
Ġmach ine
ĠTay lor
k an
v ement
Ġp ay
ĠC ross
ĠB ey
et ic
ol k
ow s
ĠN or
Ġus es
Ġnear by
ĠAd m
Ġtradition al
ĠDep artment
Ġgre ater
ĠCath olic
ĠSever al
C A
Ġc ause
Ġh op
Ġre ar
Ġre ally
ad a
et r
ĠF oot
ra in
Ġk ind
port s
ĠSe a
Ġbatt alion
ĠChrist mas
Ġwat ers
Ġb ox
Ġre ject
Ġn ecess
ĠB ig
Ġcl osed
Ġev ac
Ġcontin ue
Ã¡ n
ĠOper ation
Ġo x
is l
Ġh our
Ġhigh ly
Ġann ual
Ġmark et
M S
c an
is ation
Ġm or
ĠS ol
Ġth row
Ġn orm
ber g
Ġrec over
Ġshe ll
row d
Ġlead ers
yp e
Ġins ide
Ġfin anc
Ġinit ial
ĠSer ies
stit ute
Ġcasual ties
e v
Ġt ax
he w
ĠC er
Ġg raph
iv a
ag on
ĠO ut
ond yl
ib ly
Ġass ault
ĠSc ot
Ġart ist
Ġimp act
Ġresult ed
orp or
Ġgreat est
Ġnuc le
ĠGal vest
ĠGalvest on
on c
ic an
ĠT urn
et her
Ġ199 1
Ġ15 0
Ġcour se
Ġsit uation
ĠServ ice
ĠItal ian
i en
ed o
Ġd om
Ġd yn
ĠI ll
ol f
ĠL os
ap ed
Ġdef end
Ġspec ific
Ġmet al
Ġdr um
Ġmid dle
ĠGeor g
a res
l ike
Ġ ess
Ġs out
Ġp il
Ġh ot
ĠS aint
ur ies
Ġde ploy
Ġsec ret
Ġcontro vers
Ġbook s
Ġattempt s
osp ondyl
Ġgod s
Ġfig ures
Ġinsp ired
Ġinform ation
Ġtouch down
Ã³ n
T V
p ool
Ġs ides
at ops
is k
ic le
ĠT enn
ĠS ix
Ġth ings
ĠH um
Ġse v
ant a
Ġact ive
Ġhead quarters
Ġext ended
Ġserv ices
Ġallow ing
Ġtrack s
Ġbo ats
ĠChar l
Ġstand ard
Ġsomet hing
l ers
Ġ x
Ġf eder
Ġp ick
ĠA I
ĠA re
Ġn aval
ct or
ĠJ am
Ġadv ant
Ġpower ful
Ġaud ience
ĠPart y
l ight
re y
Ġp ath
ad ium
im s
Ġst ating
ĠL ong
Ġse arch
ĠV illa
ran e
Ġen j
Ġ6 5
Ġ199 4
Ġnum erous
Ġver s
Ġref used
Ġappro ach
ĠJack son
Ġneed ed
Ġvoc als
Ġstru ck
ĠCarol ina
u it
Ġa st
Ġw alk
it ch
Ġm ax
ĠL ady
ag an
ag ing
Ġhead s
Ġland s
Ġconf ir
Ġheav ily
ĠSov iet
e en
r id
v in
ĠC rit
ĠM ill
ĠB ec
Ġr ate
Ġr ule
Ġro om
Ġ18 0
iz ing
ĠAl ice
Ġbl ood
Ġintens ity
Ġmult ip
ĠOt t
Ġcontem porary
ĠEmp ire
Ġb odies
ro ll
ĠThe ir
ĠL ive
ĠG roup
ĠE r
Ġ5 1
Ġvar iety
Ġcomb at
Ġgen us
Ġcond itions
Ġmeet ing
Ġsepar ate
ĠSm ith
Ġpur p
ĠJose ph
Ġt ask
ed s
ĠA lex
am s
Ġpe ace
Ġtrans l
ĠCon f
ĠSp ec
chest er
h ouse
Ġc rowd
Ġh usband
il es
ĠF in
ĠN ix
Ġpl ant
ect ing
Ġ7 6
ĠPol ish
Ġhig her
ĠHigh way
Ġdecl ared
Ġpeak ed
Ġsour ce
Ġhous es
Ġeduc ation
Ġslight ly
ylv ania
e es
ĠM ey
ĠM idd
ol s
us hed
ĠF our
ĠL o
per ial
Ġprodu cer
Ġpres ented
Ġhand s
Ġredu ced
Ġrespect ively
u ated
y ph
Ġp le
ic ip
ĠC ivil
om er
Ġn ative
ĠP ost
ĠD j
ĠN ations
ĠL iver
od on
ĠK n
Ġres idents
Ġ4 4
rib ution
Ġsec urity
Ġ199 2
Ġstud ies
Ġext re
Ġoffic er
Ġsix th
Ġcolle ction
ĠPenn s
Ġcele br
k a
in y
an as
Ġth r
Ġhe ro
ĠL ittle
ĠCon t
Ġconst it
Ġfriend s
ar row
ro l
ĠS ir
ĠC ast
ĠC apt
ĠB urn
ĠF inal
ĠW ash
Ġch ampionship
Ġsp ace
ran ce
ire ction
ens ion
ĠY oung
Ġpre c
Ġpr incip
Ġnorth west
aren ts
Ġcomplet ely
Ġwound ed
b on
Å į
Ġs af
ĠT ime
Ġg rand
ir al
Ġbe at
est ival
pt ed
ĠAl kan
Ġte xt
ath an
Ġme ans
Ġwrit ers
ĠRe v
ĠComm on
ĠChr is
Ġbr idge
Ġcomb ined
Ġactiv ity
ĠSom ers
Ġey e
Ġin tern
ĠF am
ĠL and
os es
and id
ill ed
Ġ3 4
Ġdis play
Ġsing er
Ġcontin ues
Ġresp ond
Ġdist ance
Ġcount ries
ĠDe f
Ġmar riage
Ġarch itect
Ġadm inist
Ġcop ies
Ġcontr ast
ĠLiver pool
k et
Ġ ir
al ist
ou ra
ĠB et
ter ed
ĠG ames
if t
og ue
Ġ4 8
Ġdis app
Ġsy mb
Ġexp ected
ĠPar is
orp edo
ĠSom al
Ġve h
ĠVirgin ia
Ġrein for
ĠFoot ball
ĠNix on
ĠWash ington
Ġc am
Ġb order
Ġd raft
st one
em ic
Ġsu st
Ġdis pl
Ġinter act
Ġinc hes
ĠInd epend
Ġiss ues
Ġlevel s
Ġwid ely
ĠHist or
Ġtransfer red
ĠBus ch
Ġconclud ed
tr ack
ĠSomers et
w are
in th
Ġp ow
ĠS outhern
ĠC or
ĠC ons
ĠB re
ĠB ook
ĠW ater
ĠJ ul
Ġan g
Ġrel ief
Ġact ually
ĠAustral ians
Ġcat hedral
Ġactiv ities
Ġstri ke
Ġterrit ory
ĠPenns ylvania
i ated
Ġb ene
em s
ĠF ow
ĠL ock
um ber
ĠSp ain
Ġeff orts
Ġbo ard
wh ile
ĠQue en
ĠMos ley
Ġenj oy
l am
Ã ¼
Ġto ward
il ed
ĠC at
ĠD es
ul ations
ĠG reen
ĠJ os
ĠE s
ast y
Ġact ions
Ġsupp l
ann el
Ġdescrib es
ĠCol on
Ġeff ort
Ġele v
ĠFran c
Ġsex ual
Ġwithd raw
Ġanc ient
ĠLou is
b our
i j
u fact
Ġ rough
Ġt orpedo
in us
on ic
is her
an z
an es
Ġin h
Ġp un
Ġre ign
ĠD am
ĠN az
ĠL i
ĠL ike
and ed
ber y
Ġex hib
Ġad ult
ib r
Ġman aged
Ġoff ensive
Ġatt ention
ock s
Ġqu al
Ġback ground
Ġ194 2
Ġiron cl
Ġrain fall
Ġreveal ed
m ark
Ġt ur
Ġto day
Ġm ission
ou red
ir it
ut ch
ĠD er
ers h
ĠIn n
Ġ4 9
Ġ5 2
Ġ18 2
ĠAr m
Ġdef ense
Ġbl ue
iam i
Ġdist inct
Ġcount y
Ġresult ing
Ġright s
Ġprim arily
Ġbecom es
Ġaccept ed
Ġsequ ence
ĠVietn am
h ood
t ation
y r
Ġs ays
Ġm el
Ġh abit
ĠT ri
id ian
im ony
Ġmain ly
Ġalong side
Ġdesign ated
Ġopp ortun
Ġmount ain
ĠGovern ment
ĠBec ause
Ġs quadron
Ġs quare
Ġf aced
ĠB on
us ion
Ġk ick
Ġrec ent
Ġ18 1
Ġdis e
amp ion
ĠCl ass
Ġconc ent
Ġdem onst
Ġpat tern
Ġtre es
ĠKore an
ĠFow ler
c y
Ġw ear
Ġp ound
ro om
ĠM iami
ĠF er
ĠW W
Ġpr int
led ge
Ġfeat uring
Ġappear ances
ĠAd d
Ġprog ress
ĠMin nes
ĠAngel es
Ġquest ion
ĠMinnes ota
k in
en ant
ing u
Ġp iano
Ġon to
ĠB ol
us e
ĠP en
Ġab ility
Ġro les
Ġj ump
Ġ6 4
ech an
Ġtru e
h old
it ness
Ġc orn
Ġp aper
ĠT od
el a
ac her
ĠK ent
ap o
Ġcomp os
Ġ4 6
Ġplay s
Ġdep art
Ġorgan ization
Ġcondom s
Ġfeder al
b ed
c le
Ġs ense
en a
Ġb ott
Ġp arents
ad m
Ġal tern
ĠO f
Ġcom ing
Ġv ess
Ġy oun
Ġres c
Ġro y
Ġ5 5
Ġrec omm
Ġsc oring
Ġseason s
Ġqu ality
Ġcall ing
Ġshow ed
ĠMan chester
Ġport ion
sh ire
Ġobs erved
ceed ed
Ġpract ice
ĠAcad emy
ĠScot land
B A
ã ĥ
Ġh ol
Ġl ot
ĠB int
Ġr hy
ĠAn n
Ġrel atively
air s
Ġinst it
ĠMe an
Ġelect ed
iron ment
Ġhistor ical
yph oon
ĠBint ulu
m un
Ġw ords
Ġl osing
ĠR am
ess a
Ġun iversity
Ġrem ark
olog ists
ĠNew s
Ġinv asion
Ġrece ption
Ġbro wn
erv ation
Ġown ed
Ġ192 0
Ġenc oun
Ġstru gg
Ġult imately
c ript
k n
ĠM og
ĠF ield
est ic
Ġr ang
Ġsu c
Ġar med
Ġsc ale
Ġapp arent
Ġ194 1
Ġed ge
ĠRuss ian
ĠSoc iety
ĠMey er
ĠCapt ain
g al
p ole
Ġa thlet
Ġf ast
ic les
ĠC ap
Ġn ation
ĠM at
ĠM ass
ĠM att
Ġhe art
os en
ĠG ar
ud d
ess ions
Ġen emy
Ġdef ence
Ġleg al
Ġtw enty
Ġinflu enced
ĠMer idian
Ġexc av
ellig ence
ĠBey onc
ĠBeyonc Ã©
c he
Ġf ully
ic ations
Ġm ile
ĠT ik
Ġth ous
ĠC he
Ġn arr
ĠD ou
ĠU l
Ġsp l
ĠTh ough
Ġag g
Ġoff er
Ġpre par
Ġexp ressed
Ġinst r
ĠCol umb
ĠAnd erson
Ġtyp ically
rick et
Ġprote ins
Ġsurround ing
Ġcann ot
ĠHaw ai
t own
on ents
Ġc hem
Ġm em
Ġm ole
ĠS um
Ġn arrow
ut ions
Ġst ep
ĠP it
op er
pp ing
Ġsp read
Ġprodu ce
Ġpr ison
Ġset s
Ġem ph
Ġport ray
ĠChurch ill
Ġrepres ented
Ġmag n
Ġhom es
Ġdiss ip
uz z
Ġadop ted
alys is
e ption
t he
Ġw ing
al a
as c
ro ad
ac ement
ĠP op
ĠF ar
ĠW els
Ġcont act
ors hip
Ġem ot
Ġ198 6
Ġorgan ized
Ġleg isl
ĠRich mond
Ġreact ion
ĠTem ple
Ġadvant age
Ġmax imum
b urg
g s
m es
on a
Ġs en
Ġin ch
Ġd u
ĠH al
end s
Ġwe bs
Ġne igh
ug by
Ġfl oor
Ġart ists
Ġext ra
Ġbro ken
Ġtri ed
ĠPr ince
Ġofficial s
Ġnuc lear
adm ium
ĠWels h
r ical
Ġa id
Ġp al
ĠS il
ĠD irect
ĠG all
ĠO x
ĠO cean
Ġv o
ast ic
Ġman ufact
Ġthem es
ĠComm un
Ġed ition
Ġreport s
ĠAnd rew
Ġperson nel
Ġtyp es
ĠWe ek
Ġearl iest
Ġpain t
m itted
p ly
r ong
en ge
Ġm is
ĠH ome
ĠR o
ĠK a
ĠTh under
ĠMar ine
ĠBl ue
Ġcapt ure
ĠOr ig
Ġdiv ided
Ġsour ces
Ġhy d
ĠOp en
Ġtow er
Ġabandon ed
ĠDist rict
Ġfinanc ial
a en
l im
p re
r ate
u x
w rit
Ġs ister
Ġw a
Ġm outh
Ġh orse
ĠA v
et ts
Ġal one
iss ipp
Ġact ing
Ġ198 8
Ġmod el
ĠPro t
Ġtit led
ĠMiss issipp
Ġsound track
Ġachie ved
ĠIll ino
ĠTik al
Ġemph as
n ospondyl
Ġs n
Ġd irection
ĠB oy
ĠB alt
Ġst opp
un ction
ĠL ie
iz es
Ġact or
Ġspec im
Ġrep e
Ġprom inent
Ġshort ly
Ġview ers
ĠEd ward
Ġaff ected
ĠSec ret
ĠTur k
ĠMidd le
Ġroy al
ĠMog ad
w en
Ġth ir
ĠF red
ĠF leet
ack s
se nd
Ġdef ensive
Ġmov ie
Ġwrit e
Ġfound ed
Ġbas is
ĠRec ords
ĠRh odes
Ġnewsp aper
ĠMississipp i
Ġc ities
Ġc andid
al ions
Ġm ind
ĠA venue
ur a
ĠB all
Ġg irl
ĠN es
ĠK ir
og rap
Ġ4 1
Ġatt ended
Ġwe ak
ĠAr g
ĠRe view
Ġdo ing
ĠJohn son
Ġoper ated
Ġstruct ures
ĠBra at
Ġflood ing
Ġmention ed
Ġs ac
Ġf ruit
Ġp aid
Ġh ospital
et te
ĠG ib
ip ment
cl aim
Ġoffic ially
Ġcou ple
Ġpot ential
Ġded icated
Ġtourn ament
Ġx enon
kn own
b it
h u
u ous
w ide
or us
Ġm echan
ir m
ĠW ild
Ġcom edy
Ġpl aces
Ġsh ape
ect or
Ġy our
ell er
Ġ4 3
ang er
ĠEng ine
pr ise
Ġauthor ities
Ġcult ural
ĠTurn er
F A
b ird
i ro
ã ģ
or a
Ġl ives
ĠB h
ĠH MS
Ġpro ved
ak apo
Ġar rest
Ġcomp ound
Ġper man
Ġsc ient
Ġcons isted
Ġbro ke
ink el
Ġpass ing
Ġtit les
Ġtri al
Ġbas ket
ĠNic ole
ĠMogad ish
in em
Ġs ens
ed d
Ġm ess
Ġl b
ĠM ore
ĠB ost
Ġr at
ĠIn t
Ġro ll
Ġ5 6
Ġapp eal
ath us
orn ey
Ġent er
ful ly
Ġ17 9
Ġocc asion
Ġcaus ing
Ġsoc iety
ĠTown send
Ġpiec e
ĠRose bery
ĠMeyer be
V D
r ight
in ary
re ct
Ġs ales
Ġo il
al le
Ġh un
le ction
ĠC ra
ĠB ond
Ġg rew
ĠF urther
ĠW ay
ĠL ar
ist ry
ric ult
Ġ9 3
Ġcol umn
ĠAmeric ans
Ġland ing
ĠCl ark
Ġold er
Äģ d
Ġindivid uals
Ġill ust
ĠWal pole
Ġdeterm ined
Ġstra ight
Ġweap ons
ĠMogadish u
ĠMeyerbe er
Ġ ut
Ġt ry
Ġc ore
Ġp an
Ġd ut
ĠM ort
ĠR aj
ĠF inkel
res h
ian a
Ġun ivers
Ġim ages
ĠY ue
Ġinc orpor
Ġsecond s
ah a
Ġlet ter
ĠApp le
ĠFinkel stein
s y
in n
is ters
Ġb ank
ĠT essa
ĠM ax
ĠH y
Ġsp ort
Ġun known
Ġcont ain
Ġad j
du ction
Ġ9 7
Ġcons ecutive
Ġform ation
Ġmon ument
ĠSh ort
ĠSh iva
Ġ198 5
Ġ194 4
anc y
Ġposs ibly
Ġord ers
Ġproject s
Ġsit es
Ġdou b
Ġphys ical
Ġkilomet res
Ġsched ul
ĠOtt oman
it i
Ġf ired
Ġf iction
Ġh air
ĠS o
ĠM D
ĠH orn
Ġst op
Ġ5 3
Ġim ag
Ġfollow s
Ġlead er
Ġsuggest s
Ġcritic ized
Ġrapid ly
Ġcer em
g n
u ff
Ġf rag
om y
ĠH orse
ĠD VD
ĠW at
ab ama
ĠAl abama
Ġwork ers
Ġpo ly
Ġfl ank
Ġ12 0
Ġclaim s
Ġfore ign
Ġke pt
Ġident ified
Ġhon or
ĠPortug ues
ĠMean while
ĠIllino is
a ith
u an
w in
or ter
Ġl aid
Ġg ained
ĠD ue
un te
ĠW rit
ain e
ĠE astern
ĠO m
Ġse ek
Ġch ief
Ġro w
Ġsupp ly
Ġkill ing
Ġrequ ire
Ġequ ipment
Ġmanag ement
Ġprote in
ĠPhilipp ines
ĠBraat hens
ĠPortugues e
u ct
ã Ĥ
Ġa head
Ġw ild
ĠT ru
ĠB ul
ĠB BC
ant ly
ge nd
Ġatt end
Ġac ad
Ġent rance
Ġ196 4
Ġtem ple
Ġbeh av
ffic ient
ĠBack ground
Ġdise ase
b itt
Ġt im
Ġs ought
ĠT im
Ġre aching
Ġhe re
ĠR et
ĠG ood
igh th
ĠSt one
Ġy ellow
Ġad vert
Ġen ergy
ĠLe g
ĠBr idge
ĠAss embly
Ġwall s
Ġsust ained
b orn
m ore
Ġs and
Ġw or
Ġf ought
is hes
Ġh ors
ĠT int
ad el
ĠD en
ĠF ey
ĠG re
Ġsp irit
ell a
Ġ5 4
Ġ5 7
Ġ6 2
Ġwe ight
Ġnew ly
Ġchar ge
Ġland fall
Ġgr ass
Ġdeb uted
arr ison
ush ing
Ġpiec es
Ġenv ironment
Ġtar get
Ġconfir med
e g
Ġw ars
as ure
Ġm aster
ĠS at
il ies
Ġl oad
ĠM end
ĠF ox
ĠL l
ĠL ord
ĠE nd
ĠK ar
Ġch osen
Ġex ec
Ġsp ot
Ġsp orts
ĠV an
out s
Ġmus eum
Ġem peror
Ġ198 7
Ġsim ply
Ġwin ter
ĠRec eption
Ġrefer ence
Ġel im
Ġauthor ity
Ġpit ched
Ġpromot ed
Ġlet ters
Ġmeas ure
ĠOlymp ic
Ġmom ent
Ġdism iss
onym ous
i ate
m ission
Ġ rom
Ġt act
Ġm ob
Ġd iam
ĠS ub
ad or
ĠP ublic
Ġhe ight
Ġne ut
Ġ9 5
Ġreg ions
Ġalbum s
ĠUS A
Ġreturn ing
Ġpass es
Ġadv anced
ĠPro v
Ġtw ice
Ġcas es
Ġfun ction
Ġcond ition
Ġbur ied
ĠVal ley
Ġgrant ed
Ġdom estic
a ud
l ings
u ge
Ġt un
in et
Ġs ay
Ġw ave
ĠS arn
ĠM el
ut enant
ĠE ach
ĠZ hou
ert ain
ĠInd ust
Ġbr igade
hel m
hel ess
Ġvis ited
Ġplan et
Ġfre eway
Ġseem s
Ġinj ury
Ġnomin ated
Ġdro pped
Ġeconom ic
Ġdoc ument
Ġplat form
ĠBost on
e f
i ot
y a
re te
Ġs ail
ĠA D
ent al
ĠR os
ĠR ome
ĠF re
ul ate
ĠE ven
Ġr idge
Ġse nd
ĠU N
Ġcont aining
ĠY ank
Ġ6 00
Ġrem ix
Ġcol or
Ġthere fore
az z
Ġ198 4
Ġstud ent
Ġ197 2
Ġdel iver
Ġpit cher
ĠMount ain
urb an
Ġgrow ing
aut y
Ġpoet ry
Ġschol ars
ĠFore st
ĠTint in
Ã ¨
Ġf ear
Ġf ix
Ġm ort
ol a
ĠN ight
ĠL ew
ĠG ra
ĠG reek
oc ated
Ġsh are
Ġk g
ĠOn ly
Ġwe ather
Ġact ors
Ġdep th
Ġ194 7
Ġresult s
ĠBe fore
Ġspe ak
Ġmount ed
Ġmaint ained
Ġfly ing
ĠVar anas
Ġnecess ary
ĠCer es
Ġmultip le
ĠAdd ition
ĠVaranas i
d e
m osp
Ġh or
ol ved
iv ity
ay er
res p
ov ic
ip l
Ġcont ent
Ġser ve
ĠAs ia
Ġfilm ed
Ġop in
Ġstart s
Ġstand ing
Ġhistor ian
ĠEv a
Ġlook ing
Ġcoun cil
Ġknow ledge
Ġcurrent ly
ĠOd aen
Ġlab el
ĠNes bitt
ĠArg ent
a o
b l
Ġb ul
Ġb oy
Ġp ict
ĠM ur
th ur
Ġv en
all s
ĠU s
Ġcomp r
Ġ6 1
ĠAn th
Ġexp ed
Ġbel ong
Ġgu est
ĠDe velop
Ġph il
Ġbo at
ĠTe am
ĠAm ong
ĠWilliam s
Ġrelig ion
Ġvoc al
Ġproble m
Ġarg ued
ĠTor res
Ġindepend ent
Ġcontroll ed
Ġvers ions
Ġwebs ite
ĠOdaen athus
M ont
T C
Ġt ank
Ġt anks
id er
ĠD ream
ĠG ord
ĠJ up
ĠJ ourn
Ġsp ect
Ġ7 2
Ġass ass
Ġ198 9
Ġ196 9
Ġsupport ing
Ġele ment
Ġsett lement
ĠDu Mont
Ġanim al
ĠOff ice
Ġreject ed
ĠSarn ia
r idge
in er
ed ar
Ġf olk
Ġh am
ent ure
Ġn est
ĠI ron
im ents
ĠF ant
ĠW ork
ĠG ulf
ĠJ on
um es
ag ement
Ġse g
ian ce
ĠCh ild
Ġar rang
Ġnew s
Ġret ired
Ġwrit es
ĠGu ard
Ġexpl ained
Ġmed ical
ĠPer Ã³n
Ġav oid
ĠEx p
ĠPal est
Ġcoll abor
ĠSl am
ĠPre m
Ġincreasing ly
Ġtemper ature
Ġf le
Ġb it
ĠB ir
ot ed
ĠD est
ĠE ll
Ġr ival
ĠK ey
Ġover l
ĠOn ce
Ġ9 6
ins ula
ĠCon ference
ĠCon stant
ĠCar l
Ġ13 0
Ġref lect
ĠAir port
ĠMin ister
Ġstri k
ĠEnter tain
ĠOx ford
ĠThunder bird
ograp her
p ass
ĠS R
ĠB an
Ġg e
Ġr isk
Ġk akapo
Ġun ique
Ġ7 3
Ġbatt alions
Ġgu ard
ĠCong ress
h aps
Ġc admium
ar ian
st ream
ad d
ĠM od
im ore
ot e
ĠD ar
ĠF A
Ġr ing
Ġres emb
Ġper fect
Ġsc ience
ĠAl bum
ĠIt aly
aw a
Ġcons p
Ġ8 1
Ġfl ag
Ġset ting
Ġsing les
ĠAll ied
Ġprot est
anc ing
Ġbelie ve
ĠSy stem
Ġconn ected
Ġgrow th
Ġemploy ed
Ġsyn t
ĠScott ish
Ġfail ure
Ġaccomp an
Ġpolic y
ĠBow l
Ġweaken ed
Ġbasket ball
Ġschedul ed
ĠJup iter
c el
m et
o ch
Ġ áĥ
he astern
in ity
Ġf ung
Ġb ass
ĠC a
ĠC ole
ĠR og
ĠD om
ĠD utch
ĠN orm
ore n
ĠV en
Ġher self
Ġcol ony
Ġend s
Ġsub mar
Ġinc ident
Ġmat ter
Ġfam ilies
Ġcamp us
Ġide as
Ġentire ly
Ġsubsequ ent
ĠHel ms
ĠFam ily
ĠOm aha
S tation
b o
e ed
on ent
Ġc ust
Ġd ated
ĠS pr
ad ing
ĠL is
if ying
ĠIn stitute
Ġun f
Ġcomp ar
Ġcont ained
Ġcont ributed
iz ations
Ġdes cend
Ġ8 5
Ġsing ing
Ġfam ous
Ġbelie f
Ġjo in
Ġsol o
Ġval ue
Ġcreat ing
Ġwood en
ĠPlay Station
ĠWil helm
Ġparticip ated
ĠVictor ia
Ġsen ior
o e
re nder
Ġw itness
it able
ĠA p
ĠS ky
am ing
ĠB as
ĠB ishop
ĠD is
ĠL ine
Ġan alysis
Ġr ise
Ġch ose
Ġch air
ĠSt ep
Ġ7 00
ock ed
Ġ198 1
Ġopp osed
Ġsignificant ly
Ġliter ature
ĠJe ff
Ġprem i
Ġbatter y
Ġprep ared
ĠAdm iral
Ġsev enth
ĠInn is
Ġbott om
c ers
e er
k are
l oad
u pp
ro t
ĠA st
ĠM ong
ĠM ike
ut ing
ĠP ress
ĠR y
ĠG ard
ĠSt an
Ġun us
ph ia
ress ive
Ġtem nospondyl
ĠIm ag
ĠMcC all
Ġanim als
clus ion
Ġfrequ ently
Ġsout heast
adel phia
ĠGord on
M A
s w
Ã ¶
Ġa ired
Ġa wards
Ġs we
st ead
ĠB art
ĠH art
ĠR if
ĠN ever
Ġsh aped
ip s
ust ed
ĠCh ap
ĠV ill
Ġro of
iss ance
Ġ8 00
Ġdef in
ash ion
Ġdr ive
Ġroad s
Ġcommon ly
Ġpopular ity
ĠLes ter
Ġcolle ge
Ġloss es
Ġoccup ied
ĠCard iff
Ġinn ings
Ġuns u
ĠBalt imore
at us
Ġb ud
Ġm ist
Ġd ress
ĠE RA
ap h
ans as
Ġtra v
ull s
ruct ure
Ġ191 8
Ġsouth west
Ġsystem s
Ġpar alle
Ġcritic ism
Ġsuccessful ly
ĠMor r
Ġrecogn ized
ĠEgypt ian
Ġproper ty
Ġexperi enced
Ġsuppl ies
i able
j o
Ä ĩ
er ts
Ġf resh
is ers
Ġre form
ĠS und
ĠM ov
ly wood
et y
ĠR ih
ra it
Ġat mosp
ĠG i
ers ey
Ġv irt
Ġr ating
Ġsp ring
Ġag ricult
Ġ9 8
Ġrem n
Ġsever e
Ġmin er
Ġpublic ation
Ġserv ing
Ġdeath s
Ġpain ting
ĠIm perial
Ġdecl ined
Ġfac ilities
ĠHam els
Ġbrief ly
ĠDem ocr
Ġpurch ased
ĠRih anna
h at
r ig
s et
z o
Ġthe ory
Ġs elling
at o
Ġf ict
Ġp et
Ġd im
Ġd ates
ĠA M
Ġe c
ĠM en
ĠM as
ly s
Ġbe y
un icip
ĠF ive
Ġcom es
Ġch oice
Ġ5 9
Ġrec ently
ĠAl so
are t
we alth
Ġte acher
Ġ7 7
Ġsecond ary
Ġ194 3
Ġdesc ription
Ġ196 8
Ġext ensive
Ġocc as
Ġed itor
Ġeffect ive
ĠMount ed
Ġpoem s
Ġtechn ique
ĠCo ast
ĠSw ed
ĠPe ople
Ġneg ot
Ġslow ly
Ġregard ed
ĠMart in
ĠDan iel
ĠCroat ia
ĠRA AF
ĠDj ed
ĠRev olution
ĠBet ween
ibr ary
ĠLie utenant
ĠEntertain ment
h an
Ġthe at
Ġc ited
Ġf an
an o
ic ed
Ġm ic
Ġg as
Ġg ives
Ġst ations
Ġst ages
ĠR ail
ul es
Ġnot able
Ġar ms
ub e
Ġ6 6
Ġ8 2
Ġcol lected
Ġexp anded
Ġcre ation
Ġ196 5
esp read
Ġturn s
Ġarm or
Ġfar m
Ġste el
ĠPhil adelphia
ĠMcC art
Ġdeg ree
Ġasp ects
ĠTod ay
ĠSum mer
Ġbey ond
ĠDjed kare
i ences
r ine
y cl
Ġc ricket
Ġf ur
Ġf ox
ro ph
ĠH on
ĠH ib
ĠD un
Ġis ol
ĠN ative
Ġr u
Ġex ecutive
Ġ7 1
Ġfinal s
Ġsim ple
Ġ193 9
Ġprot ection
Ġworld wide
Ġeng aged
Ġcell s
Ġsem i
Ġsil ver
i as
u ate
Ġt all
in ate
Ġb id
Ġp ul
Ġd aily
Ġe th
ĠB ru
Ġg ain
id ges
ĠL uc
ag er
Ġr ac
Ġse at
Ġco al
ĠDe v
Ġph ase
ĠAd v
Ġtri p
Ġallow s
Ġold est
Ġarr ival
Ġcross ing
Ġpromot ion
ĠGovern or
wh ite
Ġtreat ment
Ġbill ion
Ġcle an
ĠAre a
Ġrespond ed
Ġunsu ccess
c a
e z
f ort
in i
re ets
it an
Ġm ales
Ġd rop
st anding
ĠC D
ĠC re
ĠC le
ĠM ic
ĠM ot
ĠThe atre
ĠB and
ĠI d
et on
im et
Ġhe ard
ĠD own
ra k
ĠL iber
av ed
ĠO h
ill o
og en
ie val
Ġdec ades
ivers ary
Ġdist rict
Ġ191 4
Ġprot ect
Ġpar liament
ĠSte ve
Ġdel ay
Ġfind s
gr aded
Ġimpro ved
Ġrough ly
ĠWW E
Ġmole c
ĠApple white
Ġhors es
Ġphil os
h i
m it
Ġ i
re l
it ors
ĠA thlet
ĠS AF
Ġe as
ly ing
iv ered
ĠF u
ĠF estival
ĠN BA
ĠG reg
ĠJ ur
ĠJ ud
Ġ9 4
Ġfilm ing
Ġact ress
Ġacc ident
Ġ194 6
Ġdevelop ing
Ġhead ed
Ġrest aur
ĠAnd y
Ġplan ning
Ġfind ing
Ġfoc used
ĠBel g
Ġgrad ually
Ġconver ted
ĠThrough out
ĠCommon wealth
ĠDevelop ment
Ġbud get
ĠSAF E
O T
r um
t av
Ġf at
ar p
ro g
Ġm o
Ġd ance
ĠT en
ĠH ung
ĠR el
ĠR od
ĠD od
ĠD omin
ĠL u
ĠO bs
ak a
ĠV ideo
Ġar c
Ġint elligence
ass y
ĠAl f
Ġcent uries
Ġco ol
Ġ11 0
Ġ17 7
Ġ197 1
Ġgovern or
ĠPro duction
Ġclass ified
Ġturn ing
Ġexpl os
Ġste am
Ġwid espread
ÃŃ a
Ġvol unte
Ġexist ing
Ġcommission ed
Ġstopp ed
L e
l ines
Ġt ail
Ġa im
in j
er atops
Ġo uter
at i
es h
ĠC old
Ġn or
ur ches
Ġst reet
ĠW ind
and a
av a
if ically
Ġar ran
ph ib
Ġpre fer
Ġne ither
ict ed
Ġprodu cers
Ġrece iving
Ġconc rete
ĠBro ad
Ġdel ivered
ĠBar b
Ġey es
Ġbeg un
Ġburn s
Ġcolon ial
S B
c op
c ription
y m
Ġt on
Ġs ave
Ġc raft
Ġd ial
Ġe gg
Ġst ret
ri er
Ġde ities
Ġnot e
Ġcont rib
Ġover se
rop ol
Ġunder t
Ġso le
ific ations
Ġ197 5
ĠWh at
ĠBr ig
Ġfin ish
ĠPro ject
Ġcap able
Ġbre eding
ĠBar row
Ġfem ales
Ġvol ume
Ġneg ative
Ġdomin ated
ĠUp on
Ġsculpt ure
ĠLew is
i ations
y les
Ġ ice
Ġf ellow
ĠM u
ĠM ir
Ġg reen
ĠR ow
ĠN athan
ĠJ ac
Ġpro s
Ġex clus
ĠU B
Ġres ident
Ġres erv
we ight
Ġsub t
Ġexp ress
Ġdist ingu
Ġany thing
Ġlast ed
Ġvis ual
Ġdra wn
Ġintrodu ction
ĠKe ats
ĠMag azine
Ġesc ape
Ġindepend ence
ĠCamb od
Ġveh icles
Ġaccompan ied
k ins
Ã ¤
Ġt end
Ġt rying
re ll
ing ly
il ing
Ġn eck
ĠB ase
ĠB oard
ĠH or
ĠR on
ĠF riend
and y
Ġr it
ect ions
se a
Ġcomp uter
ren ce
rop ri
Ġdec re
Ġchar ges
ames e
Ġadd ing
Ġ16 0
ĠCon st
rest ling
Ġagre ement
Ġhold ing
ĠCard inal
Ġadapt ed
Ġnorm al
ĠDou gl
Ġpaint ings
Ġt ree
er c
Ġf uel
Ġb ought
Ġm ig
Ġd ata
Ġh ired
ĠC ook
ut ation
ĠP ers
ew here
ess ed
Ġnot hing
Ġro se
ang ers
ild ing
ĠMar io
Ġ196 6
Ġoper a
Ġstr ateg
Ġserv es
Ġposs ibility
Ġhum ans
Ġview ed
ograph ic
Ġcomb ination
Ġsurv iv
Ġsurv ey
Ġcross ed
Ġenc oura
Ġreb u
Ġviol ence
Ġtell s
Ġfict ional
c ome
Ġt rou
Ġf aith
is y
Ġl abor
ĠH an
ĠH ard
ĠW all
ĠL y
ĠL ow
ist an
igh ter
ĠCh art
Ġcomp osition
Ġ6 9
Ġ8 7
ick s
Ġunder ground
Ġac res
Ġtra in
Ġ16 4
Ġ194 5
Ġdist urb
ĠCol or
ĠJu an
Ġ191 6
Ġcapt ain
ĠAb u
Ġimport ance
Ġsurv ived
Ġgl ob
ĠCro wn
Ġclos ely
Ġexist ence
bor ough
Ġreason s
Ġcal c
ĠVietn amese
Ġri f
Ġlearn ed
ĠColon el
resp ond
a ver
a ire
t hen
Ġc em
ĠS us
Ġth ing
Ġst ream
ĠN H
ĠL ate
op her
ab il
ru pt
Ġres ist
Ġper haps
Ġcons ists
Ġdec line
ĠMar c
Ġsub stant
Ġ197 3
Ġ196 7
Ġcar ry
Ġinst ruct
Ġprov ides
Ġown ers
Ġ191 5
Ġinvol vement
ĠSong s
Ġcast le
ĠIsland s
ĠWal ter
Ġsect ions
Ġinters ection
Ġ #
Ġa er
er ted
Ġw ins
Ġo pt
ĠA ri
ĠS ound
ĠC ub
ĠB or
ĠI G
ir ation
ir ls
ĠD et
ul i
ill ing
ĠIn stead
ĠK ersh
Ġch orus
ĠU TC
Ġro utes
Ġag ent
Ġdec or
ĠAr thur
Ġdef ined
Ġsub s
ĠLe e
Ġmus h
ĠJo e
Ġdo or
Ġem p
Ġperform ing
Ġ197 4
Ġdid n
Ġair port
ĠComm ittee
Ġdet ails
ĠPh o
Ġcommand ed
Ġstory line
Ġprogram s
Ġcou gar
Ġhouse hold
Ġaccom pl
Ġmiss ing
ĠCommand er
ĠStud ios
Ġshoot ing
Ġnucle us
Ġenjoy ed
sy ch
c hen
h m
Ġs ter
ar m
Ġb ats
Ġh ill
ĠT ype
ĠR ay
em an
Ġwh y
ĠN ap
Ġit ems
se y
Ġen l
Ġ6 3
ook ing
Ġtrans form
Ġlong est
Ġ197 8
Ġland ed
Ġ195 2
Ġ191 9
Ġeven ing
Ġsurv iving
Ġlaw s
Ġmass ive
ĠBra z
Ġrul ed
Ġarchae ological
het ic
onna issance
Ġconsist ing
Ġdram a
Ġpurp ose
ĠFranc isc
Ġathlet es
Ġrepe ated
ĠMend es
Ġtemnospondyl s
ĠDougl as
ĠKersh aw
A A
w ar
Å ¡
Ġs le
Ġs om
Ġw ays
it iz
Ġc aught
Ġf irm
Ġf ashion
ĠS now
ac ity
ĠH aven
ĠR idge
ĠW in
ĠK enn
ĠSt adium
Ġle aves
Ġatt ached
Ġdec ade
ĠMar ines
Ġinter ior
Ġinter change
Ġcall s
Ġ197 6
Ġ25 0
Ġview s
Ġprop os
Ġisland s
Ġcor respond
Ġearth qu
Ġdeploy ed
Ġsynt hes
g ers
v is
Ġto mb
Ġm emorial
Ġd rew
ĠA er
ent ially
Ġl ane
ĠB aby
im eter
Ġbe ach
ĠR ol
ĠR ick
um a
if ul
Ġcont est
Ġass emb
Ġ17 5
Ġmod er
Ġsent ence
Ġmy th
Ġsett lers
Ġren amed
Ġpen al
Ġsect or
ĠSur v
Ġpil ot
ĠSpec ial
Ġopportun ity
Ġdissip ated
ĠTurk ish
Ġperman ent
Äģd a
ĠShort ly
ĠThunderbird s
l ik
à ¸
Ġc ateg
ic op
ĠC hel
am in
et ery
im inal
ĠF ree
ĠN ick
ist on
Ġr ural
Ġse lect
ap es
ie ge
Ġrec onst
ach us
Ġ6 8
Ġsec ure
ĠMar sh
ĠAr ts
Ġmov es
hes s
Ġpop ulations
Ġ197 9
ĠCon n
ĠSp ace
Ġ191 7
Ġ193 6
Ġopp osition
Ġtown s
ĠBo ise
Ġdig ital
Ġsymb ol
edd ing
ĠPrem ier
Ġconsp ir
i i
l a
y son
ed a
Ġf illed
Ġh a
Ġon es
ĠB ern
ot es
Ġst ore
ĠR ox
ĠL ife
os a
Ġsu fficient
Ġch o
Ġch urches
ell i
ĠCh ief
ĠAl bert
Ġim pr
Ġcomm ittee
ious ly
Ġkn ew
ĠLe on
Ġsupp osed
Ġloc ations
Ġinv ited
Ġexp ans
Ġprov iding
Ġprot agon
Ġconv ection
Ġsk in
Ġassoci ation
Ġmiss ions
ĠEm peror
ĠGold en
Ġestablish ment
Ġjourn ey
Ġder ived
Ġadminist ration
Ġbene f
ĠCra zy
ĠAddition ally
R E
r ist
Ġs un
Ġs ort
Ġb ranch
Ġd ry
el ve
ur ation
ĠB ly
ĠB eck
id ers
us al
Ġcon ference
ĠG ab
Ġsh ared
Ġy outh
ok es
ĠY e
ĠAn ton
Ġkn ots
ubl in
ĠSc ience
Ġsur render
Ġ198 2
Ġ194 8
Ġart icle
Ġob t
ĠIs ab
Ġfin ishing
ipp ing
Ġrepl ace
Ġrepl acement
Ġgreat ly
ĠWith in
ĠAb out
Ġspe aking
Ġclub s
idd en
Ġcoast al
Ġregard ing
ĠHol lywood
Ġeconom y
Ġdepict ed
Ġappl ied
Ġdyn asty
ĠBon o
Ġsuc ceeded
ĠDirect or
Ġhyd ro
Ġ ign
Ġt ied
Ġt able
er r
Ġs an
Ġf er
Ġf il
Ġb at
Ġd ating
ĠA ge
ĠS or
ĠS anta
il ton
st ances
Ġl a
ac on
ĠM id
ĠM TV
ĠJ ay
ĠJ ones
ĠO ffic
Ġsp ons
ap ers
Ġj oint
aw s
Ġdec k
Ġver t
Ġprodu cing
Ġso ft
Ġsuccess or
Ġant imony
Ġhistor ic
reg on
Ġgl ass
Ġcert ified
cher s
Ġz one
Ġmot ion
Ġremain der
ĠMil itary
ĠRad io
Ġconsider able
Ġacqu ired
ĠAtt orney
ĠDo ctor
ĠColor ado
ĠBraz il
A G
t ure
Ġ urban
Ġc rop
Ġh yp
ĠS i
el d
om p
ĠI ra
ĠD ublin
ĠJ ain
ag re
ĠO regon
ĠK ang
Ġch ampion
Ġex act
pt y
ĠV ol
ass ador
man n
ĠMar ia
Ġunder w
Ġfl u
Ġent ering
ann y
Ġrece ive
Ġ196 3
Ġhel icop
Ġcour ts
eng ers
Ġhistor ians
ĠSim ilar
Ġfav our
ĠBut ler
Ġbase ball
Ġassist ance
Ġchap el
Ġconcern s
Ã¡n h
ĠCharl ie
ĠAnth ony
ĠSund ay
ĠIG N
ĠBly the
S A
e or
h ost
Ġa ware
Ġm ut
ĠC op
ĠM L
ĠB ert
ĠB rian
ĠI gu
id ae
ĠH in
Ġst em
ĠF ire
op es
ich ol
Ġch ance
Ġun p
Ġar ts
Ġ5 8
Ġcomm it
Ġ7 8
Ġshe l
att le
Ġtr uth
Ġprot ected
Ġinit i
Ġspe ech
iment al
sequ ently
ĠEv ita
Ġtechn ical
Ġtechn ology
Ġget ting
Ġ189 0
Ġfund ing
ĠHow ard
ĠCroat ian
rane an
b a
b reak
d ie
t heless
re ts
Ġo d
it led
Ġc old
Ġd ru
ĠH ell
ĠL enn
ĠG ram
ĠJ es
Ġcom ic
Ġv on
Ġr ub
Ġpl um
Ġle gend
Ġcl oud
Ġres erve
Ġro b
Ġte eth
Ġ7 4
rib ed
Ġfl ights
Ġcol our
Ġver te
Ġac id
Ġtrans it
Ġgo es
Ġattack ing
Ġtri es
Ġauth ors
ĠMac Le
ĠKh Ã¡nh
ĠTrans port
ĠJam al
Ġarran ged
r ant
Ġ Î
ed om
Ġd og
ent ions
ĠC orn
Ġl ob
el ess
ĠH it
ĠP oint
Ġal tar
Ġv ic
Ġsu d
pt on
ell s
ĠHe avy
Ġres our
ĠAl an
ib be
aw are
Ġ9 1
Ġ8 9
Ġme ets
ĠSh a
Ġfound ation
Ġdown town
Ġdown load
Ġ195 3
Ġcharacter istics
ĠPh ill
enc ies
Ġwat ched
Ġcor rect
Ġliter ary
Ġden ied
Ġanc est
Ġcontrovers y
ĠTenn yson
ĠAlex ander
ĠLi u
ĠFred er
Ġoccasion ally
Ġopin ion
ĠStep hen
p son
Ġt yphoon
Ġc ab
Ġf air
Ġf iring
Ġd ub
Ġh at
ĠT op
am y
ĠI V
ĠH omer
ĠR un
Ġcon g
ra ke
ĠG A
ag le
Ġr ich
Ġch annel
ear s
ĠAl i
ĠMar l
Ġshow ing
Ġ191 3
Ġcap acity
Ġtyp ical
Ġterm inus
ival ent
Ġpolit ics
Ġpit ch
Ġval ley
Ġstreng then
Ġchap ter
Ġimm ig
Ġexam ples
Ġdoll ar
Ġpow ers
Ġspl it
born e
ĠIra q
n est
Ġt al
Ġm ine
ĠA k
st ate
ad ow
ĠB i
ĠW ars
ĠW alk
os is
Ġ19 00
ag n
ĠIn g
Ġex erc
ond er
Ġj ack
Ġcomm emor
Ġdep artment
Ġrep utation
Ġgener ation
Ġrefer ences
Ġevery thing
Ġfield s
ĠSim on
ĠSim one
iec e
Ġfac ing
Ġ188 0
Ġcirc um
Ġlaun ch
Ġrespons ibility
Ġmot or
Ġmaint ain
Ġextre m
Ġsaf ety
Ġinh abit
Ġhabit at
ĠColumb ia
Ġportray ed
ĠSpr ing
ĠIgu an
b an
m in
o ly
t a
Ġc orp
Ġp y
Ġd in
Ġh its
ĠT am
ad al
ĠR em
ĠR oy
ĠL oren
Ġv ary
ĠIn c
ard o
Ġnot ing
Ġoff ers
Ġatt ributed
Ġgame play
Ġret reat
Ġsome one
Ġqu ite
Ġspec ifically
Ġadd ress
Ġ17 6
ĠCar ibbe
Ġdet ail
Ġcr ime
Ġsol id
Ġdestroy ers
Ġdiscover y
Ġrev olution
Ġindust rial
Ġemb assy
Ġmeas ures
ĠDep ression
Ġcred ited
Ġrecover ed
Ġthous ands
Ġinstr ument
ĠMod ern
ĠMacLe od
e enth
i Äĩ
m od
Ġs quad
Ġw orth
Ġc rown
ĠT s
ĠT etr
ĠS av
ĠS quare
ĠC as
Ġl ov
ĠB at
Ġg ross
ĠH un
ĠH ere
us sion
ĠN ether
ĠG il
est one
all ow
Ġpl ants
ĠU lys
Ġsh ut
ĠSt ew
ĠCh ains
Ġj u
int end
Ġwe alth
ral tar
Ġfl o
Ġacc ur
az a
Ġ194 9
Ġcontin uing
Ġlead s
Ġcar rying
Ġocc urs
Ġ195 1
Ġ195 6
Ġwind ow
ĠBro ok
ĠPer ry
Ġpat ron
Ġcompet itions
Äģ n
Ġrecogn ition
Ġsepar ated
go ing
Ġdiscuss ed
ĠHo ly
Ġvess els
Ġyoun ger
ĠSecret ary
ĠGib raltar
Ġwor st
unicip al
ĠCaribbe an
ĠUlys ses
e per
i ents
k now
n s
t ty
Ġc ard
Ġf ranch
Ġb al
Ġin ner
Ġp sych
ĠA y
Ġl it
am ber
ĠM aster
ĠH ospital
ĠD aily
ce ived
ĠJ ersey
ag u
ag ues
av ia
ĠE du
Ġsh ore
Ġcomm itted
Ġ7 9
Ġpo ol
Ġfl at
Ġ12 3
Ġstud ied
Ġdescrib ing
Ġappro ached
Ġopp onents
Ġer ected
Ġdifficult y
ĠDu ke
Ġpred ecess
iff e
Ġrul es
Ġve get
ĠMo z
Ġindic ate
ĠArch ae
ĠSen ate
ĠCrit ical
Ġconstit ution
ĠHistor ic
Ġdismiss ed
Ġearthqu ake
Ġpenal ty
o h
r ations
Å Ĥ
Ġf it
ic ian
ĠA round
ĠA ston
Ġth in
Ġe ighth
ĠM ah
ĠI mp
iv als
ĠP erson
ĠP agan
ĠR io
ak ed
ĠSt ory
ĠSt arr
ĠCh an
ount ain
Ġafter n
Ġ6 7
ĠAn onymous
Ġ8 8
Ġam phib
Ġacc used
ĠSh ow
Ġ198 3
Ġdesign ation
oss ible
ink ing
erv a
Ġwin ner
ĠFor ces
Ġattempt ing
Ġorgan izations
Ġbas in
Ġbas ic
Ġdem ol
Ġconv oy
ĠRec ording
Ġcross es
Ġhost ed
Ġcreat or
Ġbrother s
ĠOd e
Ġap art
ĠCamp b
ĠOlymp ics
Ġmethod s
ĠGeorg ian
Ġpick ed
Ġast ron
Ġrecomm ended
Ġrhy th
Ġdut ies
ĠHorn ung
Ġcerem ony
Ġacad emic
Ġsud den
v ar
z z
re c
or er
Ġf ant
Ġh ang
Ġl ic
am ents
ĠM emorial
ot hes
ĠW y
ĠL ess
ag a
ist ol
Ġv an
Ġun n
end er
Ġdes ire
Ġman ner
Ġsec ured
ob a
Ġret ained
Ġreg ime
Ġ11 2
Ġ196 1
Ġappear ing
Ġcamp s
Ġstar red
Ġbelie ves
ĠTe levision
Ġstrong ly
Ġreal ity
Ġstat ement
ĠSim ps
Ġdiv isions
Ġchart s
Ġinterest ed
ĠTown ship
Ġmiss ed
stit ution
Ġfr ig
Ġblock s
Ġexcept ion
Ġfavor ite
Ġemer ged
Ġdoll ars
Ġchall enge
Ġbattles hips
Ġleaders hip
ĠFant asy
Ġatmosp here
ĠAM L
Ġisol ated
Ġphilos oph
ĠFrancisc o
ĠChel sea
Ġextrem ely
ĠSimps ons
g Ã©
k ey
n ic
n ell
o oth
Ġw edding
at on
or ters
Ġin land
ing er
ĠC ru
Ġg al
ig ation
Ġst ones
ĠD ota
ĠF ame
Ġal leg
Ġcon qu
ĠG ore
ri f
oc a
ĠK urt
ens us
Ġout f
Ġpre gn
Ġhigh light
Ġoper ating
Ġprov ince
Ġadv is
Ġbre aking
ĠOr gan
ĠOr der
ĠAm b
Ġstand s
Ġconv in
Ġequ ipped
Ġhold s
Ġsuper ior
Ġintens ified
Ġaccount s
Ġtrib es
Ġassist ant
ĠPat rick
ĠCamb ridge
Ġrare ly
Ġprincip al
Ġironcl ads
Ġthir ty
Ġdiam eter
Ġunus ual
Ġparalle l
ĠPho en
ĠTetr arch
Ġaftern oon
V N
a ft
c ement
p ret
z en
Ī Ĵ
or gan
Ġf al
Ġf ish
Ġb es
Ġb le
ĠA ld
el ly
Ġe u
ur i
ay a
ĠP att
ĠD i
ĠD isc
ĠD esc
ĠJ enn
ĠE c
ĠE lect
ĠK at
ĠK il
Ġâ ĪĴ
Ġsh if
Ġsh ots
ĠSt ation
Ġint ention
Ġover w
Ġpre y
Ġte aching
Ġdef ended
Ġreg ional
Ġdo ct
Ġcar ved
Ġpass age
ĠPl ot
Ġann iversary
Ġ191 0
Ġreview er
ĠPr ime
Ġcover s
Ġcr iminal
ĠTr ack
Ġvict ims
ĠRoman i
ĠMount ains
ĠHa iti
ĠHam ilton
ĠMad onna
Ġnomin ation
ĠMa eda
Ġforest s
ĠEngine er
ĠWrit ing
ipl om
Ġexped ition
ĠConstant ine
ĠHib ari
Ġobt ained
ĠHin du
L I
g ie
o is
r uli
w ise
y ard
Ġthe atre
re al
at ures
or i
an th
Ġb ond
Ġb aby
Ġp ushed
Ġp uzz
Ġd ie
ĠS ports
ĠC am
om ing
Ġn ob
ac ent
Ġg all
ĠR Ã©
ĠR angers
ĠN C
ĠG ang
Ġv ision
ate ur
ab les
ab led
ear ch
Ġsp acing
ok ed
Ġpart ly
Ġ9 9
ock ey
Ġret ire
Ġver se
Ġent ry
Ġsy m
Ġtrans ition
Ġpass engers
cept ion
ĠBe ach
ĠQ edar
Ġclass es
Ġappro ved
Ġvis ible
Ġmed ieval
atter ed
ister ed
Ġwat ch
Ġsee ing
Ġsett le
Ġimpro ve
ĠQue ens
Ġimmedi ate
gl ades
Ġattract ed
sen al
ev o
ĠPen insula
ĠMass achus
ĠIndust ry
ĠVen us
Ġremn ants
ĠFriend s
ĠMassachus etts
b ody
c ape
e xt
p oint
Ġ ic
Ġs ession
Ġw ick
Ġf itted
Ġm art
le te
ĠT rib
ĠC ape
ĠP ot
ĠF ront
os ure
Ġpro ceed
ĠCh ronic
og ether
Ġrec onnaissance
ult ane
Ġpart ies
ĠUn like
Ġdef ences
Ġwhere as
Ġinc ome
Ġind ig
Ġ197 7
Ã© t
que z
ĠAb b
Ġtw elve
Ġelect ric
ĠEl iz
Ġequ al
Ġadm itted
uck y
ĠRepublic an
ĠOs lo
ĠSing les
Ġhot el
ĠIndepend ent
Ġironcl ad
ĠWeek ly
ĠRog er
Ġsurviv ors
ĠIguan odon
F C
a ug
f are
l an
m ath
p ective
w orth
Ġs ed
is is
ĠT u
ĠC B
ĠC hen
am ar
Ġn av
Ġn one
Ġg ather
im a
im al
Ġcon vers
ew hat
ant i
oc al
Ġpl ain
ack ed
cl es
cl iffe
Ġoff ense
Ġup d
ĠAs h
Ġac know
Ġ0 5
Ġ0 6
Ġpubl isher
Ġdist ribution
Ġreturn s
Ġ195 5
Ġ193 7
aur us
Ġdr iving
Ġcommun ities
iter ranean
Ġpain ted
Ġpromot e
Ġconn ection
Ġsuff ering
Ġfall ing
ĠMed iterranean
Ġcivil ian
Ġseem ed
Ġwithd rew
Ġcomplet ion
AS A
Ġfeel ing
ĠHot el
ĠSam uel
ĠBrad ford
Ġresc ue
Ġarrest ed
Ġut il
Ġarrang ement
ĠMong ol
ĠRol ling
Ġexpans ion
ĠFreder ick
O C
b ur
r ast
v a
w a
on ica
Ġc ul
Ġc art
Ġc inem
Ġb rick
el ine
Ġn inth
ĠM ain
ur rent
ĠH ug
us es
ĠP ict
ver se
ĠD NA
ĠF ish
ĠG ully
Ġv ac
Ġv ide
Ġr aces
Ġr ugby
ĠIn it
ab eth
ang erous
Ġpre ced
ĠAn c
Ġshe ar
Ġchar ter
Ġfollow ers
Ġind icated
Ġ0 7
Ġdep os
Ġsign ing
Ġcar bon
Ġwar m
Ġimp lement
ĠDe ath
Ġopp os
Ġleg s
Ġclos er
Ġregular ly
Ġfr ame
Ġthreat ened
ĠMary land
ĠMont ana
ĠTer rit
ĠEver glades
ĠJer usal
Ġdrum s
ĠHum an
Ġemot ional
Ġspecim ens
ĠMorr ison
Ġmush room
ĠRox as
ĠLoren zo
ĠJerusal em
b les
d al
Ġs ke
Ġw rong
Ġp up
ĠT el
ĠS her
ĠS up
ĠM ul
ur d
ĠB ank
us ing
ĠP an
ĠP ower
Ġhe ar
ĠN BC
ĠN erva
ra ge
ĠL ab
ct ions
ĠJ un
Ġan th
Ġr um
Ġor n
Ġpart ners
Ġim pl
amp s
Ġass umed
Ġco ord
ĠLe v
ins on
Ġmon uments
Ġno isy
ĠMay a
Ġ195 4
ĠAd ams
Ġpoint ed
Ġ193 8
Ġ192 7
iven ess
ĠSte f
Ġmark s
ĠEd die
Ġcirc ulation
Ġcoll aps
Ġtreat y
Ġschol ar
hew s
ĠGeorg ia
Ġcontrovers ial
ĠSomal i
Ġaltern ative
ĠTru j
Ġeas ily
Ġegg s
Ġsom ewhat
3 0
i ary
n i
Ã ¸
Ġt aught
Ġw orship
or al
it als
Ġb ay
Ġm ap
Ġh all
le ase
ent ional
ĠC E
am ic
Ġn ick
ol i
Ġg ard
Ġfor cing
ig g
Ġst ead
Ġst reak
ĠP ope
ĠN intend
ra pped
ri en
Ġag ed
Ġen for
Ġso il
Ġmon arch
Ġ17 8
Ġ196 2
ĠPro f
Ġdr iven
Ġdest ruction
Ġdeb ate
Ġpost ed
Ġinvol ving
ĠAng le
Ġarm our
Ġnov els
Ġstri p
ĠRober ts
Ġ187 0
Ġdraw ing
Ġsurround ed
Ġabs or
Ġpurch ase
Ġshell s
Ġcam era
Ġinstit utions
Ġrom antic
Ġdocument ary
Ġfranch ise
ĠMoz amb
ĠTruj illo
ĠNintend o
2 0
c ements
k er
r is
r ich
Ġ ur
Ġs now
Ġo cean
or ous
it ated
Ġc itiz
Ġf aces
Ġb ed
Ġb ones
ic ate
ic ide
Ġd ivers
Ġd ream
Ġd iplom
Ġh ope
le ts
ĠB ang
ĠI SB
ĠH ong
ut s
Ġst adium
ĠR ain
em ed
ĠF low
ĠN ar
ĠO wen
Ġex isted
Ġex ha
ran ge
ĠTh ird
Ġj azz
ĠAn iston
Ġfl ed
ĠSh ak
its une
Ġdep end
Ġest ate
ĠUS S
Ġinst alled
ĠCar ter
Ġconc erts
Ġ195 8
Ġstorm s
Ġmed ium
ĠFl ight
ask a
Ġcat ch
ĠHar ry
aut iful
Ġsequ el
Ġrail way
Ġterrit ories
ĠJe an
Ġvot ed
Ġstay ed
Ġbring ing
Ġbad ly
ĠCast le
mun ition
ĠRhodes ian
Ġcandid ate
ĠArgent ina
Ġfung us
Ġsubmar ine
Ġunsuccess ful
Ġrestaur ant
Ġpy ram
b ishop
Ã §
Ġt ie
in ally
re es
Ġw ants
en burg
Ġf old
Ġp ric
ĠT ig
ĠA R
ĠS ap
ĠS onic
ĠC ab
am m
ĠB os
id ay
ot ic
ĠH ay
ĠR om
ĠD C
ĠD ur
ĠD iv
ĠD anny
if orm
Ġpro port
Ġrec alled
Ġpart ial
Ġpart ially
Ġcons um
Ġcons ult
Ġ8 6
Ġam munition
Ġ0 8
Ġ12 1
Ġent itled
Ġpres erved
Ġext ension
Ġdist ributed
ĠPl unk
Ġ14 0
ĠBe at
Ġclass ic
Ġsk ull
Ġlim it
Ġsett led
ĠAct ivision
Ġaccom mod
Ġredu ce
ĠKore a
Ġtravel ed
Ġmult i
ĠPri or
Ġconcern ed
Ġlink ed
Ġhop ed
ĠDes ign
claim ed
Ġmess age
ĠLis a
ĠIsab ella
ĠLenn on
ĠISB N
k h
r ative
Ġt one
Ġs ulf
Ġp age
as hed
Ġd ock
ĠT ower
Ġl ap
ĠB ranch
ĠF air
ĠN aval
ĠK en
ĠK ong
Ġk ings
ĠâĢ ĳ
ĠSt rand
Ġsp in
ap a
ĠV II
Ġcont ext
Ġrec re
Ġrec ru
Ġup graded
we et
tern al
Ġsong writ
Ġrel ative
Ġ12 7
ĠUS D
Ġdesign s
ĠGerman s
enn is
Ġbr ight
Ġ195 9
Ġposs ession
Ġcover ing
Ġeffect ively
ĠEar l
Ġfoot age
Ġprogram me
ĠCal vert
ĠFeder al
Ġtre ated
off man
Ġren ew
Ġengine ering
Ġgra v
Ġinj ured
ĠPlay er
Ġbomb ard
Ġproduct s
Ġinvestig ation
Ġrat ings
ĠRy an
Ġagricult ural
ĠConst ruction
Ġresour ces
A C
b b
c ation
g ra
Ġ els
Ġt ick
on ia
Ġs ell
it ian
ar ning
Ġl oyal
Ġe t
Ġg ro
ĠH ud
Ġst reets
ĠP ul
Ġal le
ĠW here
ĠL anc
Ġan sw
Ġor chest
ĠK ansas
Ġpl ane
ĠSt ock
Ġser ial
te enth
ark ed
Ġact s
Ġrele g
Ġinter pret
aj evo
ĠBe auty
Ġclass ical
Ġprot ests
Ġref ers
ĠMus lim
Ġreview ers
Ġeng ines
Ġvict ories
Ġmeet ings
Ġident ity
Ġinsp iration
Ġfund s
Ġesc ort
Ġcru iser
Ġcolon ies
Ġhapp y
ĠRes earch
Ġlo an
Ġdeg rees
ĠSar ajevo
ĠSomal ia
Ġwear ing
Ġapparent ly
Ġchem ical
Ġincorpor ated
Ġoverse as
Ġresist ance
ĠNether lands
Ġels ewhere
i y
i our
n ight
o om
v ention
w ich
y er
Ġa u
Ġf ine
Ġb low
Ġb one
ro se
ĠT est
ĠT reat
ĠS a
ĠS ab
ĠC ult
ĠB al
un ion
ĠF ern
ĠN ow
ĠG un
ĠJ if
Ġpro hib
Ġse es
ud es
ĠK aw
Ġch ronic
ĠU r
ĠU t
Ġle arning
ell ite
ĠV ice
ign ment
Ġag ree
ens es
ens is
int on
Ġ9 00
Ġrel ie
Ġ0 9
Ġexp osed
row s
uch i
Ġbel t
ĠWh o
Ġimp ossible
ĠBl ood
Ġgener ated
Ġmod ified
Ġdet ailed
Ġel abor
Ġlow est
Ġequ ivalent
Ġchang ing
Ġarm ored
Ġlook ed
Ġrelationship s
Ġreve als
Ġmer ch
Ġabs ence
Ġsat is
ĠVer onica
ĠYank ovic
ĠDest iny
ĠNorm an
ĠStan ley
Ġoccas ions
Ġrhyth m
Ġeu rop
Ġvide os
b ra
h ol
i Å
w an
à ¤
Ġ Å
Ġs ight
Ġo w
ar th
an ning
Ġd ens
ĠT on
Ġre pr
Ġl ies
ĠB ad
ot ton
Ġas h
ĠP ass
ĠR ugby
ĠD ie
ĠD ark
ch ang
ĠN ak
ĠL abor
ag i
ag as
Ġr ay
Ġse lection
ud a
Ġex change
ure au
Ġapp ropri
Ġafter wards
ĠY our
ĠCom b
Ġ16 5
Ġmin ister
ĠIs lam
Ġoffic es
ĠAd am
Ġ193 5
Ġrest ored
Ġ192 9
Ġwest ward
Ġdiv ine
Ġlangu ages
Ġ186 0
Ġburn ed
Ġpract ices
Ġtransport ation
Ġstation ed
Ġtrib ute
ĠDon ald
ĠVictor ian
Ġrequest ed
Ġchall eng
Ġmor al
Ġextre me
Ġadult s
ĠClark son
ĠDemocr atic
Ġencoura ged
Ġprotagon ist
ĠBeck ham
Ġcong reg
Ġinhabit ants
Ġoppos ite
Ġalle ged
B rien
r ates
u gh
w ick
á »
or ial
Ġc ry
is p
ing ale
Ġp in
ĠT ok
ĠA P
ent ures
ĠC R
ĠC ory
Ġl iber
Ġon line
em ia
ĠD yn
ĠL ords
if er
ĠK im
Ġle uk
ĠCh annel
Ġcl oth
Ġmov ements
Ġent ers
ann ah
Ġoper ate
Ġ191 1
Ġ193 2
Ġ192 1
Ġstand ards
Ġdel iber
Ġsuggest ing
Ġ190 9
Ġread ing
Ġpra ise
Ġgen re
Ġmount ains
Ġdifficult ies
ĠÃ Ĺ
Ġhapp ened
ĠRad cliffe
ĠEver y
Ġemer g
Ġunderst and
Ġaccomp any
iqu es
Ġvess el
Ġyoun gest
ĠWild e
Ġpan el
Ġadj acent
Ġassass ination
ĠSky e
ĠAthlet ic
Ġrit ual
ĠJif na
v ements
Ġ å
Ġ ille
he red
re me
Ġs unk
Ġs iege
al ed
il ation
ot ype
Ġst able
Ġhe at
ĠF ound
ĠF ras
Ġal ien
ĠL ower
Ġr ated
ast e
ĠCh ang
Ġcons ol
Ġact ual
Ġent h
ĠAust rian
Ġtra il
Ġexp ensive
ĠInd ones
Ġcre st
Ġinf rast
Ġbr ig
Ġann ually
Ġ191 2
enc ing
Ġdefe ating
sp ec
Ġread y
ĠKe vin
Ġpred omin
Ġrepresent ing
aval ry
Ġbur ial
ĠRuss ia
ĠWil son
Ġens ure
Ġvisit ors
Ġjud ge
Ġhundred s
ĠConf eder
Ġthr one
Ġprepar ation
Ġcust om
ĠGram my
ĠEliz abeth
H g
u v
y o
Ġs am
Ġs qu
Ġs essions
Ġb rand
Ġp ure
Ġp ale
ic it
le ton
el le
Ġg one
ter bury
us ad
ĠP rom
Ġcom ments
Ġv ul
Ġex it
Ġex cess
Ġsh ark
ĠSt ra
ap se
Ġint ense
Ġres umed
Ġte le
Ġra id
Ġra ise
Ġform ing
Ġwrit ings
Ġmus car
Ġ12 2
ĠWar ren
Ġpol l
Ġcar ri
Ġown er
Ġmusic ians
ĠPro g
Ġ193 1
ĠGu y
Ġwill ing
ĠCan terbury
esp e
Ġclaim ing
Ġel se
itar ian
Ġcy cle
Ġinflu ential
Ġground s
Ġcou p
Ġinterest s
ĠPal ace
ĠMex ican
Ġreb els
Ġinj uries
itz er
Ġmaterial s
Ġgre y
Ġabs ol
ĠLaw rence
Ġnorm ally
Ġess ential
Ġpurp oses
ĠBurn s
Ġdisapp oint
ĠClass ic
Ġmem ory
Ġexec uted
Ġfix ed
ĠBan ai
Ġchair man
Ġster e
Ġeurop ium
A T
D S
a ired
s ch
z ac
Ã ±
Ġ ib
Ġo ption
Ġf ram
Ġin Hg
il ly
ĠM ack
ĠB ed
ĠB ass
ĠB ron
ĠB ah
ir a
ot al
ow itz
ĠP ine
ul s
Ġal ter
Ġde leg
Ġâ Ĥ
Ġsh ipping
Ġsp aces
Ġun ion
Ġher d
Ġte ach
form ation
ĠCom ple
Ġsub st
Ġform ally
ĠRe al
Ġsur pr
Ġmin imum
Ġob l
Ġcar ries
Ġcar go
Ġair line
Ġtw in
ĠPol and
omb at
Ġwat ching
Ġmix ture
Ġrev ol
Ġrecogn ised
Ġclear ly
Ġobject ive
Ġvot e
ĠNor way
Ġwaters hed
Ġtur rets
ĠProt est
Ġspecim en
Ġlb w
Ġbul k
ĠCole man
Ġresident ial
Ġiniti ative
ĠJes us
Ġoverw hel
ĠShak espe
ĠShakespe are
f ire
n al
r inth
Å «
Ġt ack
Ġt ight
he im
he me
Ġthe ater
Ġs ons
Ġin aug
al ing
al og
ĠT echn
ĠT yphoon
ĠS em
ĠS and
ĠS weet
st a
Ġe asy
ut z
ĠD ick
ĠF el
ĠN L
ĠN eb
ĠW olf
ra wn
ĠG offman
ĠJ oy
Ġor b
ĠCh ampion
ĠAl ong
Ġen h
Ġev il
Ġform al
Ġ0 2
Ġtra ined
Ġ16 1
ĠGer ard
ĠJohn ston
Ġob st
Ġinst all
Ġinst ance
Ġprev ented
oss al
Ġsim ultane
ĠMe ga
Ġ193 3
ĠHer gÃ©
ĠGe off
Ġtem ples
Ġwind ows
Ġav o
ĠSu pp
ĠPol ice
Ġneed s
ÃŃ var
Ġarg ues
ĠAg ain
Ġking dom
Ġobject s
aby rinth
Ġaut om
Ġche ck
Ġjourn al
ĠJane iro
Ġreinfor cements
ĠBol ÃŃvar
Ġcompos er
cript ions
Ġdoub t
Ġpict ure
ĠJourn al
Ġseg ment
Ġprefer red
ĠJac ob
ĠCambod ia
Ġglob al
Ġcircum stances
Ġconvin ced
ĠKil mer
ĠQueens land
ĠSap rang
C C
O K
a fter
c ribed
e o
o es
Ġt ip
Ġt urb
er og
Ġs ailed
ro us
Ġm ask
Ġm unicipal
ĠT ro
ĠS n
ur st
ĠB udd
ĠB ureau
em ies
ĠW ard
ĠW imb
ĠL ang
ĠJ MA
if ies
Ġpro l
Ġde emed
Ġpl ate
ian g
ish ment
ue z
ĠHe arts
Ġro oms
ĠAl b
Ġdes ert
Ġ8 4
ek Äģn
led on
Ġext ent
ĠCl inton
Ġany one
ax on
ĠMc G
Ġperiod s
Ġlist ing
Ġcaus es
Ġmy st
Ġrepres ents
Ġsurv ive
com ing
Ġreb ell
Ġrepresent ative
ĠMed ia
ĠKore ans
ĠMo ore
ĠLaw ton
Ġadop t
Ġmom ents
ĠBC E
oir s
ĠJust ice
Ġintern al
Ġdispl ays
Ġinteract ion
ĠNaz i
Ġdepart ure
ĠGar c
Ġnarr ative
ĠPalest ine
upp et
Ġtrav elled
Ġdial ogue
Ġpropos al
eor ological
ĠProf ess
ĠFras er
ĠWimb ledon
M O
g ets
m at
Ê »
Ġs oul
Ġc reek
ic ity
Ġh ip
il ty
ĠC elt
Ġl ibrary
ac le
ur se
ĠB ark
ĠH ob
ĠH arrison
Ġbe aring
ĠL et
ri k
ri or
ri ft
ust er
Ġag o
Ġout l
ren e
Ġte x
inal s
Ġfe ed
ĠMar g
ĠLe ad
Ġext rat
Ġdisc ip
Ġbr idges
Ġprom pted
Ġrest oration
Ġport rait
ĠChrist opher
Ġstar ling
Ġbas es
Ġdem and
Ġformer ly
ĠX e
Ġinflu ences
Ġcritic ised
Ġround s
Ġdev ot
Ġpers u
Ġpoor ly
ĠRichard son
ĠMal ays
Ġtow ers
Ġobserv ations
Ġdram atic
ĠDel aware
ĠForm ula
Ġthrow ing
Ġdefend ers
Ġarchitect ure
Ġthous and
Ġinstr uments
Ġlegisl ation
ĠOrig inally
Ġcompound s
Ġbehav iour
Ġtact ics
ĠGuard ian
Ġeth nic
Ġdelay ed
Ġdecor ated
Ġreconst ruction
Ġimpr ison
ĠEdu cation
Ġacknow led
Ġextrat ropical
b ound
b urn
d ess
d ney
m el
z i
Ġt rick
in ery
Ġc iting
en ous
ic ul
Ġd iet
ĠS b
il st
ĠC ob
ĠThe n
ĠB ell
ol ith
ĠH ind
us cript
Ġst ood
ĠD ak
Ġcon sequ
ĠN CA
ĠW ing
os l
os m
ĠE p
ĠO ur
ate gy
ĠK y
ĠK ombat
ĠU pper
ov en
Ġj unction
Ġpo ets
Ġ9 2
Ġrem ember
ĠSe e
ob ile
Ġdef ending
Ġreg iment
ros cop
ific ial
Ġ0 3
Ġsever ely
ather s
Ġsm ooth
ull en
ĠMan agement
Ġuse ful
Ġmod els
Ġph r
Ġconsid ers
Ġstr ategy
ĠCan al
Ġposs ess
Ġorgan ised
Ġtem porary
Ġeng age
ĠRec ord
Ġelect ronic
Ġarr ive
Ġdiv or
ĠKe amy
Ġvill ages
ĠAtl anta
Ġcrew s
ĠBer lin
Ġbi ography
enes is
Ġthink ing
Ġestablish ing
Ġproper ties
Ġfeel ings
Ġdoc uments
Ġjourn alist
Ġunderst anding
Ġpurs ue
ĠAdm inist
ĠCat hedral
ĠMort al
Ġrebu ilt
Ġsubstant ial
ĠHit ler
Ġnick n
ĠFern and
v an
Ġ rib
Ġt ailed
in ating
Ġs isters
Ġc ars
Ġb on
ro it
ĠS uch
Ġl ie
Ġn om
ĠM ach
id ation
ĠH ou
Ġst ock
ĠR est
th osaurus
ĠN ichol
ĠW right
ra bs
ĠG ary
ĠE le
Ġsu re
ĠV i
Ġwhe el
Ġres igned
Ġag ents
ric ted
over s
Ġatt ained
Ġcons c
ĠAr j
Ġinter pre
Ġam ateur
Ġ16 2
ather ine
Ġart work
Ġcount ies
uth or
Ġ195 7
Ġ192 8
Ġtrad ing
Ġcompet e
ĠMin or
ĠMin istry
Ġtechn iques
Ġdoes n
Ġsequ ences
Ġengine er
Ġachie ve
ĠFI A
ĠArab ic
Ġcorn er
Ġencoun tered
Ġneigh bor
ĠSil ver
ĠRaj ne
Ġwars hips
Ġtun nel
ĠAlbum s
ĠDet roit
Ġfal se
ĠPlunk etts
ĠCory thosaurus
b ook
d ale
f l
h l
m ate
n ings
p ent
r im
u able
w ater
w ald
Ġb or
Ġb om
ĠA z
ĠS oon
Ġl ists
om a
ĠM and
ĠM other
Ġwas n
ĠB a
ol ay
ĠH ed
Ġbe autiful
ĠD al
ĠF all
ĠN atives
ĠW restling
ĠL amb
ĠJ r
ĠâĢ ľ
ip e
Ġsp r
Ġsp oke
ap ore
Ġun like
ru pted
Ġcl ock
Ġcl imate
Ġrec ur
Ġother wise
Ġout break
ind er
ĠUn ivers
ĠAn zac
Ġpo ison
Ġqu ant
Ġ12 5
Ġsy mp
ram s
Ġ16 6
Ġ15 5
Ġnorth ward
Ġgu ilty
ĠAll ah
Ġele ven
Ġprom pt
Ġtri ple
Ġ192 6
inc ess
Ġcr isis
Ġorigin ated
Ġarm ament
Ġread ers
ĠOl m
Ġfun er
ĠPal my
Ġcond em
Ġaud iences
ĠJew s
Ġcivil ians
Ġbi ographer
Ġengine ers
Ġfr ust
Ġtrib ut
Ġdeterm ine
Ġdepict s
ĠSing apore
Ġsat ellite
Ġinn ov
ror ist
Ġindic ating
Ġsched ule
Ġexperi ences
Ġsaf e
ĠDef ence
Ġdemonst rated
Ġremark ed
hu a
ĠExp ress
ĠMarl borough
Ġpyram id
Ġinfrast ructure
erog ative
p e
w estern
Ġs q
or ph
Ġf ault
Ġf estival
Ġp ack
Ġre ct
Ġre nder
ĠS in
ĠC ec
ĠC ass
Ġl ose
el in
ĠM es
ĠB ath
ĠB orn
Ġg arrison
ir id
ĠP A
ĠD ave
ĠL ink
Ġpro ve
Ġr ivers
Ġor bit
Ġk itsune
Ġnot ably
ust s
Ġcl imb
Ġsc attered
Ġpart ner
Ġplay off
Ġout p
ĠSe ason
olog ies
Ġass isted
Ġ10 1
Ġwar ning
Ġimp ressed
Ġdescrib e
ism s
ĠPl at
Ġ193 4
Ġref uge
ĠMc D
Ġdiffer ences
Ġsk y
Ġlook s
ĠChampionship s
Ġtest s
Ġclos est
Ġ185 0
Ġinform ed
Ġburn ing
ĠCorp oration
Ġoccup ation
Ġdro ve
ĠFe i
Ġweap on
Ġphot ograph
Ġevac uation
Ġgraph ics
Ġtouchdown s
ĠMill er
Ġrang ing
ĠUl t
ĠPit man
ĠGall ery
Ġvo iced
Ġbehav ior
ĠNever theless
ĠBase ball
ĠRick y
ĠPhill ies
Ġpredecess or
ĠTerrit ory
ĠSup reme
ĠStef ani
ĠGarc ÃŃa
E C
c ru
f riend
h ar
h ist
h ire
l ock
l ife
r ants
v ious
Ġa x
Ġs ad
Ġs ale
Ġw ine
Ġo ri
Ġb an
Ġb ord
Ġp ine
Ġm oon
Ġm amm
Ġd iver
ĠT ai
Ġl at
Ġl anes
ĠM uch
ĠB ou
iv an
iv ated
ot o
ĠH om
ĠH ok
ĠH aving
ut t
Ġst yl
ĠR a
ĠR u
ĠR ace
ĠD ig
Ġcon clusion
ĠN etwork
ĠW ic
ĠW eb
Ġv ast
Ġr ates
oc eratops
ip ed
Ġun iform
ok o
ĠHe nd
Ġres idence
ric ts
Ġj un
Ġman uscript
Ġcan c
Ġchar ged
Ġco oper
Ġsupp orters
ĠSh ik
Ġsur g
Ġrep rodu
ĠShe l
Ġgener als
Ġmusic ian
Ġconsid ering
Ġtri als
app ed
Ġpar ish
Ġtem por
Ġopp onent
alk y
Ġelect ions
Ġter rain
Ġfact ors
ĠEv ent
ĠGl ob
ĠMon ument
Ġlik ed
Ġgod dess
ĠSy dney
Ġrank ing
Ġrail road
ĠOver all
Ġcle ared
ĠFI FA
Ġsusp ended
ĠEnter prise
Ġprep are
Ġdisplay ed
Ġveh icle
Ġrang es
Ġscient ific
Ġbats man
Ġmoder ate
Ġmart ial
ĠInit ially
Ġcollaps ed
ĠTreat y
spec ies
S P
b oy
g am
j i
x ual
z a
Ġs aved
Ġw rest
Ġf oss
Ġf ishing
al f
Ġd angerous
ac ter
ĠM oon
ĠB ush
ĠB aker
Ġg ar
us ic
ĠR aff
ĠF urt
Ġal t
ĠN ob
ĠW omen
ĠL inc
os h
ĠJ T
ĠE ight
Ġpro sp
oc y
ĠK ann
Ġsp ur
Ġres ign
Ġab und
Ġsc heme
ens ions
Ġim perial
Ġte en
ĠUn til
rib le
aw ay
Ġear ning
Ġam ino
Ġ10 5
Ġexp osure
Ġmain land
Ġoper ates
Ġland ings
ĠGu ide
Ġrest rict
Ġdet er
app ing
Ġ100 0
Ġdem ands
Ġband s
Ã¡ r
Ġsit uated
Ġste ep
ĠCo oper
Ġhous ing
Ġlay er
Ġhun ting
ĠLeg acy
Ġspirit ual
ĠCa es
Ġpremi ere
ĠMcCart y
ĠOh io
ĠAlf red
Ġexclus ively
ĠPers ian
ĠAer ith
ĠGil bert
ĠCB S
Ġpup ils
ĠHud son
ĠOlm ec
W C
l ie
n g
n o
r ating
in ian
in ations
re ck
Ġs aves
Ġf ill
Ġb ell
Ġm ode
Ġre vers
ĠS id
ĠS ull
Ġn inet
ac les
ur day
Ġg iant
ĠH ope
ut y
Ġst yles
ĠN ear
ĠL ast
Ġan aly
ag ogue
od ore
ĠE y
Ġr ig
Ġsu it
Ġsu itable
ĠK rak
ru z
Ġcont ribution
Ġdis aster
ĠY ug
Ġcan cer
ĠRe lease
Ġ0 1
Ġfound er
Ġexp ect
az ines
Ġconst ant
Ġorgan isation
Ġexpl o
Ġcr ash
Ġstat istics
Ġinterest ing
rap y
Ġcoll apse
Ġrul ing
Ġcost s
Ġrespect ive
ĠMark gra
Ġpers pective
Ġsubject s
ĠGr ade
Ġdisp at
ĠCamp aign
ĠPortug al
Ġbig gest
Ġsout heastern
Ġcelebr ated
Ġopportun ities
Ġstrugg le
ĠFurther more
ĠSat urday
Ġneut ral
Ġstrik ing
Ġpremi ered
ĠSwed ish
ĠDomin ican
inj e
Ġtrou ble
Ġrif le
Ġcrop s
Ġunderw ent
Ġtempor arily
ĠRaff les
ĠFurt ado
ĠJT WC
ĠMarkgra f
N L
p ower
p iece
t i
t ime
z ing
Ġt rough
Ġt enth
Ġf ert
ar ant
Ġb anned
as ters
Ġh ull
Ġh uge
ĠT an
ĠT al
ĠC O
ĠC ome
Ġl ake
Ġn it
Ġn ations
ec raft
Ġg ets
Ġg rown
ĠP ow
ĠP ier
ĠR en
ĠD AG
ul ating
ĠL ith
ĠG a
ĠG en
ers ed
od a
ew ise
ud o
Ġch amber
ĠU sta
ĠâĢ Ŀ
ĠSt u
ĠV alky
Ġatt rib
ĠAr k
Ġchar ity
Ġpr erogative
Ġform at
Ġhigh ways
ĠSh olay
ten ance
Ġdep ending
Ġ11 5
Ġrep air
erv ative
ĠAll en
ont o
Ġref ere
Ġpar as
Ġdiffer ence
Ġlist en
sh ore
Ġreal ized
Ġelect ron
Ġmag azines
Ġer r
ĠSim pson
osaur s
Ġren ov
Ġmeas ured
Ġresear chers
Ġviol ent
Ġtru ck
ĠYear s
ĠSoc ial
Ġdomin ant
Ġamount s
ĠInter state
Ġfavor able
ĠHead quarters
Ġproduct ions
ili ar
Ġox y
ĠCor b
Ġelev ation
Ġwithdraw al
Ġencoun ter
Ġsuc ceed
ĠHawai i
Ġseek ing
Ġadvert ising
Ġelim inated
ĠNH L
Ġconspir acy
ĠStew art
ĠCampb ell
Ġretire ment
ĠMozamb ique
Ġmuscar ia
ĠNCA A
ĠArj ona
ĠUsta Å¡
D H
b ox
d on
e an
e gr
m outh
v ati
Ľ ni
Ġt iss
Ġw ings
or ious
Ġto ll
ic us
Ġm bar
Ġd war
ĠC y
om ic
Ġe at
ĠM un
ĠB oys
Ġg am
id el
ĠH amp
ĠH ans
ow iec
Ġbe ar
Ġhe m
ĠN iel
ĠN ash
ĠW ander
ĠW iÅ
Ġan ch
ĠE st
ĠE xt
Ġv ice
ong s
Ġex ists
ry ce
Ġcl im
ĠTh us
pl ed
Ġman ga
Ġpre f
int s
ind s
Ġwe igh
Ġsub species
Ġpr ime
Ġrele ases
ĠAust ria
Ġnumber ed
Ġ11 3
Ġdirect ors
Ġdesign er
Ġadv ancing
ĠDe an
Ġcharacter ized
Ġprom ised
Ġpublic ations
Ġclass ification
ĠMc L
ĠMc M
Ġchild hood
Ġdr iver
Ġexpl ains
Ġcommun ications
Ġevery one
Ġel der
Ġfre edom
Ġprof ile
ĠBar ry
Ġ190 8
Ġput ting
ĠPhil ip
ĠMag gie
Ġcycl ones
Ġemploy ees
Ġwithd rawn
Ġnomin ations
ĠTor onto
ĠSch m
Ġhar bour
Ġcru isers
Ġfrequ ent
ĠIsrael i
Ġasp ect
Ġinstit ution
ĠCommun ist
Ġcolumn s
ĠWat son
ĠGra ves
ĠBelg ium
Ġfat al
ĠHung arian
Ġdistingu ished
Ġstrateg ic
ĠNap ole
Ġdru g
ĠHeavy weight
Ġjack rab
ĠLab our
Ġcitiz ens
ĠProtest ant
ĠBark er
ĠLinc ol
ĠSull ivan
ĠYug osl
Ġdwar f
P a
it ively
Ġc hess
en ic
Ġb od
ĠA T
ĠS ans
el lect
ec ution
ĠB ab
ĠB oss
ĠB enn
ol is
Ġbe ars
Ġbe auty
ĠR aw
un es
ĠW ag
ĠG ate
ĠE agle
ak s
ak u
ĠU FC
Ġsh aft
ge on
Ġsp ac
Ġsp end
Ġsp ores
ish n
Ġen emies
Ġcent ers
ep ing
Ġfe ud
ĠAr senal
Ġsub mitted
Ġpe aking
Ġco ins
Ġthere after
ars h
Ġ16 3
Ġmet re
Ġ11 7
ĠCon c
Ġair field
ash i
Ġgu err
Ġrest ricted
Ġsl ide
ĠPar aly
ĠPar vati
Ġ192 3
urric anes
Ġinit iated
Ġdra in
Ġstrong est
ĠTr acy
ĠPer form
Ġsk ills
ĠPol it
Ġ190 5
Ġsound s
ĠGl ad
oo f
Ġfall s
ĠHill s
ĠRock y
Ġbusiness es
ĠBus iness
ĠTur ks
ĠMr s
Ġtar gets
ĠBu ilding
Ġbatter ies
ĠDer ry
Ġconcent rated
Ġhol iday
Ġexcav ation
Ġagg ressive
Ġemphas is
ĠBul gar
Ã¶ n
Ġcem etery
Ġassemb led
Ġbenef it
Ġstrengthen ed
ĠOrgan ization
ĠPhoen ix
ĠRÃ© union
ĠAnc ient
ekÄģn tav
Ġtex ts
Ľni owiec
ĠWiÅ Ľniowiec
ĠParaly mp
c our
g ov
m ont
n ie
y c
he era
at ur
is ler
as m
Ġto pped
Ġm ines
Ġh orn
ĠA A
ĠA ce
ĠS k
ad ier
ur ance
ĠB rand
Ġst rict
Ġhe aring
ĠR oth
Ġal ive
Ġal tered
ĠW isc
ĠG ro
ĠG wen
ĠJ ason
ain ts
ĠE aton
Ġcom ed
ak i
ĠK elly
ess ee
ĠSt aff
ast s
Ġy ield
ost er
Ġun lik
Ġj ury
Ġfe els
ĠAs ian
Ġdec ides
ons in
Ġart ificial
Ġdist ricts
Ġins cription
Ġins criptions
ĠPl an
Ã© e
Ġvar iation
Ġgr ay
Ġlate x
ract ion
Ġstar lings
Ġbelie ving
Ġcommun ication
Ġamong st
Ġpat rol
ĠAng lo
Ġjo ining
Ġarm oured
Ġrad iation
ĠSy m
Ġfif ty
Ġfif teen
Ġtest ing
Ġfall en
Ġask s
Ġhon our
ĠSl ayer
Ġmer ely
Ġfund ament
Ġremov al
ĠKh and
ĠPo ly
ĠTra il
Ġadapt ation
Ġvot es
Ġbound ary
Ġconver sion
ĠTenn essee
ĠCrit ics
Ġarchitect ural
ĠRhodes ia
ĠKir k
Ġdeliver y
ĠMur ray
ĠJon athan
Ġaim ed
ropol itan
ĠKann ada
ĠUstaÅ¡ e
ekÄģntav Äģda
ĠWisc onsin
j an
p an
t aker
z ed
re p
Ġs ung
Ġw et
it ia
Ġf ate
Ġf asc
Ġf ountain
Ġp ed
Ġd ies
ĠC ateg
am ount
Ġn urse
ĠM idge
ĠM Ã¡r
ĠB ulls
ol en
ot ten
Ġst ores
ĠD um
ĠF le
ĠF alls
ch ar
ĠL ost
ĠG ray
Ġv ault
Ġsu icide
ĠK am
Ġnot ice
ĠV I
ĠV ul
Ġint ellect
Ġus age
ach ute
Ġapp rec
ens ively
Ġup set
ind ing
oy age
Ġcons ervation
Ġfl ash
Ġsub stitute
Ġent ertain
Ġsur prise
Ġimp ression
enn ium
Ġgener a
Ġhel met
Ġappro val
Ġ192 5
Ġeng agement
ne ath
Ġexper t
ĠPer fect
Ġarr iving
ĠDav is
ĠNe xt
Ġpred ators
atin um
Ġhar m
Ġanti qu
Ġpot entially
Ġunc ertain
Ġappl ication
ĠHow e
Ġconflict s
Ġtalk ing
Ġdistinct ive
Ġpound er
Ġdepart ed
Ġstep s
Ġmagn itude
Ġenvironment al
Ġcompar ison
ĠMas ters
Ġtheat rical
ĠRail way
Ġpul led
Ġemp ire
Ġdemol ished
Ġille gal
ĠFound ation
ĠRajne esh
ĠEvent ually
ĠStu art
ĠKhand oba
ĠCateg ory
ĠMÃ¡r quez
d ress
j amin
u a
v or
y ll
Ã £
Ġt ub
nd a
es ter
as hes
Ġto ured
Ġto ler
Ġm ir
Ġd ense
Ġh ills
Ġre nd
ĠS M
ĠS S
ĠS le
Ġth rew
ĠC irc
om ura
am i
Ġn et
Ġn avy
ĠM k
Ġon going
ĠB acon
im er
Ġfor ty
ig e
Ġhe n
ĠR aid
un c
un ch
ĠF RE
ĠN on
ĠG irls
od s
ĠE ric
op l
Ġv s
ill as
ak ers
art e
Ġch oir
ĠSt ories
ia o
ĠV ik
Ġro t
Ġper mission
Ġrec on
Ġdis agre
Ġen cl
Ġev ident
Ġpo le
Ġ8 3
Ġtr ust
Ġrel ation
Ġco inc
Ġco aching
Ġmain tenance
Ġ11 4
Ġcomple ting
Ġinf lict
Ġeff ic
Ġadv ice
Ġadv enture
Ġed ges
ĠBe h
Ġconf ront
Ġmar ch
ech ism
Ġvis iting
Ġbre ed
Ġhand led
Ġrefer ring
Ġarm ies
Ġ190 1
Ġfriend ly
Ġwid er
ĠHar v
Ġsw im
ĠKe ith
ĠSw iss
Ġredu cing
ĠMad ison
Ġcirc le
Ġ186 1
Ġsyn agogue
Ġ183 0
ĠPet ers
ĠStud io
ĠBen jamin
ĠFranc is
che ll
Ġ97 8
ĠRet urn
ĠJourn ey
ĠVill age
ĠMcCart ney
imet res
ĠJur chen
Ġhelicop ters
ĠSimilar ly
LI MO
Ġsettle ments
ĠMul der
Ġemerg ency
Ġenth us
ĠProg ram
ĠCelt ic
ĠHou ston
Ġunlik ely
ĠFRE LIMO
I A
P A
f ather
i ac
m n
n els
v ant
Ġ id
Ġs ang
Ġw el
at ically
or age
Ġc aves
Ġc otton
Ġb anks
Ġin ning
Ġp ap
ic ia
Ġm ac
Ġh ook
ĠT ree
ĠA uthor
ĠS our
ĠS out
ĠS AS
ĠC P
Ġg ap
ow a
ĠP C
Ġbe ating
ĠD a
ĠN av
ĠL ud
ĠE sh
op les
Ġr ushing
Ġpl us
Ġk it
ĠSt al
Ġsp ending
ell ar
ĠHe alth
ĠTh ose
Ġoff s
ang el
ĠOn tar
ose xual
Ġfe athers
Ġass ess
Ġrecord ings
any on
ĠSc ully
yl ine
iet h
iet ies
Ġ17 0
ern on
ĠShe ff
Ġhead dress
Ġob tain
ĠCol l
ĠGu ine
Ġweek end
Ġstar ring
Ġ192 4
Ġcapt uring
Ġnort heastern
Ġsimilar ly
Ġprop ag
Ġcontrol s
ĠLes lie
Ġstruct ural
Ġ190 7
ĠNe v
Ġsum m
ĠMag n
Ġpri est
Ġcreat ive
ĠOs car
Ġnetwork s
Ġkeep ing
Ġdi agn
Ġbattles hip
ĠOut standing
Ġsecret ary
ĠEr nest
Ġpow ered
Ġstrike outs
ĠLouis iana
Ġmel ody
ĠOrig inal
Ġsac red
Ġcerem on
Ġmob ile
Ġven ues
Ġcollabor ation
ĠRif les
Ġdefin ition
Ġnegot iations
ĠObs er
ĠML B
Ġphilosoph y
Ġelabor ate
Ġsatis f
Ġsimultane ously
ĠCaes ar
ĠLincol n
ĠWag ner
Ġspac ecraft
ĠWiÅĽniowiec ki
ĠOntar io
C h
b re
f e
h ang
n ik
p o
r aska
t ong
z hou
Ġt elling
it age
Ġc up
Ġc rake
Ġf ro
Ġb ran
Ġb are
al ley
ro ls
Ġh idden
ou x
ĠT it
ĠT ogether
ĠS on
ĠS ign
st ers
ĠM em
ĠM all
ĠM aur
ĠB eth
ig er
ot yp
ot illa
Ġbe ats
ĠR ap
ĠD D
ch o
ĠN atural
est yle
Ġr ide
Ġsh arp
ip er
og y
ĠV and
ok en
end ar
Ġper imeter
Ġrem ove
Ġ0 4
ĠAust ro
Ġtra pped
Ġmet ers
Ġprom in
Ġperson ality
Ġhand ed
Ġant icip
Ġhelp ing
Ġbattle cru
ump s
ĠMag dal
Ġval ues
ĠSw itzer
Ġfac ility
Ġrock s
Ġlack ed
Ġprofess or
Ġrul er
ĠKh an
Ġdon ated
Ġparticip ate
ĠMet eorological
Ġ184 0
Ġbomb ing
Ġpercent age
Ġbirth day
ĠTre k
Ġcred it
Ġjob s
Ġsculpt ures
Ġplat oon
ĠHu gh
Ġnewsp apers
Ġtask ed
Ġtur ret
Ġstrugg led
ĠMat hews
ĠMatt hew
Ġexcav ations
Ġmanufact ur
Ġwa iting
Ġscient ists
Ġdut y
ĠChap el
ĠBroad way
ĠSurv ey
Ġvert ical
ĠWalk er
min ster
Ġveget ation
Ġastron om
oca ust
ĠNak tong
ĠNeb raska
olith ic
ĠHok ies
Ġsurg ery
E S
M alley
e ign
g as
r ad
s ki
u ki
in ction
Ġc ake
Ġb rain
Ġin clusion
Ġto oth
Ġm emb
Ġm emor
ou st
ĠT a
ĠT ony
Ġre ass
ĠA ut
ĠA BC
ĠS ony
ĠC all
ĠC anyon
am er
am an
ac re
ĠM it
ĠB ible
ĠB arn
ĠB anks
ĠI an
et ime
Ġg ates
im ented
ir i
ĠH op
ay an
ĠP ur
ĠF il
ĠF em
Ġcon j
ĠG host
Ġan ime
um in
od ed
Ġr id
ĠIn vest
Ġsh ares
ĠCh agas
Ġab ol
act ive
over eign
ph y
ĠAn ne
Ġass embly
Ġco in
Ġmon it
Ġexp ression
Ġrece ives
Ġext ensively
Ġwar fare
Ġoper ational
Ġmay or
Ġdisc ussion
Ġsim pl
Ġrest ore
ĠHer ze
ĠChrist ians
Ġref lected
Ġcommand ment
Ġpar ody
ĠWith out
ĠAb by
Ġconv entional
ĠTr ust
arr is
Ġprof it
Ġcy t
ĠReg ister
Ġprogram ming
Ġshould er
Ġgood s
ĠHar old
Ġrev ised
ĠMag ad
Ġcolle agues
Ġsuper n
Ġsuper v
ĠAct or
Ġ35 0
ĠEm my
ĠAg ency
Ġexc ell
Ġgra ve
ĠAngel a
Ġdisp ute
Ġquarter back
Ġbow l
Ġtalk s
Ġtourn aments
Ġevac uated
Ġwalk ing
Ġtransl ation
ĠFinal s
ĠIndepend ence
Ġexhib ition
Ġpound s
ĠKent ucky
Ġneigh b
Ġimag ery
Ġexec ution
ĠYank ees
ĠChild ren
ĠGi ants
Ġvirt ually
ĠMic hel
Ġundert aken
ĠTransport ation
Ġaccur ate
ĠBrook s
amar u
ĠDak ota
ĠShik amaru
ĠValky ria
ĠNiel sen
ĠWander ers
gov ina
ĠSheff ield
ĠSwitzer land
C O
E FA
N C
b ing
c i
e qu
g on
g ars
h t
h um
k es
Ġt or
Ġt ale
Ġa f
er g
Ġc ave
en z
ar ia
Ġb ra
Ġb oss
Ġb oys
Ġin fer
Ġd ict
le e
ĠS ant
ĠC ond
Ġn urs
ac ruz
ir ates
ĠP ryce
ĠR ivers
ĠD og
ĠD ram
ĠD iam
ĠF ace
ĠL ibrary
os om
ill iant
Ġde ity
Ġr ising
Ġr acing
ber ry
ĠK it
Ġch rom
ĠU EFA
ĠSt r
se x
ip es
Ġcl in
ĠHe art
ĠHe aven
Ġres olution
end en
Ġro ots
Ġman ip
Ġoff ering
ang ular
Ġev olved
int ed
Ġdec ay
Ġret ain
Ġsupp lement
ah i
Ġob vious
Ġdif f
Ġins urg
Ġweek ly
Ġkill s
Ġperson ally
Ġfew er
ĠPr iv
ĠAb d
Ġpat rols
Ġcompet ed
Ġfact ory
ĠEv ans
Ġtre nd
Ġident ify
ĠMad rid
Ġclos ing
Ġappoint ment
Ġmot if
Ġdev ast
Ġgra ves
Ġmach ines
ĠÃ ī
Ġcontr ad
ĠHol ocaust
Ġ36 0
ĠPri est
ĠVer acruz
under st
Ġinters ects
Ġtemper atures
ĠCons ervation
ĠWater fall
Ġsquadron s
ĠChe val
Ġprison ers
Ġmechan ical
ĠProv ince
Ġaccompl ish
ĠBert in
bur gh
Ġappropri ate
ĠTok yo
ĠHerze govina
ĠMagad heera
k o
w here
Ë Ī
Ġt ut
Ġt ort
Ġw ish
Ġw reck
at ch
Ġc ook
en ged
en ger
Ġf ulf
ar ation
Ġb ishop
Ġp ion
Ġp ace
Ġp hen
Ġp arent
as p
ĠT at
ĠT ag
ĠA h
ent le
Ġl oud
Ġl iqu
om tav
Ġfor th
ot te
ĠH ave
us an
ĠP ubl
ĠD ub
ĠD ah
un a
Ġwh ilst
Ġal ph
ĠL as
ĠG irl
ag en
res ent
Ġv eter
ĠIn tern
igh ters
oc ation
ĠK u
Ġpl acing
Ġy d
ine y
ĠCh arts
og an
Ġcomp onents
ok ing
ok ovic
Ġro uting
Ġper p
ult an
Ġag ency
Ġover t
ĠY o
ĠY outh
Ġev olution
Ġfe e
ĠAs omtav
Ġdec isions
ug u
ĠMar s
ĠMar ie
Ġprodu ces
Ġra ising
Ġra ids
Ġinc om
Ġ12 9
ĠJo h
az irid
Ġorig ins
ĠCon stitution
Ġstr ing
Ġappro aching
Ġexpl icit
Ġsent ences
Ġopp osing
eter ies
ĠCount ry
Ġtw ent
Ġbeh alf
Ġvict im
Ġsk et
ĠWest minster
Ġsol ar
Ġdestroy er
ĠScient ologists
Ġadm in
ĠGl ass
Ġred e
gr ad
Ġval id
Ġfac il
Ġask ing
Ġflood ed
Ġreact ions
Ġtransport ed
Ġmaint aining
Ġobject ives
AS P
ĠCong o
Ġcred its
Ġkilomet ers
Ġsev ent
ĠDj okovic
ĠBook s
ĠCat echism
Ġinh ab
Ġpattern s
Ġprint ed
Ġprepar ing
Ġfle w
ĠOffic ial
Ġwealth y
Ġfrig ates
Ġproport ion
Ġaccompany ing
Ġbrig ades
Ġinterpre ted
Ġneighbor hood
Ġdeter ior
Ġoxy gen
ĠNapole on
ĠAsomtav ruli
h ous
Ġs ample
ed ed
Ġw ishes
Ġc ous
Ġf les
es ters
Ġto m
Ġto uring
ro v
ic ians
Ġd ust
Ġd uration
Ġh osp
Ġh Pa
ĠT NA
ĠA le
ĠA man
ĠS ay
ĠS omet
ĠC red
ad i
ĠM ant
Ġon wards
Ġg irls
Ġst im
ĠR ag
ĠD w
ĠD in
ĠD or
ĠD ud
ĠN S
ĠN at
ĠL in
ĠL ane
ĠJ en
um ented
ĠE ug
ĠO mar
Ġv el
ard ed
ĠK in
ĠK on
Ġsh ift
ĠCh ampions
Ġun ex
ĠV ic
Ġcomp ens
Ġcomp onent
Ġab oard
Ġdis band
ib l
ĠY ellow
ace ous
Ġen roll
Ġpre tty
Ġcomm enced
oy d
Ġdec e
ĠMar iana
Ġtr unk
ob i
Ġra ins
Ġco ff
Ġfour teen
Ġind eed
Ġ12 8
Ġrece pt
Ġ11 8
Ġrep airs
emb le
ĠShe ll
Ġsign al
Ġmat hem
ĠCar re
Ġgovern ments
Ġadv oc
Ġdam s
ys elf
Ġcommand ers
Ġevent ual
Ġexpl ain
Ġ192 2
Ġsold ier
Ġant hem
Ġexper iment
Ġorder ing
Ġtour ist
Ġcomment ary
Ġ188 9
Ġrepresent ation
Ġesc aped
Ġhous ed
ĠMet ro
Ġdoc umented
Ġarchae ologist
ĠPri ze
Ġamb assador
Ġcer atops
Ġpolic ies
Ġbox ing
Ġess ay
ĠCharl otte
Ġast ero
Ġ76 6
Ġreinfor ced
Ġdispl aced
ĠJos hua
bour ne
Ġrhy me
Ġunivers ities
Ġhor iz
ĠImag ine
Ġreform s
Ġvolunte ers
ĠCub s
Ġhydro gen
Ġvic inity
Ġdub bed
Ġconvers ation
arth y
ĠIslam ic
Ġcloth ing
Ġmyst ery
Ġphr ase
ĠEsh mun
ĠGuine a
6 0
M E
g ian
r h
Ġ ï
Ġw ors
at ers
it ter
Ġc a
Ġc hest
Ġc avalry
Ġin her
Ġm and
ĠS yn
ĠC ant
ĠC yr
Ġl in
Ġl ad
el son
Ġg at
im on
ĠH ur
ĠP as
ĠP le
Ġbe am
em en
Ġby pass
ĠN i
ĠN DH
ĠL im
ag uchi
Ġv ital
Ġr ushed
oc ent
ĠK ings
Ġpl atinum
Ġsh orter
ĠSt av
ast ra
ov a
Ġsp ots
cl ass
Ġcomp rom
Ġcomp ilation
ork s
Ġatt orney
Ġfe eding
ĠSe v
ĠSe ven
Ġcan al
Ġass ert
Ġpe oples
Ġbu y
Ġac ids
Ġinter cept
ĠLe igh
Ġpubl ishing
ah o
Ġart istic
Ġrun ners
ĠBl u
ĠBl ues
Ġsix teen
Ġed ited
Ġcharacter istic
ĠHer ald
ĠHer itage
by ter
omet ric
Ġmar ry
Ġappro aches
ung le
Ġhum or
inc ial
Ġleg it
Ġ24 0
ĠX enon
augh ters
ĠCent re
ĠRoman ian
Ġaff ili
Ġpresent ation
Ġread er
ĠEx per
ĠFeder ation
Ġred es
Ġconn ecting
ĠMor gan
ĠMcC arthy
Ġanim ated
Ġtest ed
Ġclos ure
Ġindust ries
ĠPe ach
Ġpoet ic
leg raph
Ġblock ed
Ġdepict ing
ĠInter change
Ġobserv ation
ĠRob inson
Ġbound aries
ĠSpec ies
ĠFin ally
Ġchampionship s
Ġadminist rative
Ġagg reg
ĠColumb us
Ġtim ber
Ġadvert is
Ġcompr ised
Ġham let
ĠWork s
ropol is
Ġsole ly
Ġdisturb ance
Ġcem eteries
Ġsubs id
Ġcho ose
ĠLeon ard
ĠSor ra
Ġbal ance
Ġsudden ly
ĠAmb assador
ĠDesc ription
Ġindig enous
Ġvul ner
ĠWic ca
ĠNev ada
ĠCheval iers
f ly
m ates
t ic
in ces
Ġs ized
Ġs itting
ar o
Ġb ore
Ġp se
Ġp ull
Ġp ages
Ġh i
ĠS au
ĠS ection
st al
ĠC ad
ĠC ress
Ġl amb
ly n
ĠB ald
ĠB uck
Ġg ang
Ġg ift
ĠP am
ĠP ak
ĠP rest
ĠF if
ĠF reak
Ġis ot
ĠN u
ĠN ett
ĠW elling
ĠL ocal
ĠG az
ĠJ ard
ĠE conom
ĠO w
Ġse as
Ġse ats
ĠK now
Ġch ain
ment ed
Ġsp awn
Ġcl er
ĠHe y
Ġres ol
Ġab ilities
land ers
ild a
ath y
Ġthem ed
Ġact ed
Ġacc eler
Ġ10 6
Ġep ic
Ġsign s
Ġmat ure
Ġrun way
ĠCl aud
ĠCar mel
ĠComm ons
Ġhel ium
Ġdet ected
Ġport ions
ĠChrist ine
ĠMc K
ret t
app y
Ġtrack ed
Ġstar ter
Ġrepl acing
Ġcour ses
Ġ23 0
Ġtrad ed
Ġstat ements
rest rial
Ġsol ution
Ġobs c
ask i
Ġpit ching
ĠIm m
Ġfun ctions
Ġprofess ion
medi ate
Ġemb arked
ĠRh ys
opp ing
ĠPo et
ĠStud ies
Ġarchae ologists
ĠColle ction
Ġsem if
Ġpair s
Ġindic ates
ĠFore ign
ĠRA R
ĠPhilipp ine
Ġpil ots
Ġtransl ated
Ġple asure
Ġpun ishment
Ġrecomm end
ĠHawai ian
ĠCommun ity
Ġwa it
Ġillust rated
Ġflag ship
Ġbelief s
ĠSwed en
Ġmolec ules
ĠDod gers
Ġaer ial
Ġunn amed
ĠAbb ey
ĠPul aski
ĠDyn asty
Ġrebell ion
ĠMalays ia
Ġbom bs
Ġjun ior
Ġentertain ment
G rom
c hens
d ict
e u
e le
k rit
l ights
u ations
z er
z ong
Ġ æ
Ġs in
Ġw ives
or ig
it ic
Ġc ro
Ġc ir
en ess
es i
Ġin duct
Ġp ron
ro ke
Ġd ual
Ġd anger
Ġd aughters
ĠS isler
ĠC em
ĠC ater
ĠC ullen
Ġn aming
ĠB apt
Ġfor g
ot he
ĠP anz
ĠF ood
ĠN ag
ĠN ose
ĠW N
ĠL ist
ĠG ill
um ble
ri arch
od rom
Ġr iding
ĠIn s
Ġse w
Ġse ized
ĠK le
ĠK Åį
Ġex port
Ġsh rine
Ġsh allow
Ġk id
ĠCh ron
ĠV el
Ġint egr
Ġcl ay
Ġcl othes
Ġper ceived
ĠTh ir
ach ment
Ġatt itude
Ġen zy
Ġkn ock
Ġkn ocked
Ġcol ossal
Ġpos itively
Ġcan cel
ans field
Ġreg istered
Ġ10 4
Ġtra ils
ĠZ oo
Ġtrans mission
ĠInd ians
Ġcontin uous
ĠJohn ny
Ġpass ion
Ġfam iliar
Ġph one
ĠAd ela
Ġvar ied
ĠGu adal
ĠMc N
Ġcap s
Ġrequ ires
Ġeast ward
ĠEd ge
Ġconv ey
Ġconv ention
Ġfore cast
ĠPark er
Ġreported ly
Ġaff airs
fic ial
Ġchart ed
Ġide al
hem ical
Ġrev ival
Ġestim ates
Ġredu ction
ĠRep resent
Ġrul ers
Ġhy g
ĠVal ve
ĠOper ations
Ġarchae ology
Ġcertain ly
ĠPri x
ĠBur m
Ġquest ions
Ġcele b
ĠWood house
ĠBob by
Ġweaken ing
Ġsal v
Ġqual ified
ĠWW F
Ġcandid ates
ĠInt elligence
Ġmeasure ments
Ġsubmar ines
ĠGard ner
ĠHon or
ĠBru ce
ĠBelg ian
Ġton nes
Ġju ven
ĠImp act
ĠTetrarch s
Ġupd ated
ĠTig ers
ĠKaw aguchi
Ġash ore
Ġphotograph s
ĠDig ital
Ġcanc elled
ĠSans krit
ĠCred its
ĠDud ley
ĠSorra ia
ĠNose k
ĠAdela ide
E D
F L
S h
b udo
d s
t z
á ¹
Ġ ump
Ġt et
Ġa w
on ed
re ated
Ġc ode
Ġf usion
is en
ar c
Ġb arr
Ġto x
Ġd od
ĠT ow
ĠT ask
Ġre ward
Ġre aches
ĠS el
ĠS ac
ĠS ter
ĠC art
Ġl iv
Ġl ying
el ing
ĠM ix
ĠB ird
ĠB idd
ol in
ter ior
ut her
ĠP u
ĠP ole
ĠR at
ĠR av
ĠD over
ĠD ance
ĠF ul
ĠF ord
ĠW ASP
ra id
ĠL akes
ĠG ot
and ra
Ġan ekÄģntavÄģda
av or
od ont
op ing
Ġr am
ant e
ĠK au
ear ing
Ġsh op
ish ops
ĠV is
ĠV eer
so ft
Ġcomp re
orm s
Ġus ual
Ġj ew
ace ae
Ġrel atives
Ġend ors
Ġqu een
Ġacc um
ĠJo int
Ġback ed
Ġ16 7
Ġ16 8
Ġdep iction
Ġmin imal
ven ge
Ġext ending
ĠBr istol
ĠPl ate
Ġsuccess ive
Ġfinal e
ĠDe ad
ĠDe ep
Ġbr ut
ĠMc E
Ġsl opes
Ġcommand s
ĠPar amount
Ġrepl ied
hest er
Ġroad way
Ġarch bishop
ĠX II
Ġsignific ance
Ġ190 2
Ġ190 6
Ġgen etic
ĠIm budo
rie ved
ĠNe ves
Ġten ure
Ġrank s
Ġcomment ing
Ġsuper st
Ġaud io
Ġlack ing
Ġ188 8
Ġz ones
Ġemploy ment
Ġill ness
Ġmach inery
gu ard
Ġfail ing
Ġunc lear
Ġunderst ood
ĠTw enty
Ġpurs uit
Ġrecover y
Ġdeploy ment
Ġsearch ing
ĠDef ense
Ġresc ued
Ġfast est
Ġdissip ating
Ġdiam ond
ĠArgent ine
ycl ic
ĠId aho
ĠObs erv
ĠBrig gs
Ġenl isted
ĠSi oux
Ġverte bra
Ġimmig ration
ĠIng res
Ġdoct rine
ĠChronic les
Ġcinem a
ĠTel ugu
Ġrelie ved
ĠProfess or
Ġtiss ue
Ġtub es
Ġfles h
Ġhosp itals
ĠCress well
ĠNett les
ĠJard ine
ĠBidd enden
A R
A r
T ube
b ie
j a
Ġs oci
Ġw ore
Ġw restling
Ġf ir
Ġf ame
is le
Ġp ush
as a
Ġm ental
Ġd a
Ġh itting
Ġre venue
ĠS ultan
Ġl over
Ġg or
Ġg aining
Ġg host
ĠH M
ĠH em
ĠR andy
ĠD ersh
ĠD ennis
ra v
ĠL ad
ĠG round
her ry
ag ers
ri p
Ġcom fort
Ġpro ceeded
Ġr ivals
oc ity
Ġex clud
Ġex ecut
Ġsh ru
oun ced
ĠV isc
so le
Ġab road
Ġro tation
Ġper mitted
pl ace
Ġ18 00
iz al
ĠAl most
Ġj ungle
ph ant
ress ions
Ġpre fect
oy le
Ġac ute
Ġdo ctor
ĠZ ap
ĠZ anz
Ġpres ents
Ġback ing
yl ogen
Ġ16 9
az er
Ġmain stream
ĠInd ies
Ġsign ature
Ġwar ned
Ġconst antly
ĠPl aces
Ġsuccess ion
ĠPro te
ĠGu ild
Ġpublic ly
Ġport s
ĠCan ning
amb o
Ġbo il
Ġdem anded
ograph ical
Ġstrong er
ĠPark s
Ġhistor ically
Ġfact or
Ġ190 3
reg ular
ĠYou Tube
ĠMag ic
Ġ189 5
br ace
Ġhost ile
Ġarg uing
Ġbi ological
Ġcop y
Ġpers ist
Ġpers ons
ĠVal ent
ĠRuss ell
Ġheav ier
Ġgold en
Ġaut umn
Ġflow ers
Ġconsist ent
Ġcontroll er
Ġwalk s
ĠJos Ã©
ĠTri ple
Ġmagn etic
Ġmanufact uring
Ġsail ors
Ġhor ror
Ġven ue
ĠUs her
Ġmolec ular
Ġowners hip
Ġhousehold s
Ġrepeated ly
Ġsynthes is
Ġcateg ory
ĠAlbert a
Ġexact ly
Ġtal ent
Ġpregn ant
ĠPatt yc
Ġshif ted
Ġpuzz les
Ġexha usted
ĠAR VN
Ġbombard ment
ĠUt ah
Ġmerch ant
Ġrecur ring
ĠArk ansas
ĠBenn ett
ĠMit chell
Ġphen omen
ĠAman ita
ĠWelling ton
ĠChron o
ĠBurm ese
ĠNeves inje
ĠDersh owitz
ĠZanz ib
ĠPattyc ake
E A
X e
b ro
b ow
c ut
c over
d in
h r
o ons
u ters
Ġt ape
in aw
Ġs tern
Ġs ick
Ġw aves
it ely
Ġc ensus
Ġf ru
ar io
Ġin cl
Ġin du
Ġp ushing
Ġd ressed
ĠT ong
ĠT ak
ĠT ales
Ġre per
ĠA ud
Ġn ose
ĠB ox
ĠB atter
ĠI owa
iv ation
ĠH ad
ĠH oll
ĠH annah
ow ed
Ġst abil
Ġst ellar
ĠP ic
Ġbe ings
Ġhe ir
ĠF ut
Ġcon ce
ĠW ik
ĠG ael
est ed
ate ver
ĠK id
ĠK rist
Ġch ampions
Ġsh ield
Ġsh irt
ĠSt and
Ġsp an
Ġle ct
Ġint r
ib ilities
Ġen orm
aw ak
ath a
Ġret ail
Ġspec ulation
Ġacc us
ert o
Ġ15 4
Ġ11 1
Ġ17 4
Ġmin i
Ġext end
Ġdist rib
Ġfin est
enn a
Ġ13 1
ling er
Ġincre ases
Ġmar gin
ĠYork shire
ĠAnd re
Ġdr inking
osp el
amb ia
Ġreview ed
Ġcover age
ĠWe ir
Ġmy ster
Ġ22 0
Ġpost s
ator ial
Ġ190 4
ĠJack ets
ĠNe il
Ġrev ived
Ġcampaign s
ĠCo al
Ġpromot ional
br ush
Ġanim ation
Ġtest ified
Ġcut ting
Ġarg ument
Ġpers isted
ĠPo hl
Ġpen insula
Ġbomb ers
Ġguitar ist
Ġserious ly
Ġlif etime
Ġchall enged
Ġprec ip
Ġgrand father
Ġir regular
Ġprint ing
Ġquestion ed
Ġcompos itions
ĠLl oyd
Ġpict ures
Ġham per
Ġarrang ements
Ġresemb le
ĠGard en
Ġpet ition
Ġoccas ional
Ġfarm ers
Ġsubt ropical
ĠKenn eth
Ġstead ily
Ġsongwrit er
Ġrenew ed
Ġgrav ity
Ġdens ity
Ġpredomin antly
Ġib is
ĠâĤ ¹
Ġbon us
Ġfuner al
ĠPrest on
ĠCem etery
C E
C U
R NA
V P
d ream
n et
s s
x im
in ness
in Ã¡
er ies
Ġs ings
or ic
Ġb ull
al o
Ġto urs
ro oms
Ġm ud
Ġm yself
Ġre ag
Ġre op
ĠS ag
ĠS hip
ĠS kin
ĠC ry
ĠC ricket
Ġn ave
ĠM ission
ĠM embers
ur as
ĠB our
ĠI RA
ol ly
ig a
ĠH arris
Ġst orage
ĠP ound
ĠR ab
ĠN adal
ĠN elson
ĠW ol
ĠL ooking
os ph
ag ger
ĠE th
Ġde als
ĠK ate
ĠK iss
Ġch icks
Ġex ternal
ip el
ap olis
Ġun w
Ġun rest
Ġint ellig
ĠHe b
Ġsc rap
Ġag encies
Ġj et
Ġj aw
are st
Ġover s
Ġout s
Ġear n
Ġac re
ĠLe eds
ĠRe b
Ġ10 8
aj a
Ġpres erve
az ing
Ġpop ul
Ġmet all
Ġdesc ript
Ġcontin u
Ġcontin ental
ĠWar rior
Ġext inct
ĠIs esi
Ġdisc ont
Ġ13 5
ash a
Ġadv ised
Ġgu ide
Ġgu arant
Ġport r
Ġexpl oration
Ġmark ing
Ġleg acy
Ġinvol ves
Ġauthor ized
Ġannoun cement
Ġpra ising
Ġsum mar
Ġoccur ring
Ġprocess ing
Ġaud ition
ĠMad ero
Ġvol umes
ming ham
ĠSer bs
Ġrepresent atives
Ġcommer ce
Ġce ased
Ġce ase
ĠDay dream
Ġmeas uring
Ġhom osexual
ĠCr usad
Ġthreat s
ĠLa ure
ĠGr ace
ĠTom my
ĠPet e
Ġmur d
Ġexam ination
ĠEver ton
ĠJer emy
ĠSen ator
ĠHo over
Ġmor ph
Ġtax on
Ġlands cape
ĠCont em
Ġconstit u
Ġang le
Ġremark able
Ġmem ories
Ġmort ar
ĠBir mingham
ĠRail road
Ġru ins
ĠGreg ory
Ġexplos ive
ĠCook e
Ġstream s
ĠSpace y
Ġsan ct
Ġhelicop ter
Ġcommit ment
ĠLess ing
Ġpregn ancy
ĠEc cl
Ġabsor bed
Ġrecru ited
ĠTon inÃ¡
ĠAdminist ration
pent er
ĠPerform ance
Ġvel ocity
ĠBapt ist
ĠGael ic
c ol
f ace
p ur
w all
É Ļ
Ġa th
Ġs av
at um
it o
it is
Ġf aster
an ch
Ġb oot
Ġp p
as co
Ġm ood
ĠT ar
ĠT ac
ĠS et
ĠS ud
st own
ĠC u
Ġl umber
ĠB es
ĠB og
ĠB ull
Ġg ene
Ġg usts
ĠH ub
Ġas cend
ĠP a
ĠP il
ĠP ra
ation ally
ĠR ic
ĠR AF
em i
ĠD S
ĠF ried
Ġal ignment
ĠN ame
ĠN ine
ĠL am
ĠL over
ĠL iving
ĠL iter
and al
ĠO k
ĠO st
ew ork
ĠSt ill
ov es
ap ing
ĠV eg
Ġcomp an
ĠTh an
ile y
Ġsc re
Ġafter math
ph one
vel and
Ġcons ent
ick ing
ĠSe attle
ĠCom mer
Ġunder go
als a
ĠNew man
Ġver ses
Ġac oust
Ġac yclic
Ġqu iet
row ed
Ġdirect ing
Ġdown stream
ĠWh it
ĠIs le
Ġdist ant
Ġdist ances
Ġins isted
ĠMan uel
Ġbr illiant
ĠAll osaurus
ina e
Ġvar iations
ĠBe gin
ission ed
ĠPar achute
ĠTe legraph
ĠBro ther
lu ence
Ġhelp s
Ġcur ved
Ġspe aker
Ġtro op
ĠBar bar
Ġaff ord
Ġdestroy ing
ring e
Ġlim its
ĠIm port
Ġcou gars
Ġmount s
Ġblack s
ĠSec urity
Ġsum mit
Ġpri ze
Ġball ad
Ġround ed
Ġpred ict
Ġpred icted
Ġconn ections
Ġvol can
ĠBo og
ĠChristian ity
Ġtravel ing
ĠUnder taker
Ġcompl icated
Ġcounter p
Ġconsist ently
Ġcollect ions
Ġlog ic
ĠJust in
Ġdisapp eared
Ġcam er
Ġinteract ions
ĠDer ff
Ġ181 9
Ġconcent ration
uzz le
ĠPop ular
Ġpal ace
Ġroll er
Ġfrag ments
Ġsend ing
ĠDar win
ĠMov ie
Ġagricult ure
ĠCle veland
Ġparliament ary
Ġcalc ulated
ĠMarsh al
Ġsurrender ed
Ġnob le
Ġsym pt
urrent ly
Ġpreced ing
Ġtick ets
ĠSupp ort
Ê» i
Ġcondem ned
ĠGlob e
ĠHamp shire
ĠSout heast
Ġconj unction
ĠIntern et
Ġcous in
ĠDw ight
ĠStav anger
ĠVisc ount
ĠVeg as
I P
e als
n h
p a
r un
u ating
Ä «
Ġt orn
Ġt aste
Ġc attle
ar ov
Ġp istol
Ġm al
Ġm ild
Ġm entions
Ġd anc
Ġh o
ou b
Ġre un
Ġre jo
ĠA ction
ĠA rabs
Ġth rown
st reet
ĠC N
ĠC z
ĠC ow
el and
ac an
ĠM Äģ
ĠM orning
ĠM VP
Ġg ran
id al
ĠH NC
ĠP ear
ĠR ing
ĠF it
ul ates
ĠW orth
Ġat op
ĠL abyrinth
ĠG ran
rom et
ist ical
ĠE g
ĠO cc
Ġsu pre
Ġex ceed
ĠSt at
se ason
ĠCh and
Ġun st
ould er
Ġcl ar
Ġres id
Ġro ut
Ġdis rupt
Ġdes per
act ion
Ġman eu
ik k
Ġoff shore
we gian
Ġne p
ĠAs ahi
ĠSe ga
ĠMar ge
ĠAr n
Ġfl ies
Ġcan on
ĠNew port
Ġrele asing
ank a
Ġ10 2
ĠZ r
its u
ĠAfter math
Ġhead ing
Ġcould n
Ġoper as
Ġmat ters
Ġair borne
ĠIs les
Ġgu ides
ĠBe au
Ġgr ade
ĠChrist i
Ġconf usion
Ġprog ressed
Ġmed al
ĠComp anies
ĠEd son
Ġplan es
Ġcommun ist
Ġav iation
isc us
ĠRoman ia
Ġlim estone
Ġfriend ship
Ġcas em
ĠMon th
Ġval uable
Ġimpro vement
ĠBo at
Ġinvest ment
ĠSm all
ĠAngel ou
ĠCorp us
ĠLa ud
ĠOper a
Ġviol ation
Ġpen etr
Ġden omin
ĠTra ining
Ġ184 9
ĠServ ices
Ġpresident ial
Ġcounter att
Ġbow ling
Ġhop ing
ĠHum ph
itch craft
Ġcelebr ate
Ġbeat en
Ġhabit ats
ĠHawai Ê»i
ĠHal o
Ġvo ices
Ġthir teen
Ġsens itive
ĠLar ry
ĠMD OT
Ġrequire ments
ĠTru e
Ġtun nels
ĠNight ingale
ĠGra ham
Ġseg ments
Ġswe et
ĠRif enburg
ĠCold rum
Ġexclus ive
Ġenl ar
Ġtransform ed
Ġign ored
Ġverte x
Ġamphib ious
ĠWy oming
Ġic on
Ġwick ets
Ġpartners hip
Ġdiplom atic
Ġdepend ent
Ġreleg ated
ĠComb at
Ġleuk emia
Ġdeliber ately
sch ild
ĠMarg aret
ĠFernand ez
Ġrestrict ions
ĠSym ph
Ġincom ple
ibl ical
ĠXII I
ĠDerff linger
ĠMÄģ ori
e h
f am
h og
r ink
Ã ¬
Ġt ag
in ished
at is
at em
at ra
it ches
it ects
it udes
Ġc ash
Ġc osm
Ġf iled
Ġp ec
Ġp unt
ic ism
Ġd ying
Ġh ind
ĠT roph
ĠA ff
ĠA ub
ĠS ite
ĠS ora
Ġl augh
om o
et heless
ol ence
Ġg ills
Ġfor b
ir ts
ig s
ay ne
ĠR I
ĠR ul
ĠR and
ĠD ot
ĠF iles
Ġal co
ĠL Ã¼
os y
os ity
ĠJ ess
od ium
Ġv enture
ill er
oc c
ab a
ab l
ĠK al
ĠK em
ĠK ody
ĠK yle
qu atic
ĠU P
ĠU ran
ĠSt op
ap ur
Ġun re
orm al
Ġsc orer
iz ers
ĠAl g
Ġapp ly
Ġman age
ĠY am
ph al
Ġen abled
ang a
Ġshe ep
Ġdec ide
ĠCom edy
Ġac claim
Ġinc ur
any a
Ġloc ally
Ġtra ins
Ġteam mate
Ġadd ressed
az e
Ġ15 1
Ġ15 2
Ġsm oke
Ġship ments
Ġinf ection
ĠBr un
ĠSp e
ĠCl oud
ĠCol omb
ĠCar oly
ty m
ĠPl aza
Ġconf ron
Ġtri o
Ġjust ice
Ġvis its
Ġdr ivers
elt own
ĠOr d
Ġant agon
Ġexper ts
Ġconv ict
ĠTr ond
Ġ26 1
Ġrad ical
Ġcast ing
Ġlaw yer
Ġfun ny
ĠMon key
Ġcirc ular
Ġcirc uit
Ġvoc alist
Ġdev ice
ĠMy c
Ġtravel s
ĠZealand ers
Ġterrit orial
ĠOliv ia
Ġtru ly
ĠEgypt ians
Ġminor ity
Ġchap ters
ĠBur ma
Ġfrequ ency
Ġcompl imented
ĠAnt imony
Ġflow s
ĠTre es
ĠBrad street
ĠNor wegian
can al
Ġess entially
ĠMill ennium
Ġmultip l
Ġhero es
Ġtorpedo es
ĠRo om
Ġunivers al
ĠMel bourne
bl azer
ĠPalest inian
ĠLuc as
ĠJur chens
ĠHor iz
Ġlabor atory
ĠAri z
ĠKenn edy
Ġspons ored
Ġrub ber
Ġcorp s
ĠRem ix
ĠPerson al
Ġgard en
Ġpric e
Ġinterpret ation
ĠBed ell
Ġavo ided
Ġdivor ce
ĠCec il
Ġmanuscript s
Ġdispat ched
ĠRoth schild
Ġcontrad ict
Ġtwent ieth
ĠMant ell
Ġmathem at
ĠCyr us
Ġhi atus
ĠContem porary
ĠBegin ning
ĠCaroly n
C W
D own
W orks
b al
c ase
l ane
p ected
Æ °
Ġt el
Ġa rose
er ning
Ġs ib
Ġs oph
Ġs aint
Ġw olf
Ġw onder
at hetic
or ough
Ġc rick
Ġf art
Ġf ires
Ġin g
Ġp aying
Ġp uppet
Ġd awn
ĠT un
Ġre ver
ĠA ges
ĠS ina
il is
ĠC rab
Ġl iner
Ġl umin
Ġn ut
ĠM ond
Ġwas te
ec e
ĠI A
ĠI OC
Ġg arn
ig ious
ter ing
us hes
ut o
Ġhe rit
ĠR Ã¤
ĠD ata
ĠL t
ĠL at
ĠL yn
ĠG w
her ic
est on
od ox
ĠE tty
ĠO b
Ġv ir
Ġr ings
ant her
ĠSt ars
ĠSt ela
ast ed
ip h
ap le
ary a
Ġun com
Ġun less
Ġint act
Ġad equ
Ġab use
Ġsc en
Ġsc ream
over ed
ens on
ik es
Ġpre t
Ġev al
Ġall ocated
iss ions
rib e
Ġcent imetres
Ġkn ee
Ġcan als
Ġret reated
Ġass erted
Ġsub ord
Ġmov ies
Ġqu oted
ĠLe gend
ĠLe ban
ĠSh im
Ġdo zen
Ġfound ing
velop ed
Ġinv aded
ĠZ e
ĠZ agre
Ġexp and
Ġpop ulated
Ġ11 6
Ġinf ilt
ĠBr ight
Ġimp osed
Ġland mark
ĠCl ara
Ġprov incial
Ġsix ty
Ġadv ances
Ġconc ession
Ġph ylogen
ĠGu atem
Ġmar ched
Ġprog ression
Ġhal ted
Ġdest ination
ĠSte in
ĠComp osition
Ġstory lines
ĠPr incip
Ġposition ed
Ġcur ve
Ġreal istic
ĠTr istan
ĠPort land
Ġarr ives
Ġcompet itive
Ġsk ill
ĠEl iot
ĠAss y
ĠReg ard
Ġaff air
Ġrad ius
Ġbar rier
Ġgen u
ĠEx pl
Ġsw ord
Ġ189 7
ÃŃ n
Ġball s
ĠAct ress
ĠSer b
Ġimpro vements
Ġz omb
Ġhost s
ĠMed ical
Ġfund ed
Ġseem ingly
Ġly rical
ĠPlay ers
Ġinterview s
Ġbreak s
ĠFilm ing
Ġaut on
Ġlo op
Ġlink s
Ġlif ted
ĠBu ff
Ġsal ary
ĠSar ah
Ġmarket ing
ĠSix th
Ġjump ing
ĠUl ster
Ġemot ions
ĠAv iation
Ġweak ness
Ġsac rif
Ġunivers e
Ġsport ing
Ġload ing
Ġneut ron
Ġwitness es
ĠMong ols
Ġteacher s
Ġmo ist
Ġstret ched
ĠWall ace
ĠBern ard
Ġhighlight ed
ĠBos n
Ġoverwhel ming
ĠJoy ful
Ġacknowled ged
ĠMach ine
ĠNichol as
Ġtribut aries
ĠHom ar
ongs an
Ġbod yline
Ġintellect ual
Ġpropag anda
ĠMaur ice
Ġmemb rane
Ġalph ab
Ġtom bs
Ġhoriz ont
Ġgat hered
ĠGuadal canal
Ġvertebra e
ĠZanzib ar
Ġenorm ous
ĠHeb rew
Ġath lete
ĠAriz ona
ĠSina i
Ġherit age
a os
c ially
f ish
i oc
l ides
r in
u ros
z es
Ġ Ä
Ġ á
Ġ urg
Ġa ided
in ter
in isc
on ian
Ġw ard
Ġw orn
at ters
or f
Ġc ens
is a
is ive
an elli
Ġb ag
Ġp ill
Ġp ink
Ġm ate
ĠT ang
ĠA qu
ĠS ox
st ar
ĠC S
ĠC ov
ĠC ret
ĠC urt
Ġe ating
Ġn ic
ac he
ĠB illy
ol ia
ol ics
Ġg ay
Ġg entle
id ated
ig hed
ot ing
Ġas ide
Ġst ability
ĠP ast
ĠR ub
ĠR af
th ren
ĠD ress
ĠF ur
ĠF aul
Ġcon sole
ĠN ASA
ĠN FL
ĠW a
ĠW u
ĠW ald
ĠW rapped
ra its
ag oda
if est
Ġv ig
ore t
Ġr ays
Ġr ush
ĠIn side
all ing
ĠK o
ĠK er
ack Down
ĠSt reets
ge hog
Ġun e
ĠV ent
ĠV iew
ĠV erm
ru ption
ue es
ond o
Ġdis abled
over y
Ġatt ending
ĠY ongsan
Ġout standing
Ġall ies
Ġcent ered
ision al
Ġcol ors
Ġdef enses
Ġinter mediate
Ġam id
ĠLe vel
ĠRe agan
Ġsur ge
Ġinv ent
Ġdevelop ers
Ġmin ers
Ġmin isters
ĠBr ack
ĠCl ay
Ã© d
ke eper
ĠBe eton
ĠEurop a
Ġpar ade
Ġexpl ore
ĠÂ µ
ĠChar m
ĠWe ather
Ġsimilar ities
Ġpolit icians
Ġmembers hip
ĠPer iod
Ġter r
Ġrad ar
Ġbattle field
Ġgen es
Ġdecl aration
ĠHa itian
Ġ189 8
Ġassoci ate
Ġcut s
Ġdev oted
ih u
ĠSm ackDown
Ġmer c
Ġcal m
Ġdisp ersed
Ġgrad uate
hens ive
Ġaut obi
Ġeduc ational
Ġdeal ing
Ġsat ir
Ġhapp en
Ġunc le
Ġcann on
Ġinvestig ate
Ġsculpt ed
Ġobserv atory
ĠJim my
Ġdyn amic
ĠKn ights
ĠBre nda
umber ed
Ġsexual ity
Ġexhib ited
Ġkick ed
Ġkick off
the ning
ĠFar m
Ġlegisl ature
Ġdu et
Ġneigh bour
Ġperman ently
Ġload ed
ĠIndust rial
Ġplatform s
Ġopin ions
ĠDest roy
ĠCre utz
ĠMot or
ĠCambod ian
ĠMarc us
Ġaer odrom
Ġsufficient ly
ĠOffic er
ĠHell blazer
Ġlov ed
ĠAy ola
ĠArchae ological
Ġfrig ate
ĠHug hes
Ġchalleng ing
Ġcongreg ation
ugh t
ĠComple x
Ġsurpr ised
Ġinaug ural
Ġconsequ ence
Ġprompt ing
ĠPalmy rene
Ġrevers ed
Ġfert il
Ã¶n en
Ġfundament al
ĠNav ar
ĠStal ey
Ġexcell ent
Ġunex pected
Ġpse ud
Ġinduct ed
ĠPlate au
ĠSkin ner
ĠEccl estone
ikk Ã¶nen
ĠTrond heim
ĠRÃ¤ ikkÃ¶nen
ĠZagre b
ĠCret aceous
B I
e ing
m usic
n all
Ã º
Ġt y
on i
Ġs ank
Ġo ak
is ons
Ġb eds
al oo
ing ray
Ġm it
Ġd ancing
Ġd rift
Ġh ier
ou rag
ĠT res
ĠT otal
ĠS uez
ĠC inem
Ġl akes
ad uct
ĠM P
ĠM ing
ĠB ry
ĠH i
ĠH air
Ġst ress
ĠP y
ĠP rop
ĠP ink
ĠP apa
ĠR ud
ĠD h
ĠD ays
ĠD oyle
ĠF at
ĠF ro
ĠF ight
ĠF ull
Ġis n
Ġal ly
Ġcon ceived
ĠW ell
ĠW rest
ĠL em
ĠL iz
ĠG ene
ri pp
ri ff
ĠO ak
ill es
ĠIn v
Ġse ed
ab ric
ĠK r
Ġpl ed
Ġpl ates
Ġsh ock
Ġk W
ĠSt rong
ĠCh ad
Ġun t
ĠV ist
ĠV ick
Ġcl ergy
ĠHe in
Ġus ers
Ġsc ar
ik i
Ġen act
Ġcent res
Ġrem inisc
form ed
Ġcons ervative
Ġdec omm
Ġcol ours
Ġinter vention
Ġqu ad
ĠLe ices
Ġmon itors
ĠSh an
Ġsur pass
Ġbl ues
Ġsing ers
Ġrep et
Ġrep aired
Ġ17 1
Ġop ens
Ġstud ying
ĠMay or
Ġimp ed
Ġpass ages
Ġdam aging
Ġph osph
Ġvar ies
Ġport raits
Ġtri um
Ġposs essed
Ġexpl aining
amb ers
ĠSte iner
Ġdem on
ĠPr incess
Ġexper imental
Ġmag ical
ĠAir borne
Ġsurv ival
Ġlight s
ĠReg iments
Ġdiscover s
ĠEx it
Ġ189 4
Ġagre es
Ġestim ate
Ġident ical
Ġconn ects
Ġcycl ization
Ġrecogn ize
Ġ185 4
Ġ185 7
Ġcor rid
ĠRock ef
Ġaccept able
stit uted
Ġ186 2
Ġconduct ing
Ġgra zing
ĠCr ash
Ġ187 8
ĠQu iney
Ġdraw s
Ġparticip ants
ĠGr ant
Ġdro pping
ĠDr ive
ĠMont real
ĠSing h
Ġri ff
ĠFrank lin
Ġdeep ly
Ġens emble
ny i
Ġlearn s
Ġdark ness
Ġconcept s
Ġdig it
ocr atic
ĠSar awak
Ġhot els
roll ing
Ġcrowd s
Ġdraft ed
Ġang ry
ĠNaz arov
Ġqual ifying
ĠFer din
ĠTod d
Ġaltern ate
Ġencoun ters
Ġnarr ator
ĠTurk ey
Ġrat io
ĠDen mark
Ġspot ted
Ġscholars hip
Ġbelong ing
ĠDream Works
ĠMorr is
Ġunsuccess fully
Ġvolunte er
ĠWind s
Ġreserv oirs
ĠRon ald
Ġrif les
Ġbats men
ĠRay mond
Ġcorrespond ing
ĠAnton io
Ġhyp othes
Ġfavour ite
Ġfair ly
Ġrevolution ary
Ġfant asy
ĠCru ise
Ġgall ery
Ġcul m
Ġimplement ed
Ġur ged
ĠFlow er
ĠDur ham
Ġconsum ption
Ġaccommod ate
ĠLanc aster
Ġchalleng es
Ġabsol ute
Ġsubst ance
ĠHob bs
ĠHend erson
ĠCorb et
Ġdrain age
ĠVul can
ĠJoh ann
Ġadmin istered
ipel ago
Ġscre ens
Ġacoust ic
ĠCz ech
Ã¬ nh
ĠTroph y
Ġcrick ets
ĠFerdin and
F U
I S
g or
h att
i ors
k ner
o ids
Ã ¢
Ġ à
or ia
it ime
Ġf est
Ġf ier
is ations
an j
an us
Ġb in
Ġb ron
Ġb ush
Ġin ver
Ġto ols
Ġm isc
Ġm uzzle
ĠT ob
ĠT axon
Ġre work
ĠA w
st s
st ones
ĠC G
ĠC lear
ad ic
ĠM ess
ly ph
ĠB M
ĠB elt
ĠB oulder
ol ph
ter y
ĠH ak
ĠH ockey
ĠH urricanes
Ġst aged
ĠP f
ĠR oll
ĠD ian
un ning
ĠF und
ĠN a
ĠW ant
ĠL iao
ct ic
Ġan ger
um i
av an
ri x
Ġde alt
Ġsp ore
ĠCh u
ĠCh ile
cl er
ĠV o
Ġint eg
out ed
out ing
Ġ20 2
Ġcl ust
iz er
Ġdis gu
ric e
ĠY et
ĠY ang
ph an
Ġpre st
rib i
ail ing
Ġfe ared
ug g
Ġrel ied
Ġsub d
Ġinc idents
ĠRe f
ĠRe ign
ĠRe ines
ins ki
Ġ10 9
Ġ12 00
ĠSc he
Ġno ise
Ġinv itation
ĠInd eed
Ġdesc ent
Ġdevelop ments
Ġpol ar
Ġext ant
ient e
Ġins ects
ĠBl oom
Ġprov inces
ĠCar roll
ĠCar penter
ĠAd ri
ĠAd ult
Ġvar iable
Ġprom ise
Ġlast ing
Ġconf used
Ġcommand ing
ract ed
ĠThere fore
Ġtem po
Ġhand le
Ġhand ling
ĠComp uter
Ġmark ets
Ġcr ater
Ġtrad itions
Ġplan ets
Ġel ite
Ġelect ro
ĠAir craft
Ġord inary
Ġstat ue
Ġequ ally
Ġpress ed
Ġtour ists
ĠNe olithic
ĠGl an
idd ing
ĠCare er
Ġ189 9
ĠAtl Ã©t
br idge
Ġcomment ators
Ġgrow s
Ġ188 5
Ġz inc
Ġce iling
ĠPart ington
Ġcivil ization
Ġgra in
bor o
Ġtrib e
ĠGreat est
ship s
Ġdro wn
inent al
Ġscript s
ĠAnt i
Ġinters ections
Ġlif estyle
ĠAtt ack
Ġsusp ected
ĠForm ation
Ġevac uate
Ġevac uees
Ġtask s
Ġprincip les
Ġintern ationally
Ã¼ r
Ġexhib it
Ġoffer ings
Ġemphas ized
Ġfrag ment
Ġattend ance
Ġtarget ed
Ġcompr ising
ĠKey s
ĠCarl os
Ġreflect ing
Ġperfect ly
ĠHung ary
Ġdistingu ish
Ġinstruct ions
Ġlaws uit
Ġsle ep
Ġconspir ators
ĠArchae ology
Ġadvis ories
Ġgather ing
Ġdivers e
ĠCult ure
ĠCult ural
Ġprohib ited
ĠÅ Į
Ġdevot ion
ĠKy ra
Ġrect angular
Ġcooper ation
Ġninet eenth
ht wald
Ġpion e
azirid ines
Ġdisband ed
Ġastero id
Ġï »
Ġspawn ed
brace let
ĠHumph rey
ĠRul er
ĠUran ia
Ġgarn ered
ĠFaul kner
ĠAtlÃ©t ico
I V
P U
f ound
g ud
h o
k ed
m o
m ers
r us
r ines
Ĩ Ĵ
he rent
Ġthe r
on so
Ġs ic
it ious
Ġc ards
Ġf ed
ar ius
Ġb ol
al i
Ġm ent
Ġd ug
Ġh ung
ĠT ell
ĠT ank
ĠT uck
Ġre organ
Ġre verse
ĠA N
ĠA S
ĠS af
om on
om ous
Ġn aked
ĠM I
ĠM ak
ĠM ole
ĠB ased
ĠI R
id ia
ter fly
ĠH av
ĠH od
ĠP and
ĠP irates
ĠR ut
ĠR ound
ĠD up
ĠL aur
ĠG iel
av ian
ĠE ve
if eng
Ġde er
Ġch anc
qu es
Ġâ ĨĴ
ĠSt art
ov ed
Ġsp ear
Ġsp oken
Ġle agues
ide a
hed ruli
Ġcl iff
Ġres ur
Ġrec ruit
ĠTh ai
Ġsc ope
Ġag es
Ġdis lik
Ġj ur
Ġplay able
over ning
ib re
ens ed
ik o
Ġout come
ind a
amp a
Ġwe ighed
ĠAn y
Ġrem ote
ick en
ug s
Ġsub urb
ĠSc ots
ĠAust in
ern oot
Ġmin ing
Ġmil itia
Ġext ends
Ġcar rier
ĠCon sequently
Ġair ports
Ġimp ressive
enn e
Ġthough ts
Ġgovern ed
Ġbr ings
ĠFor b
Ġref uses
Ġconf idence
Ġorgan ic
Ġpar ad
Ġrequ iring
lev ard
Ġconv icted
ĠX box
Ġtw ins
Ġinvol ve
Ġmag ic
be at
Ġter restrial
ĠAfric aine
Ġsit uations
Ġgl ac
Ġfront ier
Ġhuman ity
Ġhuman itarian
Äģ h
ĠHar bor
Ġsw itch
Ġlik ewise
Ġpri ests
Ġconn ect
ett es
Ġ188 1
Ġ185 9
Ġcommer cially
Ġsex ually
ĠMed al
Ġflood s
ĠCommand o
Ġmaint ains
ĠSuper man
ĠÃ Ĩ
Ġparticip ation
Ġoccup y
Ġcal iber
Ġ183 2
Ġap artment
Ġphys ics
Ġ184 8
back s
ĠCath olics
Ġthick ness
Ġlab our
Ġded ication
awn y
Ġsusp ic
ĠForm er
Ġdrum mer
Ġvers us
Ġsymb ols
ĠJul io
ĠFer r
Ġchem istry
ĠKa ifeng
ĠGib son
Ġmechan ism
ĠInt ram
ĠHy d
Ġimag ination
Ġhonor ary
ĠRet rieved
ĠGre ece
Ġboy friend
Ġexped itions
Ġcollabor ated
Ġrival ry
Ġdescend ants
ĠAp art
ĠVill aret
ĠMov ing
Ġremn ant
ĠRevolution ary
ĠAlf a
Ġpros ecution
Ġreserv es
ĠBrazil ian
Ġamphib ians
Ġble nd
Ġwick et
Ġdepos its
Ġske let
Ġexha ust
Ġansw er
Ġorchest ra
ĠIndones ian
ĠConfeder ate
ĠTro ut
Ġconsc ious
ĠAT P
ĠMk hedruli
Ġenthus i
ĠObser ver
Ġbran ches
ĠVand ernoot
Ġmemor able
ĠBanks ia
ĠCant rell
Ġlin ear
Ġredes ign
Ġvulner able
Ġcompre hensive
Ġmyster ious
Ġdanc ers
ĠCharm bracelet
ĠNavar ro
Ġreminisc ent
ĠRockef eller
ĠGlan ville
Ġï» ¿
ĠGiel gud
H S
O M
O S
T A
U C
b u
b ard
b ach
c or
i ency
m ith
m aster
p ack
s is
Ä į
Æ ¡
Ġt ent
Ġt ension
he ars
Ġthe rapy
er b
er p
Ġs acked
Ġw ire
Ġw ished
Ġo ct
at ri
it us
it ars
Ġb old
Ġb ath
Ġin e
Ġin ex
ing ham
ic ial
Ġm g
Ġm ad
le ased
ĠT ide
Ġre h
ĠS port
ĠS ug
ĠS MS
Ġth ro
st age
ĠC atherine
Ġl ig
Ġl ock
am ics
Ġe agle
Ġn aut
ĠM ut
ĠM aid
ĠM aj
ĠB od
ol ar
Ġg ren
Ġg ender
Ġst ick
Ġst air
Ġst eal
Ġst aying
Ġst anz
ĠR ey
ĠR ook
ĠD E
ĠF al
ĠF lying
Ġcon form
Ġcon ven
ĠN K
ĠN am
ĠL oy
ĠL ung
ĠG enesis
Ġit em
ĠJ as
ĠE z
ĠE arn
ong e
ĠK an
gh an
Ġex chang
pt s
ĠU k
ĠU y
ĠâĢ ¦
og s
ĠV a
Ġcomp uters
Ġres olved
Ġper c
Ġper ception
land o
Ġdes ired
Ġout d
ang le
aw i
Ġsec ular
ail and
ĠSe an
Ġrel ating
ĠEn ergy
Ġbu oys
ros aur
Ġmus c
Ġ10 3
any an
Ġpres byter
Ġmet ric
Ġ15 6
Ġop ined
ĠWar ner
ued oc
Ġmat urity
ĠCl ocks
ĠBl ock
Ġadv entures
Ġgu id
ĠDe vin
ĠBe ing
Ġdet ect
Ġprot otype
aim an
Ġconf ident
Ġsl ave
Ġsent iment
ĠOr lando
ĠPr im
ĠAm os
Ġcr imes
Ġel ig
eal ous
ĠEl gin
Ġaff ect
Ġnational ist
Ġentire ty
ĠSy ria
Ġident ification
ĠMer c
Ġlack s
Ġenc ourag
Ġ188 2
Ġreb el
Ġfort ifications
Ġ185 6
Ġhon ors
ĠBer htwald
ĠThom pson
ĠCommand os
ĠMet ropolitan
ĠArt illery
Ġscreen ed
Ġconclud es
Ġlo ose
ĠHead lam
Ġconsider ably
ĠArch itect
Ġinvestig ated
Ġphot ography
ĠJam ie
ĠJoseph ine
ĠConf essions
ĠFour th
ĠIndepend iente
ĠBol ton
Ġhol es
Ġprison er
Ġportray al
ĠPop M
Ġdu o
Ġextra ord
ĠReview s
ĠBh air
Ġpan els
ĠRaj am
Ġrow s
Ġgrass es
Ġsail ing
ĠFre edom
Ġfear s
ĠExp ed
ĠConstant in
bo ards
Ġswe pt
Ġtrav elling
Ġmic roscop
ĠLiber al
Ġaccident ally
ĠBarb ara
Ġcontrib utions
Ġdisturb ed
Ġopt ions
Ġmyth ology
Ġreconst ruct
ĠGab ri
Ġvert ices
Ġdru gs
Ġcab inet
Ġimmig rants
Ġexerc ise
Ġflo ating
Ġpuzz le
ĠGang es
ĠQedar ites
Ġindig o
ĠIndones ia
Ġsam ples
Ġcarri ers
Ġteach ings
Ġturb ines
ĠLang uedoc
Ġnickn ame
ĠUnivers al
Ġrender ed
Ġjackrab bit
ĠGlad stone
cour t
opl asm
Ġinflict ed
ĠCP S
Ġbare ly
Ġinhab ited
ĠFreak um
ĠWN O
ĠMcE l
Ġhamper ed
xim ity
ĠLover boy
Ġsympt oms
Ġnep hew
Ġincomple te
ĠAub urn
Ġsib lings
ĠLeices ter
ĠIntram uros
Ġnaut ical
i ants
m und
m etr
s aku
u fficient
Ġ è
Ġ é
Ġt une
in ued
er ia
re z
Ġs ink
al and
al iation
Ġp ian
Ġp ier
Ġh ide
Ġh arsh
le ans
ĠT y
ĠS ak
ĠS ang
ĠS amp
ĠC ann
Ġl am
Ġl un
Ġe cho
ĠM h
ĠM om
ĠM ol
ĠM ail
ĠB elf
ol es
Ġg ram
Ġg overning
Ġfor get
ig on
ĠH osp
Ġas c
us a
Ġst all
ĠP el
ĠP ap
em a
ĠN orse
ĠW es
ra ined
ĠL uz
os ion
ĠG ack
ĠE P
Ġpro claimed
Ġpro ximity
Ġr h
Ġr amp
ab s
ĠK ub
Ġch ord
Ġex ile
qu is
qu ir
Ġsh all
Ġsh ipped
ĠCh op
Ġun con
Ġint ent
so lete
per t
Ġcl ad
Ġrec apt
ĠTh ing
ĠTh ailand
Ġsc ores
Ġover come
Ġall iance
Ġne arest
Ġdec iding
oth ic
Ġfl our
Ġfl own
Ġrel ocated
ĠAmeric as
Ġra bb
Ġreg iments
hes h
Ġspec ulated
Ġinc red
hen g
ĠSh ar
Ġmet aph
Ġ17 2
Ġ17 3
Ġstud ios
au x
Ġob solete
ash ire
Ã© l
Ġgu itars
Ġdam ages
ĠBe ij
ĠGu inness
ops is
ĠFl otilla
ĠEd ition
ĠWe ev
Ġdeb t
Ġtot ally
Ġdel ight
Ġsuggest ion
Ġreal ised
ĠTr ad
ĠTr inity
ĠX ook
Ġelect rical
Ġcompet itor
Ġter rorist
Ġstat ues
esc ope
ĠBar on
Ġwant ing
Ġnight ingale
Ġke en
ĠOther s
Ġtradition ally
Ġaccept ance
Ġ186 5
Ġstreng thening
ĠMark et
ĠQu inn
Ġremov ing
Ġthink s
Ġsubject ed
Ġ75 0
rag on
ĠNot e
Ġche ek
Ġens uing
ĠTer ry
Ġattract ive
ĠArch bishop
ĠBrad man
Ġlay ers
Ġprevent ing
Ġlog s
ĠOut side
Ġdefend er
ĠLo ose
Ġreinfor ce
ĠJul ian
Ġsuppl ied
Ġelev ated
Ġelev enth
ĠDer by
gal ith
ĠCap ital
Ġemot ion
ĠHal f
Ġstopp ing
ĠLeg isl
ĠKar l
Ġelim inate
ĠSub sequently
Ġbelong ed
Ġreflect s
Ġmist aken
ĠMic ro
Ġrestaur ants
ĠBrig ades
Ġrit uals
Ġdecre ased
Ġdecre ase
aver y
Ġaccompl ished
ĠWin ter
Ġcateg ories
ĠMaria h
ÅĤ aw
Ġconqu ered
ĠPot ter
Ġrecre ational
ĠLanc ashire
Ġreleg ation
Ġabsol ut
ĠTechn ology
Ġobst acles
Ġimprison ment
ĠVi enna
ĠExpress way
Ġplayoff s
Ġbord ers
ĠYugosl avia
atur ally
Ġbattlecru isers
ĠPriv ate
ĠEug ene
ĠPak istan
Ġisot opes
ĠGaz an
ĠKÅį saku
Ġcancel ed
ĠPu erto
ĠBatter y
Ġprecip itation
ĠBarbar ian
romet ric
Ġalco hol
ĠShim omura
Ġhorizont al
Ġdecomm issioned
ĠTaxon omy
ĠGack o
B O
B ob
a it
b i
d y
f ront
g om
h and
i u
r ino
v y
Ġ es
Ġ ion
Ġt ennis
Ġa irst
Ġa ft
in as
on n
re ls
Ġs ails
or ian
it ate
Ġc able
Ġc orpor
Ġb inding
Ġp ig
ro gen
Ġm os
Ġm ere
Ġd read
Ġh ockey
ĠT z
ĠT alk
Ġre pt
ĠA L
ĠS ey
Ġth orough
ad h
ĠM eth
ĠThe ater
ĠB oot
ĠB ask
ĠB Ã¬nh
ĠI gn
et o
ĠH ous
ĠH old
us kh
Ġst alk
Ġst range
ĠP ok
ĠR ush
ĠR FU
em ark
ĠD ry
ĠD raft
ĠF us
ĠF ather
ĠN ik
ĠW ells
ĠW itchcraft
ĠL ear
est ock
um s
ĠE mer
ĠE aster
ĠO ri
op y
Ġv in
Ġv ass
Ġse ar
Ġse al
Ġor ange
ĠK atherine
Ġex terior
qu et
qu est
ĠSt yle
ge ant
ine e
ell or
og ram
Ġun h
Ġun pre
Ġres ort
Ġab n
Ġrec ount
Ġsc ales
ition al
ĠAl ph
Ġover th
ib an
ĠAn im
ĠSe b
Ġrel uct
Ġme at
ĠEn o
Ġinter rupted
ros aurus
Ġco at
Ġind irect
Ġmon ster
ĠSh aw
Ġent ert
Ġdo ors
ton a
Ġtrans cription
Ġdep uty
Ġ15 7
elf th
ĠGer ald
Ġmil k
Ġwar nings
Ġinf l
Ġresp ected
ĠSp onge
Ġins ult
Ġins ufficient
ĠAugust us
enn ial
Ġ13 4
Ġgu y
Ġconc erning
Ġann oy
Ġprot esters
Ġbre ad
Ġdr ink
Ġexpl an
Ġbo ost
Ġcame o
Ġdem anding
Ġdem ographic
ĠOr leans
Ġdeb ated
Ġdeb ris
ĠTr uth
ĠPer th
Ġevery day
Ġel d
Ġcompet ing
Ġer ror
ĠMich a
ĠAss ist
Ġless ons
Ġnever theless
Ġaff ecting
ades h
Ġprim itive
ĠBlack s
Ġdecl aring
ump ing
Ġsw it
Ġ189 1
Ġ189 3
ĠSw ord
Ġspecial ized
Ġknow s
Ġhon ours
Ġrespons es
ĠBer g
ĠBer gen
Ġcontract s
ĠCr ist
Ġachie vement
Ġrap e
ĠÃ į
oul i
ĠApp ro
Ġhar ass
ĠMa hesh
Ġgrad uated
ĠArt ist
ĠFe el
ĠMont fort
ĠMont gom
Ġexam ined
rat ch
Ġult imate
ĠFI T
Ġfocus es
Ġpark s
ows ki
Ġgraph ic
Ġpath s
Ġconfir m
ĠFin n
ĠLo ch
Ġple ased
Ġprincip le
Ġdisapp ear
umber land
Ġexcav ated
ĠPit ts
Ġcontact ed
Ġmess ages
ĠCra ig
ĠMort ier
ĠTim or
Ġmob il
ĠAddition al
Ġ73 7
ĠImag ist
ĠDemocr ats
Ġtheat ers
Ġexplos ion
ĠBroad cast
Ġcontest ed
Ġaware ness
Ġcloud s
ĠElect ronic
ĠChronic le
Ġnav igation
ĠUr ban
ĠDie go
Ġrevol t
Ġremember ed
Ġbor rowed
ĠHed gehog
Ġlat est
Ġfoss ils
Ġguerr illas
Ġrend ition
Ġswim ming
Ġsupern atural
Ġliqu id
hous er
Ġcoff ee
Ġadvertis ements
ĠFif th
ĠPoet ry
Ġhyg rometric
Ġbarr acks
Ġreper to
ĠWik iped
Ġaccus ations
ĠCry stal
Ġdescript ions
ĠThan houser
Ġsupre me
Ġunst able
Æ° Æ¡
ĠPf aster
ĠStart ing
ĠEarn est
ĠUy gh
Ġguid ance
metr ical
ĠBelf ast
ĠBeij ing
uskh uri
ĠSponge Bob
ĠMontgom ery
Æ°Æ¡ ng
C S
b one
c ont
f ric
i op
j in
l ies
n an
p ow
r ut
t es
u its
w y
y an
y ers
Ġ Ø
Ġ ãĤ
ģ Ħ
Ġt ap
Ġt awny
Ġa ux
in ich
on ation
Ġc u
Ġc od
Ġc yl
Ġc ats
Ġf als
an im
Ġb en
ing e
Ġp ose
as ant
ro ads
Ġm ast
Ġd ign
Ġh az
le ted
ĠS ic
il and
st rong
ĠC A
ĠC ore
ĠC ase
ĠC lement
Ġl aud
Ġe ase
Ġn as
Ġn erv
ac c
ac ular
ac ements
ĠM ult
ot ihu
ĠH and
ĠH ang
ĠH ern
Ġst uff
ay ed
ĠP ont
ĠD oc
ĠF ear
ĠF let
ĠF isher
ĠF landers
Ġwh atever
ĠN ME
ĠN uskhuri
os o
ĠG and
ĠG ross
ĠJ ar
ĠJ ag
Ġan alys
ist ing
ri ors
ĠE SP
res cent
if erous
Ġpro c
Ġv ent
ill ance
Ġde Grom
Ġsu ited
Ġor al
ĠK um
Ġch ase
Ġâ ģĦ
ĠSt akes
Ġsp ell
Ġsp ark
Ġle af
ell ers
ĠV e
ĠV ishn
Ġcomp aring
Ġcomp iled
Ġbut t
Ġcont ing
Ġres erved
Ġper f
ik a
ik h
Ġen velop
int age
Ġwork er
Ġsec uring
Ġdec oration
Ġrel ax
olog ically
Ġthan ks
ve illance
Ġret aining
Ġass um
Ġqu ar
Ġco ined
Ġinc ons
Ġhigh lights
Ġadd s
Ġexp anding
Ġrep orter
Ġext r
Ġinst ances
Ġdist ort
Ġpass enger
ĠComm odore
ĠMan hatt
Ġadv ent
Ġadv ocated
Ġbatt ing
ĠAll music
Ġcharacter ised
ĠPro du
ĠGu am
app en
Ġsl aves
ĠPar anth
Ġtrack ing
Ġexpl ored
ĠEurope ans
Ġmed ian
elt a
ĠFl ag
Ġdem o
ĠTe otihu
ĠAm yl
arn ation
Ġarch ipelago
ĠTr ade
Ġmy el
Ġ26 0
Ġer osion
Ġproject ed
Ġter ror
Ġeight een
Ġsit com
Ġfact s
Ġdiv ines
Ġgen res
Ġpain ter
ĠHigh land
ĠBlack ie
Ġfront al
Ġsum mon
Ġvill ain
Ġcoast line
Ġ189 2
Ġ189 6
Ġsuff er
ĠMor o
Ġimpro v
Ġ185 1
Ġ185 3
ĠEm ma
Ġexc iting
ĠBer k
ĠCr im
ĠRh ode
Ġ187 4
Ġill um
Ġachie vements
Ġdraw ings
ĠWil f
ĠOs bert
Ġdon ations
Ġinterview ed
Ġbreak down
Ġblock ade
Ġhar vest
ĠHel en
ĠVar gas
Ġcompl ained
ĠTer rorist
Ġcontem por
ĠRes erve
unt a
Ġcontroll ing
ĠAtt ale
Ġfocus ing
Ġpurs ued
ĠHum pty
Ġadvant ages
ĠHistor ical
ĠLock port
ĠJos h
ĠColon ies
ĠDam age
ĠNaz aire
Ġmel od
ĠFer ry
ĠAnn als
Ġathlet ics
ĠProt ection
ĠKir by
ĠEngine ers
Ġincorpor ates
Ġfunction al
Ġremix es
Ġlabel ed
Ġwitness ed
Ġeas ier
ĠSus an
Ġsubstant ially
ĠCub a
Ġpropos als
ĠGab bar
Ġfer ry
Ġshel ter
Ġlob ster
Ġaltar piece
Ġbes ide
Ġbes ie
ĠKat ia
ĠGang anelli
Ġske leton
Ġanth rop
Ġrum ors
Ġenfor cement
ĠStra pping
Ġoverwhel med
Ġtack les
ĠBudd hist
Ġpersu aded
Ġimprison ed
ĠPA VN
ĠTai wan
Ġgam mar
Ġfatal ities
Ġhen ce
Ġeffic ient
ĠBeh ind
Ġsumm ary
Ġanticip ated
Ġastronom ers
ĠDram a
ĠDiam ond
Ġveter an
Ġsevent een
Ġtrunk line
ĠHey man
Ġsemif inals
ĠRepresent atives
Ġceleb ration
Ġboil ers
ĠCoal ition
Ġenlar ged
Ġscen ario
ĠBrack nell
ĠÂµ m
ĠWrest le
ĠLung a
ĠRajam ouli
ĠExped ition
ĠMcEl roy
ĠMh alsa
ĠÃį mar
Ġhygrometric us
ĠESP N
ĠManhatt an
ĠParanth odon
M ania
c ore
c are
f us
i Ã¨
j ib
l on
l ot
l ance
n ance
p ike
u ber
x i
Ã «
Ã ´
Ä ĥ
Ġ ËĪ
Ġt ies
Ġthe sis
er dale
Ġs or
Ġs inking
Ġo l
Ġc el
Ġc ra
Ġc ub
Ġc ement
Ġc akes
Ġc ooking
Ġf isher
Ġm aps
Ġd ad
ĠA x
ĠA ren
ĠA OC
ĠS ri
ĠS EC
ĠS NL
ĠC admium
Ġl od
am as
Ġe cl
Ġn ice
ac o
ac rit
ĠM ets
ur u
ĠB reak
ĠI l
ĠI TV
Ġg ains
us ade
Ġst ance
ĠP iz
ĠP rice
Ġhe ter
ĠR al
ĠR OK
ĠD ÃŃ
ĠD awn
ĠF astra
ĠF ringe
ul sion
ul ator
Ġcon clus
ĠN AS
ĠN EA
ĠW ave
ĠW oman
ĠG et
ĠG rey
ĠG othic
ag h
ri z
ĠE ch
ĠO ke
op ol
Ġpro be
ĠK od
Ġch ann
Ġch ances
Ġsh opping
ov il
ov ac
ap ter
Ġab st
Ġher b
Ġrec alls
iz ong
Ġdis order
Ġdis char
Ġj ealous
ens ional
ĠY u
ren ton
ĠUn it
les ey
oth y
ĠAr cher
Ġtr aces
Ġfl aw
Ġfl att
ob ee
Ġfilm m
ĠNew ark
Ġass ign
Ġreg ister
Ġform ations
Ġac claimed
Ġco aster
Ġam azing
ĠLe in
ins ky
Ġ12 6
Ġinv ented
Ġbl ame
Ġbl ind
Ġbl ank
Ġbl amed
ĠZ A
Ġtrans its
Ġ11 9
Ġcontin ent
Ġdevelop er
ĠSp irit
Ġprev al
ĠNorth west
ĠNorth umberland
Ġele phant
Ġpoint ing
ĠJan et
Ġgr ace
ĠGu ang
ĠGu err
Ġsl ip
Ġkill er
ech obee
Ġorgan isations
ĠAnd r
Ġsent enced
Ġbo om
ĠSte ven
Ġmid night
Ġdel ays
ĠAb orig
Ġcur ren
Ġpolit ically
Ġpost p
ĠAf ghan
Ġvict orious
Ġfre ed
ĠAng l
ĠAng lesey
Ġprof ound
Ġsurv ives
Ġter rible
Ġlight ing
Ġless er
Ġjo ins
Ġobs er
Ġfar ming
ĠDav ies
Ġbar b
Ġbar ometric
Ġcat aly
Ġtour ism
Ġintrodu ces
ĠEx ecutive
ĠOl iver
ĠMon ten
ĠPal m
Ġmix ing
Ġtre asure
Ġimpro ving
Ġfort ified
Ġarg uments
ĠMed ieval
ĠPe ace
Ġcost umes
Ġreact or
Ġpract ical
Ġclear ing
Ġthreat ening
ĠMary ang
ĠÃ ħ
oul t
Ġbill s
Ġhar bor
Ġ183 7
Ġappl ications
ĠBu en
ĠBey ond
ĠSoviet s
Ġpeace ful
Ġgrand son
ĠEs s
ĠArm oured
ĠArm strong
Ġdemonst ration
Ġagg ress
Ġprepar ations
Ġlegisl ative
ĠReview ers
ĠLar ge
ĠLl osa
ĠUN ES
Ġcompr ises
Ġoverl ooking
Ġfung i
bo at
ĠAdmiral ty
Ġunus ually
Ġdim ensional
Ġpul p
ĠBru ins
ĠLiber ty
ĠAthlet ics
Ġcool er
Ġcraft s
Ġpros per
Ġmig ration
ĠWin ston
Ġmemorial s
ĠYe ovil
Ġmut ual
Ġshel ters
ĠBi ography
ĠSpring field
Ġdin osaurs
Ġinstrument al
Ġgross ing
ĠHun ter
ĠStew ie
ĠPerson nel
Ġhang ing
Ġalleg ations
ĠJenn ifer
ĠPict ure
Ġloyal ty
ĠSa igon
isp here
Ġdisappoint ed
Ġfram ework
Ġjournal ists
ĠCob ra
Ġnickn amed
Ġinnov ative
Ġoutp ut
Ġprosp ect
Ġabund ant
ĠPier re
Ġerr ors
ĠMcL aren
Ġelder ly
ĠJen kins
Ġaggreg ate
ĠPanz er
Ġliv estock
ĠWol ver
Ġintellig ent
Ġsanct uary
ĠFried rich
ĠCommer cial
Ġcamer as
ĠFit ts
ĠLaud erdale
ĠAlg ernon
tym ology
Ġfart her
Ġalphab et
ĠRaf ael
Ġbron ze
ĠEz ra
Ġperc ussion
ĠConstantin ople
Ġreperto ire
ĠTeotihu acan
Ġgammar us
ĠWrestle Mania
ĠDÃŃ az
ĠOke echobee
ĠUNES CO
S U
b its
f a
f eld
i ating
m i
m ad
m ill
o i
p ut
u ania
Ã ł
Ġ ç
Ġt s
Ġt ong
Ġt ensions
he ld
in qu
re ction
Ġs ou
Ġs id
Ġs aving
Ġw are
it ure
it ating
Ġc age
Ġf ing
Ġf et
Ġf ighters
ar med
an ing
Ġp over
Ġp uma
ro c
ic y
ic ing
Ġm ound
Ġm old
Ġd ining
Ġd rought
Ġh urd
ĠT rou
ĠT yp
Ġre venge
ĠA way
Ġth read
st appen
ĠC H
ĠC ost
ĠC ert
ĠC hemical
Ġl oses
Ġl ighter
Ġl abyrinth
Ġn aturally
ad ir
ad ows
ĠM int
ĠI ch
et ary
Ġg ate
Ġg ospel
id an
ig ger
ĠH ond
ĠH ark
ut or
Ġst ingray
ĠP E
ĠP esh
ĠP uppet
ver y
Ġbe aches
ĠR uth
ĠR NA
th odox
ĠD J
ĠD ra
ĠD Ã¼
un ct
ĠF ig
ch air
Ġcon sequently
ĠL N
ĠL ions
ĠG uth
ĠG iven
od erm
ĠO il
Ġpro of
ĠIn formation
ber n
ber ger
ab ad
ĠK aiman
qu arter
ĠSt ones
Ġsp elling
Ġy e
rit t
ost ere
ia h
Ġun l
Ġun ve
Ġun rel
cl air
ĠV oice
ĠV oyage
so on
ub le
Ġrec ip
ĠTh ames
pl ain
ult y
Ġag ing
ach t
Ġj ail
ĠY un
amp ed
Ġte lev
iss art
Ġfe ver
Ġear s
Ġdec isive
ug ged
ĠAr be
Ġtr act
Ġass essed
Ġsub mer
Ġreg imental
Ġinter ven
Ġqu it
ĠLe o
Ġacc ord
Ġsupp orter
Ġmon k
Ġ10 7
ĠSh adow
Ġthere by
ĠSc reen
ĠJo an
Ġnumber ing
ane ous
ann ers
Ġ15 3
Ġ15 8
Ġmill ions
Ġmill imet
Ġcomple ment
Ġdirect ions
itt y
Ġins cribed
ĠCl air
Ġprov oked
Ġ13 9
ĠMan or
ĠPl ant
Ġwin ners
uth ier
ĠAll ies
Ġsouth ward
ĠFran z
ĠEu ro
Ġcare ers
Ġcare fully
app er
ĠMus ical
Ġthird s
Ġsug ar
Ġcr usad
ĠGener ation
ĠPer on
Ġpost er
Ġobs erve
Ġfar ms
Ġfight s
ĠEx eter
com mun
uck s
uck le
Ġfav ored
Ġaver aged
Ġsepar ately
Ġfort ress
ĠIndian a
ores c
Ġmater nal
Ġcontract ed
ĠPre par
ĠRh y
Ġneg lected
for ce
Ġparticip ating
Ġheav iest
Ġcru cial
ĠBel ie
ĠTem nospondyl
Ġap olog
ĠFe z
Ġscreen play
Ġens ued
ĠVer stappen
ĠDan ube
Ġstra in
Ġ33 0
Ġdiscuss ing
ĠJer ry
Ġjud o
Ġacqu ire
Ġdism ant
Ġcollect ing
Ġcollect ive
ĠGo at
ĠGo eb
Ġpark ing
CA R
Ġkind s
Ġox ide
Ġthrow s
Äģd v
Ġtim ing
Ġrom ance
ĠEven ing
ĠMur phy
ĠEll is
Ġstrik es
Ġminer als
Ġfox es
Ġstret ch
Ġundert ook
ĠBrig adier
ĠMu ham
ĠHard y
ĠBor ough
Ġtransform ation
Ġcorrespond ence
ĠSurv iv
Ġplum age
ĠSha olin
Ġexerc ised
Ġcommemor ated
Ġdin osaur
Ġinstrument ation
ĠSav age
ĠCampb eltown
Ġconqu est
point s
bb ie
Ġescort ed
ĠLabor atory
ĠWolf pack
Ġadopt ion
orph ic
Ġmamm als
Ġfoss il
Ġabund ance
ĠPow ers
ĠLith uania
ĠGa uthier
Ġattrib utes
Ġrefere e
ĠBulgar ia
ĠParalymp ics
ĠHarv ey
ĠAuthor ity
otyp es
ĠMagdal en
Ġmotif s
Ġexplicit ly
Ġsket ch
Ġcomprom ise
ĠClaud ius
ĠMcN ichol
ĠSag inaw
Ġdiscont inued
ĠLaure n
ĠBrother s
ĠRI AA
osy stem
ĠGw end
ĠGuatem ala
ĠHomar us
Ġcorrid or
Ġdislik ed
ĠWikiped ia
ĠAmyl ostere
Ġpover ty
4 0
Z AC
a ak
b led
c os
c ock
c aster
l ide
s ville
v iously
á º
Ġ <
Ġ Ð
Ġ ãĥ
Ġ ãģ
Ġa wa
re ation
Ġo ribi
or o
Ġc ock
Ġf ra
Ġf urn
Ġf ighter
is bury
Ġb out
Ġin hib
Ġp ock
as ian
as ury
Ġto ugh
ro ck
Ġm ason
Ġd ull
ĠT imb
ĠA my
ĠA ires
ĠS it
ĠS elf
ĠS axon
Ġth underst
Ġl ib
Ġl aps
el ih
Ġn a
Ġn am
ĠM ile
ĠM ick
ĠB ach
ĠB ros
ĠI se
Ġg olf
ir ate
ĠH utch
Ġst ump
ay ana
ith m
ĠP AG
ĠF a
ĠF r
ĠF ac
ĠF BI
Ġal gor
ĠN ation
ĠW ey
ĠL iam
os ely
ĠG ao
um an
ri ans
ri fic
od ing
ĠE ld
ĠE CU
ĠO jib
op ed
Ġpro ced
Ġr er
Ġse ated
all as
oc ese
ab out
ĠK w
ĠK az
Ġch ambers
Ġex empt
Ġpl acement
ĠU C
Ġâ ĺ
Ġsh adow
Ġk iss
ect ic
ast ian
Ġsp ikes
ell ation
ĠCh au
ĠCh anc
Ġun anim
ĠTh ings
Ġj am
Ġman sion
ik er
ction ed
ĠY oko
Ġen able
Ġup r
Ġup s
Ġrem ake
ĠAr men
Ġunder neath
Ġcol ored
Ġpos ed
Ġcan ons
ĠNew found
Ġver dict
Ġpr incess
Ġform ula
Ġrele vant
Ġqu arters
Ġmon aster
Ġmon itor
Ġpubl ish
ĠSc iences
Ġsy nd
Ġep it
Ġbl own
Ġem ig
Ġtrans mitted
Ġexp ense
Ġpop e
air n
ĠInd u
Ġest ates
ah on
Ġart icles
Ġdown graded
Ġcrit ically
ĠIs a
Ġany where
ĠCar r
Ġ13 3
Ġsupport s
ĠPl aying
Ã© s
ĠDe al
Ġmod es
Ġed itions
Ġann ex
ĠMe gan
Ġ14 5
ĠNov ak
ĠHer bert
Ġprot ecting
ĠPh ys
Ġconf luence
Ġmar itime
ĠMus eo
Ġbre ast
Ġbre eds
Ġeng aging
Ġmed ic
ĠFl air
aster ed
Ġterm ed
Ġauth ored
ĠChar acter
Ġarch itects
enc er
Ġdefe ats
Ġconv iction
ĠPort rait
ĠSu eton
Ġlim bs
Ġread ily
Ġbar ric
ĠMon ey
ĠMon ica
Ġvill agers
less ly
Ġident ifies
ĠMer ri
Ġbroad ly
Ġbroad side
ĠMor itz
ĠPres ent
Ġreb ound
Ġfort une
Ġren t
Ġ186 3
Ġhy br
ĠHen ri
Ġmer ge
Ġwood land
Ġ187 6
Ġ187 7
ita ire
Ġfr ames
Ġpriv ately
Ġoccup ies
ĠMet all
Ġhar mon
ĠUnder ground
ĠUnder neath
Ġ183 6
ĠNot able
Ġphys ically
Ġreveal ing
Ġsil ent
Ġadapt ations
Ġamb ig
ĠItal ians
Ġaccess ible
Ġjud ged
ĠSal isbury
ĠTw ins
ĠMidd les
ĠCast ing
Ġnorthwest ward
oura ge
ĠBre thren
ĠBook er
Ġbene ath
ĠCat al
Ġconcent rations
Ġwear s
Ġmanufact ure
Ġillust rations
ĠGre ater
Ġwars hip
Ġtact ic
Ġtact ical
Ġremix ed
Ġoverl ap
Ġec osystem
Ġcoal ition
ĠJud ith
Ġcontrib ute
ĠRow ley
ĠSus que
Ġopt im
ĠAri k
Ġfil ter
Ġfil ters
ĠVol unte
ĠCop ia
Ġancest ry
Ġancest ors
ĠIng ram
Ġvary ing
agu ar
ĠChan ology
ĠCru iser
ĠAld ean
Ġproceed s
ĠPict ures
ĠJun ior
Ġtele phone
Ġorb ital
Ġprol ong
Ġoutp ost
ĠPlat oon
Ġrefuge es
Ġori ented
Ġmamm al
ĠLith uan
Ġlisten ers
ĠSchm itt
ĠBulgar ian
ĠParalymp ic
ĠDum pty
ĠRap ids
tz ow
Ġsuperst ructure
Ġphenomen on
Ġmurd ered
ĠHub bard
ĠImport ance
ĠSymph ony
fam ily
ĠAff airs
ĠLÃ¼ tzow
ĠIA AF
ĠCurt is
ĠHair an
ĠVist ara
ĠHak im
ĠAdri atic
ĠAN ZAC
Ġreh abil
Ġextraord inary
ĠBhair ava
ĠLuz on
ĠWeev il
ĠTz u
ĠBask et
ĠAttale a
acrit ic
ĠRal ph
ĠNAS CAR
Ġchann els
ĠLein ster
ĠGuerr ero
ĠAfghan istan
ĠBuen os
Ġtong ue
ĠGuth rie
quarter ed
Ġsubmer ged
elih ood
ĠPAG ASA
ĠGao zong
ĠNewfound land
ĠSueton ius
D A
M L
T unes
c ill
c ope
g gy
l ist
l ore
l ude
n as
r ator
s ky
u en
v ation
w ine
Å ¾
Å Ħ
Ġt ide
Ġt ales
Ġt ended
Ġthe or
Ġs alt
Ġs overeign
it all
Ġf o
Ġp apers
as er
Ġto y
ic ular
Ġm asc
Ġm RNA
Ġd iversity
Ġd ried
Ġh ate
Ġh aun
ou ver
ĠS ett
ĠS iege
il ogy
ĠC ald
Ġl aying
el ope
ĠM ust
ĠM obile
ec ca
ĠB in
ĠB un
ĠB oul
ĠI b
ĠI van
et ics
Ġg endar
id o
iv ided
iv orous
ot ion
ĠH ank
ĠH amb
ĠH add
us c
Ġst ip
Ġst iff
ĠP ion
ĠP ad
ĠP ros
ĠR an
ĠR ear
ĠD oof
ĠF ountain
ĠN OK
ĠW ang
ĠL ed
ĠL ik
ĠL ars
and in
Ġan k
est e
ĠE U
ort al
Ġv oyage
Ġr ice
ĠIn gr
Ġse aled
ard i
ab ilities
ĠK ab
ĠK ap
Ġâ Ļ
Ġsh ops
Ġk ids
ĠSt our
ĠSt opp
Ġsp or
Ġsp ite
Ġsp ans
Ġnot ion
ĠCh i
ĠCh amber
og a
og enesis
ĠV inc
Ġar senal
end ment
Ġro ot
Ġman ual
Ġman ages
Ġman oe
Ġman ifest
ren stein
Ġwe b
ĠAn sel
Ġfe es
Ġcons ensus
ĠAs ide
ĠMar ily
Ġcol oured
Ġend emic
Ġret iring
Ġass ured
Ġact ively
Ġsub stances
Ġpe er
Ġreg ained
Ġinter f
Ġday light
ĠRe bbie
ĠSh op
ĠSh ield
Ġsur veillance
Ġep ox
Ġtra its
uc lear
ĠZ hang
Ġem pty
Ġexp ecting
Ġdep ends
ann er
row ing
ful l
Ġmin im
ley s
Ġwar rant
Ġinf ected
ĠCol in
ĠMan ager
Ġopen ly
ash ing
Ġconc ur
ĠAd en
Ġsouth western
Ġvar iant
Ġprom ising
Ġmar g
Ġsl ope
ĠEurop ium
Ġhal t
Ġcapt ivity
Ġbas al
Ġiss uing
ĠEd mund
Ġexper iments
Ġreal ize
Ġtrad ers
Ġtrad emark
Ġpost season
Ġfore ver
arr ass
Ġpat ients
Ġaff ection
sp ace
ĠBlack burn
Ġsomet ime
Ġcou pled
Ġadm its
Ġchart ing
ĠGl en
Ġfun k
ĠHar mon
ĠPal mer
ĠCo ach
ĠSy b
Ġcirc ulated
Ġsepar ation
Ġz ero
Ġ35 5
ĠEm b
Ġhon ey
ĠAg ripp
Ġmer ged
Ġcop per
Ġreason ing
ĠTor ch
ĠHol land
ĠMet acritic
Ġcru ise
Ġ183 8
Ġliter ally
Ġabs ent
Ġcolon ists
ĠFilm s
ĠSquadron s
ĠVar ious
ĠVar iety
Ġ184 2
Ġens ured
Ġund ers
Ġund ef
ĠOff ensive
Ġdiscuss ions
Ġjud g
Ġacqu is
ĠRob yn
Ġ37 0
Ġsal mon
ĠCharl eston
ĠConf ession
ĠFin land
Ġcelebr ity
ĠJul ia
Ġwithdraw ing
Ġ182 0
Ġdise ases
Ġjump s
Ġcompos ers
Ġremark s
Ġmanufact ured
ĠKa hn
Ġsn ake
ĠWay ne
ĠWrit ten
Ġmuseum s
Ġspeak s
Ġoverl ook
add y
ĠDom itian
ĠDom nall
ĠBas ement
sw ick
Ġswe ep
Ġroof s
Ġmist ake
Ġru ined
ĠAdv entures
Ġphilos opher
Ġtrou bles
Ġha irst
Ġdownload able
ĠWars aw
Ġdin ner
ĠElect ric
Ġcart oon
Ġrum ours
Ġcoord inated
Ġfold ed
ĠBeat les
Ġexcess ive
Ġsurpr ising
Ġtack le
Ġpoison ing
Ġsymp athetic
Ġfrust rated
Ġax is
ĠBou levard
Ġanaly zed
Ġexpect ations
ĠNash ville
ĠMcM ahon
Ġapprec iated
ĠNon etheless
Ġwel come
Ġceremon ial
Ġpromin ence
Ġmanufactur ers
ĠBarn es
ĠFem ale
Ġmonit ored
osom es
Ġinsurg ents
ĠCad ets
Ġenzy mes
Ġbrut al
ĠObserv atory
Ġreop ened
Ġcontinu ously
ĠTac itus
ĠPear l
Ġmaneu ver
Ġadequ ate
ĠLeban on
ĠDestroy er
ĠVick ers
Ġgram mar
ĠHosp itall
ĠMeth od
ĠCrim son
ĠPesh kin
ĠKaiman awa
Äģdv Äģda
Ġâĺ ī
ĠSusque h
ĠBasket ball
ĠHamb urg
ĠIngr id
Ġmanoe uv
ĠMarily n
1 0
2 8
D OT
E T
a ic
a uc
a ude
d a
d ish
d iction
f low
g io
h ow
l ims
o a
p ect
s a
s k
s ons
t ures
v ol
Ë Ĳ
Ġt ying
Ġt ends
Ġa ug
Ġa quatic
Ġthe ories
on ium
on ald
Ġs ab
Ġw art
Ġw orse
Ġo st
nd om
at ro
Ġc ad
Ġf itting
Ġf abric
Ġb ot
Ġp m
Ġp ent
Ġp ad
Ġd ads
ĠT oy
ĠT renton
ĠS eth
ĠS cler
ĠC ur
ĠC ul
om ical
ĠM ast
ĠM ales
ur er
ĠB le
ĠI ber
ol ate
Ġg rap
iv ial
ig o
ig ations
ĠH appy
us ive
ĠP D
ĠP t
ĠP end
ĠP omp
ĠP usan
ĠR oc
ĠR ico
ĠR ights
em pl
em ploy
ĠD elta
ĠF iction
ĠF itz
ĠF ruit
ĠF rid
ĠF eld
ul um
Ġal be
ĠN P
ĠN um
ĠN umber
ĠW as
ĠW id
ĠG h
ĠG le
ĠG ru
ĠG ry
od ied
ĠE ps
Ġcom ics
if fer
if ted
Ġpro ud
Ġr ises
Ġse am
ab we
ĠK et
ĠK end
Ġch lor
Ġex agger
qu al
Ġare na
ĠâĢ ĺ
ĠSt ansfield
ast ing
ast ical
ov iÄĩ
Ġle ather
og le
ĠV ers
ĠV ert
per ors
Ġsc rapped
Ġj oy
Ġj oke
Ġover night
ens hm
ph ae
ang ered
Ġup gr
ced es
ĠAn at
Ġshe et
ters hire
ĠCom ics
ĠCom air
ĠAr med
Ġfl av
als ock
Ġend uring
Ġcan y
ĠEn v
Ġass ume
Ġsub mit
Ġra ndom
Ġspec ially
Ġinc or
ĠRe ed
ĠRe port
ĠSh o
io let
ĠSc andin
Ġtra p
ĠZ imb
pr ising
Ġperform s
az on
Ġ15 9
ĠInd ivid
ĠInd olence
ern er
ĠGer ry
Ġcar n
Ġrun ner
Ġdist inction
Ġattack ers
amed u
Ġprov isions
ĠCar n
Ġ13 7
Ġed ible
Ġ14 9
Ġpublic ity
Ġprot ective
Ġref lection
hel or
Ġsl avery
ĠMus lims
ĠGe ography
Ġvis itor
Ġbre ech
Ġrequ ests
Ġhand ful
Ġmid field
ĠTe le
ĠChar an
ograph ies
Ġdra g
ĠAb ove
Ġreal izes
isc her
ĠSu ff
Ġcompet itors
Ġer u
ĠEl bert
ĠReg ional
Ġ27 0
Ġsol ve
Ġsol itaire
arch y
Ġintrodu ce
Ġgl iders
ogn s
gr im
Ġpromot ing
Ġrock y
Ġassoci ations
Ġaver aging
Ġ185 8
ĠBo om
ĠAg ricult
ĠGame S
Ġcreat ure
ĠCommand ments
Ġcost ume
Ġbi as
uk u
ĠAc ross
ĠQu arter
Ġachie ving
Ġlength y
Ġslow ed
clus ive
Ġcontr ace
chest ra
Ġkey board
rag ue
Ġindepend ently
Ġeduc ated
Ġsat ire
Ġinn ocent
Ġfail s
Ġdi ary
Ġamb itious
Ġenv ision
Ġshoot s
Ġattract ion
Ġdeg ener
Ġconcept ion
ĠRob ot
Ġlif t
ĠDel ano
Ġhop es
ĠSol omon
Ġfinanc ially
agon al
ĠTenn ant
ĠAI F
ĠCont rol
Ġprec ise
Ġir rig
Ġdispl acement
ĠEs cape
Ġqual ities
mark et
ĠTri p
Ġprogress es
Ġ55 0
Ġnarrow ly
Ġhorse power
Ġappeal ed
Ġmonument al
Ġelim ination
Ġdeliver ing
ĠUs ing
Ġdefin itely
ĠMov ement
unicip ality
ogen ic
Ġi Tunes
ĠDod ger
Ġsubt le
ĠSus sex
Ġinstruct ed
ĠLeon ardo
Ġprotagon ists
Ġunderw ater
Ġunp op
Ġod d
Ġrub ble
Ġpsych ological
Ġpredecess ors
Ġsed iment
Ġorn ith
ĠDur and
ĠVII I
ĠBron cos
ĠComple te
ĠAgain st
Ġdiscip line
ĠNichol son
ĠMother s
Ġquant ities
Ġtribut ary
ĠSin clair
ĠUlt imately
ĠUlt imate
Ġalt ogether
Ġresign ation
ĠMun ich
Ġhem m
Ġclim ax
Ġguerr illa
Ġstrict ly
Ġconfront ation
Ġkit chen
Ġceremon ies
Ġpromin ently
Ġmanufactur er
Ġabol ished
Ġinfer ior
Ġaccomplish ments
Ġdece ased
Ġcir cles
othe rapy
Ġintegr ated
ĠCart y
Ġreag ents
ĠBog side
ĠBoog aloo
Ġdesper ate
Ġincur sion
ĠBrun swick
ĠHoriz on
Ġgenu ine
ĠBuff alo
ĠFro st
ĠFight ing
Ġimped ance
Ġculm inated
Ġclust ers
Ġther m
cor rh
ĠLoy alsock
awi il
ĠMicro soft
Ġeld est
ĠAssist ant
ĠFIT s
ĠFlet cher
ĠVishn u
ĠGwend olen
ĠOjib we
ĠArik amedu
ĠDoof enshm
ĠAnsel m
ĠAgripp ina
Ġalbe it
ĠZimb abwe
L C
W G
c at
d an
e us
f u
i at
i ens
o ffic
t ovac
u cc
v o
v ent
w ing
z ens
Ġ *
Ġthe olog
Ġs el
Ġs hed
Ġo pted
Ġo mn
Ġc ation
en stein
es que
ar se
Ġb oun
Ġto uc
Ġm ail
Ġm ock
Ġh ollow
Ġh urt
Ġh unt
ĠT erm
ĠT anya
Ġre hears
ĠA uck
ĠA val
ĠS T
ĠS iber
ĠS overeign
st ick
ĠC it
ĠC ou
ĠC oc
ĠC ave
ĠC hes
Ġl ion
Ġl ung
ĠM its
ĠM ott
ĠB ac
ĠB uch
ĠI st
Ġg amb
im p
im mer
ĠH ew
ĠH ip
ĠH oys
Ġst ored
Ġst roke
Ġbe ak
Ġhe ll
ĠR ange
ĠR ules
ĠF ischer
Ġwh ist
Ġwh ites
Ġal k
Ġcon vert
ĠN ancy
ĠW ake
ĠW emb
ĠW onder
ra ham
ĠL al
ĠL ak
ĠL ands
ĠL ED
ĠG y
ĠG em
Ġan onymous
ri ers
ĠE ly
op ard
Ġr im
Ġse ize
ew ays
ard en
ich i
ud ed
ab ling
ĠK ur
ĠK ra
ĠK arn
ĠK ras
ĠSt anding
ip oli
Ġsp o
Ġsp ir
Ġsp erm
Ġsp elled
Ġle v
Ġle aked
ell o
ĠCh air
ĠCh oice
Ġu pl
og rams
Ġun aware
ĠV ett
Ġab b
ĠAl tern
Ġapp rent
Ġj e
Ġj unta
ib e
Ġen com
ang s
ose lect
ĠAn na
att s
Ġunder lying
Ġass ignment
Ġreg ulation
Ġbu ff
Ġinter ception
ĠLe ading
lect ions
Ġmon soon
uc le
ĠZ one
ĠZ IP
Ġem pl
ert iary
Ġop ener
Ġcar ving
Ġwar rior
ĠCon vention
Ġinst ruction
Ġdisc rim
ĠCol ony
ĠCol onna
Ã© ra
Ġph ases
ĠAd olf
oman ry
Ġvar ieties
Ġgun fire
anc he
Ġsl ated
Ġposs essions
ĠBatt les
Ġcap it
Ġbre ath
Ġdr unk
amb oo
ĠHis pan
ĠFl ood
Ġbas ement
ĠOr s
ĠOr tona
ĠPr uss
ne um
Ġcr ashed
Ġimport ed
ĠTr acks
ĠPort s
Ġlow ered
be e
Ġpat rolling
ĠAir lines
Ġsk ulls
Ġ27 5
vers ely
ĠRoad s
Ġput s
ĠGl as
Ġwid ow
Ġstri ps
Ġsw ing
Ġtre ason
less ness
ĠDu arte
ĠHam ar
Ġ188 4
ĠMor oc
alt ies
Ġcoll ision
Ġhon est
Ġexc ited
head s
Ġhy per
ĠPe ggy
Ġemb ry
Ġemb arrass
Ġ187 3
Ġ187 9
Ġbusiness man
Ġesc al
ĠMost ar
Ġdiss olution
Ġslow er
ĠMac Ar
ĠKh oo
Ġsyn onym
Ġrail s
Ġpriv ile
Ġsurround ings
ĠApp l
ĠDr um
Ġgrad uating
ĠTem pl
ĠNot ting
ĠMal col
ĠCamp us
Ġri ots
ĠBur ke
Ġcompl aint
Ġcontem pl
ĠAnt iqu
Ġ32 0
Ġflow er
Ġdiscuss es
Ġlink ing
Ġinvestig ating
ortun ately
Ġphot o
ĠCatholic ism
Ġgraph s
Ġintern et
Ġir re
ĠEs sex
Ġstrugg ling
ĠGall ipoli
Ġvo ters
lim ited
lim inary
ĠAv tovac
Ġmechan ics
ĠWild life
ãģ ®
Ġhun ters
ĠLl an
ĠKar am
Ġmob ility
Ġneut rino
ĠRos berg
Ġbelong s
ĠDream s
ĠWork ing
ĠSlam m
Ġfle e
Ġstrik er
ĠNorm andy
ĠSpr ings
Ġcompar able
ĠDis ney
upp ets
ĠAst ron
ĠImag ism
ĠGi Ã£
Ġnegot iated
Ġtheat res
Ġrac ial
ĠRod rig
ĠLu is
Ġvolunte ered
Ġstrateg ies
Ġflu or
Ġflu id
ĠRoy ston
ĠSav annah
ĠHere ford
ĠJenn y
Ġelectric ity
cles i
Ġutil ized
ĠCE O
Ġstead y
Ġpric es
Ġsongwrit ing
ĠBlood y
Ġow ing
Ġrepr inted
ĠAP F
Ġliber al
ĠFel icia
Ġenh anced
ĠHind enburg
Ġtruck s
Ġeat en
Ġjackrab bits
ĠYugosl av
Ġdisagre ed
ĠHarv ard
Ġpap al
Ġassess ment
ĠFil ip
Ġmonit oring
Ġaf raid
ĠPubl ishing
Ġperp et
Ġneighborhood s
ĠSomet imes
ĠYellow stone
Ġwors h
Ġinher ited
Ġump ire
Ġtox ic
Ġdod o
ĠVeer u
Ġpopul ace
ĠAssy rian
Ġsacrif ice
Ġune ven
Ġpseud onym
ĠTuck er
Ġchanc el
Ġjur is
Ġconscious ness
bu ilding
Ġstanz a
Ġlun ar
ĠMom ent
Ġabsolut ely
ĠPok iri
Ġabn ormal
ĠMicha els
Ġaux ili
Ġnerv ous
ĠJag ann
Ġenvelop e
Ġincons ist
Ġcontempor aries
Ġflatt ened
Ġtelev ised
ĠMuham mad
ĠSurviv or
Ġnam ely
ĠLik ewise
ĠScler oderm
ĠWemb ley
ĠVett el
Ġencom pass
ĠZIP RA
ĠMacAr thur
ĠMalcol m
2 2
3 5
4 8
C l
c ade
d am
e ux
g osaur
i ability
j iang
l en
l io
l itz
u ity
v ae
Ù Ħ
Ġ ~
Ġt in
Ġt ran
Ġt rench
Ġt ides
Ġt iny
Ġt ube
he ll
Ġa ims
in ely
in te
Ġw is
Ġw ield
nd s
at ine
Ġc ater
Ġf res
Ġf oul
Ġf lex
ar as
Ġb ub
Ġb ite
Ġb apt
Ġb acter
Ġp est
Ġp unk
Ġto ol
Ġto ss
Ġm a
Ġm im
Ġm ating
Ġd ent
Ġh ack
ĠT ourn
Ġre vel
Ġre app
ĠA ch
ĠS aw
st and
ĠC ot
ĠC itiz
ĠC avalry
Ġl av
Ġl oot
am oto
ad vant
ac co
ĠM ent
ur bs
ĠB ud
ĠB ened
ĠB oca
im ol
ir able
ig raph
ĠH us
ĠH ast
ĠH unt
Ġst ir
Ġst unt
ĠP in
ĠR ough
ĠR anger
ĠR aph
ĠR izal
ĠD at
ĠD iss
ĠD oll
ĠF ine
ĠF olk
ĠF oster
Ġwh isk
ĠN ature
ĠW or
ĠW anyan
ĠL A
ĠL an
ĠL ocated
ĠL ogan
Ġan alog
ag ram
ri ages
ĠE qu
ĠE ff
ĠE ighth
ĠE rik
Ġpro ven
Ġv ow
ill on
Ġde eper
Ġr idges
art a
ĠK ok
ĠK usan
Ġex empl
pt ic
Ġpl astic
Ġpl agi
ess es
Ġsh oes
ĠSt ay
ĠSt ore
ĠSt rait
ĠSt yles
ĠSt okes
our se
Ġsp aced
Ġnot ices
ĠCh in
Ġun ity
Ġun ited
Ġun employ
ĠV oy
ĠV ernon
Ġint im
ass ic
ran k
Ġad ul
Ġro ost
Ġro ster
ĠAl tar
Ġpart ition
Ġafter ward
ace a
Ġup stream
Ġte aches
vel t
ĠAn alysis
Ġbet a
Ġcons umed
ft ime
ĠSe as
ters on
Ġtr unc
ob on
ob ia
ĠEn t
Ġret ros
Ġbu oy
Ġbu ck
Ġinter im
hes is
Ġsome body
Ġqu ake
Ġind oor
ific ate
ars ha
uc aly
Ġback s
ann e
Ġmet als
ĠWar b
Ġhead quartered
ĠBr idges
erv es
ĠMan ual
ĠPl ace
Ġsmall est
Ġgu ards
Ġgu ests
ĠAd rian
Ġed itors
Ġ14 8
ĠBe er
Ġgr id
ĠFran co
ae a
Ġdet ached
Ġconf ined
Ġmar ble
Ġtop ics
Ġtop ological
Ġprog n
ĠBy ron
Ġlist ening
Ġrepl ica
Ġcapt ains
let t
ĠFl ash
ĠSte el
Ġview ing
Ġ21 7
Ġdel icate
ĠAb raham
Ġpolit ician
Ġtw elfth
Ġmy cel
Ġevery body
Ġpost hum
ĠPort age
Ã¡ l
Ġpress ing
aun a
Ġpresent ing
Ġread s
Ġmanag ing
Ġsound ing
ĠCal der
Ġcou ples
Ġcou rage
Ġste ambo
ĠEx am
Ġactiv ated
Ġwid th
ara oh
Ġsw allow
Ġfav oured
ĠSw an
Ġspecial ist
Ġknow ing
umb ers
Ġ188 3
Ġmass es
Ġindivid ually
Ġ185 5
Ġhost ilities
ama ic
Ġdev ices
Ġintens ify
Ġ186 6
Ġ186 7
ĠGame play
Ġcell ular
ĠAc ropolis
Ġ187 2
Ġdiss ent
Ġlength s
Ġregard less
ĠGal ile
Ġcommercial s
ĠOd ys
ĠBel ly
Ġproper ly
áĥ ĺ
Ġdepict ions
Ġprior ity
ĠPat riarch
Ġimm un
Ġscreen ing
Ġ184 7
Ġcompl aints
irt z
Ġsil k
Ġvot ing
ĠAnt illes
Ġder iv
Ġcomplex es
ĠSur render
Ġrein st
Ġdark er
Ġemer ging
ĠWood s
Ġdoll s
Ġjud icial
ĠDist ribution
Ġsusp ect
ĠSal v
ĠSen ior
Ġnecess arily
ĠSol ar
Ġnucle i
Ġdom ain
ĠAI DS
Ġ65 0
ĠLo ft
Ġstrike out
Ġqual ify
ĠTri als
Ġconcent rate
Ġnation ally
ĠMat ch
Ġchem otherapy
uzz i
ĠKa iser
ĠBalt ic
ĠEngine ering
ĠMort imer
Ġwild life
ĠBul ld
Ġspeak ers
Ġspect rum
Ġbit ter
bo ats
Ġdescend ed
ĠAp ost
ĠRif le
ĠChap man
Ġdress ing
Ġvirt ue
ato es
ycl one
Ġru in
Ġclean ing
ĠJud ge
Ġmo ons
Ġdecre asing
Ġcateg or
ĠMarsh all
Ġbat ters
Ġlegend ary
Ġcab in
Ġexerc ises
Ġcommemor ate
ĠInc re
ĠWy att
Ġunn ecess
Ġalleg iance
Ġoutf it
ĠCam er
Ġsym metrical
Ġic onic
Ġnav ig
Ġgard ens
ĠDiv isions
Ġrecre ation
ĠComb ined
Ġcarri ages
Ġenh ance
Ġavo iding
Ġprol ific
ĠAlb ion
Ġconsequ ences
ĠFernand o
ĠAz ores
ĠNob el
Ġparas ites
ĠPolit ical
ĠPlan et
ĠFle ming
Ã£ o
Ġtoler ance
ĠVik ing
angel o
Ġreass igned
Ġrid icul
Ġenroll ed
ĠPle asure
Ġresol ve
Ġpron ounced
Ġkid n
ĠTow ards
ĠVis ual
ĠBes ides
ĠLam bert
ĠLiter ary
Ġcompan ion
Ġcounteratt ack
ĠMyc ena
Ġmultipl ayer
Ġlumin osity
ĠLt d
ĠFerr ari
Ġelig ible
Ġecho ed
ĠChop in
Ġvin yl
Ġentert aining
Ġexplan ation
pow der
ĠDÃ¼ renstein
ĠArbe ider
ĠChau vel
ĠMerri field
ĠLithuan ian
ĠSusqueh anna
ĠFrid ay
ĠFeld man
ĠEnv ironment
Ġincor rect
ĠGameS p
ĠDoofenshm irtz
ĠSlamm iversary
ĠKusan agi
E u
F ar
M usic
N T
c airn
f ax
g ow
h ong
h aw
h orn
h urst
o os
Ð °
Ġ à¤
Ġt ech
Ġthe oret
on z
Ġs ided
Ġs izes
Ġw ake
Ġc ow
Ġc ant
Ġc ov
en ary
Ġf ission
es y
Ġb ark
Ġb io
Ġb unk
Ġb ishops
Ġb iblical
Ġin duction
as ma
ro ft
ro ve
Ġm aj
Ġm asters
Ġd ish
Ġd ome
Ġd well
Ġh ur
Ġh ub
ion ed
le af
ĠT ed
Ġre ly
ĠS old
ĠS ep
ĠS ylv
ent e
st all
st ock
ĠC oss
ĠC ove
ĠC ott
ĠC andid
ĠC AT
Ġl ord
el ong
el ia
Ġe uk
Ġe ager
Ġn u
Ġn ons
Ġn ests
ac a
ac eratops
ĠM S
ĠM ann
ĠM CC
ur p
ĠThe odore
ĠB ri
ĠB ore
ĠB ess
ĠB erm
ĠB order
ĠB enson
ĠI ran
ol or
ol ulu
Ġg aming
id y
id as
iv ic
ir ie
ĠH ood
ĠH IV
ĠH arsha
Ġas ym
Ġst ained
Ġst umps
ĠP ain
ĠP rague
ĠR it
ĠR us
ĠR aton
ĠD vor
ĠF act
Ġwh it
ch an
ĠW ed
ra ine
ĠG ale
ĠG riff
ĠJ ai
est hetic
ist ically
av elin
ri et
ĠO z
ĠO pp
if act
Ġpro se
Ġsu ck
art en
oc rat
ab e
ĠK el
Ġch ore
Ġex h
Ġpl ac
Ġhad rosaur
Ġnot iced
ap ul
ap les
ish am
cl am
Ġar cher
Ġbut ton
Ġwhe at
ry pton
Ġcl ip
Ġcl uster
ĠTh r
Ġdis advant
are th
ens a
man ship
Ġev ol
ces tershire
ĠUn f
ose velt
Ġall ot
ĠAn tar
old ing
Ġcons ec
ĠAr amaic
Ġtr ace
Ġunder way
Ġfl anks
Ġrel iance
Ġseason al
ĠNew cast
Ġdef ine
Ġret ro
Ġass ists
Ġsub urbs
Ġpr ince
Ġlar vae
Ġco aches
ll otal
aj al
Ġsy ll
Ġinv as
ĠZ ambia
Ġpres um
Ġpres umed
Ġpres ervation
ident ified
Ġdep ressions
Ġrece iver
Ġmet er
ĠInd ig
Ġrep ublic
ah l
ven ues
Ġsign als
Ġoper ator
ĠWh ole
Ġcrit eria
gest ion
ĠCol ossal
Ġ13 8
Ġnorth western
Ġopen ings
ĠPl ans
ĠPl ains
ĠPl ensa
Ġgu ided
ĠDe angelo
Ġmod est
Ġreport ing
Ġ14 1
Ġvar iants
Ġgr asp
ĠQ i
ĠQ in
Ġdet ective
Ġconf ig
Ġtri ps
anc ouver
app ropri
Ġshort age
Ġtop s
Ġtop ic
ĠBatt alions
Ġexpl orer
Ġhal ftime
Ġeng ra
Ġhum orous
Ġdest ruct
Ġcapt ive
aster ly
ĠSte am
ĠComp et
ĠOr b
ĠOr chestra
Ġview er
ĠPr adesh
ĠBro oke
ĠEd win
ĠRec reation
Ġmy c
Ġprop elled
Ġtro ut
Ġtotal ed
Ġpat ch
Ġstat ute
iron ments
ĠReg ion
Ġcountry side
work s
Ġsol ved
Ġcult ures
Ġfact ion
Ġwat ches
Ġlaw yers
Ġintrodu cing
Ġste pped
Ġdecl ining
Ġactiv ist
Ġlik es
ÃŃ nyi
Ġfac ulty
ki i
Ġpred ator
Ġsuper vis
ett a
ett o
Ġmass acre
ĠBra h
oph one
Ġmot ivated
Ġdev ised
ĠMed way
Ġintens ification
Ġinform al
Ġmean while
uk a
Ġhom eless
ĠCr ime
Ġesc apes
Ġavail ability
onst ruction
Ġviol acea
Ġsyn th
ĠOs wald
ĠPo zz
Ġsurf aces
Ġheav en
Ġcontr ary
Ġdisp utes
Ġcru zi
Ġdeterm ining
Ġphys ician
ĠBrown s
ĠSing ing
Ġimm ense
Ġche f
Ġtemper ate
Ġenv ironments
Ġemer ge
ĠBrad ley
Ġbroadcast s
Ġbow lers
Ġobserv ing
ĠCommission er
ĠRob in
ĠArab ia
Ġcollect ively
ĠTrans it
ocr acy
Ġrear guard
Ġox idation
ĠSol id
Ġtax es
Ġthr iller
ĠCont inental
oura ble
Ġsymb olic
Ġang ered
Ġenjoy able
ĠJos ce
Ġpun ct
ĠLi SA
Ġexhib its
Ġdemonst rate
Ġbrown ish
Ġstrugg les
ĠCap com
ĠPit cairn
Ġpal m
ĠRo osevelt
ĠLie ber
Ġrequire ment
ĠProv isional
Ġpitcher s
Ġspect ators
ĠFant uzzi
Ġresemb les
ĠJeff rey
ĠAst ra
ĠChap ter
Ġparalle ls
Ġec clesi
Ġmic ro
Ġfarm land
Ġtall est
Ġrac ism
ĠAdv enture
ĠId ol
Ġmolec ule
ĠRow land
Ġpros ecut
Ġreserv oir
kins on
ĠCook sey
Ġencoura ge
Ġrebu ilding
ĠLow ell
ĠLow land
ĠCrown s
Ġmoder ately
ĠConn ie
Ġsupposed ly
ĠSor ry
Ġod or
ĠÎ ±
Ġ91 0
Ġcorp se
Ġgross ed
Ġshut out
Ġconstitution al
Ġdemol ition
Ġnav ies
ĠHug uen
Ġdepos ited
Ġanth ology
ĠRoberts on
Ġlimit ations
Ġaccommod ation
Ġkings hip
Ġtick et
Ġet c
Ġinterpret ations
hol m
Ġow ed
Ġcustom ers
Ġfram ed
Ġdeleg ates
Ġplate au
Ġpersu ade
ĠHind i
ĠVi aduct
Ġbor ough
Ġori ent
Ġgar age
ĠBab yl
Ġshaft s
Ġcomed ian
ĠPoly t
unc iation
Ġdiagn osis
ĠMem ory
Ġnurs ery
ĠEconom y
Ġjuven ile
Sh ara
Ġaccum ulated
ĠEth iop
ĠZr ÃŃnyi
Ġpec kii
ĠColomb ia
Ġsubord inate
Ġaerodrom es
Ġquad ru
Ġfier ce
icken ham
Ġskelet ons
Ġrabb i
Ġmetaph or
Ġdread n
Ġvass al
ĠPitts burgh
ĠGand hi
Ġsummon ed
ĠAren a
Ġpreval ent
Ġpostp oned
Ġfing ers
Ġhurd les
Ġfra ud
Ġbarric ades
ĠMetall ica
ĠBoul ter
ĠStopp ani
ĠNum erous
Ġenvision ed
Ġunpop ular
ĠMits uda
ĠGlas gow
ĠJagann adh
ĠBened ict
obon elli
ĠWarb rick
ĠDvor ak
ĠNewcast le
ĠPozz obonelli
W A
c ot
d rop
e ated
f olk
g ence
l ass
m ul
n is
n ity
o ina
v as
v ig
w oman
y ards
z t
z og
Ã ¦
re ement
Ġo val
Ġo de
or ai
Ġc ree
Ġf are
Ġf ake
Ġf ont
Ġf ract
Ġf ores
Ġf inger
Ġb ars
Ġb inary
Ġin appropri
Ġp ac
Ġp ile
Ġp agan
Ġp aved
Ġp uppets
ro x
Ġh aul
Ġh iding
Ġh ulls
Ġh urricanes
le ki
ĠT ud
ĠT ake
ĠT ax
ĠT ests
ĠA ur
ĠA AA
ĠS F
ĠS ad
ĠS ut
il iers
ĠC rom
ĠC age
ĠC edar
ĠC hess
ĠC hester
Ġl os
om ed
am ous
Ġn i
Ġn ude
Ġn atives
Ġn iece
ĠM ason
ĠM alt
ĠM unicipal
ĠThe mes
ĠB ard
ĠB ran
ĠB arr
Ġg est
Ġg ully
id ency
ĠH az
ĠH undred
ĠH Æ°Æ¡ng
us ions
ĠP ut
ĠP ick
ĠP itt
Ġhe s
ĠR P
ĠR ou
ĠR um
ĠR esp
ĠR overs
em ics
ĠD y
ĠD ale
ĠD irection
ĠD ante
ĠF O
ĠF ats
ĠF aith
ul ators
Ġcon fer
ĠN ig
ĠN ek
ĠN omura
ĠW are
ĠW yn
ĠW CW
ra red
ra ged
Ġat oms
ĠL en
ĠL anding
ĠL inds
ĠL uther
ĠG av
ĠJ ill
ĠJ ama
ag ara
ain ted
av i
ĠE t
ĠE ra
if ts
Ġv intage
Ġr is
Ġr amps
ĠIn sp
Ġse eds
ew orth
ud ing
ab h
ĠK ou
Ġch ains
ĠU ÃŃ
ĠU prising
ĠU leki
Ġsh ar
ĠSt ork
ĠSt age
ast rous
ip her
Ġsp okes
ost ic
ap or
ust y
og lyph
Ġun identified
ĠV ij
ĠV ancouver
Ġar ist
Ġint imate
Ġint rig
Ġcomp act
ond uct
Ġad orn
Ġus er
Ġro ok
ĠTh i
ĠTh ak
Ġag ar
ach arya
Ġdis rupted
Ġdis astrous
ĠAl am
ĠAl ways
Ġj okes
act ic
Ġman ned
ens ing
ĠY ax
ĠY uan
ress es
Ġout ages
te br
te fact
Ġpre hist
ĠOn o
ind ers
Ġwould n
ors al
Ġbet ray
Ġwhen ever
Ġdec ent
oth ing
ĠAr r
Ġunder grad
ob s
Ġme g
Ġass ets
Ġpr ay
Ġreg ards
Ġreg ulations
Ġso ap
Ġinc umb
Ġacc ent
Ġacc idents
Ġind ie
ars on
Ġloc als
Ġinv is
Ġback wards
ann on
Ġ15 00
Ġmill s
au ro
Ġart ifact
ĠWh y
Ġair ing
Ġair lines
ĠIs la
Ġdesign ing
Ġdisc arded
Ġins ert
ĠCl aire
Ġgener ate
Ġgovern ors
ĠPl um
Ġgu ilt
ĠAll iance
Ġed it
Ġed iting
eb ack
Ġgr ants
ble m
ĠFran Ã§
ae us
Ġdet achment
ĠMc A
Ġreview ing
Ġdest inations
ĠOr thodox
ĠAm azon
Ġant ib
sh op
Ġeffect iveness
ĠEd wards
Ġ24 3
Ġrefer enced
Ġfore head
ĠCent ury
ĠBar re
Ġ28 0
Ġaff ects
ĠPol l
reg ation
Ġbar ons
Ġcat alog
Ġgl am
Ġ31 7
Ġred dish
gr ass
ĠBut ton
duct ions
Ġprocess es
ĠTown sville
Ġ188 6
ĠMor ay
ĠBra ves
Ġtest imony
Ġ185 2
Ġaccept ing
Ġarg ue
Ġrespons ibilities
ĠAg reement
Ġemploy ee
Ġhy phae
Ġinvest ors
Ġneg atively
Ġtransport s
ĠVal uable
ĠSuper ior
ĠBay eux
ĠGold berg
Ġpen et
Ġdisp ers
Ġdisp uted
Ġeconom ics
ĠBel le
ĠArt ists
Ġdead line
ĠPat ri
Ġdomin ance
itte es
Ġlo osely
Ġamb ition
ny ong
ĠSur rey
ĠWood ward
Ġcommission er
ĠFI BA
Ġlay out
ĠSen ators
Ġdig ging
ĠTw ickenham
Ġnecess ity
Ġmarket ed
Ġtax i
Ġassault ed
Ġsecret ly
Ġplant ed
ĠBurn ham
ĠBre ed
yr ight
Ġmountain ous
ingu ished
ĠAnn ual
Ġrang ed
Ġathlet ic
Ġwebs ites
ograp hed
ĠMax im
ĠWat ch
Ġseek s
Ġacad emy
Ġyellow ish
ĠLeg ion
bl ock
Ġnest ing
Ġfle ets
ĠEll en
ĠCarl isle
Ġge ography
Ġresemb lance
ĠDom oina
Ġunf inished
ĠBas in
ĠDis app
ĠGard ens
aph ore
Ġfresh man
Ġatmosp heric
Ġeditor ial
Ġnegot iate
ĠHib iscus
ĠBru ges
Ġcontrib uting
Ġexpress ing
Ġ87 8
aver n
Ġdecor ative
Ġmush rooms
Ġfirm ly
Ġsynthes ized
ĠConn ectic
ĠYe omanry
Ġsoft ware
Ġrob ust
Ġdog s
ĠCorn wall
Ġdub ious
Ġretreat ing
Ġcrown ed
Ġflo ors
Ġgal er
Ġgal ax
ĠChen n
Ġpublisher s
Ġcul min
Ġpreced ed
Ġorn ament
Ġcoord ination
Ġenfor ce
ĠHong orai
ĠAR IA
ĠBeat riz
Ġrelie ve
ĠChang nyong
Ġdeleg ation
Ġorb its
Ġautom atic
Ġdiscip les
roscop ic
ĠRecord ed
ĠPalmy ra
Ġfrust ration
ĠCec ily
ĠSid on
Ġnit rogen
Ġweigh s
ĠMcL u
Ġairfield s
Ġhorn s
Ġencl osed
Ġeffic iency
ĠColl ins
Ġdiagn osed
Ġsatisf ied
Ġastronom ical
Ġcyt oplasm
Ġdevast ated
Ġfacil itated
ĠSomet hing
Ġadvoc ate
ĠSev ent
Ġlegit imate
Ġlamb e
ĠThir ty
Ġjuven iles
Ġtet rap
Ġexclud ed
Ġshru bs
Ġpersist ent
Ġindu ced
Ġmetall ic
Ġportr aying
Ġsummar ized
Ġgran ite
ĠEg uchi
ĠArn old
Ġpenetr ate
Ġdenomin ation
occ up
Ġtel escope
ĠBright on
ĠVent a
Ġautobi ography
Ġneighbour ing
Ġtrium ph
Ġinex per
Ġencourag ing
ĠSeb astian
ĠAppro ximately
ĠHang zhou
Ġanalys es
Ġrelax ed
Ġextr ater
Ġobser vers
ĠTimb aland
ĠChanc ellor
Ġupr ising
Ġhybr id
ĠCald well
ĠPion eer
Ġoverlook ed
Ġwart ime
ĠEps om
ĠChair man
ĠNotting ham
Ġwis dom
ĠTourn ament
ĠSalv ador
ĠBulld ogs
ĠWed nes
Ġecclesi astical
ĠLinds ay
ĠConnectic ut
1 9
2 5
F I
G A
b us
c ach
g un
g ate
h ard
i ott
l ain
m us
p her
v i
v et
w ild
w right
x d
z her
Ġt ier
in stein
er k
Ġs age
at ible
or ers
Ġc av
Ġc ure
Ġf ond
Ġf ib
Ġf itness
ar ious
Ġb ent
Ġp odium
Ġp neum
Ġto b
ic uous
Ġm ould
Ġd il
Ġd iving
Ġh ast
ĠT as
ĠT et
Ġre inc
ĠA ber
ĠS ah
ĠS anti
il ian
ĠC ort
ĠC ox
ĠC ertain
ĠC AA
Ġl ocked
Ġe ucaly
Ġn inj
Ġn Ã©e
ĠM is
ĠM ade
ec a
ĠB P
ĠI J
ĠI cel
et own
ol esc
Ġg ear
im m
Ġfor ts
ot ation
ĠH D
ĠH BO
us her
Ġst o
Ġst ake
Ġst aple
ĠP S
ĠP ent
ĠP av
ĠP erm
ĠP aper
ĠP anther
ĠR as
ĠR ank
ĠR ather
ĠR ole
ĠR umble
ĠD ow
ĠD ere
ĠD iana
ĠF M
ĠF ly
ĠF resh
ul ance
Ġal ike
ĠN et
ĠN ol
ĠN os
ĠN ina
ra ints
ĠL on
ĠL ion
rom e
ĠJ ak
ĠJ unction
um m
ag ne
ĠE ry
Ġcom eback
op a
op ter
Ġv it
Ġv ener
Ġr ic
ĠIn ari
ab ol
ĠK re
ĠK ut
ĠK aly
ĠK ashi
Ġpl ag
Ġpl asma
Ġsh aring
Ġsp rit
Ġsp ont
Ġle ase
ĠCh ase
ĠCh ick
ĠV l
ĠV ery
ĠV ene
Ġar bit
Ġar tefact
Ġint ric
Ġint ensive
Ġcont ents
own ed
Ġcl ade
ater nal
end ers
Ġsc rew
Ġsc hem
iz ards
Ġj avelin
Ġatt ain
Ġim per
ĠOn line
ced ented
Ġcomm une
Ġall ied
ĠAn and
Ġfe as
Ġcons ort
ĠSe x
ug a
ĠAr ms
Ġtr ivial
Ġunder going
Ġrel ay
Ġrel ates
ve er
Ġend urance
Ġend angered
Ġsub mission
Ġsub urban
Ġra iding
Ġinter cour
Ġinc on
Ġ12 4
ĠSh i
ĠSh ane
ĠSc out
Ġfound ers
Ġinv ention
Ġback up
Ġtrans m
Ġperform ers
Ġteam mates
Ġlong time
Ġest uary
Ġdevelop s
Ġmill imeter
Ġsm art
ern e
au ge
Ġcre am
ah u
els k
ĠIs is
ĠBl ake
Ġgener ations
Ġgroup ed
Ġcount ed
Ġgu ys
Ġstr ings
ĠPro ctor
eb e
Ġprom o
ling ton
ĠNov a
ĠHer mann
Ġlast s
Ġref using
Ġconf isc
Ġsl am
get ic
ĠPar ade
Ġorgan ize
Ġpar rot
Ġpar atro
ĠAnd ers
Ġdr ives
Ġperiod ically
amb u
Ġsent imental
Ġmed ley
Ġcour ty
ĠFl int
inc eton
Ġterm inal
atter ing
ĠPr ison
ĠPr inceton
ĠAm un
lu or
ĠWill ie
Ġcr ack
Ġprop eller
ĠPort able
Ġfind ings
Ġfre ely
ĠSu z
Ġcomb ine
Ġchurch yard
aun ton
Ġmanag ers
Ġbar riers
Ġpra et
Ġcat ches
ĠGl am
Ġtechn ologies
ump ed
Ġrelig ions
mar cach
Ġfac ade
ĠHam let
Ġcolle ges
ĠMer i
ĠMer cedes
Ġnovel ist
oo ter
Ġfif teenth
ĠMor avia
istic ated
ĠAg ust
Ġ186 9
Ġemploy ing
uel a
Ġey ew
ĠPre c
Ġemb ro
Ġmer ging
Ġ187 5
Ġly ric
Ġaccount ed
ĠSchool s
ĠSch ol
Ġhard ly
Ġcal ibre
ĠBel ow
Ġ183 3
Ġ183 4
Ġdeterm ination
Ġtouch ing
ĠMal ay
ĠMal aya
Ġaut o
Ġaut hen
Ġscore less
Ġminor ities
Ġche ap
Ġfail ures
Ġamount ed
Ġens uring
ĠJin x
Ġwound s
Ġder ives
Ġappl ic
ĠTour ism
ĠTre y
ĠWood full
ĠDem ocrat
Ġprem ier
Ġjud ges
Ġcle ver
Ġmeant ime
ĠDel hi
ĠNic ol
Ġlog istical
Ġhealth y
Ġpurs u
Ġox aziridines
ĠCer atops
ĠLong acre
ĠEr zher
ĠKn ight
Ġdraft s
Ġdispl aying
Ġpow der
ĠCons ervative
Ġang ular
ĠDes ert
Ġelev ations
Ġprogress ive
ĠMass a
Ġmem oirs
ĠOrig ins
writ er
Ġmodel ed
Ġrepe at
hu veer
Ġscient ist
Ġroll ing
Ġenter prise
Ġillust ration
Ġut ter
Ġadj ust
Ġdoub ts
uff s
Ġflank ed
ĠBul let
Ġwor ried
ĠDen ver
Ġmoment um
ĠFre eway
Ġsend s
Ġmort ars
Ġelement ary
Ġham mer
Ġresemb ling
Ġcust ody
Ġdress es
ĠWind ows
ĠBarb ie
ĠRow son
ĠCardinal s
Ġsle e
Ġmyth s
Ġhydro x
ĠMid way
Ġspons orship
Ġjoint ly
Ġlegend s
ĠPhill ips
Ġhat ch
ĠIraq i
Ġtal ented
ĠTam il
Ġlov es
Ġflo at
Ġlit ter
Ġfant astic
Ġlic ense
Ġphilosoph ical
ĠDesc ribed
Ġshif ts
Ġdoct ors
ĠTrib une
Ġbed room
Ġdivers ion
Ġconsult ant
Ġsulf ide
Ġansw ers
Ġorchest ral
ĠStock holm
Ġagree ing
Ġsatis fact
Ġconsol es
ĠGuy brush
Ġdisappoint ment
Ã± o
ĠBah amas
ĠSem aphore
ĠProfess ional
Ġoutl ined
ĠXe F
ĠCob ain
Ġspr int
Ġdiver ted
ĠShel ley
ĠGlob al
Ġweigh ing
Ġrecon cil
Ġcoinc ide
Ġid ol
ĠLud low
Ġfro gs
Ġneighb oring
osom al
Ġtort ure
ĠAh k
ĠDah l
Ġdeterior ated
ĠRag huveer
Ġceratops ians
ĠHur on
Ġaffili ated
Ġsubsid iary
ĠBuck ingham
Ġacceler ated
Ġobsc ure
ĠFul be
Ġexecut ives
ĠProte ins
ĠStand ard
Ġunw illing
ĠCrusad er
ĠCrusad ers
Ġconstitu ency
ĠSud an
ĠOst end
Ġvolcan ic
Ġcounterp arts
Ġrout ine
ĠTun nel
Ġzomb ies
Ġdigit ally
Ġhypothes is
Ġfest ivals
ĠDian e
Ġcliff s
Ġine ff
Ġthro at
ĠVa ishn
ĠPopM atters
Ġreconstruct ed
ĠFus iliers
Ġunpre cedented
Ġhaz ard
Ġconting ent
ĠEch marcach
ĠHark en
Ġcrusad ers
Ġdismant led
ĠLauren ce
ĠWey den
ĠEld er
Ġundef eated
Ġacquis ition
ĠVert igo
offic ial
ĠAuck land
ĠSiber ia
Ġgamb ling
ĠMoroc co
ĠVoy ager
Ġunnecess ary
Ġeuk ary
ĠBerm uda
ĠAstra eus
ĠTud or
ĠThak ur
Ġgaler icul
ĠMcLu han
ĠWednes day
ĠSanti ago
ĠIcel and
ĠDere k
Ġintercour se
ĠErzher zog
1 8
C P
D P
H A
L A
N S
O L
O ct
P au
R T
a ford
b ons
c z
c od
d ek
j ust
k omo
l ar
m are
n ut
n ery
n umbered
o an
o qu
r ac
r ide
v ara
z el
z ant
z ora
Ġ ul
Ġt a
Ġt ears
Ġa isle
in ac
Ġthe ology
er os
on o
Ġo mitted
nd ers
at ories
it ational
Ġc it
is ch
ar re
ar ity
ar ma
an ian
Ġb rake
Ġin ev
Ġin put
Ġp el
Ġp ipes
as i
ic ating
Ġm ant
Ġm ined
Ġd un
Ġd ive
Ġd orsal
Ġh ole
ou k
ĠT ampa
ĠA mp
ĠS ame
ĠS ide
ĠS ib
ĠS aid
ĠS ier
ĠS oul
il er
st idia
ĠC aus
ĠC rane
ĠC herry
ĠC urrently
ĠC yclone
Ġl on
Ġl amps
om es
ad ers
ĠM G
ĠM ember
ĠM ood
ĠM ake
ĠM ode
ĠM au
ĠM umb
ĠM ores
ĠM ills
ĠM ansfield
ĠM oult
ur ally
ĠB ear
ĠB end
ĠB omb
ĠI B
ĠI D
ĠI ce
et a
et ers
ol o
ol ese
Ġg ig
Ġg ale
id ity
ir med
ot enic
ĠH il
ĠH ann
ĠH ull
ĠH usband
us z
Ġst rand
Ġst ays
Ġst aging
Ġst olen
ĠP ath
ĠP ike
ĠP eng
ĠP SP
ĠP iper
Ġbe ams
Ġhe ct
ĠR E
ĠR ight
ĠR osen
th rough
ĠD io
ĠD angerous
ĠF C
ĠF un
ĠF igg
ul ous
Ġal ert
Ġcon ced
ĠN umbers
ĠN komo
ĠW is
ĠW ins
ĠW inn
ĠW ii
ra h
Ġat omic
ĠL oc
ĠL ind
ĠL iang
os c
ĠG B
ĠG onz
ct ive
rom ed
ĠJ a
Ġv est
pp ers
Ġsu ite
art ed
art ments
ant ed
ab ase
ĠK ling
ĠK akapo
ĠK PA
pt ical
Ġpl a
ĠU ps
Ġsh irts
Ġk un
Ġsp ill
Ġsp arked
Ġsp anning
ine as
ust rated
ĠCh am
ĠCh all
ĠCh ak
og na
Ġun used
Ġar rows
Ġcomp ares
Ġ20 9
ff ord
ok an
ran ger
mer ie
Ġper m
Ġsc andal
Ġag round
ach i
ĠAl t
ĠAl onso
Ġapp eals
Ġdes ires
Ġover ly
Ġen er
Ġen anti
Ġen abling
ren ched
ind ed
gan s
ron s
Ġkn ight
ĠCom et
Ġfl ame
orn e
Ġret ains
Ġsub stituted
Ġra g
Ġso ils
ĠRe ports
ĠRe action
ĠRe formed
Ġsupp ress
ific ant
ĠSh ot
ĠBrit ann
Ġsy ÄģdvÄģda
Ġfound ations
Ġtra w
Ġbl og
ĠZ o
Ġem pt
Ġem br
Ġback drop
yl a
Ġtrans p
Ġsing led
Ġrep uls
Ġcre ates
ĠWar wick
ĠShe ela
Ġcar riage
Ġcar avan
ĠCon v
Ġinf rared
Ġbro od
Ġmat rix
ĠBr uss
Ġdesign ers
Ġins erted
Ġfin ishes
ĠBl air
ĠCar ne
ash t
Ġsuccess es
Ġbr ass
ĠAll Äģh
ĠMe g
Ġgun powder
ox ide
Ġpartic les
Ġdet on
ĠHer bie
Ġprot ector
ĠPh on
Ġmar row
Ġgovernment al
Ġshort s
Ġpar am
Ġdiffer ently
ipp er
Ġbre ach
Ġperson a
ĠSte phan
Ġdem ise
Ġmark ers
Ġstory t
ne apolis
ĠEd in
ĠWe ber
Ġmatch ing
Ġhalf way
Ġconv oys
ĠRec ent
ĠRec onnaissance
Ġreal ism
ĠTr in
Ġpat ri
Ġpat ient
Ġord in
Ġtimes lot
ĠEl s
Ġlight ly
ĠMin neapolis
ĠRich ie
Ã¡ z
Ġsol utions
Ġground ed
ĠJack ie
Ġbar rage
Ġbar rels
Ġcast les
Ġadm ired
ĠEx c
Ġdecl are
ĠEv il
Ġactiv ists
osaur ia
ĠMon te
Ġstri pped
Ġsw amp
ĠCo aches
Ġagre ements
Ġrank ings
ĠSw amp
Ġbroad er
ĠMad h
umb led
Ġmiss ile
ĠRock star
ĠGod s
Ġ186 4
iction ary
Ġgra ff
Ġmer ger
ĠAc apul
ĠRed Oct
Ġcop yright
Ġdiss olved
Ġreason able
ĠRuss ians
Ġ45 0
Ġtreat ments
Ġpur ple
ĠApp eals
Ġhard er
Ġexcept ional
ĠTom ita
Ġkey boards
ĠTem p
ĠNot es
gu y
ĠHel m
ĠCong olese
Ġsect ors
ĠVict ory
ĠPat terson
ĠSing le
Ġhapp ens
ĠFrank f
ĠBur ton
Ġsil ence
Ġconclud ing
ios ity
Ġinters ecting
ĠSecond ary
Ġinvestig ations
Ġprem ise
Ġbow ler
Ġbound ed
ĠBu in
Ġsusp ension
Ġtalk ed
ĠGo ogle
Ġpay ments
ĠNor folk
Ġreject s
Ġreject ion
Ġox id
Ġmor ale
Ġtax a
ĠTurn pike
Ġwalk ed
Ġ180 1
ĠAlex and
Ġcrowd ed
Ġ44 0
Ġcelebr ations
Ġconstit uted
rol oph
ĠJul ius
Ġbene ficial
umber ing
Ġmission ary
Ġ182 1
Ġhol otype
ĠMatt hews
ĠGar th
Ġspread ing
Ġhyd ra
Ġwa ited
Ġsens ation
Ġhun ter
ĠHy der
ĠHy de
Ġdoub led
ĠSo ft
Ġfrag ilis
ighth ouse
Ġsand stone
Ġtarget ing
Ġfix tures
ĠFA U
Ġbass ist
ĠRog ers
ĠDun n
ĠDun can
Ġrac ist
Ġdrop s
Ġactress es
ĠRel ations
ĠLu ke
Ġcool ing
ĠNH C
ĠSound track
Ġcho ices
Ġsan ctioned
omp any
Ġcommit ments
Ġancest or
Ġ176 9
ĠCas ey
ĠCas ual
Ġpatron age
ĠLess er
Ġoutf low
Ġintention ally
ĠLev ine
Ġscholar ly
Ġcitiz en
Ġdream s
ĠCab o
ĠFair ies
ĠStock well
Ġalleged ly
Ġdeliber ate
Ġpale ont
ĠJoy ce
Ġinstall ation
ĠSn ake
ĠXe O
Ġsymp ath
Ġfuner ary
Ġclimb ed
Ġclimb ing
ĠPlat te
ĠWeb ster
Ġteen ager
Ġped est
Ġantiqu ity
ĠSle aford
ĠRaid en
Ġenthus ias
Ġbattlecru iser
ĠInvest igations
Ġneighb ors
ĠMichel le
Ġdiff ered
ĠDor othy
Ġcompens ation
Ġinher it
Ġlad ies
class ic
Ġprofession ally
Ġjew el
Ġendors ed
Ġshru b
Ġportr ays
Ġrejo ined
ĠChand ler
Ġantagon ist
Ġmathemat ical
Ġnut ri
Ġvir us
Ġsatir ical
Ġhier oglyph
Ġpled ged
ĠHein rich
Ġsurpass ed
anj ing
Ġinver tebr
Ġrework ed
ĠÃĨ l
ĠSug ar
Ġpresbyter ian
ĠMerc ury
Ġpian ist
ĠKub ica
galith s
Ġmos que
ĠIgn ace
Ġunh appy
ĠCore y
Ġconclus ions
ĠAngl ican
ĠHond uras
Ġunve iled
ĠYun nan
Ġepit het
ĠHadd ock
Ġaug mented
ĠIndivid ual
corrh izal
ĠHoys ala
ĠOrs ogna
Ġjuris diction
Ġwhisk ey
Ġtrunc ated
ĠOdys sey
Ġinappropri ate
Ġincumb ent
ĠIJ N
ĠVene z
ĠSier ra
ĠMumb ai
ĠMores by
ĠMoult rie
ĠBruss els
ĠCarne gie
ĠAcapul co
ĠRedOct ane
1 6
I T
N U
N e
O R
W er
a fer
b en
b el
c ott
d ings
e a
f ast
f ied
g ae
i enced
i ya
l ank
m ons
m other
o T
o ors
p at
p arts
t t
w orld
Ã ¥
Î ±
Î ½
Ï Ĥ
Ð ¾
Ġ q
Ġt ips
he nd
he res
re a
Ġs eller
Ġw ines
Ġw rought
at ography
or oph
it ians
Ġc urric
Ġc ott
Ġc apped
en i
Ġf a
ar er
an ium
Ġb ern
Ġb oring
al ine
al gam
Ġp ist
ro d
ro qu
ic z
ic ist
Ġm osa
Ġd y
Ġd at
ĠT ry
ĠT iber
ĠT OT
ĠT aunton
ĠA gg
ĠS ail
ĠS ister
ĠS ector
il on
il ated
ent ine
ĠC ay
ĠC row
ĠC ai
Ġl ingu
am pton
Ġn ost
ad ors
ĠM ig
ĠM ith
ĠM oth
ĠM ons
ĠM aine
ec es
ĠB ian
ĠI X
Ġg ag
Ġg ym
Ġg lee
Ġfor aging
ig m
ĠH ear
ĠH ost
ĠH ors
ĠH ollow
ĠH erm
Ġst ops
Ġst alled
Ġst ems
Ġst ocks
Ġst ela
ĠP P
ĠP is
ĠP red
ĠP ale
ĠP agoda
Ġbe nd
Ġbe ads
Ġhe ated
th a
ĠD uc
ĠD ana
ĠD arden
ĠF ol
ĠF ighter
Ġal arm
ĠN othing
ĠN guy
ĠW ally
ĠW ool
ĠL ov
ĠL angu
ĠL ights
ĠG or
ĠG el
ĠG ay
ĠG ros
ĠG hat
ĠG aga
ĠG ambia
and is
and ers
and ering
ĠJ ava
her ical
ag us
ag ree
ist o
ĠE rics
Ġpro ph
Ġv i
Ġde an
Ġse ap
ew s
ew ard
ak mul
ĠK ot
ĠK ros
ĠK rabs
Ġch in
Ġch ron
Ġex ceeded
Ġpl ating
Ġpl ural
Ġsh ame
Ġsh rines
Ġsh ooter
Ġk et
ip as
Ġsp ine
Ġsp lin
ap ult
ust ler
ish na
ĠV enge
ĠV HS
Ġcont ests
Ġcl aws
ok er
ran es
Ġres on
Ġres ide
ond e
Ġab rupt
Ġro d
Ġper mit
Ġper ipher
Ġrec ipes
iz z
iz hou
Ġdis emb
Ġdis par
Ġdis organ
Ġdis qual
Ġdis agree
Ġj aguar
ount ed
Ġdes erted
ĠY oun
Ġout rage
Ġout lets
man ia
Ġup coming
we go
ĠAn field
les und
Ġrem astered
Ġcons ul
Ġkn uckle
Ġnew er
ĠCom ing
Ġtr ilogy
Ġfl otilla
ob ic
Ġlater al
Ġra w
Ġacc ession
ĠRe ading
ĠRe formation
Ġmus cle
ĠSh awn
ĠSh apur
ĠZ ack
Ġem perors
Ġem blem
pr ing
Ġperform er
Ġdep ot
Ġmet ropolitan
ern ess
Ġext ras
ient ious
Ġair space
Ġmay be
ĠIs hm
Ġinst inct
Ġdisc ipl
Ġdist ress
oss y
Ġfin ance
Ġfin anced
Ġbr ush
Ġconc urrent
ĠAll Music
ĠFor g
ĠBe g
ĠGu ards
Ġport ed
ai res
Ġshort ened
ĠPar th
Ġorgan s
Ġpar odies
Ġcap itals
Ġcap abilities
osp here
ĠÂ ²
Ġmark ings
ott a
ĠAm anda
ĠChar ter
Ġdeb ts
Ġdra ins
Ġconv inc
Ġconv ective
ĠCount ies
ĠRec onstruction
Ġcommun al
ĠPer haps
Ġprop oses
Ġer oded
ĠMin h
ĠRich ards
aul ipas
Ġsol ic
Ġfar mer
ring ton
Ġlim b
Ġbar rel
Ġsound ed
Ġcat apult
ĠScient ologist
ĠCal akmul
Ġste als
Ġsoc ieties
Ġide ology
Ġfem in
Ġfem inist
Ġsw ift
ĠBut terfly
ĠBut etown
Ġlik ened
ĠSer geant
Ġren owned
ĠEm ily
Ġcrew men
ĠGrand e
Ġhon ored
ĠBer lio
Ġcreat ures
Ġprob able
ĠPre classic
Ġemb ark
ĠQu est
Ġtravel ers
ĠFlor a
Ġbur st
Ġfootball er
Ġtrib al
Ġsurf aced
Ġpen is
ĠGr ac
ĠGr isham
Ġoccup ying
Ġ183 1
Ġden y
Ġden ial
ĠTra jan
ĠFe et
ĠMil an
Ġimm inent
Ġdomin ate
Ġuns ure
Ġbomb ed
Ġunc overed
unt ary
Ġamb ushed
hy d
ĠJer emi
ĠTre asury
ĠUp d
Ġlab elled
Ġcommission ing
Ġgrant ing
Ġobserv es
Ġdram atically
Ġacqu iring
Ġnatural ist
Ġlog o
Ġnortheast ward
Ġmurder er
Ġpurs uing
Ġphot os
ĠAcad emic
Ġbox es
Ġassault s
Ġess ays
Ġpick ing
ĠOtt om
ĠEr n
Ġplant ations
ĠMey ers
ĠCont in
Ġprec urs
Ġtext ile
Ġintern ed
Ġ48 0
Ġsust ain
ĠCons erv
ĠJul ie
ij i
Ġpound ers
ĠRam on
ĠField s
Ġfast ball
ĠCap el
Ġmagn et
Ġextra v
Ġthir teenth
Ġgirl friend
Ġ179 4
ĠLar wood
Ġcolumn ist
Ġincorpor ate
Ġbank rupt
ĠWrit ers
ĠAD F
Ġfix ture
ĠMur d
ĠEll iott
Ġprotest ed
och ond
ĠNever soft
Ġec ology
ĠCoast al
ĠCle an
ĠMot ion
Ġ177 6
Ġexplos ions
ĠBarb ours
Ġstret ches
ĠHor rible
Ġsurviv or
Ġfaith ful
ĠLy coming
Ġbenef its
Ġfer al
Ġod es
Ġlob by
ĠTam aulipas
Ġaddress es
ĠBat eman
Ġaccur ately
Ġaccur acy
Ġlic ence
Ġlic ensed
Ġadvis or
Ġadvis ory
Ġsuperior ity
ĠJenn a
real m
Ġbond s
Ġproceed ings
Ġupd ate
ĠInit ial
Ġdepos it
Ġspin ning
Ġmerch ants
á» ĩ
Ġcry stall
Ġtrail er
Ġpure ly
Ġdisappoint ing
Ġherd s
Ġobl ig
Ġinaug uration
ĠLead er
Ġdivor ced
Ġnom inee
ĠRest oration
Ġquant ity
ĠMcD ou
ĠShel by
Ġwrest lers
ĠEy e
Ġattrib ute
idel ity
ĠPolit ics
ĠGlad ys
Ġharm ony
Ġuncertain ty
Ġmir ror
ĠCirc le
ĠObser vers
Ġabol ition
Ġdict ator
ĠDiam andis
Ġclin ical
Ġsupplement ed
Ġdiff ers
ĠDah lan
Ġvalid ity
Ġrecept ions
Ġintercept ed
Ġforg otten
Ġsew age
ĠThir teen
Ġump ires
Ġreward ed
ĠRat ings
Ġcomfort able
ĠZap ata
ĠZap otes
ĠProte in
ĠValent ine
anch oly
Ġreun ited
Ġmathemat ics
Ġsoph isticated
Ġwonder ful
Ġphylogen y
Ġmoist ure
ĠVerm eer
Ġinvent ory
ĠClay ton
ĠCinem a
Ġenact ed
ĠBelt line
ĠSche er
ĠÅĮ zora
ĠForb es
Ġenthusi astic
Ġmusc imol
ĠGabri el
ĠTrad itional
ĠSey m
ĠFeel ings
ĠBroadcast ing
ĠUygh urs
ĠKum ar
ĠWilf rid
Ġbesie ged
Ġabst ract
ĠÃħ lesund
Ġaggress ively
ĠCert ifications
ĠPeron ist
Ġmason ry
Ġrer outed
Ġprolong ed
ĠHarmon ix
ĠTorch wood
Ġhairst yle
ĠMethod ist
ĠPomp ey
ĠScandin avian
Ġabb ot
ĠPorts mouth
ĠFilip ino
Ġworsh ipped
Ġauxili ary
Ġlav ish
Ġplagi ar
ĠCott am
ĠHuguen ots
ĠPolyt ron
Ġundergrad uate
Ġinvis ible
ĠIsla is
Ġculmin ating
Ġtob acco
Ġreinc arnation
Ġplag ued
Ġartefact s
ĠMood y
Ġener getic
ĠEdin burgh
ĠÃĨl fric
Wer ff
ĠErics son
ĠKros a
Ġknuckle ball
ĠIshm ael
ĠBerlio z
- -
D er
D IS
H E
H P
N H
S T
V I
b ec
b ied
b uster
d n
d ong
f oss
f inger
h all
k ind
l ah
p ed
t age
w aters
y g
Ã ª
Å Ł
Ñ ģ
Ġ ×
Ġ ig
Ġ à¸
Ġt ill
in ator
Ġthe ft
Ġthe rap
Ġs us
Ġs its
Ġs aints
Ġw ond
Ġw ages
Ġo h
at om
or row
Ġc ig
Ġf og
is an
is ely
ar ms
Ġin ade
Ġp or
Ġp es
Ġp enn
Ġp ays
Ġp acked
Ġp agoda
ro e
Ġm aid
Ġd red
ou che
ĠT ol
ĠT ina
ĠT apes
Ġre writ
ĠA ve
ĠA oT
ĠS P
ĠS oir
ĠS andy
ent in
ĠC C
ĠC i
ĠC aen
Ġl ip
Ġl ibr
el ae
ac ters
ĠM i
ĠM ine
ĠM ind
ĠM old
ĠM ans
ĠM ale
ĠM off
ĠM iy
ĠM ullen
ĠM insky
Ġwas hed
ec ompany
ĠB rom
ĠB ile
ĠB ever
ĠB oo
ĠB aja
et ed
et ter
ol ades
Ġg le
Ġg ill
Ġg auge
id ium
id ays
im o
Ġfor wards
ir s
ĠH at
ĠH ig
ĠH its
ĠH yp
ĠH ears
ut en
Ġst up
ay ette
ĠP ed
ĠP or
ĠP ond
ĠP are
ĠP ars
ĠP eck
ĠP ayne
Ġhe d
ĠR ous
ĠR esc
ĠR CA
ĠR ams
ĠR ena
th ood
ĠD re
ĠD il
ĠD are
ĠD anish
ĠD raw
ce phal
ĠF ab
ĠF ass
ĠN R
ĠN f
ĠN ir
ĠN ich
ĠN ile
ĠN ail
ĠN iger
ĠN ambu
ĠW H
ĠW ies
ĠW ied
ĠW ick
ĠW ever
ĠW anna
ĠL iv
ĠL act
ĠG at
ĠG ren
ĠG of
ĠG iant
ĠG lee
ĠJ azz
Ġan x
est ine
ag g
ag ements
ist ration
ri um
ĠE isen
ĠE uras
ĠO th
ĠO ric
ĠO wego
op o
op ot
Ġv ague
Ġv ibr
Ġv apor
Ġsu cc
oc ate
ab its
ĠK or
ĠK ess
ĠK icking
ĠK itty
ĠâĢ ²
ĠSt ructure
se en
ast rum
Ġsp le
Ġsp herical
Ġnot or
Ġle ased
ell ion
Ġu ph
Ġar ches
Ġint entions
ru b
Ġcomp artments
Ġcl ashes
ĠHe ath
ie g
ran o
Ġrec ycl
pl ant
ach it
Ġdis g
ĠAl ma
Ġover run
ĠY osh
Ġout numbered
man uel
Ġpre ference
int a
ĠUn limited
Ġkn ife
ĠMar vel
ons c
ob ook
Ġcan opy
ĠEn nis
ĠNew ell
Ġass erts
Ġchar itable
Ġsub pl
Ġra v
Ġreg ener
Ġwhere by
Ġinter ference
Ġinc omp
ĠLe x
ĠSh ah
ĠBrit t
aj i
Ġent ity
ĠSc ar
ĠSc enic
Ġdo zens
Ġinv al
yl um
Ġtrans cend
Ġexp elled
ĠAfter wards
Ġcontin uation
Ġsm oking
Ġpol es
Ġhead l
Ġhead stones
Ġmil it
Ġinf ant
Ġcrit ique
ruct ural
Ġdesign ations
itt ings
Ġins ect
ĠCl aws
xt ap
ĠCol umn
Ġ13 6
Ġnorth bound
Ã© n
ĠDe b
Ġconc urrently
Ġph araoh
ĠAd vert
Ġele g
Ġgun nery
Ġrest ruct
ple x
Ġbuild s
omet ry
Ġref urb
Ġmar riages
ret ion
get own
Ġshort ages
Ġorgan isms
ĠGe astrum
Ġpar an
Ġcap ability
Ġvis uals
ĠBy zant
Ġwater way
Ġeng agements
Ġmonth ly
Ġbo hem
aken ing
let te
ĠFl oren
Ġbas alt
Ġdem ocratic
ĠBro ck
ĠChar med
ĠChar acters
sh ine
ĠEd ith
Ġcr ust
Ġcr ushed
par ian
ĠX I
ĠX u
ĠPer imeter
Ġevery where
Ġel ong
Ġtro phy
Ġpat riarch
Ġprof itable
ĠCanad ians
Ġsk illed
rent ial
Ġpress ures
Ġeight eenth
Ġnight s
Ġprogram mes
Ġrad ial
Ġgen ius
Ġcat ching
ĠNe g
Ġste ering
ĠHa itians
ĠGl enn
ĠGl itter
Ġcoast s
Ġcampaign ed
ĠCare ll
Ġbus es
ĠHam el
Ġsuper ficial
ĠMad res
umb ria
oph y
Ġtest imon
Ġren umbering
Ġhost ing
Ġiron ic
Ġdev il
ĠPre fect
Ġinform s
Ġburn t
ĠDep uty
ĠCr ush
ĠCr isis
ĠMo ors
Ġbur den
Ġobject ions
Ġviol ations
leg iate
ĠPo ems
Ġcal endar
Ġexcept ions
Ġcru el
ĠThat gam
Ġkey s
Ġ183 9
Ġdead ly
ĠTra vis
ĠFort une
ĠFe ast
ĠOt to
ĠMos c
ĠStud ents
Ġ184 4
Ġri parian
Ġhapp ening
ĠCoun ter
Ġche ese
Ġexam ining
Ġforest ed
Ġmention ing
Ġbirth place
Ġstra ined
Ġattract ing
Ġabandon ment
ĠRoss en
ĠStevens on
ĠSov ets
ĠLou ise
ĠSal mon
Ġflight less
ĠHu ai
Ġcollect or
Ġlog ical
ĠTw in
Ġkind erg
Ġassault ing
Ġimpact s
ĠAI M
ĠOtt awa
roll ed
Ġpeace ke
Ġprec ious
ĠDef ensive
Ġboard ing
ĠColon ial
Ġqual ification
Ġbackground s
ĠFer b
Ġbott le
ãĥ «
ĠCap it
ĠAndrew s
Ġmis underst
Ġ179 0
Ġincorpor ating
inn ati
ĠHy Å«
Ġfrag ile
Ġsand y
ĠVan Der
Ġmort al
Ġven om
Ġassass inated
Ġsynt hetic
ĠLis bon
ĠLis zt
Ġcompar isons
Ġdescend s
ĠGi ac
Ġdim in
ĠLiber ation
Ġmo ored
ĠCold play
Ġdial og
Ġtend ency
Ġsurvey s
ĠLow e
Ġglob e
ĠPho ebe
Ġimpr int
Ġspons or
Ġlob bied
Ġancest ral
Ġfair y
Ġhat red
ĠAk ron
ĠBi ographer
ĠHun ting
Ġju xtap
Ġpatron s
nell um
Ġoutf lank
ĠDisc overy
Ġshif ting
Ġtransition ed
ĠPict ish
ĠSher idan
ĠPan ama
Ġorn aments
Ġenfor ced
ĠRain fall
Ġfold s
ĠCab ral
ĠBos i
ĠRom ans
Ġrecru iting
ĠTest ament
ĠUr n
Ġleuk emic
Ġconsol idated
ĠConfeder acy
ĠBron ze
Ġtight ly
Ġobst ruct
ĠGeoff rey
Ġfeed back
ĠMalays ian
ĠRecord ings
ĠAdminist rative
ĠUnivers e
Ġreprodu ction
Ġwrest ler
Ġteen age
ĠEy es
Ġrenov ation
Ġrenov ated
Ġdwarf s
ĠBoss es
ĠBrand on
Ġcomed ic
Ġvault ed
ĠVik ings
ĠPeters burg
ĠAut om
ĠFem ales
Ġsuperv ision
Ġtor rential
ĠCond oms
Ġdevast ating
Ġtut or
Ġfulf ill
Ġcompens ate
ĠSyn opsis
ĠVeer asha
ĠPic ard
ĠKrist ians
ĠRic ci
ĠOk lah
ĠOcc up
Ġexceed ing
ĠRegard less
ĠBosn ia
Ġparad ox
ĠHyd nellum
Ġredesign ated
ĠRook ie
ĠJas per
Ġexchang ed
Ġoutd oor
ĠBoot leg
ĠSic ily
Ġlaud ed
ĠExpedition ary
Ġdischar ge
issart ensis
oresc ence
ĠBelie ve
Ġlib ret
Ġmonaster y
Ġrehabil itation
Ġgendar merie
Ġank le
ĠVinc ent
pect ives
Ġsab ot
iffer ent
ĠTrip oli
ucc o
ĠAstron omical
ĠRodrig uez
ĠWoods boro
clam ation
Ġpresum ably
ĠIndig enous
Ġconfig uration
ĠBreed ers
ĠDisapp eared
Ġtetrap ods
Ġpneum onia
ĠGlam organ
ĠSchol ars
ĠVaishn ava
Ġrepuls ed
Ã¡z quez
Ġgraff iti
ĠTemp est
ĠHyder abad
Ġenthusias m
Ġbern issartensis
ĠDuc hess
ĠSeym our
Ġinade qu
ĠGof raid
ĠOric on
ĠThatgam ecompany
ĠHyÅ« ga
ĠVanDer Werff
ĠOklah oma
1 5
2 7
5 5
B S
H F
M I
P ol
b ic
b ag
b rand
c ian
c oth
d ing
d een
f old
f oot
g il
h ill
i obook
l i
l ash
m itt
m ns
o que
p it
p es
r ors
s l
t op
t hesis
v ous
w er
w yn
y i
z an
Ï Ħ
Ð µ
á Ģ
ã Ģ
Ġ ãĢ
Ġt um
Ġt ables
he ra
in ates
Ġs ap
Ġs urn
Ġs ins
Ġs ax
Ġs idel
Ġw itch
Ġo ath
nd um
at hed
at aka
Ġc rescent
en h
en que
Ġf ins
Ġf auna
is i
ar on
ar at
ar is
an an
an ic
al p
Ġp am
Ġp anther
Ġp irate
Ġp aternal
ic herry
Ġm ates
Ġd w
Ġd irt
Ġd itch
Ġd angers
Ġh ire
Ġh ug
Ġh ilar
Ġh ailed
Ġh alls
ĠT aking
ĠT rent
ĠT otten
ĠT AR
Ġre int
Ġre iss
Ġre class
ĠA j
ĠA med
ĠS U
ĠS ons
ĠS ank
ent on
ĠC d
ĠC ly
ĠC ut
ĠC reat
ĠC inc
ĠC asc
ĠC otton
Ġl uc
Ġl ots
el age
om i
om ore
om ics
Ġe ct
ad er
ad en
ĠM um
ĠM ik
ĠM ys
ĠM aple
ur ong
ur ated
ĠB ody
ĠB rent
ĠI UC
Ġg h
Ġg rab
Ġg ems
iv ities
ir k
ir p
ir ling
ig ion
ĠH es
ĠH abit
ĠH orus
ĠH inge
us k
ut land
Ġst uck
Ġst rap
ĠP od
ĠP oc
ĠP orter
Ġbe ast
ĠR iv
ĠR ise
ĠR iley
ĠD ragon
ĠD allas
ĠF ing
ĠF ast
ĠF ellow
ul an
ch ild
ĠN as
ĠN est
ĠW el
ĠW int
ĠW ilm
ĠW ern
ĠW ica
ĠW uz
ĠW ÅĤ
ra pping
ĠL ing
ĠL omb
ĠL yr
ĠL ano
ĠG ust
ĠG aming
ĠJ utland
ag les
ag han
ain es
ri pping
ĠE sp
ĠE lection
ĠO kin
op ers
res ist
pp e
Ġr ational
Ġr uth
Ġr anc
Ġr idd
Ġr ushes
ĠIn form
ĠK ill
ĠK ant
Ġch ip
Ġch oral
Ġch aos
Ġpl aza
Ġpl anners
Ġsh ocked
ian us
ĠSt ru
ĠSt rat
ĠSt range
ge ois
ov al
ov sky
Ġy lide
ap et
ĠCh ay
ĠCh un
ord e
ord ers
og g
Ġun ite
Ġun chang
ĠV astra
Ġar ise
Ġar sen
Ġint ending
Ġcomp ass
Ġcomp uls
Ġcont am
Ġres ume
Ġad olesc
Ġab d
Ġab ort
Ġab dom
Ġro pe
Ġper ce
pl ing
ult ure
Ġsc out
Ġsc iences
ach y
are z
Ġover sh
over ing
Ġatt itudes
ĠY ah
ice a
te xt
Ġup right
Ġpre liminary
ĠAn ime
Ġne on
ron es
Ġkn ights
Ġdec ree
ĠMar ÃŃa
Ġtr aced
Ġtr usted
Ġunder g
Ġrel at
Ġrel ate
olog ÃŃa
Ġ00 00
Ġnum er
Ġdef ining
Ġret aliation
Ġsub m
Ġpe ers
Ġbu ying
Ġinter v
Ġam algam
ĠSh iban
Ġtra ps
Ġtra verse
Ġbl ast
ĠZ ero
ĠZ immer
irect ed
ram er
Ġgo at
ĠShe en
Ġart ic
Ġext ract
Ġbel ly
Ġwar riors
ĠCon rad
ĠSp y
Ġins ist
Ġins ign
Ġins urance
ĠCl ive
erv ing
erv isa
ĠCol lect
Ġgener ating
ĠCar bon
Ġconst raints
Ġsix teenth
Ã© m
ats u
Ġsouth bound
ĠBe et
ĠBe eth
ĠGu est
ĠOct avia
ĠFran ces
Ġport able
Ġport ico
omet er
Ġserv ants
Ġref usal
Ġ30 5
ĠPh ot
ĠPh ineas
Ġmar ines
Ġtri angle
anc ement
Ġsl ate
Ġposs ibilities
Ġvis ions
ipp y
ĠAnd h
ĠAnd romed
Ġexpl oring
Ġsent iments
Ġrepl ay
Ġcapt ained
ĠSte ad
Ġdem ons
Ġmark er
ĠPr as
ĠAm ateur
ĠBro ward
Ġstand ings
ĠAb rams
Ġsimilar ity
Ġsuggest ions
Ġcommun ists
Ġcommun icate
Ġpost ure
rodu ction
Ġlight ning
Ġsol ving
ĠPol a
ĠPol es
Ġstruct ured
Ġfact ions
sp e
Ġpit ches
ĠIm age
ĠHigh lands
iec es
Ġgl ider
Ġsoc cer
Ġadm ir
ĠEx change
Ġdecl ines
ĠGl ou
Ġvarious ly
ĠOl af
ĠTo o
Ġtechn ically
hem istry
ĠPal enque
Ġlik elihood
Ġball ot
Ġoccur rence
Ġfac ial
Ġpred iction
Ġredu ces
ĠMad agas
Ġvol ley
Ġ188 7
Ġrecogn ise
Ġsepar ates
Ġcor ruption
medi ately
Ġgoal keeper
ĠSl ant
ĠMed dings
Ġ186 8
Ġcontract ing
Ġinvest ed
ih ad
ĠCr usade
Ġhit ter
Ġtransport ing
ĠMo ham
Ġresear ched
Ġaccount ing
uz ov
Ġrail roads
Ġhard cover
Ġbill ed
ĠUnder wood
Ġcru ising
Ġcolon el
ĠTra fford
Ã³ w
ĠPet rick
ĠAssoci ated
ĠMont agu
ĠMil es
Ġimm ature
ĠNort on
ĠCour se
Ġexam ine
Ġsem en
ĠLaw s
Ġradio active
ĠTer ror
ĠLight ning
Ġrequest ing
ĠRob bie
ĠFI SA
ĠEarth realm
Ġlif elong
ĠArab ian
Ġ42 5
ĠTw ice
Ġexperi encing
Ġbig ger
Ġpay ment
ĠCross ing
Ġshell ing
ospondyl s
Ġmax im
ĠFin ance
ĠFin ley
Ġple a
Ġcelebr ating
Ġhero in
ĠBurn ley
Ġprec isely
Ġsaf ely
Ġtext ure
Ġir ony
ĠHistor ian
ĠBre ese
ĠLock e
isher s
ĠInn ocent
Ġ182 5
Ġprint s
Ġquestion ing
Ġcorn ers
Ġcompos ite
Ġ46 0
udd ing
udd ers
Ġnarr ation
ĠDou g
Ġcontact s
ĠRo oms
writ ers
ĠBoy z
Ġcandid acy
Ġmind s
Ġmind ed
Ġroll ed
Ġillust rate
ĠWat ers
Ġrow ing
ĠBul ge
Ġacad emics
ĠGre cian
eg ro
ĠSat ake
Ġelim inating
Ġdismiss al
Ġcouncil s
Ġcompr ise
Ġspect acular
Ġfolk lore
met ric
Ġcust omer
Ġcompar atively
ĠHart ley
Äĩ a
Ġvirt u
Ġdim inished
Ġec ological
Ġmic ros
Ġeth n
ĠDev on
ĠCre ation
ĠRel igious
Ġarc ade
Ġ177 5
ĠJac ques
Ġfictional ized
Ġinstruct or
ĠNap a
Ġfashion able
ĠSnow men
Ġcourts hip
Ġod ds
ĠGram mar
Ġrob ot
Ġvalley s
nest y
ĠTs ub
Ġpsych iat
Ġconvin ces
ĠPhoen ician
Ġbes ides
ĠQedar ite
Ġvac ant
Ġcarbon aria
ĠLev i
Ġbay on
ĠTig er
Ġsulf ur
Ġserial ized
Ġow l
Ġsam pled
ĠProm otion
Ġvul gar
Ġshark s
Ġalter ation
Ġmask s
Ġpossess ing
ĠEle ph
Ġwheel chair
Ġbom ber
Ġspr ings
ĠCass ius
ĠMes o
Ġbord ering
Ġgoddess es
ĠPow der
ĠDAG s
Ġanch or
Ġanch ored
Ġpref ers
ĠConc ert
Ġgray ish
Ġcoinc ided
Ġwel com
ĠSour ce
Ġoffs pring
ĠMagn olia
fe it
ĠTit us
Ġsket ches
Ġfacil itate
Ġsevent eenth
Ġstim ulated
ĠNat al
ĠBald win
Ġrecommend ation
Ġrecommend ations
ĠKle in
ĠVel Ã¡zquez
Ġfir ms
ĠHM AS
ĠHem isphere
ĠFut ure
ĠAndre a
ĠRab aul
ĠReb ellion
Ġguarant ee
Ġcompan ions
Ġcounterp art
Ġcasem ates
Ġconfron ted
Ġconfron ts
Ġsoph omore
Ġing red
Ġscream ing
Ġphylogen etic
ĠRegard ing
Ġzomb ie
Ġauton omy
ĠCS S
ĠCov enant
ĠTres coth
ĠBry ant
ĠLem on
ĠKr ishna
Ġrepet itive
Ġdrown ed
Ġpione ering
ĠLaur a
Ġsteal ing
Ġconven ient
ĠArchitect ure
Ġstall ion
quir y
ĠLegisl ature
Ġthorough ly
Ġswit ching
Ġdisappear ance
Ġdign ity
ĠGross man
ĠProdu cer
Ġmelod ram
Ġol ive
ĠGuang dong
Ġcurren ts
ĠMonten egro
Ġware house
ĠGoeb el
Ġpock et
ĠIsa ac
ĠMiddles ex
ĠVolunte er
ĠCruiser weight
ÅĦ ski
ĠPD R
ĠGry llotal
Ġexagger ated
Ġirrig ation
Ġtouc hed
ĠHew itt
Ġempl acements
Ġbacter ia
ĠCitiz ens
ĠSwan sea
ĠEnvironment al
ĠGameSp ot
Ġmaj ors
ĠUnf ortunately
Ġinvas ions
Ġmyc ologist
Ġagar ic
Ġprehist oric
Ġinexper ienced
ĠAber deen
ĠKut uzov
Ġintric ate
Ġconfisc ated
Ġpraet ervisa
Ġgalericul ata
Ġconced ed
Ġpist ols
ĠFol iot
ĠYoun ger
ĠOttom ans
Ġextrav ag
ĠMcDou gal
ĠBile Äĩa
ĠBever ly
ĠFass l
ĠMosc ow
Ġkinderg arten
ĠRicci ardo
ĠTAR DIS
ĠAmed eo
ĠCinc innati
ĠIUC N
ĠWint ory
ĠOkin awa
ĠBeeth oven
ĠAndromed ae
ĠMadagas car
ĠTrescoth ick
3 8
C d
R S
R U
S lam
a ig
b ane
c reen
d ick
f ri
g ic
g ain
g ement
g rove
l ace
l ake
m ire
o ing
p en
p ro
p ah
r ades
t le
t ail
u ction
u rot
v ana
Ġt ired
Ġt ipped
Ġt ertiary
he a
he e
Ġa ston
er un
Ġw rapped
Ġw rink
at ile
at ics
Ġc ass
Ġc oy
Ġc ros
Ġc ites
Ġc ivic
Ġf ret
Ġf urs
Ġf uck
Ġf aint
Ġf use
Ġf raction
Ġb ou
Ġb ells
Ġb enz
Ġb ugs
Ġin ability
Ġin herent
Ġp ub
Ġp orn
Ġp its
Ġp ipe
Ġto ys
ro z
ro vers
ic ious
Ġh ides
le z
ĠT rom
ĠT ab
ĠT ull
ĠT anz
ĠT yr
ĠA U
ĠA ret
ĠA chie
ĠS ippy
il ia
il iation
ĠC av
ĠC od
ĠC ool
ĠC aval
ĠC ensus
Ġl ined
Ġl unch
Ġl aser
om ach
am ine
Ġe cc
Ġn omen
ĠM iz
ĠM outh
ĠM urch
Ġwas h
ec hes
ly mouth
ĠB ag
ĠB amboo
ĠI bra
et ing
Ġg reet
Ġg ases
ir ty
ĠH as
ĠH eller
ĠH ilda
Ġst atic
Ġst ressed
Ġst omach
ĠP iano
ĠP lymouth
Ġbe que
Ġhe red
ĠR i
em aker
th ane
ĠD im
ĠD aw
ĠD ock
ĠD enn
ĠD hang
ĠD ictionary
ch a
ĠN d
ĠN an
ĠW izards
Ġat om
ĠL P
ĠL ic
ĠL og
ĠL oss
ĠL und
ĠL ulu
ĠL erner
ĠG M
ĠG ut
ĠJ ake
Ġan gl
est ial
00 0
av ier
ĠE lement
ĠE tymology
ĠO man
op us
Ġv eto
ill ion
Ġr ugged
Ġsu ed
ĠIn st
Ġse aw
ew rit
art et
ber ys
ab outs
ĠK ay
ĠK ip
ĠK ick
ĠK ai
ĠK aren
gh ai
Ġex its
pt ide
Ġpl ague
Ġpl aster
ess ing
ĠU day
Ġsh apes
ast on
our ning
rit ies
ell ular
ĠCh as
ĠCh aos
Ġun beat
cl osed
ĠV ig
ĠV iol
ĠV ocal
Ġcomp artment
Ġcomp elled
ure thane
ok rat
ie v
ran ces
Ġrec onc
ĠTh ous
ult imate
Ġsc utt
Ġsc ratch
iz able
Ġdis ruption
ĠAl aska
Ġover head
ib a
Ġman or
ace y
Ġout right
Ġen light
ang led
ĠUn ic
Ġne o
att y
ix ed
Ġrem atch
Ġear nings
Ġkn e
ubl ished
Ġnew born
Ġunder m
Ġfl int
Ġfl aws
Ġrel iable
ob l
ĠNew ton
Ġdef ines
Ġsub cont
Ġver bal
Ġra pper
Ġpe at
Ġpr ayer
Ġreg ain
Ġreg ulate
Ġinter chang
Ġqu otes
Ġspec ified
ĠRe ich
ĠRe ub
Ġind ication
Ġmon ks
ĠSh in
ĠSh ould
ĠSh annon
aj uku
Ġent renched
ĠSc hed
Ġsur geon
ĠAust rians
Ġep id
Ġloc ate
Ġtra uma
Ġno ct
ĠZ en
ĠZ ach
ĠZ omb
ĠZ heng
Ġexp ired
Ġdep ressed
Ġdep osition
Ġepis cop
ĠInd och
Ġrep atri
Ġcontin ually
Ġmill imetres
Ġsm ugg
ĠWar ning
ĠShe t
Ġpol ls
Ġob ey
Ġoper ative
Ġair play
Ġimp ressions
ĠSp ect
ĠSp eed
Ġdist ract
ĠCl imate
ĠAugust ine
ink e
Ġprov ision
ĠPl anning
Ġmod elled
ĠMe ad
ony ms
Ġgr ades
ys ÅĤaw
Ġ25 1
omet own
Ġmar ine
Ġmar ching
ĠYork er
Ġjust ified
Ġsl ot
Ġsl ipped
Ġworld s
Ġold s
Ġstar board
ĠBy way
Ġbest owed
Ġtyp ewrit
Ġterm inated
ĠOr n
ĠTe ams
ĠPr ism
ĠPr imet
Ġaddition ally
ĠAm or
ĠAm endment
ograph ics
ĠEd g
Ġ21 0
Ġ23 2
Ġdra ined
Ġconv entions
ĠRec lam
ĠRec overy
Ġpost ers
Ġel bow
Ġarr ay
Ġord nance
ĠEl vis
Ġcritic izing
Ġnight fall
Ġlim iting
sp oken
ground s
ĠIm mediately
ĠHigh ways
af e
Ġmount ing
Ġdecl ares
ĠEv an
Ġ31 9
Ġfather s
ĠFeder alist
ĠHar per
ĠHar ajuku
gr at
Ġrev is
Ġrev ision
Ġrev isions
Ġfig ur
Ġcoun sel
Ġbus y
Ġrock et
Ġcert ificate
Ġident ifying
Ġcolle ague
ĠMer cer
ĠAct s
Ġcycl ogenesis
Ġlet ting
oo ley
Ġimpro per
Ġz oo
Ġcoll ided
Ġprofess ors
Ġ35 8
Ġwall ed
Ġlaun ching
Ġinsp ir
Ġprob ability
ĠCommand ing
Ġreact ed
Ġdesp at
Ġfund ra
Ġ187 1
ĠQu ite
Ġclear ance
ĠHouse hold
Ġtransfer ring
Ġfr ight
ĠMac D
ĠGal entine
Ġviol ated
Ġdon ation
Ġpen ultimate
Ġpriv acy
ĠHero es
ĠHol mes
ĠVir gil
ĠTom as
Ġliter al
ĠTra vel
Ġtow ed
ĠPeter borough
ĠMil ton
Ġkil ograms
ĠNort heast
Ġscript ed
Ġexam ines
ĠRad ical
Ġunc onsc
ĠEver ett
Ġkeep s
Ġspeed s
ĠTre vor
ĠStorm s
Ġprem ature
Ġprem ises
ĠFore ver
Ġlif ting
Ġpersonal ities
ĠRose berys
Ġcollect ors
ĠSen eca
ĠGo ing
Ġsal ts
Ġrecover ing
Ġnucle oph
ĠIll ustrated
Ġ180 4
Ġ180 5
Ġ180 8
ĠConf uc
Ġple aded
ĠCivil ian
ĠKn oll
Ġhero ic
ĠCont rovers
Ġconstit ute
Ġprincip ally
ĠBet ter
ĠHistor ically
Ġrelief s
Ġ182 4
Ġ181 6
Ġ181 8
Ġdemonst rating
Ġprogress ing
ĠBol iv
ĠPen elope
Ġpaper back
Ġdepart ments
ĠCap illa
ĠMat ilda
Ġnarr ated
ĠUl m
Ġspl its
ĠFar rell
ĠCommun ications
ĠAv iv
Ġroyal ty
ĠBh d
edd ed
Ġ179 6
Ġhun ted
Ġadj usted
gn ine
omy c
Ġgrass land
ĠFre eman
de acon
Ġproblem atic
ĠDom estic
Ġcampus es
Ġdefin itive
Ġvirt ual
ĠSummer Slam
roph ic
ĠCle m
ĠRel igion
ĠDomin ion
Ġexplos ives
Ġmig rate
Ġmig rants
Ġtrou bled
ĠBor is
ĠBor gnine
Ġdoor way
Ġsle nder
Ġ175 9
Ġselect ive
Ġstore y
Ġglass es
ĠCop per
ĠML s
ĠÎ ²
ĠÎ ¼
Ġresour ce
Ġcong ress
ĠBrook lyn
ĠDi ocese
ĠEc ology
Ġcriminal s
Ġnob ility
ĠTrib ble
Ġconvers ations
ĠMongol ia
Ġimpl ied
Ġproport ions
Ġrecru its
Ġau ction
Ġdens ely
ĠTon ight
ĠPass ion
Ġille g
ĠStra x
Ġpoll ution
ĠMack inac
ĠBron x
ĠBah Ã¡
Ġobl igation
Ġinstall ations
Ġoutl aw
Ġpossess es
Ġlie utenant
ĠRest aur
ĠMother well
ĠLamb ton
Ġquant um
Ġprompt ly
Ġrender ing
ĠBorn eo
ĠRu fus
Ġninet een
Ġexplo its
Ġsucceed s
aks in
Ġflash back
Ġrot ating
ĠBeh av
ĠReturn ing
Ġsatisf y
bre aker
Ġfro zen
Ġinsurg ency
Ġforth coming
Ġperp etr
ĠOfficial s
hous es
Ġenroll ment
Ġintercept ions
Ġlegit im
Ġadvertis ement
Ġsemif inal
ĠKle ine
ĠHonor ary
ĠSter e
Ġgor illa
Ġfru its
ĠKid urong
Ġreag ent
Ġguarant eed
Ġcease fire
Ġhomosexual ity
Ġvolcan o
ĠSupport ing
ĠStat istics
Ġunre leased
ĠLegend s
ĠPrincip e
ĠPrincip al
Ġurg ing
Ġgentle man
ĠKer ry
Ġmerc ury
Ġmit ochond
ĠShan ghai
ĠAw akening
Ġinteg ration
Ġdisgu ised
Ġprest igious
ĠSaf ety
Ġgren ades
Ġstair case
ĠUk raine
ĠPrim ary
Ġincred ible
Ġmistaken ly
Ġcorpor ate
Ġrept iles
ĠAlph a
Ġben ch
Ġillum inated
iÃ¨ re
Ġcel estial
Ġcub ic
apter iscus
Ġflaw ed
ĠAndr Ã©
Ġbarb ettes
ĠPrepar ations
ĠTemnospondyl i
Ġthunderst orms
Ġalgor ithm
Ġannex ed
Ġambig uous
Ġmammal ian
Ġspor adic
Ġinterf ere
Ġconcur ren
Ġunders ide
Ġcany on
Ġmidfield er
Ġsel dom
ĠAval on
Ġdiscrim ination
Ġembry os
igraph y
ĠHast ings
ĠRaph ael
ĠCamer on
ĠSylv ia
Ġnons ense
ĠBore as
Ġarcher y
Ġsupervis or
Ġshar ply
Ġspokes man
Ġadorn ed
Ġrook ie
Ġartifact s
ĠFranÃ§ ois
Ġlambe osaur
Ġcourty ard
ĠUps ilon
ĠFrankf urt
roloph us
Ġinvertebr ates
Ġlibr aries
ĠResc ue
opot am
Ġbohem ica
ĠVeerasha iva
Ġinadequ ate
Ġpam ph
ĠMys ore
ĠLano is
ĠPras ad
ĠEleph anta
ĠPowder finger
ĠAret usa
Ġecc ent
ĠIbra h
Ġunbeat en
Ġreconc ile
ĠIndoch ina
ĠPrimet ime
ĠReclam ation
1 7
2 3
5 0
B E
C onn
D T
c ad
c ans
c hel
g ge
k ok
n am
o ire
o ise
p in
p ersed
p ieces
t ze
u i
u ro
u ke
u arius
v ogns
w ig
w alk
y ang
y uan
§ ÙĦ
á ¸
Ġ iod
Ġt ab
Ġt ear
Ġt ren
Ġt ents
in ite
er ation
Ġs pp
Ġs que
Ġw ishing
it ul
Ġc is
Ġc aut
Ġf ran
Ġf ile
Ġf ool
Ġf used
es a
es ome
is se
is ure
is aurus
Ġb red
Ġin cend
Ġin acc
al er
al an
Ġp ic
Ġp av
Ġp ond
as ies
as ures
ro be
ic i
ic he
Ġm as
Ġm arsh
Ġm asts
Ġm ourning
Ġd re
Ġd an
Ġh aw
Ġh ometown
ĠT B
ĠT att
ĠT ondo
ĠA K
ĠA V
ĠA aron
ĠS A
ĠS K
ĠS ue
ĠS ales
ĠS aff
ĠS oph
ĠS ker
ĠS dn
Ġth umb
st ad
st ep
ĠC el
ĠC ode
ĠC ope
ĠC ena
ĠC arson
Ġl ing
Ġl one
Ġl ords
Ġl ady
el bach
Ġe S
Ġe ternal
Ġn ec
Ġn em
ad os
ĠM s
ĠM ental
Ġwas ps
ĠThe a
ĠB L
ĠB ury
ĠB ram
ĠB ole
et e
ol ine
Ġg rie
id able
id ating
iv o
iv ism
ir is
ig ators
ig ouche
ot ive
ĠH ass
ĠH ence
ĠH ustler
Ġst ow
Ġst un
Ġst rang
Ġst icks
Ġst unning
Ġst ucco
ĠP s
ĠP on
ĠP ack
ĠP iet
ĠR are
em nity
th al
ĠD uck
ĠF ew
ĠF alk
ĠF oul
ĠF CC
ul ent
ul atory
ch i
Ġcon ical
Ġcon jo
ĠN J
ĠN ord
ĠN ike
ĠW end
ĠW adi
ra il
Ġat ions
ĠL ac
ĠL ib
ĠL one
ĠL ans
ĠL ines
ĠL oyal
ĠL SU
os hi
os auro
ĠG am
ĠG ama
ĠG aza
Ġan om
est y
ag ar
od us
ĠO gh
ĠO uter
ĠO roz
Ġpro w
Ġv iz
Ġv enge
Ġde pr
Ġde leted
Ġr iv
Ġr ats
Ġr iders
Ġr isen
ĠIn ver
ĠIn ocy
all us
ard on
ant he
oc ide
ab i
ab olic
ĠK ress
ĠK amp
ĠK ids
ĠK urst
Ġch ant
pt ions
Ġpl ains
ĠU nd
ack ing
Ġare n
ast ically
ov E
ov ich
Ġsp y
Ġsp are
Ġsp ines
Ġsp anned
Ġsp iders
ord a
Ġun in
Ġun ac
ĠV it
ĠV ing
ĠV ision
ĠV atic
Ġbut ter
Ġbut terfly
Ġcont ention
Ġwhe els
hed on
ass es
Ġcl an
Ġres ent
Ġres isted
Ġab bre
Ġher ald
Ġro s
Ġrec all
ĠTh arp
ĠTh aksin
pl ess
Ġdis gr
Ġdis inte
ĠAl ien
act ions
over leaf
Ġman power
Ġatt aining
ĠY ing
urn al
ress ing
Ġup wards
Ġev angel
ren adier
port ed
Ġne ared
iss a
rib ing
Ġrem embers
ep e
ep ec
form ula
Ġthem atic
Ġkn ot
ĠSe lect
ĠMar co
ĠCom ment
Ġunder cover
Ġfl ocks
Ġend ured
Ġpr one
Ġreg ret
Ġreg ulated
Ġinter rog
Ġinter mitt
Ġam ber
Ġam ph
ĠRe ala
Ġsupp ressed
Ġmon key
ĠSh am
io ch
ĠSc apa
ĠSc ratch
Ġtra vers
ird elbach
Ġpres idency
ise vogns
Ġtrans itive
Ġexp osing
Ġexp enses
Ġdep rec
az ed
Ġmet eorological
Ġmill ennium
Ġshow c
au h
ah ar
ĠMay s
Ġdown s
Ġdown ward
Ġbel oved
Ġinf ections
ĠWh ilst
ĠBr id
Ġdisc ern
Ġdisc retion
ĠSp ector
ĠSp isevogns
Ġins ight
Ġprev ailed
ĠBl of
erv ille
ĠCol er
ĠCol legiate
Ġgener ators
Ġ13 2
ĠMan ning
ĠMan ufact
ĠMan heim
ĠPl ain
ĠPl iny
Ġcount s
Ġfam ine
ĠDe Grom
Ġconc essions
Ġconc olor
Ġmod ifications
ke ley
Ġ14 6
Ġgun boats
Ġprom ises
ax ton
ĠNov el
ĠEu rog
Ġcare ful
Ġline up
Ġdet ection
Ġsl abs
Ġappro ve
Ġcommand os
Ġvis ibility
Ġexpl ores
Ġexpl orers
Ġwater fall
ves ter
Ġbest s
Ġhum our
Ġhum ili
Ġcapt ures
Ġbas ins
Ġmid st
Ġant is
Ġant imon
sh ot
Ġcr aters
Ġ21 5
Ġtot als
Ġdra gon
Ġconv ince
ĠTr unk
ĠX X
Ġ22 1
Ġdifferent iation
Ġelect oral
ĠAccording ly
Ġmag ist
Ġpat ches
ĠPark way
ĠAss ault
ĠBar rett
Ġinflu x
Ġobs ession
Ġshould ers
Ġbar ges
ĠNe ed
field s
Ġadm ission
Ġadm iration
ĠGl orious
Ġcas uarius
Ġfun nel
com ings
ĠTo irdelbach
ĠMon ster
ĠMon uments
Ġpeak s
Ġfav ourable
mar ine
Ġcoun cill
Ġval ued
Ġconn ector
Ġborn e
oph ys
Ġmother s
Ġsex y
Ġren ted
ĠIndian apolis
ĠBo hem
Ġmot ivation
ĠSl av
ĠBer keley
ĠPaul a
head ed
Ġflood plain
Ġhy men
Ġve il
ih an
Ġcost ing
Ġemb odied
Ġbi ographical
Ġbi ographies
Ġmer cy
Ġhom age
Ġdiss ol
Ġdiss atis
urt i
ĠMac l
Ġobject ed
ĠTor o
ĠRepublic ans
ĠOs aka
ĠOs iris
ĠQue bec
Ġpen alties
ĠOp Ã©ra
ĠTom orrow
Ġ38 0
áĥ Ķ
ĠHel p
Ġaccording ly
ĠMil itia
Ġdeal ers
raw l
Ġstaff ed
Ġ184 5
Ġsem ic
Ġfrequ ented
ĠInter ior
Ġund ivided
ĠBen adir
ĠTre asure
Ġconsider ation
Ġbroadcast ing
ĠDem okrat
Ġcommission ers
Ġcasual ty
ĠHaw ks
Ġreach ability
ĠDist inguished
ĠBu ild
ĠBu ilt
Ġbad ge
ĠHu izong
Ġ42 0
ĠTw elve
ĠTw itter
ĠBob c
ĠScot ia
Ġdyn am
Ġdyn amics
Ġsev enty
Ġ180 3
ĠGroup s
Ġ51 6
Ġtransl ate
Ġplant ation
ĠLo han
ĠKn own
Ġthr ust
Ġprec ision
ĠRev ival
Ġbridge head
Ġir rit
oura ged
Ġinteract ive
Ã¼ n
ĠEs c
ĠLouis ville
Ġreign ing
ĠNaz is
Ġexhib itions
Ġ182 9
Ġ181 0
Ġ181 3
cy cl
acher s
Ġresc ues
Ġhol idays
ĠMass ive
ĠGar rett
Ġnarrow er
ĠDirect ors
ĠRo ch
ux e
Ġyour self
Ġappeal ing
Ġ179 5
Ġadj o
Ġimag ine
Ġflank ing
Ġchief ly
Ġtim ed
ĠRet aliation
ĠDen is
eg rift
Ã¨ me
Ġmort ality
ĠIron cl
Ġge ological
Ġresemb led
Ġfung al
ĠBas il
upp ly
ĠRy der
ĠHart ford
Ġmist ress
Ġminer al
Ġdim ensions
Ġfur ious
Ġisol ation
ĠAdv ance
ĠDown town
ĠDod ge
Ġprefer ring
ym ph
Ġstret ching
ĠMir i
Ġexpress way
ĠConst ruct
ĠPers ians
Ġstrateg ically
Ġrebu ild
ĠHan over
Ġdisturb ing
ĠCub an
Å¡ ka
Ġcho osing
Ġign ore
ĠJain ism
ĠCorn er
Ġvic ious
ĠHun ters
Ġbal anced
agu a
ĠMah ar
zz i
Ġble eding
ĠDi arma
Ġdoct rines
ĠAbb ot
Ġacknow ledge
Ġ06 00
ĠAnc ients
ĠJun o
ĠStef an
Ġabsor ption
ĠMozamb ican
Ġdiplom at
ĠBang kok
Ġcatch y
ĠRom antic
Ġconsum ing
Ġgrav itational
Ġchronic le
Ġsight ings
Ġcry stal
Ġemerg ence
Ġburial s
Ġsubst rate
Ġsubst rates
Ġsimultane ous
Ġmunicipal ities
Ġnom inal
ĠRest igouche
fl ies
Ġ166 0
Ġinnov ations
ĠMes opotam
Ġwrest led
Ġprosp ects
Ġprosp ective
ĠTal ent
ĠPier ce
Ġrefere ndum
ĠHans en
ĠGro ening
ĠSle ep
Ġdisagre ement
Ġtrust ees
ĠVand egrift
ĠMagdal ene
Ġsimpl icity
erg renadier
enz ie
Ġwreck ed
ĠDub ai
ĠKu j
Ġovert urn
Ġrede velop
Ġrede veloped
ĠAle c
ĠSay id
Ġceratops ian
ĠExper ience
Ġpull ing
ĠImm ortal
Ġprofession als
ĠPanz ergrenadier
Ġenzy me
Ġceleb rities
Ġsalv ation
ĠKau ai
Ġexclud ing
Ġexecut ing
Ġprefect ures
ĠAud io
ĠHoll is
Ġdistrib utor
ĠAndre as
ĠShip building
Ġmorph ology
ĠPra irie
ĠLiter ature
ĠBoog ie
Ġclar ified
ĠZr inski
ĠBeau f
Ġcasem ate
Ġicon ography
Ġforb idden
Ġcontradict ory
ĠOb ama
Ġauton omous
Ġcens orship
Ġnic he
Ġdrift ing
ĠProp ag
ĠJohann es
Ġmisc onduct
ĠYang tze
Ġprest ige
Ġhung ry
Ġresur rect
ĠForb idden
erp eton
ĠBod Ã¸
Ġpier cing
ĠCann es
ĠEmer g
Ġoverth row
ĠAnim als
Ġreluct ant
ĠØ §ÙĦ
Ġimprov ised
Ġcra zy
ĠAborig inal
Ġprosper ity
icy cle
Ġmillimet re
ĠAmylostere um
Ġfurn iture
ĠFa ust
Ġmedic ine
Ġmasc ul
ĠPt ole
ĠKend all
Ġtheolog ians
ĠKarn ataka
ĠPruss ian
ĠScleroderm atine
Ġtran se
Ġma at
Ġrevel ation
Ġvow el
Ġunemploy ment
Ġretros pective
Ġposthum ously
ĠIncre asing
ĠEthiop ia
ĠFO CA
ĠNig el
ĠAlam os
ĠMcA ll
Ġgalax y
ĠPerm ian
Ġsprit es
Ġineff ective
ĠAmp s
ĠPeng u
ĠDangerous ly
Ġstoryt elling
ĠEls ewhere
ĠSoft ware
ĠVenez uela
ĠLangu age
ĠVenge ur
Ġsus cept
Ġpes os
ĠMoff at
ĠNail z
Ġrestruct uring
ĠByzant ine
ĠFloren ce
Ġelong ated
Ġreclass ified
ĠCasc ade
ĠHabit at
ĠWuz hu
ĠLyr ically
ĠGust av
resist ible
ĠStrat ford
Ġoversh adow
Ġunderg one
Ġwelcom ed
Ġcros so
ĠReub ens
Ġeccent ric
Ġtren ches
itul ovE
Ġincend iary
Ġinacc ur
ĠOroz co
ĠKurst in
ĠSpisevogns elsk
ĠBlof eld
ĠEurog amer
ĠDemokrat en
ĠDiarma it
ĠSclerodermatine ae
G O
M P
a um
b age
c asters
e veloped
f leet
h ope
k az
l ord
m m
m atic
p ing
p ared
p unct
r ators
s ka
s Ã¸
s lides
t ropical
u ana
Å Ļ
Î ¿
Ñ Ģ
Ġ ^
ħ n
Ġt ens
Ġt rop
Ġt ann
Ġa z
Ġa ide
Ġa kin
Ġa esthetic
in ers
er man
on ing
on ts
Ġw ise
at ial
or g
or um
it ations
it ement
it ative
Ġc oc
Ġc ared
Ġc rab
Ġf ittings
Ġf onts
ar atus
ar agua
Ġb er
Ġb ind
Ġb ail
Ġin ject
Ġp our
Ġp ie
Ġp enc
Ġp add
Ġp umping
ic on
Ġm unicipality
Ġd ot
Ġd uel
Ġh aven
ĠT aj
ĠT ale
ĠT eng
ĠT yn
ĠT rot
ĠT oso
ĠT epe
Ġre used
Ġre ef
ĠS v
ĠS ou
ĠS ig
ĠS ime
ĠS pl
ĠS tern
ĠS ude
ĠS ihan
il ic
il ib
st ed
ĠC and
ĠC ould
ĠC ake
ĠC ock
ĠC roy
ĠC yn
ĠC oul
ĠC aught
ĠC ushing
ĠC ele
ĠC unning
Ġl es
Ġl ent
Ġl ocks
Ġl ux
Ġl ighthouse
el iness
om orph
Ġn il
ad u
ad ysÅĤaw
ac cess
ĠM am
ĠM ap
ĠM ouse
ĠM ama
ĠM echan
ĠM AC
ĠB j
ĠB av
ĠB ub
ĠB oad
ĠB read
ĠB irth
ĠB iblical
ol t
Ġg low
id ered
im ir
im ated
ig y
ter ial
ot ations
ĠH ut
ĠH ul
ĠH ue
ut ory
ut ors
Ġst aples
ĠP i
ĠP ug
ĠP sych
ĠP HP
Ġhe x
Ġhe aling
ĠR N
ĠR ot
ĠR att
ĠR ising
em as
ĠD ol
ĠD ame
ĠD irt
ĠD rake
ĠF i
ĠF arr
ul us
ul ative
Ġwh olly
Ġal igned
Ġal iens
Ġcon formation
ĠN T
ĠN uclear
ĠW A
ĠW ak
ĠW RU
ĠW hedon
ĠL od
ĠL az
ĠL ope
ĠL oud
ĠL amar
ĠL iga
ĠG ins
ĠG amb
ĠG aul
ĠG ospel
ĠG PU
ĠJ et
ĠJ ian
ĠJ ov
ĠJ ains
um as
um ann
ain an
ri ke
ĠE MI
ĠO ce
ĠO range
ĠO ahu
Ġcom rades
op al
Ġv iable
ĠIn ternal
ak h
ich y
art an
ant ically
Ġor phan
ĠK l
ĠK ow
ĠK art
Ġch ased
Ġch ords
Ġch asing
Ġex commun
pt ive
ear y
Ġsh attered
ĠSt up
ĠSt oke
Ġsp ru
Ġsp ike
Ġsp arse
Ġle ve
ell ations
ell ery
Ġun ions
Ġun ified
Ġun lock
Ġun official
cl ub
ĠV esp
ĠV asco
ĠV Äĥ
ĠV ichy
Ġint entional
Ġcomp are
Ġcomp ose
Ġcomp atible
ff man
Ġcl ients
ok ho
ub ile
ĠHe at
ĠHe ather
ĠHe ads
ie u
Ġres upply
end ra
Ġad he
Ġper cept
iz arre
Ġdis hes
Ġj ar
Ġj ihad
are ll
Ġdes k
act ical
Ġyear ly
ens ahl
ik ing
ik opter
Ġatt ested
Ġim aging
ĠY uc
Ġout g
ey er
Ġpre view
Ġpre occup
ren s
int us
Ġwe aker
ĠAn s
Ġshe er
Ġcent red
Ġpo res
Ġear nest
ath ing
Ġcons ume
aus ible
Ġdec omp
ĠMar se
ĠMar ina
ĠCom ic
ĠAr ctic
Ġtr igger
Ġfl uct
Ġcan vas
Ġme al
ĠEn s
ĠEn ix
ĠNew market
Ġchar m
Ġsub order
Ġsub gen
Ġform idable
Ġqu e
Ġqu ote
Ġco hes
Ġspec k
Ġinc ap
Ġam ended
Ġam ids
ĠLe Ch
ĠRe leased
Ġind ec
Ġind ul
Ġind emnity
ning ton
ĠSh ir
ĠSh ore
Ġent rep
ĠJo ey
Ġdo le
Ġno itulovE
Ġinv ites
ĠZ ion
ĠZ inc
ĠZ yg
Ġem inent
Ġwell s
yl er
yl ation
Ġtrans plant
Ġexp ose
Ġ16 00
Ġdep leted
ann i
row th
iet t
Ġ11 00
Ġest e
Ġgo alt
Ġsm ell
ĠMay n
Ġdown ed
Ġhist ories
Ġwar ming
Ġoper atic
ĠCon tr
ĠBr is
ĠBr ing
Ġimp erson
Ġimp ending
Ġrun off
ĠIs s
Ġland own
Ġinst ability
Ġinst antly
Ġresp ects
ĠSp in
ĠSp ot
Ġins ane
ĠCl an
ĠCl aude
Ġprev ents
Ġany body
ĠBl aine
ĠBl uffs
ĠGerman ia
erv ois
Ġprov oke
Ġprov isional
ĠCar rie
ĠCar lo
Ġgovern ess
Ġgovern ance
ĠMan it
Ġfinal ist
Ġele gans
ĠSouth west
ĠMe asure
ĠPro per
Ġgr un
ĠQ ing
Ġstate hood
ys s
Ġclass ics
Ġclass ify
Ġrest ed
Ġrest oring
Ġcare taker
Ġbuild er
Ġserv ant
Ġref it
Ġref use
Ġconf using
Ġmar rying
Ġtri ang
Ġtri angular
Ġjust ify
ham pton
Ġsl aughter
Ġshort est
Ġshort comings
ĠPar as
Ġpar achute
ĠNo el
Ġbo ards
ĠSte ff
ĠSte ele
Ġoriginal s
Ġopp ose
ĠComp os
Ġleg ally
Ġlocal ized
gy an
Ġview points
ĠBro ken
Ġant ic
ĠChar ity
Ġeast wards
ĠEd mon
Ġtown ships
Ġcr ush
Ġdel ivers
Ġdel aying
enc ia
Ġdra ught
Ġcur ves
Ġreal m
Ġspe eches
ĠPer u
ĠPer cy
Ġdifferent iated
Ġprop ulsion
Ġfre estyle
ĠSu f
Ġer ect
sequ ent
Ġequ ilib
Ġ28 5
Ã¡ s
Ġaff irm
Ġpopular ised
Ġnight club
aun t
aun ch
aff o
aff ected
ĠSim ultane
ĠSim mons
Ġread ings
Ġdiv in
Ġbar ge
Ġbar row
ĠScient ific
Ġgl ory
oll o
Ġste amed
ĠEv olution
Ġ31 0
Ġfun n
Ġsett ling
Ġcampaign ing
Ġ40 2
ĠSw ift
rict ion
ĠHam pton
Ġspecial ised
Ġround about
Ġassoci ates
unk er
Ġvol untary
Ġaver ages
ĠPres byter
Ġanim ations
oph on
Ġfort unes
Ġsex punct
ĠEm manuel
Ġcor onation
Ġaccept s
stit utes
Ġexc itement
ĠBer ry
ĠJew els
Ġemploy s
Ġcreat ors
ĠPre viously
Ġcost ly
Ġcell o
ĠMy ers
Ġreact ivity
ĠAc re
Ġwood ed
Ġwood lands
Ġpract ically
for ward
Ġpers ecution
Ġpers pectives
ĠKh mer
opp osed
Ġsyn onymous
Ġbreak through
Ġblock ing
ĠPresident ial
ĠMet al
ĠMet eor
ĠVir t
Ġeconom ically
Ġquarter f
Ġgrad ual
áĥ ¡
áĥ ł
Ġden oting
ĠTra ffic
ĠHel ena
ĠHel ikopter
ĠPat ric
ĠWhe el
Ġdivision al
Ġimm une
Ġ184 1
Ġinn oc
Ġhapp iness
Ġche er
Ġjourn als
Ġsem ia
Ġuns uit
ĠAnt rop
ĠAnt ioch
Ġund eveloped
ĠBen o
Ġlo ops
Ġdi able
Ġdi agram
Ġthick er
ĠSam oa
Ġattract ions
ĠWood stock
Ġkilomet re
Ġabandon ing
ĠRA N
Ġacqu aint
ĠAtt empt
ĠSal a
Ġconver ting
ĠDo ct
Ġstrength s
ĠNic aragua
Ġmurder ing
orpor ated
Ġpil grim
Ġfeder ation
Ġlands c
ĠCrit icism
Ġhusband man
ĠBurn side
ĠLand mark
Ġcontrast s
ĠJul es
ij a
Ġ182 8
Ġmel odies
ĠFer rell
Ġaltern ating
ĠChe roke
Ġmem oir
Ġpal aces
Ġtypes et
Ġsn akes
ĠBall iett
Ġcontain ers
Ġattend ant
Ġtim eline
Ġhors emen
ĠPublic ation
Ġ95 0
ĠRos em
Ã¨ te
Ġspect ral
ĠEll ison
Ġconsp icuous
Ġaccompan iment
Ġunf avor
Ġdescend ant
ĠJeff erson
Ġdefin ite
Ġreform ed
ato ire
lys is
ĠJud a
Ġfat ig
ĠDomin ic
ĠRon nie
Ġmig rated
Ġ164 6
Ġfashion ed
ĠAer osm
Ġselect ions
Ġyouth s
ĠYe ah
Ġspons ors
ĠVol ume
ĠFire c
ĠRun ning
Ġtal ents
Ġjack et
Ġmotor ists
Ġmotor cy
ĠTam ura
Ġ176 6
Ġworth y
ĠBat ou
Ġshore line
Ġthin ly
Ġastron omer
Ġoutf its
Ġble w
ĠAld ington
anth rop
Ġnob ody
Ġgall eries
worth y
Ġpyram ids
Ġconsum er
Ġloan ed
Ġprohib ition
à¤ ¾
Ġsight ed
ĠLabor intus
á» ħn
Ġliber ation
ĠEvery thing
Ġconsol idation
Ġ122 4
Ġib otenic
ĠBah rain
Ġspaces hip
Ġbulk head
ĠNL F
Ġcheck ed
ĠBudd h
ĠMcG u
ĠEp is
Ġphr ases
Ġrib s
Ġnom adic
ĠEle ments
Ġconsc ientious
ĠMcD erm
Ġdiver t
Ġreprodu ctive
ĠShel ton
Ġalt itude
ĠNob ody
ĠSid ney
ĠTan j
ĠTan aka
ĠCO s
Ġerr one
Ġerr atic
Ġsucceed ing
Ġfasc ist
Ġped al
ĠFle m
Ġantiqu ities
ĠCirc uit
Ġencl osure
ĠStal in
ĠAut umn
ĠInvest igation
Ġcyt ogen
Ġsupern ova
Ġnurs ing
Ġpion eer
Ġveter ans
grad ation
Ġchest nut
Ġaffili ate
Ġsubsid ies
ĠSau nders
ĠNu eces
ĠOw asco
Ġcler k
Ġacceler ate
Ġpron unciation
Ġsew er
Ġexport ed
Ġconvey ed
ĠTow ers
ĠSter ling
Ġjew ellery
Ġgor ge
ĠMitchell s
bro ok
ĠTak umi
Ġconce aled
ĠBour bon
Ġovers aw
ĠReb ecca
Ġmurd ers
Ġboot s
Ġpp g
ĠWorth ing
Ġdenomin ations
ĠMond lane
iph any
Ġuncom mon
ĠÄ Ĳ
Ġá Ģ
ĠVerm ont
Ġterr aces
Ġaerodrom e
Ġrepet ition
Ġà ¹
Ġinteg ral
Ġdisgu ise
Ġoct agonal
Ġmicroscop y
ĠGabri elle
Ġclad ogram
Ġrecapt ured
Ġincred ibly
Ġsear ched
Ġswit ched
ĠFinn ish
Ġperf ection
ĠAx is
ĠKod okan
ĠWolver hampton
Ġaccord ance
ĠKw ik
Ġunanim ous
Ġsynd rome
Ġecosystem s
Ġoutpost s
ĠHubbard ton
ĠâĻ ¯
Ġepox idation
Ġmarg inal
ĠHospitall ers
Ġgrap es
ĠGle ason
Ġupgr ade
Ġhemm ema
Ġtherm al
ĠCit ra
ĠMott ola
oselect ive
ĠBattles hip
ĠKaram okho
ĠLA X
ĠEff ects
ĠExam ples
Ġderiv atives
Ġreinst ated
Ġridicul ous
ĠLambert ville
ĠArbeider en
Ġtheoret ical
Ġbunk ers
ĠBorder ers
ĠRit ual
ĠAntar ctic
Ġdestruct ive
Ġpunct uation
Ġprosecut or
ĠMalt a
Ġgest ure
ĠRP G
Ġris ks
ĠKou fax
Ġeucaly pts
ĠKaly anas
Ġparatro opers
ĠAgust ÃŃn
ĠChall enge
ĠStephan ie
ĠCasual ties
Ġinherit ance
Ġcurric ulum
Ġfa Ã§
Ġmosa ic
Ġdat abase
ĠNguy á»ħn
Ġproph Ã¨te
Ġconvinc ing
ĠContin uing
ĠConserv atoire
Ġgle ba
ĠPars ons
ĠRena issance
ĠWied ensahl
ĠLact arius
ĠBritt any
Ġmisunderst ood
ĠGiac omo
ĠKristians and
Ġsabot age
Ġect omy
Ġgh ats
ĠWern eth
ĠWÅĤ adysÅĤaw
Ġruth less
ĠKant ara
Ġunchang ed
Ġarsen ic
ĠCarbon iferous
Ġingred ients
ĠTrom sÃ¸
ĠAchie vement
Ġkne eling
Ġsubcont inent
ĠShet land
ĠMacD onald
Ġunconsc ious
ĠCopper field
Ġconcurren cy
ĠTB SA
Ġconjo ined
ĠInocy be
Ġabbre v
ĠMesopotam ia
ĠEmerg ency
ĠMcAll ister
Ġsuscept ible
ĠSihan ouk
ĠCroy don
access ible
ĠBoad icea
ĠLope z
ĠGins berg
ĠYuc at
Ġamids hips
ĠLeCh uck
Ġgoalt ender
ĠEdmon ton
Ġsexpunct atus
ĠAerosm ith
4 1
9 1
C T
G S
P ro
S b
b ul
b ore
b ank
c ular
d i
e ers
f rey
g ling
h in
h ore
h ower
h inke
i w
k ward
k ick
m ic
m ills
n ia
o gh
q q
r n
r v
r ust
r ach
r ade
r era
v ik
v arez
w ith
É ª
Ï ģ
Ñ Ĥ
Ø §
ä ¸
Ġ urn
Ġt i
Ġt empt
Ġt yph
Ġt apes
Ġa is
in ata
on nell
ed ience
Ġw ed
Ġo res
nd le
at itude
or ate
or ously
it he
it ory
it ans
Ġc ob
Ġc ute
Ġc yn
Ġc ogn
Ġc eded
Ġf ri
Ġf rog
Ġf illing
Ġf ooth
an ed
Ġb ru
Ġb iting
Ġb urg
Ġb idding
Ġin und
al ogue
Ġp aus
Ġp anned
Ġp ector
Ġto ile
Ġto pping
ro le
ic emen
Ġm oth
Ġd ip
Ġd ots
Ġh ated
Ġh oly
le wine
ĠT i
ĠT ate
ĠT ade
Ġre venues
ĠA th
ĠA ure
ĠA ware
ĠA very
ĠS ave
ĠS uc
ĠS yl
ĠS Ã©
ĠS abor
ĠS isters
ĠS aga
ĠS aints
il io
ent iful
Ġth ief
ĠC ros
ĠC raw
ĠC rescent
ĠC inqu
Ġl ign
Ġl ub
Ġl amp
Ġl az
Ġl ips
Ġl overs
el ed
el ic
am is
Ġe ch
Ġe ject
Ġe tymology
ĠM M
ĠM T
ĠM ater
ĠM ered
ĠM ek
ĠM ask
ĠThe l
ec uted
ĠB ent
ĠB ak
ĠB ant
ĠB ai
ĠB eller
ĠI roqu
et us
et erm
ol on
ol us
Ġg ut
Ġg um
Ġg ust
Ġg rip
Ġg ifts
id t
ig ma
ig wy
ter ranean
Ġas hes
ut able
Ġst ole
Ġst elae
ĠP R
ĠP un
ĠP os
ĠP ied
ĠP esc
ĠP uck
ĠP lease
ĠP oven
ĠP unch
ver age
Ġbe er
Ġwith stand
Ġhe ights
ĠR id
ĠR ice
ĠR ood
ĠR ever
ĠR az
ĠR oses
ĠR ao
ĠR UC
em ani
th i
ĠD and
ĠD ate
ĠD iet
ĠD igg
ĠF ate
ĠF ford
ĠF irth
ĠF anning
ĠF iji
ul ary
ul led
ch and
Ġal erted
Ġcon iferous
Ġcon gestion
ĠN x
ĠN y
ĠN ed
ĠN ant
ĠN ab
ĠN ost
ĠN ass
ĠN SB
ĠL om
ĠL ook
ĠG raph
ĠG onna
ĠG iger
ĠG amer
ĠJ ump
her s
um er
um ing
ist ance
ist ice
ri uc
od as
od ons
ĠE rie
ĠE asy
ĠE state
ĠO u
ĠO sh
ĠO ka
Ġv ain
Ġv andal
ĠIn clud
ĠIn stitution
ew ater
ant on
ud y
oc hemistry
ab ro
ab lish
ĠK he
ĠK ed
ĠK av
ĠK ru
ĠK ree
ĠK uch
ĠK ash
ĠK rypton
ĠK ramer
Ġch amp
Ġch ick
Ġch iral
qu er
Ġpl ots
Ġpl enty
Ġpl entiful
ĠU d
ĠU m
ack leton
Ġk el
ĠâĢ ³
ĠSt re
ĠSt ol
red ict
ov anni
ip le
ip se
Ġsp ok
Ġnot ified
Ġle nd
Ġle isure
ial s
ap arte
ell es
ĠCh ong
ĠCh asing
oun ge
Ġun av
Ġun opposed
ĠV in
ĠV ander
ĠV erne
Ġar ched
Ġcomp osing
Ġ20 3
ff en
Ġcl ash
Ġcl ips
ĠHe id
ater al
ran n
Ġro oted
ĠTh urs
du p
Ġsc rapping
ough ts
iz ard
Ġag on
Ġdis k
Ġdis ass
ĠAl leg
ĠAl icia
Ġapp re
Ġapp aratus
Ġpart ed
Ġover d
ound s
ik is
Ġatt achment
ĠY a
ĠY uk
ang es
Ġinto x
Ġev id
Ġev oked
Ġtime out
we ig
Ġcomm ended
Ġte a
Ġne ural
att i
Ġwork place
Ġrem inds
ath lon
ron ym
ick ed
ĠSe ph
ĠSe lected
ĠSe lection
ĠMar x
ĠMar qu
ĠMar vin
Ġtr im
Ġfl ock
ob e
olog ic
ve z
orn s
ĠEn ri
Ġver b
Ġra ft
Ġsome how
Ġco ached
Ġam ass
ĠLe gal
ank ar
Ġsupp ression
ific ent
ĠSh and
ĠSh ang
ĠSh ao
ĠSh ackleton
ars ity
ĠSc ribe
ĠSc outing
Ġsur real
Ġtra iling
Ġsever ed
Ġinv ade
Ġpres erving
Ġback ward
Ġexp end
Ġsing ular
iet al
elf are
Ġshow case
Ġmin ig
une i
ĠWar riors
Ġcar ic
Ġwar ns
ĠCon cept
ĠCon cer
ĠCon versely
Ġinf at
ĠWh ig
Ġmat ched
Ġimp osing
ĠSp ur
ĠSp encer
yp es
Ġprev ention
ĠCol ton
Ġgener ous
ĠCar ly
Ġsupport ive
cept able
Ġadv isers
Ġbr ide
Ġwin ters
ĠMe h
ĠMe galiths
ged y
Ġstr um
Ġ14 2
ĠPro to
ax ill
ĠQ ual
Ġrest s
Ġrest ing
Ġline back
Ġnow here
ĠCan cer
esp erson
Ġref ined
Ġsl ots
Ġappro x
Ġ... .
ger ia
ĠGe ological
Ġperiod ic
Ġwater line
Ġlist ings
Ġlist ened
ves en
ĠFrench men
Ġsent encing
Ġwind sh
Ġdest ined
ĠÂ ¥
inc her
ĠComp ared
Ġmid way
Ġview point
ograph ically
ĠWill is
Ġdra ining
Ġfire power
Ġfire arms
Ġcur tain
Ġtake off
Ġlevel ed
Ġdifferent iate
Ġpost ing
Ġprop ose
itar ies
Ġfore most
Ġtotal ing
Ġtotal itarian
ĠSu ccess
ĠAir ways
ĠAng els
Ġproject iles
Ġcomb ines
Ġstat istical
Ġsk irm
ĠBar ra
ĠBar oque
ĠReg ular
Ġsol itary
ĠPol o
Ġcult s
Ġcult ivated
Ġfact o
Ġestabl ishes
ĠHigh landers
ĠNe ither
Ġdiscover ing
Ġfull back
Ġste gosaur
Ġadm it
Ġtechn ological
ĠHar bour
Ġred oub
gr as
ĠPal in
ĠPal ac
Ġsett ings
ĠCo hen
ĠCro ix
Ġcert ification
Ġcert ifications
Ġcomment aries
ĠMer cy
ett i
Ġaud iobook
Ġsuff ers
Ġrecogn izes
ĠSer gio
Ġsepar ating
ĠBo er
ĠInf luence
Ġhost age
ĠAg ok
ĠSl ash
Ġdev out
Ġemploy er
Ġve in
Ġemb edded
Ġconduct or
ĠMy ster
Ġgra vel
Ġmer it
Ġreact ors
ĠCr ass
ĠCr iminal
Ġesc aping
sel aig
Ġbur row
Ġthreat ens
ĠMac Far
ĠLa ird
Ġconstruct ing
ĠGal ba
Ġsyn onyms
Ġtreat ise
Ġdon ors
Ġchange up
Ġbreak out
ĠApp ear
Ġ36 8
ĠMa emi
ĠCarol ine
Ġ183 5
Ġgrad uation
Ġden ying
ĠNot ts
ĠTra in
ĠMal one
Ġgoals c
Ġphys icist
ĠPet it
ĠCard ell
ĠMos que
Ġscreen writer
Ġfood s
Ġ184 6
Ġcompl aining
Ġcompl ications
ĠVer de
ĠBen ing
Ġflow ing
Ġamb itions
Ġamb ush
Ġenv oys
rat ina
ĠJer ome
ĠJer zy
ĠTre b
Ġcer amic
Ġ300 0
Ġkilomet er
Ġbow led
Ġdism ay
Ġearth star
ĠDel ia
Ġmarked ly
Ġpurs ues
Ġnecess itated
Ġdom est
Ġdyn astic
Ġspecific ations
ĠSix teen
Ġlands lides
rid ged
Ġ180 6
ĠEr lewine
ĠConf lict
Ġ44 8
Ġextre mes
ĠSir ius
Ġtext book
Ġdisapp ro
Ġinteract ed
ĠQueen stown
ĠGreen wich
Ġpun ished
mark ed
Ġmission aries
Ġ182 3
ĠBon aparte
Ġkick ing
Ġ181 1
Ġ181 2
Ġ181 7
Ġdemonst rations
Ġjump ed
Ġ64 0
Ġrhy mes
Ġheart ed
Ġheart land
Ġspread s
lim bs
Ġemphas ize
Ġrepe ating
ĠMiddle ton
ĠBh ag
ĠBh ai
Ġ179 7
Ġ179 8
Ġunivers ally
Ġpoly the
Ġpoly gam
Ġwor ry
Ġmaster y
ĠLl igwy
ĠSub sequent
iot ic
ĠRos ey
Ã¨ re
Ġdepth s
bl ad
ĠIron wood
Ġge ometry
Ġguard ian
add on
ĠCa uc
ĠVen ice
ĠBas el
Ġcriticism s
ĠGi ovanni
Ġpet rol
ĠDaniel s
Ġ66 0
ĠHon ours
ĠDev il
ez vous
ĠMot own
rak es
ĠJur assic
ĠRel ief
ĠRod dick
Ġ177 0
Ġarran ge
ĠMir ror
rell a
Ġneck lace
ĠHard core
Ġcalc ulators
Ġearthqu akes
Ġassemb le
Ġselect ivity
Ġcho oses
Ġsun light
Ġsort ies
ĠYe ats
ĠAnton y
Ġunp redict
Ġplum s
ĠPoint s
Ġcommemor ation
Ġ176 1
Ġcard inals
Ġveget arian
ĠAston ishing
Ġrhyth ms
Ġfant ail
ĠCru z
rif ied
Ġhighlight ing
ĠKat ie
ĠCam el
Ġtransition al
ĠTrib bles
ĠAsh ley
ĠHug o
Ġvac u
Ġpup il
Ġhall uc
Ġmonarch y
Ġur anium
ĠHay es
Ġconsult ed
Ġpage ant
ĠEarl ier
ĠWhere as
ĠUt tar
ĠBad en
Ġcongreg ations
Ġcongreg ational
Ġpin ned
Ġcrest s
Ġpredomin ant
Ġtele commun
Ġcarri ag
Ġwilling ness
Ġstere otyp
Ã± a
utz pah
Ġorb iting
Ġobst acle
Ġkingdom s
Ġautom atically
Ġmask ed
Ġmask ray
ĠSn elling
ĠSn apper
ĠBudd ha
ĠDal i
Ġsad ness
ĠTai yuan
Ġlat itude
Ġstyl istic
ĠRu wan
ĠWeb b
Ġuniform s
Ġsteep le
Ġexplo ited
Ġexplo itation
ti Ã¨me
ĠRen Ã©
ĠRen ault
Ġtiss ues
ĠExt inction
Ġfeud al
Ġwet lands
Ġapprec iate
ĠRajneesh pur
Ġrend ezvous
ĠCirc us
ĠLud wig
ĠColl abor
Ġsumm ers
Ġsatisf ying
ĠMem ph
ĠHop kins
Ġexcell ence
Ġbra very
ĠRivers ide
ĠFace book
ĠKit ana
ĠStr ateg
ĠTat anka
Ġevolution ary
azirid ine
ĠGlass man
Ġastero ids
Ġca es
Ġca ution
Ġredes igned
Ġaggreg ator
Ġvulner ability
ĠNu un
Ġknock ing
Ġaw kward
ĠSel en
ĠPole hinke
Ġendors ement
Ġdoctor al
ĠGuild ford
Ġphenomen a
Ġincl ined
Ġincl ination
Ġpetition ed
Ġmud slides
ĠPil ot
Ġresid ues
Ġmaneu vers
Ġcounteratt acks
Ġlaugh ing
ĠColomb ian
ĠOrd nance
ĠMond ay
Ġeval uation
Ġsacrif ices
ĠBosn ian
ĠÄ Ģ
Ġamid st
Ġinvent or
Ġterr ace
Ġunexpected ly
ĠDh arm
ĠBM W
Ġsubd iv
ĠRef lections
ĠDup ont
Ġrecruit ment
Ġexhaust ion
ĠUk rain
Ġrecapt ure
Ġflour ished
Ġcheek s
Ġairst rip
Ġannoy ing
CS E
Ġnas als
Ġdistort ions
ĠDiamond s
Ġfilmm akers
ĠAborig ines
Ġcataly st
ĠWolver ines
ĠTrou ble
Ġunrel iable
Ġinterven e
Ġmillimet ers
ĠAmylostere aceae
ĠSit riuc
Ġunanim ously
ĠArmen ia
ĠCharacter istics
ĠCatal inas
Ġoptim istic
ĠANZAC s
ĠSett lement
ĠBin ondo
ĠLars sen
ĠSyb il
ĠSyb ille
Ġjudg ment
ĠCul ver
ĠMast odons
ĠCarn ival
ĠAgricult ural
Ġspo iled
Ġspir its
ĠHispan ic
Ġescal ated
Ġincorrect ly
Ġcov enant
ĠSold ier
ĠCoss acks
Ġwhit ish
ĠBarr acks
ĠJama ica
ĠArr iving
Ġpray ers
ĠCornwall is
ĠChenn selaig
ĠSevent eenth
Ġhast ily
ĠTas mania
Ġninj a
Ġschem es
Ġfeas ible
Ġembro iled
Ġreconcil iation
ĠCaus eway
ĠHil o
ĠHann eman
Ġhect ares
Ġpla que
Ġdeton ated
Ġordin ance
Ġhydra ul
Ġpaleont ologist
Ġjewel ry
ĠCay uga
ĠMig uel
ĠHost ile
Ġvi aduct
Ġdisemb ark
Ġdisorgan ized
Ġoblig ed
Ġplagiar ism
ĠNir vana
ĠEisen hower
Ġsple nd
Ġparan ormal
Ġsurn ame
ĠMum ia
ĠRiv iÃ¨re
ĠInform er
Ġcontam inated
Ġabdom en
ĠBeet ons
pro of
ĠTanz ania
Ġbeque athed
Ġinterchang es
ĠEdg eworth
ĠConfuc ian
Conn or
ĠBole t
ĠOgh ratina
Ġunac ceptable
ĠVing tiÃ¨me
ĠVatic an
ĠRoch dale
Ġadjo ining
ĠKuj ira
Ġcrosso ver
ĠSime on
ĠSude ikis
ĠCunning ham
ĠVesp asian
ĠVÄĥ n
ubile e
Ġentrep rene
ĠBris bane
ĠManit oba
ĠAntrop ologÃŃa
ĠCheroke e
ĠRosem ary
ĠJuda ism
Ġfatig ue
ĠKalyanas und
Ġpector al
ĠTade usz
Ġlub ric
ĠMered ith
ĠPoven mire
ĠKree ft
ĠKuch ing
Ġspok esperson
ĠMacFar lane
ĠRajneeshpur am
1 1
2 4
D s
D TV
F O
H D
H L
I C
I N
P aul
a is
a ise
a vers
b odies
c ules
c roft
d d
d ed
d og
e ur
e ut
f ilm
f aro
g ame
g ia
h aul
h orse
j e
j u
l ig
l ong
l Ã©
m ud
m ast
m ph
m oon
m ett
p y
p et
r one
r ath
r ays
t is
t ical
u f
u j
u er
u il
v ings
v ances
v acharya
w ill
w art
w etter
y at
y ah
y ster
z ew
Ã ®
Ï Į
Ð ¸
Ð º
Ġ umb
İ le
Ġthe ological
Ġs ar
Ġs ocks
Ġs arc
ed e
Ġw ording
Ġw akes
Ġw agon
Ġw orms
Ġw elfare
Ġo vation
at op
at ars
Ġ. .
or ations
it ism
it ius
Ġc ents
Ġc ope
Ġc af
Ġc itation
Ġf ades
Ġf itz
Ġf rown
Ġf ancy
Ġf ishes
Ġf umble
is al
ar u
ar in
an ist
an ey
Ġb a
Ġb ic
Ġb ure
Ġb ritt
Ġin act
Ġin accessible
al as
al ation
al ia
al apa
ing o
Ġp all
Ġp ip
Ġp ests
Ġp uff
Ġp anthe
ic ant
Ġm ol
Ġm ural
Ġm akers
Ġd ys
Ġd aring
Ġh ay
Ġh orm
Ġh ood
Ġh inted
Ġh iking
ou fl
le m
ĠT uring
ĠT ric
ĠT akes
ĠT urt
ĠT jo
Ġre e
ĠA e
ĠA id
ĠA CE
ĠS N
ĠS ire
ĠS ask
ĠS ault
ĠS alt
il ion
st op
ĠC her
ĠC ag
ĠC ame
ĠC ord
ĠC ash
ĠC urrent
ĠC umm
Ġl ust
Ġl ens
Ġl int
om orphic
am phib
Ġe man
Ġe asterly
Ġn an
ad ia
ĠM ou
ĠM ang
ĠB rew
ĠB eng
ĠB urt
ĠB ishops
ĠI o
ĠI ps
ĠI WG
ol er
Ġg el
Ġg ast
Ġg ru
Ġg lyph
Ġg ait
iv u
iv ating
im oto
ot ry
ĠH ent
ĠH our
ĠH ale
ĠH ert
ĠH ands
ĠH udders
Ġas cent
Ġst ib
Ġst akes
Ġst ranger
ith ms
ĠP ere
ĠP ant
ĠP app
ĠP ett
ĠP igg
ĠP aste
ĠP ayette
ver sion
Ġbe et
Ġbe aver
Ġhe ars
Ġhe arts
ĠR C
ĠR ip
ĠR ama
ĠR ule
ĠR aven
th or
th ro
ĠD ion
ĠD ul
ĠD ore
ĠD ok
ĠD end
ĠD ix
ĠD ual
ĠD NL
ĠD ooley
un ami
ĠF ra
ĠF ork
ĠF acing
ĠF ashion
ĠF Ã©l
ul se
Ġal b
Ġcon ning
ĠN M
ĠN em
ĠN ub
ĠN one
ĠN urs
ĠN AT
ĠW ord
ĠW ives
ĠW inc
ĠW alt
ĠW itches
ĠL us
ĠL ag
ĠL if
ĠL ucky
ĠL anka
ĠL ayne
os al
ĠG ould
ĠG olf
ĠG entle
ĠG idding
ĠG omes
ĠG CSE
ct ory
and i
Ġan at
est own
av Äģda
ĠE at
ĠE ASA
ĠO g
op ic
op oly
op oids
if ier
Ġpro d
Ġpro st
Ġpro stitute
ies wetter
Ġv ivid
Ġv arsity
ill usion
pp en
pp ling
Ġr ud
Ġr ally
Ġr het
ong a
all athus
ak in
Ġor ch
oc ative
oc arp
ab allathus
ĠK as
ĠK ish
ĠK ure
ĠK ens
ĠK ath
ĠK ilm
ĠK ron
ĠK ung
ĠK oh
ĠK urd
ĠK itsune
ĠK ieswetter
Ġch aired
Ġpl ausible
Ġâ ī
Ġsh ores
Ġk in
ĠSt a
ĠSt ro
ĠSt am
ĠSt ur
ĠSt irling
ov o
Ġsp ous
Ġsp ars
Ġsp here
Ġsp iral
Ġsp ends
Ġsp oof
Ġle p
ĠCh al
ĠCh ul
ĠCh uck
ĠCh utzpah
ish a
ish i
ish able
og ene
og uan
Ġun real
Ġun armed
Ġun just
ĠV ed
ĠV est
ĠV ance
ĠV eter
ĠV oe
ĠV aballathus
Ġint ro
ru g
ru p
Ġcomp elling
Ġcont ex
Ġ20 5
Ġ20 8
ass i
ry l
Ġcl ause
Ġcl ient
Ġcl ashed
Ġcl overleaf
ie ff
end ments
Ġad vers
ĠTh ie
ĠTh reat
pl ane
Ġsc outs
Ġsc rut
Ġdis like
Ġdis illusion
Ġj ets
Ġj ersey
Ġj aws
ib al
ib les
ound ed
ound ing
ik u
Ġoff set
ĠY at
ĠY ard
ĠY ap
ph in
Ġout ward
Ġout let
Ġup ward
Ġup held
Ġcomm od
Ġcomm ittees
ind rical
ĠUn cle
ĠAn a
ĠAn ch
ĠAn up
iss amphib
ors ki
oy ne
Ġpo ols
Ġfe eds
Ġdec ks
ĠMar ian
Ġtr am
Ġtr ash
Ġtr igg
Ġend e
Ġme galith
Ġdef ens
Ġass ort
Ġass umes
Ġchar ities
Ġchar ming
Ġpe as
Ġpr ide
Ġreg roup
Ġwhere in
ener y
Ġqu otation
Ġspec ulates
Ġinc ense
ĠAt mosp
Ġam pl
ĠLe ft
ĠLe Ã³n
ĠRe x
ĠRe form
Ġind isc
Ġind ef
Ġmon olog
Ġmon astic
ĠSc rant
ĠJo anna
Ġsur m
ĠAust er
Ġno on
ek e
Ġbl ur
ĠZ N
Ġem itted
Ġpres ided
Ġpres cribed
Ġback st
yl us
yl ox
Ġadd itions
Ġdep osed
row er
Ġmet am
Ġmet eor
ĠInd oor
ĠInd ex
Ġrep elled
ĠMay o
ĠCon ception
ĠWh atever
ĠBr ut
Ġimp lying
Ġinst ant
Ġdisc red
yp se
ĠCl aus
Ġprev ailing
Ġfin ances
ĠAugust a
ink s
Ġprov ing
ism o
Ġgener ic
ĠCar ac
ĠCar win
Ã© on
Ġgu ess
Ġbr ack
Ġmod ification
uth ors
ĠAd apt
ĠFor ge
Ġann ih
ĠPro ductions
ĠBe autiful
ĠBe aum
empt ion
Ġpublic ized
Ġline age
Ġ25 3
Ġprot otypes
ĠChrist ie
Ġref uel
ĠMc Le
Ġconf essed
anc a
app iness
get t
Ġcamp ed
ĠPar rot
Ġorgan izers
ĠGe ffen
Ġvis or
Ġdr ill
Ġexpl ode
Ġexpl oded
Ġtem pl
Ġbas ically
inc ible
Ġdem ocracy
Ġstory board
Ġlocal ization
Ġwest bound
ĠPr ayer
Ġroad ways
sh i
ĠWe iss
ĠWe ird
Ġcr usade
Ġdeb ates
Ġ21 6
Ġdel uxe
Ġarch deacon
ĠCount ess
Ġcur b
Ġcur t
Ġcur iosity
ĠTr igger
ĠTr udy
ebru gge
iter ated
ĠAf anas
Ġ26 2
Ġlow lands
ĠSu v
Ġcomb ining
Ġcomb inations
ĠBar ack
Ġaff inity
Ġsol uble
ĠPol ka
Ġcult ivation
Ġannoun ce
Ġannoun cing
Ġ29 0
Ġ29 5
Ġpain ters
Ġcat ast
Ġprim aries
Ġintrodu ctory
ĠGl ory
ĠGl oire
Ġactiv ism
con a
Ġnational ism
Äģ v
ĠHar ih
Ġred emption
ĠMon roe
Ġvill a
Ġpri zes
ÃŃ g
ĠCro ft
ĠSy rian
Ġrock ets
Ġpred ation
Ġsuper b
Ġenc ro
Ġenc ycl
ĠMad ame
Ġnon etheless
Ġmass ac
urg ical
Ġz o
Ġmiss es
ĠBo eing
Ġhost ility
ĠAg ar
Ġmot ives
ĠRobert o
men y
ĠSl ov
Ġdev ote
ĠPart s
ĠPart ners
Ġinsp ection
Ġsequ els
Ġhy mns
Ġprob es
Ġbi ased
Ġengine ered
cent ra
Ġreact s
ĠRed s
bor g
Ġdiss oroph
ĠMo h
Ġpast oral
Ġfree ze
Ġthreat en
ĠLa o
Ġresear cher
ĠÃ İle
Ġtreat ing
Ġtreat ies
ĠGold man
ĠGold stein
Ġbreak fast
ĠOp ening
ĠGr ad
ĠGr ims
ĠHol ly
ĠHol iday
Ġtru ce
Ġcru c
Ġdebut ing
Ġgrad ed
Ġassist ing
Ġap se
Ġpot ent
ĠFe eling
Ġchap els
raw ling
ĠJe ep
Ġuns atis
Ġadop ting
Ġconclud e
ĠMart el
ĠRes olution
Ġund oub
omm el
Ġflow ed
well er
ĠJer emia
Ġlearn t
Ġproduct ive
Ġcontroll ers
ĠDem ographics
Ġdram at
Ġbound s
ĠEarth qu
Ġsusp ects
ĠSal on
Ġphot ographer
ĠNor bert
CA P
Ġmor ality
Ġdrum ming
ĠCrit ic
Ġ180 9
Ġcombat ants
ĠAlex andra
ĠFin anc
odon ts
Ġintern ally
Ġcam el
Ġcam oufl
Ġang les
Ġelev ate
Ġ182 6
Ġ182 7
ĠArm ored
Ġmel ting
ĠClass ical
Ġdemonst rates
Ġprogress ively
ĠBol lywood
ãĥ ¼
Ġnation wide
udd y
ĠDou ble
Ġspl ash
Ġwing ed
ĠFar ley
ĠFar ming
ĠCommun ists
Ġmis le
Ġmodel ing
Ġsoundtrack s
Ġemphas ised
Ġsn ap
ĠReview ing
Ġsac ram
ĠWild er
iro th
Ġsens ational
ĠMore over
Ġut ility
Ġbank ing
Ġcontain er
Ġdoub les
Ġpoly urethane
ãĤ Ĭ
ĠSat urn
Ġexec ute
Ġwinter ing
Ġmeasure ment
ĠProv idence
ĠRome o
Ġfear ing
Ġbul b
Ġ61 0
ĠPalest ro
ĠEll iot
Ġguard ed
Ġflag s
Ġdescend ing
ĠAp ollo
ĠDis ston
ĠImag ists
Ġswe eping
Ġmist akes
ĠMov ies
ĠDemocr acy
Ġmic roph
ĠHon ey
ĠHon olulu
Ġ71 6
ĠAdv is
ĠCre ed
ĠMot ors
ĠRod man
ĠDod d
Ġexpress ions
Ġ164 3
Ġ164 8
ĠNH A
Ġresist ant
ĠMarc ell
Ġemp ires
ĠFrancisc an
Ġbeach head
Ġbenef ited
ĠIsab el
Ġign or
Ġsan ctions
Ġbat ch
ĠMid lands
ba um
ĠSha oguan
Ġcorrect ly
Ġchapter house
Ġdetail ing
ĠSav oy
ĠCas a
Ġlov ing
Ġastron aut
Ġlic ensing
Ġ112 7
Ġgal leys
rif ying
ĠPatt y
ĠPatt on
ĠDesc ribing
ĠTrack ing
anth an
Ã©t at
ĠTu faro
ocal ypse
Ġcinem atic
Ġbrick s
Ġimplement ation
ĠTerrit orial
Ġhear ings
Ġimpl ies
Ġimpl ications
Ġcoord inator
Ġnick el
Ġ178 8
Ġ178 9
ĠRain bow
ĠUSS R
Ġcatch ment
ĠCab inet
Ġrenew al
Ġbombard ed
Ġgro oves
ĠPul se
Ġansw ered
Ġblow ing
ĠSa qq
Ġrepr int
Ġrepr ised
Ġ165 0
á» ³
isp uted
Ġstere otypes
ĠBass line
Ġalter ations
Ġdeleg ate
ĠFel ix
Ġinstall ment
ĠCelt ics
ĠLet ters
Ġdevot ional
Ġtrick s
ĠDal meny
Ġsymp athy
Ġbiographer s
Ġfault s
Ġpack aged
ĠSin atra
Ġbord ered
ĠBou gain
iped e
Ġcanc ellation
Ġcooper ate
ĠNob le
Ġrig id
Ġrig ging
Ġfert ility
ĠTal mud
Ġparas ite
Ġrenov ations
Ġencounter ing
Ġhem isphere
ĠMcM aster
Ġ117 0
Ġcomed ies
ĠPoly nes
Ġfasc inating
ĠVul cans
bre aking
ĠRap id
Ġsuperv ised
Ġboss es
Ġinfer red
ĠSant o
ĠDram atic
Ġchrom osomes
ĠPriv y
ĠPubl ishers
iney ards
ĠConstitution al
rov ite
ĠKin ney
Ġdisband ment
Ġadvoc ating
ĠNi agara
Ġcomprom ised
Ġlamb s
ĠEconom ic
Ġcro cod
ĠNag ar
ĠIns ular
arc ane
ĠRav ana
Ġsoci ology
Ġboil er
ĠValent in
cut ta
Ġfru iting
Ġincl inata
Ġconce al
Ġlect ure
Ġintr ud
Ġdistrib ute
net ham
Ġcontinu ity
Ġaudition ed
ĠGrace hope
Ġtaxon omy
Ġsav age
Ġgene alog
Ġtorn ado
ĠCow ard
ĠRing o
ĠLabyrinth odont
ĠGran ada
ĠMonth ly
Ġpenetr ating
Ġhind ered
ĠJess ica
ĠKem al
ĠKem ena
ĠHoriz ons
Ġcontradict ions
ĠZe ebrugge
Ġlandmark s
Ġgenu inely
Ġurg ent
Ġvig orously
Ġty res
ĠHi ros
ĠClear water
mo il
ĠMaid s
Ġconform ity
ĠKan ata
ĠPopM art
ĠSamp ras
Ġrept ile
Ġconfirm ation
ĠUygh ur
cont inental
Ġcyl inder
Ġcyl indrical
ĠMult iple
ĠHern an
ĠJar vis
Ġbutt ons
Ġassum ption
Ġmyel oid
Ã« l
Ġcement ed
opol itan
Ġherb iv
ĠMonten egr
ĠCost a
bern acle
ĠMick ey
ĠArmen ian
Ġhaun ted
ĠKab oom
Ġmarg ins
ĠEmb assy
ĠHospitall er
ĠIber ian
Ġchlor ide
ĠAgricult ure
Ġcontrace ption
ĠGem ma
ĠKras inski
ucle ated
Ġfres co
Ġflex ible
Ġmim ic
ĠMent more
Ġexempl ified
Ġbuck et
Ġprogn osis
Ġsteambo at
Ġasym metric
ĠRus so
ĠGriff in
Ġconsec rated
Ġsyll ables
Ġorient ation
Ġdreadn oughts
ĠCrom well
ĠBurnham s
Ġspont aneous
Ġpromo ter
Ġpursu ers
ĠMau i
Ġstrand ed
ĠKling ons
ĠCham plain
Ġrag ale
ĠMadh vacharya
ĠSail or
ĠGros mont
Ġreson ance
ĠGrac ie
ĠErn st
Ġprecurs or
Ġbankrupt cy
ĠDil ke
ĠOth o
Ġnotor iously
Ġdisg ust
Ġregener ation
Ġinval id
Ġheadl ining
Ġpeaceke eping
Ġlibret to
Ġsidel ined
Ġcompuls ory
ĠYah oo
Ġinterv als
Ġvirtu oso
Ġmicros cope
ĠTsub ame
ĠMeso amer
Ġextravag ant
Ġhered itary
ĠÎ¼ m
ĠRestaur ant
ĠIbrah im
ĠSaff ir
ĠInver ness
auh or
Ġredevelop ment
ĠPropag anda
ĠPtole my
Ġtranse pt
ÅĻ Ã¡
Ġtann ery
ĠMarse ille
Ġequilib rium
ĠSimultane ously
ĠPatric ia
Ġsemia quatic
Ġunsuit able
Ġmotorcy cle
ĠTanj ung
ĠFlem ish
rv ats
role um
ĠSyl vester
ĠCinqu emani
Ġech oes
ĠThel netham
ĠIroqu ois
ĠFford d
ĠNost rovite
ĠLom ax
ĠThurs day
ĠSeph iroth
Ġapprox imate
ĠTreb inje
ĠUkrain ian
ĠKalyanasund ara
ĠSask at
ĠCag ayan
ĠCumm ings
ĠIWG P
ĠHudders field
ĠPigg ott
ĠFÃ©l ix
ĠNAT O
Ġcontex ts
Ġtrigg ered
Ġmegalith ic
ĠScrant on
ĠAfanas ieff
ĠGrims by
Ġundoub ted
ĠJeremia h
ĠSaqq ara
ĠBougain ville
2 6
A fric
B D
D ay
E F
E L
F X
I D
M C
N f
O W
P ants
R O
S C
S O
b es
b rough
b ase
c ars
c hew
d aur
e ous
e ase
e osaurus
f o
f te
g au
g osaurus
h art
i in
i ator
i ography
j m
k im
k irts
k ovsky
l ay
l und
l isted
m ind
m oor
n ock
n ected
o z
o ft
o field
p ius
p iÄĩ
r atory
r usted
r ÃŃg
t hel
t icity
u h
u o
u ably
u aries
v ich
w ll
y el
y ne
» æ
Ä ĳ
Ä Ĺ
× Ķ
Ø ¯
Ù Ĩ
Ġ Ï
Ġ ions
Ġ ery
Ġt u
Ġt art
Ġt ilt
he ro
Ġa ro
Ġa meric
Ġa fore
Ġa usp
in z
in ence
in itely
er i
er oy
Ġs her
Ġs ake
Ġw oo
Ġw arts
Ġo t
Ġo re
Ġo ars
at r
at ar
at os
or j
it as
Ġc ere
Ġc rane
Ġf ou
Ġf us
Ġf ian
Ġf ron
Ġf oli
Ġf idelity
is and
ar ial
an ion
an ity
Ġb ab
Ġb our
Ġb ony
Ġb ald
Ġb anning
Ġb rawl
Ġb icycle
Ġb izarre
al u
al ers
al ore
al oc
al uation
Ġp ag
Ġp ore
Ġp ear
Ġp uck
Ġp oured
Ġp inn
as is
Ġm b
Ġm es
Ġm un
Ġm ice
Ġm ash
Ġm ott
Ġm aker
Ġm oor
Ġd ur
Ġd orm
Ġd ash
Ġd ances
Ġd uck
Ġh id
Ġh iring
Ġh abits
le f
ĠT ul
ĠT og
ĠT ran
ĠT ib
ĠT ah
ĠT ata
ĠT aga
Ġre ne
Ġre claim
Ġre lying
Ġre claimed
Ġre union
ĠA C
ĠA ra
ĠA ther
ĠA ki
ĠS ed
ĠS es
ĠS ul
ĠS oy
ĠS quad
ĠS idd
ĠS ully
ĠS ites
ĠS hips
ĠS osa
il in
st ars
ĠC I
ĠC ed
ĠC il
ĠC os
ĠC ors
ĠC ities
ĠC ull
[...]
