{
  "version": "1.0",
  "truncation": null,
  "padding": null,
  "added_tokens": [
    {
      "id": 0,
      "content": "<|endoftext|>",
      "single_word": false,
      "lstrip": false,
      "rstrip": false,
      "normalized": true,
      "special": true
    }
  ],
  "normalizer": null,
  "pre_tokenizer": {
    "type": "ByteLevel",
    "add_prefix_space": false,
    "trim_offsets": true,
    "use_regex": true
  },
  "post_processor": {
    "type": "ByteLevel",
    "add_prefix_space": true,
    "trim_offsets": false,
    "use_regex": true
  },
  "decoder": {
    "type": "ByteLevel",
    "add_prefix_space": true,
    "trim_offsets": true,
    "use_regex": true
  },
  "model": {
    "type": "BPE",
    "dropout": null,
    "unk_token": null,
    "continuing_subword_prefix": "",
    "end_of_word_suffix": "",
    "fuse_unk": false,
    "byte_fallback": false,
    "vocab": {
      "<|endoftext|>": 0,
      "!": 1,
      "\"": 2,
      "#": 3,
      "$": 4,
      "%": 5,
      "&": 6,
      "'": 7,
      "(": 8,
      ")": 9,
      "*": 10,
      "+": 11,
      ",": 12,
      "-": 13,
      ".": 14,
      "/": 15,
      "0": 16,
      "1": 17,
      "2": 18,
      "3": 19,
      "4": 20,
      "5": 21,
      "6": 22,
      "7": 23,
      "8": 24,
      "9": 25,
      ":": 26,
      ";": 27,
      "<": 28,
      "=": 29,
      ">": 30,
      "?": 31,
      "@": 32,
      "A": 33,
      "B": 34,
      "C": 35,
      "D": 36,
      "E": 37,
      "F": 38,
      "G": 39,
      "H": 40,
      "I": 41,
      "J": 42,
      "K": 43,
      "L": 44,
      "M": 45,
      "N": 46,
      "O": 47,
      "P": 48,
      "Q": 49,
      "R": 50,
      "S": 51,
      "T": 52,
      "U": 53,
      "V": 54,
      "W": 55,
      "X": 56,
      "Y": 57,
      "Z": 58,
      "[": 59,
      "\\": 60,
      "]": 61,
      "^": 62,
      "_": 63,
      "`": 64,
      "a": 65,
      "b": 66,
      "c": 67,
      "d": 68,
      "e": 69,
      "f": 70,
      "g": 71,
      "h": 72,
      "i": 73,
      "j": 74,
      "k": 75,
      "l": 76,
      "m": 77,
      "n": 78,
      "o": 79,
      "p": 80,
      "q": 81,
      "r": 82,
      "s": 83,
      "t": 84,
      "u": 85,
      "v": 86,
      "w": 87,
      "x": 88,
      "y": 89,
      "z": 90,
      "{": 91,
      "|": 92,
      "}": 93,
      "~": 94,
      "¡": 95,
      "¢": 96,
      "£": 97,
      "¤": 98,
      "¥": 99,
      "¦": 100,
      "§": 101,
      "¨": 102,
      "©": 103,
      "ª": 104,
      "«": 105,
      "¬": 106,
      "®": 107,
      "¯": 108,
      "°": 109,
      "±": 110,
      "²": 111,
      "³": 112,
      "´": 113,
      "µ": 114,
      "¶": 115,
      "·": 116,
      "¸": 117,
      "¹": 118,
      "º": 119,
      "»": 120,
      "¼": 121,
      "½": 122,
      "¾": 123,
      "¿": 124,
      "À": 125,
      "Á": 126,
      "Â": 127,
      "Ã": 128,
      "Ä": 129,
      "Å": 130,
      "Æ": 131,
      "Ç": 132,
      "È": 133,
      "É": 134,
      "Ê": 135,
      "Ë": 136,
      "Ì": 137,
      "Í": 138,
      "Î": 139,
      "Ï": 140,
      "Ð": 141,
      "Ñ": 142,
      "Ò": 143,
      "Ó": 144,
      "Ô": 145,
      "Õ": 146,
      "Ö": 147,
      "×": 148,
      "Ø": 149,
      "Ù": 150,
      "Ú": 151,
      "Û": 152,
      "Ü": 153,
      "Ý": 154,
      "Þ": 155,
      "ß": 156,
      "à": 157,
      "á": 158,
      "â": 159,
      "ã": 160,
      "ä": 161,
      "å": 162,
      "æ": 163,
      "ç": 164,
      "è": 165,
      "é": 166,
      "ê": 167,
      "ë": 168,
      "ì": 169,
      "í": 170,
      "î": 171,
      "ï": 172,
      "ð": 173,
      "ñ": 174,
      "ò": 175,
      "ó": 176,
      "ô": 177,
      "õ": 178,
      "ö": 179,
      "÷": 180,
      "ø": 181,
      "ù": 182,
      "ú": 183,
      "û": 184,
      "ü": 185,
      "ý": 186,
      "þ": 187,
      "ÿ": 188,
      "Ā": 189,
      "ā": 190,
      "Ă": 191,
      "ă": 192,
      "Ą": 193,
      "ą": 194,
      "Ć": 195,
      "ć": 196,
      "Ĉ": 197,
      "ĉ": 198,
      "Ċ": 199,
      "ċ": 200,
      "Č": 201,
      "č": 202,
      "Ď": 203,
      "ď": 204,
      "Đ": 205,
      "đ": 206,
      "Ē": 207,
      "ē": 208,
      "Ĕ": 209,
      "ĕ": 210,
      "Ė": 211,
      "ė": 212,
      "Ę": 213,
      "ę": 214,
      "Ě": 215,
      "ě": 216,
      "Ĝ": 217,
      "ĝ": 218,
      "Ğ": 219,
      "ğ": 220,
      "Ġ": 221,
      "ġ": 222,
      "Ģ": 223,
      "ģ": 224,
      "Ĥ": 225,
      "ĥ": 226,
      "Ħ": 227,
      "ħ": 228,
      "Ĩ": 229,
      "ĩ": 230,
      "Ī": 231,
      "ī": 232,
      "Ĭ": 233,
      "ĭ": 234,
      "Į": 235,
      "į": 236,
      "İ": 237,
      "ı": 238,
      "Ĳ": 239,
      "ĳ": 240,
      "Ĵ": 241,
      "ĵ": 242,
      "Ķ": 243,
      "ķ": 244,
      "ĸ": 245,
      "Ĺ": 246,
      "ĺ": 247,
      "Ļ": 248,
      "ļ": 249,
      "Ľ": 250,
      "ľ": 251,
      "Ŀ": 252,
      "ŀ": 253,
      "Ł": 254,
      "ł": 255,
      "Ń": 256,
      "Ġt": 257,
      "he": 258,
      "Ġa": 259,
      "in": 260,
      "Ġthe": 261,
      "er": 262,
      "on": 263,
      "Ġ,": 264,
      "re": 265,
      "Ġs": 266,
      "ed": 267,
      "Ġw": 268,
      "Ġo": 269,
      "nd": 270,
      "at": 271,
      "Ġ.": 272,
      "or": 273,
      "it": 274,
      "Ġc": 275,
      "en": 276,
      "Ġf": 277,
      "es": 278,
      "is": 279,
      "ar": 280,
      "Ġof": 281,
      "an": 282,
      "Ġb": 283,
      "Ġin": 284,
      "al": 285,
      "ing": 286,
      "Ġp": 287,
      "as": 288,
      "Ġand": 289,
      "Ġto": 290,
      "ro": 291,
      "ic": 292,
      "Ġm": 293,
      "Ġd": 294,
      "Ġh": 295,
      "ion": 296,
      "ou": 297,
      "le": 298,
      "ĠT": 299,
      "Ġre": 300,
      "Ġ=": 301,
      "ĠA": 302,
      "ĠS": 303,
      "il": 304,
      "ent": 305,
      "Ġ\"": 306,
      "Ġth": 307,
      "Ġ1": 308,
      "st": 309,
      "ĠC": 310,
      "Ġl": 311,
      "el": 312,
      "om": 313,
      "am": 314,
      "ĠĊ": 315,
      "Ġe": 316,
      "Ġn": 317,
      "Ġ@": 318,
      "ad": 319,
      "ac": 320,
      "ĠM": 321,
      "Ġwas": 322,
      "ur": 323,
      "ĠThe": 324,
      "ec": 325,
      "Ġon": 326,
      "ly": 327,
      "ĠB": 328,
      "ĠI": 329,
      "et": 330,
      "Ġ'": 331,
      "ol": 332,
      "Ġg": 333,
      "id": 334,
      "iv": 335,
      "im": 336,
      "Ġfor": 337,
      "ir": 338,
      "ig": 339,
      "-@": 340,
      "Ġ@-@": 341,
      "ter": 342,
      "ot": 343,
      "ĠH": 344,
      "Ġas": 345,
      "us": 346,
      "ow": 347,
      "ut": 348,
      "Ġst": 349,
      "Ġ2": 350,
      "ay": 351,
      "ith": 352,
      "ĠP": 353,
      "ation": 354,
      "ver": 355,
      "Ġbe": 356,
      "Ġwith": 357,
      "Ġhe": 358,
      "Ġthat": 359,
      "ĠR": 360,
      "em": 361,
      "th": 362,
      "ĠD": 363,
      "un": 364,
      "ce": 365,
      "ĠF": 366,
      "Ġis": 367,
      "ul": 368,
      "Ġwh": 369,
      "Ġby": 370,
      "ch": 371,
      "Ġ)": 372,
      "Ġ(": 373,
      "Ġal": 374,
      "Ġcon": 375,
      "ĠN": 376,
      "ĠW": 377,
      "ra": 378,
      "Ġat": 379,
      "ĠL": 380,
      "os": 381,
      "ĠG": 382,
      "ers": 383,
      "ct": 384,
      "Ġ19": 385,
      "Ġit": 386,
      "rom": 387,
      "and": 388,
      "ĠJ": 389,
      "Ġan": 390,
      "her": 391,
      "est": 392,
      "um": 393,
      "00": 394,
      "ag": 395,
      "ist": 396,
      "ain": 397,
      "av": 398,
      "ri": 399,
      "od": 400,
      "ĠE": 401,
      "ĠO": 402,
      "Ġfrom": 403,
      "Ġcom": 404,
      "Ġhis": 405,
      "op": 406,
      "res": 407,
      "if": 408,
      "ere": 409,
      "ort": 410,
      "Ġpro": 411,
      "ies": 412,
      "Ġv": 413,
      "ill": 414,
      "Ġde": 415,
      "pp": 416,
      "ore": 417,
      "ld": 418,
      "Ġr": 419,
      "Ġwere": 420,
      "Ġsu": 421,
      "ĠIn": 422,
      "Ġse": 423,
      "ong": 424,
      "igh": 425,
      "ew": 426,
      "ate": 427,
      "all": 428,
      "ak": 429,
      "ard": 430,
      "ich": 431,
      "art": 432,
      "ber": 433,
      "ant": 434,
      "Ġor": 435,
      "ity": 436,
      "ud": 437,
      "oc": 438,
      "ated": 439,
      "ab": 440,
      "ĠK": 441,
      "Ġch": 442,
      "gh": 443,
      "Ġex": 444,
      "qu": 445,
      "pt": 446,
      "Ġpl": 447,
      "rou": 448,
      "ess": 449,
      "ear": 450,
      "ĠU": 451,
      "ame": 452,
      "ive": 453,
      "Ġâ": 454,
      "ack": 455,
      "Ġsh": 456,
      "Ġk": 457,
      "Ġare": 458,
      "ect": 459,
      "Ġhad": 460,
      "ĠâĢ": 461,
      "ian": 462,
      "ĠSt": 463,
      "se": 464,
      "Ġwhich": 465,
      "ast": 466,
      "red": 467,
      "ge": 468,
      "our": 469,
      "ov": 470,
      "ip": 471,
      "ment": 472,
      "Ġsp": 473,
      "Ġnot": 474,
      "Ġy": 475,
      "Ġle": 476,
      "ial": 477,
      "ine": 478,
      "rit": 479,
      "ost": 480,
      "ap": 481,
      "ust": 482,
      "ight": 483,
      "ell": 484,
      "ĠCh": 485,
      "ord": 486,
      "Ġ3": 487,
      "Ġu": 488,
      "oun": 489,
      "ia": 490,
      "ical": 491,
      "ther": 492,
      "ish": 493,
      "ary": 494,
      "ave": 495,
      "og": 496,
      "Ġun": 497,
      "cl": 498,
      "Ġ200": 499,
      "irst": 500,
      "ĠV": 501,
      "ous": 502,
      "ions": 503,
      "Ġ;": 504,
      "Ġar": 505,
      "Ġint": 506,
      "ru": 507,
      "ide": 508,
      "so": 509,
      "Ġcomp": 510,
      "fter": 511,
      "Ġbut": 512,
      "Ġtheir": 513,
      "Ġcont": 514,
      "cc": 515,
      "ure": 516,
      "out": 517,
      "ould": 518,
      "Ġits": 519,
      "Ġwhe": 520,
      "Ġfirst": 521,
      "wo": 522,
      "Ġ20": 523,
      "per": 524,
      "ff": 525,
      "hed": 526,
      "ĠâĢĵ": 527,
      "own": 528,
      "ass": 529,
      "ign": 530,
      "Ġalso": 531,
      "ue": 532,
      "ry": 533,
      "orm": 534,
      "Ġcl": 535,
      "ok": 536,
      "ub": 537,
      "ĠHe": 538,
      "ie": 539,
      "ater": 540,
      "ran": 541,
      "ome": 542,
      "Ġres": 543,
      "ire": 544,
      "Ġ:": 545,
      "ond": 546,
      "ork": 547,
      "end": 548,
      "Ġad": 549,
      "Ġab": 550,
      "mer": 551,
      "Ġus": 552,
      "Ġ4": 553,
      "age": 554,
      "Ġher": 555,
      "Ġro": 556,
      "Ġhave": 557,
      "Ġ5": 558,
      "low": 559,
      "Ġone": 560,
      "Ġper": 561,
      "Ġrec": 562,
      "Ġbeen": 563,
      "Ġhas": 564,
      "Ġtwo": 565,
      ".@": 566,
      "Ġ@.@": 567,
      "ime": 568,
      "ĠTh": 569,
      "ree": 570,
      "uring": 571,
      "du": 572,
      "ally": 573,
      "ence": 574,
      "pl": 575,
      "Ġ18": 576,
      "ile": 577,
      "ult": 578,
      "Ġsc": 579,
      "land": 580,
      "ough": 581,
      "ition": 582,
      "iz": 583,
      "Ġag": 584,
      "Ġwho": 585,
      "Ġthis": 586,
      "ach": 587,
      "ations": 588,
      "Ġdis": 589,
      "ĠAl": 590,
      "ric": 591,
      "Ġbec": 592,
      "ĠIt": 593,
      "Ġapp": 594,
      "Ġj": 595,
      "Ġpart": 596,
      "ount": 597,
      "are": 598,
      "Ġdes": 599,
      "clud": 600,
      "act": 601,
      "ely": 602,
      "ade": 603,
      "ory": 604,
      "Ġ201": 605,
      "Ġthey": 606,
      "Ġover": 607,
      "Ġplay": 608,
      "over": 609,
      "ib": 610,
      "Ġman": 611,
      "ound": 612,
      "Ġafter": 613,
      "Ġyear": 614,
      "ens": 615,
      ",@": 616,
      "Ġ@,@": 617,
      "ik": 618,
      "Ġoff": 619,
      "Ġser": 620,
      "Ġatt": 621,
      "Ġim": 622,
      "ction": 623,
      "Ġother": 624,
      "ĠY": 625,
      "urn": 626,
      "ph": 627,
      "ember": 628,
      "ace": 629,
      "Ġinclud": 630,
      "ance": 631,
      "ress": 632,
      "ite": 633,
      "Ġout": 634,
      "ice": 635,
      "te": 636,
      "Ġen": 637,
      "ark": 638,
      "ang": 639,
      "man": 640,
      "ey": 641,
      "round": 642,
      "wn": 643,
      "Ġinto": 644,
      "rough": 645,
      "Ġup": 646,
      "Ġpre": 647,
      "nder": 648,
      "Ġev": 649,
      "ren": 650,
      "Ġ6": 651,
      "Ġtime": 652,
      "int": 653,
      "we": 654,
      "ĠOn": 655,
      "ced": 656,
      "port": 657,
      "Ġcomm": 658,
      "ward": 659,
      "ind": 660,
      "ces": 661,
      "amp": 662,
      "Ġte": 663,
      "ied": 664,
      "ĠUn": 665,
      "Ġwould": 666,
      "vel": 667,
      "ose": 668,
      "Ġ7": 669,
      "Ġwe": 670,
      "Ġmore": 671,
      "tern": 672,
      "ited": 673,
      "Ġall": 674,
      "ents": 675,
      "ĠAn": 676,
      "les": 677,
      "Ġhim": 678,
      "ason": 679,
      "Ġne": 680,
      "able": 681,
      "iss": 682,
      "rib": 683,
      "ors": 684,
      "ings": 685,
      "oy": 686,
      "ased": 687,
      "Ġshe": 688,
      "aw": 689,
      "ates": 690,
      "rop": 691,
      "ood": 692,
      "att": 693,
      "Ġcent": 694,
      "ase": 695,
      "one": 696,
      "Ġwork": 697,
      "Ġpo": 698,
      "ral": 699,
      "ious": 700,
      "old": 701,
      "orth": 702,
      "ix": 703,
      "ict": 704,
      "gan": 705,
      "Ġ9": 706,
      "ild": 707,
      "Ġrem": 708,
      "inal": 709,
      "Ġsec": 710,
      "ep": 711,
      "ail": 712,
      "Ġfe": 713,
      "form": 714,
      "Ġear": 715,
      "Ġduring": 716,
      "ath": 717,
      "Ġbet": 718,
      "Ġthem": 719,
      "ered": 720,
      "Ġwhen": 721,
      "Ġcons": 722,
      "Ġ8": 723,
      "ilm": 724,
      "outh": 725,
      "ved": 726,
      "ron": 727,
      "Ġkn": 728,
      "ĠAs": 729,
      "aus": 730,
      "fer": 731,
      "Ġmost": 732,
      "ubl": 733,
      "Ġdec": 734,
      "ft": 735,
      "ick": 736,
      "Ġonly": 737,
      "Ġsong": 738,
      "way": 739,
      "Ġagain": 740,
      "ake": 741,
      "ĠSe": 742,
      "ollow": 743,
      "Ġnew": 744,
      "ug": 745,
      "ĠMar": 746,
      "ters": 747,
      "ĠCom": 748,
      "oth": 749,
      "Ġ199": 750,
      "reat": 751,
      "ween": 752,
      "ational": 753,
      "ons": 754,
      "ĠAr": 755,
      "hip": 756,
      "Ġthree": 757,
      "Ġtr": 758,
      "Ġunder": 759,
      "Ġgame": 760,
      "ook": 761,
      "ision": 762,
      "Ġabout": 763,
      "ock": 764,
      "Ġfl": 765,
      "Ġrel": 766,
      "ob": 767,
      "olog": 768,
      "Ġcol": 769,
      "Ġ00": 770,
      "als": 771,
      "Ġthan": 772,
      "Ġseason": 773,
      "Ġpos": 774,
      "Ġbetween": 775,
      "ve": 776,
      "Ġfilm": 777,
      "Ġthrough": 778,
      "meric": 779,
      "fore": 780,
      "Ġend": 781,
      "Ġcan": 782,
      "ĠAmeric": 783,
      "Ġme": 784,
      "Ġnum": 785,
      "orn": 786,
      "ĠEn": 787,
      "ĠNew": 788,
      "iew": 789,
      "Ġlater": 790,
      "Ġdef": 791,
      "Ġret": 792,
      "Ġass": 793,
      "ted": 794,
      "Ġwhile": 795,
      "ular": 796,
      "ans": 797,
      "Ġchar": 798,
      "Ġact": 799,
      "Ġsub": 800,
      "hn": 801,
      "Ġver": 802,
      "Ġrecord": 803,
      "ts": 804,
      "Ġprodu": 805,
      "Ġra": 806,
      "Ġpe": 807,
      "Ġpr": 808,
      "Ġreg": 809,
      "Ġwhere": 810,
      "Ġmade": 811,
      "ames": 812,
      "orld": 813,
      "Ġform": 814,
      "ating": 815,
      "Ġbu": 816,
      "Ġac": 817,
      "Ġlar": 818,
      "Ġmov": 819,
      "Ġrele": 820,
      "Ġinter": 821,
      "ener": 822,
      "ever": 823,
      "hes": 824,
      "ury": 825,
      "ished": 826,
      "ines": 827,
      "Ġsome": 828,
      "Ġfollow": 829,
      "Ġso": 830,
      "Ġwrit": 831,
      "ros": 832,
      "Ġqu": 833,
      "Ġco": 834,
      "Ġday": 835,
      "Ġspec": 836,
      "Ġinc": 837,
      "ĠAt": 838,
      "Ġfour": 839,
      "Ġam": 840,
      "ived": 841,
      "ĠLe": 842,
      "ual": 843,
      "Ġsecond": 844,
      "Ġacc": 845,
      "ĠRe": 846,
      "Ġ000": 847,
      "Ġused": 848,
      "ins": 849,
      "lect": 850,
      "Ġind": 851,
      "ning": 852,
      "ike": 853,
      "Ġbefore": 854,
      "ank": 855,
      "bum": 856,
      "aid": 857,
      "iel": 858,
      "Ġsupp": 859,
      "ific": 860,
      "Ġsuch": 861,
      "Ġmon": 862,
      "rans": 863,
      "Ġmus": 864,
      "Ġ0": 865,
      "ĠThis": 866,
      "ll": 867,
      "ics": 868,
      "Ġ10": 869,
      "ily": 870,
      "Ġ12": 871,
      "hen": 872,
      "Ġhigh": 873,
      "iver": 874,
      "ĠSh": 875,
      "Ġcall": 876,
      "ĠBrit": 877,
      "Ġbeing": 878,
      "Ġthere": 879,
      "any": 880,
      "Ġpubl": 881,
      "aj": 882,
      "io": 883,
      "Ġent": 884,
      "ars": 885,
      "ĠSc": 886,
      "owever": 887,
      "ĠJo": 888,
      "Ġsy": 889,
      "Ġsur": 890,
      "Ġdo": 891,
      "ĠAust": 892,
      "Ġyears": 893,
      "Ġnumber": 894,
      "Ġfound": 895,
      "Ġep": 896,
      "Ġloc": 897,
      "Ġalbum": 898,
      "Ġtra": 899,
      "Ġsever": 900,
      "velop": 901,
      "Ġagainst": 902,
      "Ġno": 903,
      "ton": 904,
      "ek": 905,
      "Ġset": 906,
      "ĠâĢĶ": 907,
      "Ġinv": 908,
      "ife": 909,
      "ince": 910,
      "ised": 911,
      "other": 912,
      "Ġbl": 913,
      "ject": 914,
      "uc": 915,
      "ier": 916,
      "ĠZ": 917,
      "ement": 918,
      "Ġem": 919,
      "ten": 920,
      "ird": 921,
      "ĠEng": 922,
      "Ġ/": 923,
      "Ġboth": 924,
      "ities": 925,
      "Ġpres": 926,
      "Ġincluding": 927,
      "Ġback": 928,
      "Ġseries": 929,
      "ained": 930,
      "ause": 931,
      "Ġthen": 932,
      "Ġbecame": 933,
      "its": 934,
      "ane": 935,
      "irect": 936,
      "Ġwell": 937,
      "yl": 938,
      "pr": 939,
      "ode": 940,
      "ram": 941,
      "ise": 942,
      "Ġknown": 943,
      "urch": 944,
      "Ġtrans": 945,
      "Ġperform": 946,
      "Ġteam": 947,
      "Ġadd": 948,
      "ident": 949,
      "ale": 950,
      "son": 951,
      "Ġexp": 952,
      "Ġ16": 953,
      "ĠUnited": 954,
      "Ġdep": 955,
      "ures": 956,
      "ann": 957,
      "az": 958,
      "Ġ198": 959,
      "ert": 960,
      "Ġepis": 961,
      "ined": 962,
      "Ġmain": 963,
      "row": 964,
      "ful": 965,
      "Ġpop": 966,
      "Ġrece": 967,
      "ield": 968,
      "Ġ194": 969,
      "Ġmet": 970,
      "though": 971,
      "Ġ15": 972,
      "overn": 973,
      "ower": 974,
      "Ġsing": 975,
      "iet": 976,
      "uch": 977,
      "Ġ11": 978,
      "Ġmany": 979,
      "air": 980,
      "ross": 981,
      "ĠAfter": 982,
      "Ġcharac": 983,
      "Ġlong": 984,
      "ĠInd": 985,
      "Ġseveral": 986,
      "Ġdesc": 987,
      "ather": 988,
      "ober": 989,
      "Ġrep": 990,
      "Ġcontin": 991,
      "Ġest": 992,
      "Ġ17": 993,
      "Ġdevelop": 994,
      "Ġop": 995,
      "ool": 996,
      "ĠAustral": 997,
      "ĠAmerican": 998,
      "Ġmill": 999,
      "up": 1000,
      "ivers": 1001,
      "Ġgo": 1002,
      "ute": 1003,
      "Ġsm": 1004,
      "ern": 1005,
      "elf": 1006,
      "Ġorig": 1007,
      "led": 1008,
      "Ġcity": 1009,
      "Ġbegan": 1010,
      "ative": 1011,
      "ared": 1012,
      "Ġshow": 1013,
      "Ġstud": 1014,
      "ĠGer": 1015,
      "Ġmin": 1016,
      "au": 1017,
      "Ġcre": 1018,
      "une": 1019,
      "emb": 1020,
      "der": 1021,
      "roup": 1022,
      "ĠWar": 1023,
      "ĠShe": 1024,
      "ĠBritish": 1025,
      "Ġalong": 1026,
      "ah": 1027,
      "ĠMay": 1028,
      "ven": 1029,
      "Ġpol": 1030,
      "Ġhead": 1031,
      "Ġcomple": 1032,
      "apt": 1033,
      "Ġ197": 1034,
      "Ġcentury": 1035,
      "ĠJohn": 1036,
      "ued": 1037,
      "Ġdid": 1038,
      "Ġlead": 1039,
      "erm": 1040,
      "Ġsign": 1041,
      "Ġ196": 1042,
      "ired": 1043,
      "Ġmil": 1044,
      "Ġdirect": 1045,
      "Ġship": 1046,
      "til": 1047,
      "Ġart": 1048,
      "ually": 1049,
      "Ġcould": 1050,
      "ized": 1051,
      "Ġob": 1052,
      "Ġext": 1053,
      "Ġdown": 1054,
      "iam": 1055,
      "Ġearly": 1056,
      "ley": 1057,
      "Ġhist": 1058,
      "view": 1059,
      "Ġnear": 1060,
      "Ġcar": 1061,
      "Ġbel": 1062,
      "Ġdif": 1063,
      "Ġwar": 1064,
      "Ġoper": 1065,
      "ĠCon": 1066,
      "Ġinf": 1067,
      "ient": 1068,
      "Ġbro": 1069,
      "ĠWh": 1070,
      "ĠUS": 1071,
      "Ġthese": 1072,
      "els": 1073,
      "Ġmat": 1074,
      "Ġcalled": 1075,
      "oot": 1076,
      "Ġair": 1077,
      "ĠBr": 1078,
      "Ġimp": 1079,
      "Ġmay": 1080,
      "Ġsaid": 1081,
      "aking": 1082,
      "Ġrun": 1083,
      "Ġcrit": 1084,
      "Ġkm": 1085,
      "ĠIs": 1086,
      "ople": 1087,
      "ull": 1088,
      "ruct": 1089,
      "ccess": 1090,
      "Ġfeat": 1091,
      "Ġepisode": 1092,
      "Ġdesign": 1093,
      "itt": 1094,
      "ured": 1095,
      "Ġland": 1096,
      "Ġinst": 1097,
      "Ġresp": 1098,
      "Ġdisc": 1099,
      "ments": 1100,
      "ĠSp": 1101,
      "imes": 1102,
      "Ġdist": 1103,
      "Ġuntil": 1104,
      "Ġreturn": 1105,
      "gest": 1106,
      "Ġdescrib": 1107,
      "yp": 1108,
      "ists": 1109,
      "Ġins": 1110,
      "ĠCl": 1111,
      "Ġstart": 1112,
      "Ġattack": 1113,
      "xt": 1114,
      "ajor": 1115,
      "Ġprev": 1116,
      "ided": 1117,
      "oss": 1118,
      "Ġany": 1119,
      "Ġfin": 1120,
      "ĠBl": 1121,
      "ĠAug": 1122,
      "ĠGerman": 1123,
      "ĠAugust": 1124,
      "ink": 1125,
      "Ġarea": 1126,
      "amed": 1127,
      "erson": 1128,
      "ains": 1129,
      "ially": 1130,
      "ĠSept": 1131,
      "my": 1132,
      "erv": 1133,
      "Ġprov": 1134,
      "enn": 1135,
      "ible": 1136,
      "ism": 1137,
      "ĠCol": 1138,
      "Ġthough": 1139,
      "Ġgener": 1140,
      "ĠSeptember": 1141,
      "ĠCar": 1142,
      "Ġconst": 1143,
      "Ġ13": 1144,
      "Ġpass": 1145,
      "Ġgovern": 1146,
      "Ġnorth": 1147,
      "ĠNorth": 1148,
      "ty": 1149,
      "Ġoffic": 1150,
      "ange": 1151,
      "ĠThey": 1152,
      "osed": 1153,
      "ĠComm": 1154,
      "Ġsame": 1155,
      "Ġown": 1156,
      "Ġaround": 1157,
      "ĠMan": 1158,
      "Ġgroup": 1159,
      "ove": 1160,
      "Ġopen": 1161,
      "Ġbecause": 1162,
      "Ġsupport": 1163,
      "cept": 1164,
      "Ġreleased": 1165,
      "Ġmillion": 1166,
      "ĠPl": 1167,
      "Ġeff": 1168,
      "ets": 1169,
      "Ġuse": 1170,
      "Ġlike": 1171,
      "ium": 1172,
      "Ġsix": 1173,
      "Ġsmall": 1174,
      "Ġocc": 1175,
      "ash": 1176,
      "Ġsuccess": 1177,
      "Ġfinal": 1178,
      "Ġcount": 1179,
      "chool": 1180,
      "Ġadv": 1181,
      "Ã©": 1182,
      "Ġbatt": 1183,
      "ĠJu": 1184,
      "Ġappear": 1185,
      "Ġmusic": 1186,
      "aced": 1187,
      "Ġgu": 1188,
      "Ġsim": 1189,
      "Ġpeople": 1190,
      "ues": 1191,
      "stem": 1192,
      "ĠWorld": 1193,
      "Ġfam": 1194,
      "ĠChr": 1195,
      "Ġfollowing": 1196,
      "wards": 1197,
      "ivision": 1198,
      "ĠDe": 1199,
      "Ġbr": 1200,
      "Ġconc": 1201,
      "Ġdam": 1202,
      "ouse": 1203,
      "Ġmod": 1204,
      "Ġwin": 1205,
      "Ġph": 1206,
      "uth": 1207,
      "ĠAll": 1208,
      "ĠHowever": 1209,
      "ina": 1210,
      "ke": 1211,
      "und": 1212,
      "ilt": 1213,
      "ians": 1214,
      "Ġconsid": 1215,
      "Ġlarge": 1216,
      "Ġeach": 1217,
      "Ġ195": 1218,
      "ĠJune": 1219,
      "ĠAd": 1220,
      "oman": 1221,
      "Ġresult": 1222,
      "ck": 1223,
      "ology": 1224,
      "ution": 1225,
      "ĠFor": 1226,
      "ole": 1227,
      "Ġed": 1228,
      "ats": 1229,
      "ropical": 1230,
      "Ġele": 1231,
      "ives": 1232,
      "ĠSouth": 1233,
      "Ġann": 1234,
      "Ġ191": 1235,
      "Ġfive": 1236,
      "Ġ%": 1237,
      "Ġreport": 1238,
      "Ġpoint": 1239,
      "Ġcontro": 1240,
      "Ġcharacter": 1241,
      "ĠMe": 1242,
      "ged": 1243,
      "Ġlife": 1244,
      "Ġsouth": 1245,
      "Ġstr": 1246,
      "Ġ14": 1247,
      "ĠJan": 1248,
      "Ġvar": 1249,
      "ĠPro": 1250,
      "raph": 1251,
      "ery": 1252,
      "ĠBe": 1253,
      "Ġgun": 1254,
      "ording": 1255,
      "eb": 1256,
      "ales": 1257,
      "Ġever": 1258,
      "ended": 1259,
      "ony": 1260,
      "Ġ193": 1261,
      "ately": 1262,
      "Ġsince": 1263,
      "Ġprom": 1264,
      "Ġgr": 1265,
      "ural": 1266,
      "ax": 1267,
      "ĠGu": 1268,
      "ĠOct": 1269,
      "ĠQ": 1270,
      "med": 1271,
      "ble": 1272,
      "ically": 1273,
      "avy": 1274,
      "ĠStates": 1275,
      "ox": 1276,
      "aving": 1277,
      "ling": 1278,
      "Ġweek": 1279,
      "ored": 1280,
      "uary": 1281,
      "Ġstate": 1282,
      "Ġ$": 1283,
      "Ġmajor": 1284,
      "ĠFran": 1285,
      "ont": 1286,
      "Ġtook": 1287,
      "ĠOctober": 1288,
      "ified": 1289,
      "ĠNov": 1290,
      "ting": 1291,
      "ys": 1292,
      "ection": 1293,
      "ĠEu": 1294,
      "ected": 1295,
      "Ġwill": 1296,
      "empt": 1297,
      "ĠII": 1298,
      "iving": 1299,
      "Ġreceived": 1300,
      "lish": 1301,
      "ball": 1302,
      "Ġpartic": 1303,
      "Ġpublic": 1304,
      "ility": 1305,
      "ĠJuly": 1306,
      "raft": 1307,
      "Ġclass": 1308,
      "ae": 1309,
      "Ġrest": 1310,
      "ission": 1311,
      "Ġcare": 1312,
      "ague": 1313,
      "Ġtit": 1314,
      "Ġplayed": 1315,
      "Ġline": 1316,
      "Ġhel": 1317,
      "ĠDec": 1318,
      "Ġwhat": 1319,
      "Ġbook": 1320,
      "Ġdet": 1321,
      "ĠHer": 1322,
      "ional": 1323,
      "Ġsystem": 1324,
      "ple": 1325,
      "by": 1326,
      "Ġname": 1327,
      "ops": 1328,
      "ants": 1329,
      "Ġlast": 1330,
      "Ġnow": 1331,
      "Ġ25": 1332,
      "Ġprot": 1333,
      "Ġport": 1334,
      "Ġbuild": 1335,
      "ĠJanuary": 1336,
      "Ġ[": 1337,
      "Ġ]": 1338,
      "Ġincre": 1339,
      "aim": 1340,
      "ĠCan": 1341,
      "esp": 1342,
      "Ġstorm": 1343,
      "ĠChrist": 1344,
      "omet": 1345,
      "Ġserv": 1346,
      "Ġref": 1347,
      "ively": 1348,
      "Ġ30": 1349,
      "ĠMc": 1350,
      "hel": 1351,
      "Ġlate": 1352,
      "Ġincluded": 1353,
      "ĠPh": 1354,
      "Ġconf": 1355,
      "Ġdue": 1356,
      "ages": 1357,
      "Ġmar": 1358,
      "Ġtri": 1359,
      "ĠYork": 1360,
      "Ġdescribed": 1361,
      "ret": 1362,
      "dom": 1363,
      "ĠDuring": 1364,
      "aur": 1365,
      "Ġwon": 1366,
      "ĠKing": 1367,
      "anc": 1368,
      "Ġjust": 1369,
      "ham": 1370,
      "Ġmuch": 1371,
      "app": 1372,
      "Ġsingle": 1373,
      "ĠApr": 1374,
      "apan": 1375,
      "ĠApril": 1376,
      "Ġgovernment": 1377,
      "gin": 1378,
      "Ġallow": 1379,
      "ner": 1380,
      "ody": 1381,
      "..": 1382,
      "Ġsl": 1383,
      "iod": 1384,
      "ideo": 1385,
      "Ġworld": 1386,
      "ĠJapan": 1387,
      "get": 1388,
      "Ġdeath": 1389,
      "oad": 1390,
      "Ġappro": 1391,
      "sion": 1392,
      "Ġattempt": 1393,
      "ital": 1394,
      "Ġcommand": 1395,
      "ĠNovember": 1396,
      "Ġkill": 1397,
      "rote": 1398,
      "Ġanother": 1399,
      "itions": 1400,
      "Ġleft": 1401,
      "Ġcamp": 1402,
      "Ġmen": 1403,
      "Ġ...": 1404,
      "ently": 1405,
      "Ġalthough": 1406,
      "ai": 1407,
      "Ġwithin": 1408,
      "Ġshort": 1409,
      "Ġposs": 1410,
      "ger": 1411,
      "Ġold": 1412,
      "ĠPar": 1413,
      "orp": 1414,
      "Ġnamed": 1415,
      "ech": 1416,
      "Ġwrote": 1417,
      "ĠEurop": 1418,
      "ene": 1419,
      "ĠMus": 1420,
      "Ġeven": 1421,
      "Ġbuilt": 1422,
      "urther": 1423,
      "Ġorgan": 1424,
      "rand": 1425,
      "ched": 1426,
      "Ġturn": 1427,
      "Ġtop": 1428,
      "omin": 1429,
      "ption": 1430,
      "ract": 1431,
      "Ġbased": 1432,
      "idge": 1433,
      "Ġtrack": 1434,
      "ays": 1435,
      "Ġplace": 1436,
      "ĠMarch": 1437,
      "itary": 1438,
      "ĠBatt": 1439,
      "Ġprog": 1440,
      "Ġchild": 1441,
      "rench": 1442,
      "Ġpower": 1443,
      "Ġthird": 1444,
      "ĠGe": 1445,
      "ĠDecember": 1446,
      "Ġprevious": 1447,
      "ness": 1448,
      "Ġevent": 1449,
      "Ġpar": 1450,
      "Ġstar": 1451,
      "Ġspecies": 1452,
      "ulation": 1453,
      "ĠNational": 1454,
      "Ġif": 1455,
      "Ġcap": 1456,
      "Ġestab": 1457,
      "Ġvis": 1458,
      "Ġdiffer": 1459,
      "ards": 1460,
      "ipp": 1461,
      "Ġschool": 1462,
      "ached": 1463,
      "Ġbelie": 1464,
      "ĠBy": 1465,
      "Ġvery": 1466,
      "ĠAnd": 1467,
      "Ġbre": 1468,
      "ung": 1469,
      "Ġperson": 1470,
      "Ġhome": 1471,
      "ilar": 1472,
      "Ġdr": 1473,
      "osp": 1474,
      "Ġexpl": 1475,
      "Ġperiod": 1476,
      "ler": 1477,
      "Ġwater": 1478,
      "ances": 1479,
      "Ġlist": 1480,
      "Ġrequ": 1481,
      "ĠThere": 1482,
      "Ġgames": 1483,
      "Ġhal": 1484,
      "ms": 1485,
      "Ġtem": 1486,
      "ves": 1487,
      "amb": 1488,
      "Ġhand": 1489,
      "Ġreview": 1490,
      "iversity": 1491,
      "ĠCity": 1492,
      "ĠRiver": 1493,
      "ĠFrench": 1494,
      "Ġ192": 1495,
      "que": 1496,
      "Ġeng": 1497,
      "ison": 1498,
      "oint": 1499,
      "eder": 1500,
      "Ġbest": 1501,
      "Ġsent": 1502,
      "aged": 1503,
      "Ġrepl": 1504,
      "Ġthose": 1505,
      "iven": 1506,
      "Ġhum": 1507,
      "ides": 1508,
      "ĠEurope": 1509,
      "Ġwind": 1510,
      "Ġ100": 1511,
      "Ġmonth": 1512,
      "ese": 1513,
      "ense": 1514,
      "ĠHis": 1515,
      "ĠWhen": 1516,
      "oci": 1517,
      "ĠEngland": 1518,
      "Ġmed": 1519,
      "side": 1520,
      "Ġdest": 1521,
      "ruction": 1522,
      "hest": 1523,
      "ature": 1524,
      "Ġled": 1525,
      "ĠNo": 1526,
      "Ġcour": 1527,
      "elt": 1528,
      "Ġ2010": 1529,
      "Ġbo": 1530,
      "Ġgreat": 1531,
      "Ġcapt": 1532,
      "ences": 1533,
      "aken": 1534,
      "let": 1535,
      "ĠFl": 1536,
      "Ġfamily": 1537,
      "aster": 1538,
      "ience": 1539,
      "ĠÂ": 1540,
      "Ġbas": 1541,
      "Ġmake": 1542,
      "ĠSte": 1543,
      "mp": 1544,
      "Ġvideo": 1545,
      "Ġoriginal": 1546,
      "Ġopp": 1547,
      "Ġ2008": 1548,
      "Ġnext": 1549,
      "Ġcame": 1550,
      "inc": 1551,
      "Ġdem": 1552,
      "akes": 1553,
      "Ġtyp": 1554,
      "urric": 1555,
      "ention": 1556,
      "Ġstill": 1557,
      "ĠComp": 1558,
      "Ġterm": 1559,
      "Ġside": 1560,
      "Ġmark": 1561,
      "Ġmoved": 1562,
      "Ġrole": 1563,
      "Ġleg": 1564,
      "Ġcontinued": 1565,
      "ented": 1566,
      "Ġstory": 1567,
      "ĠOr": 1568,
      "alk": 1569,
      "Ġfew": 1570,
      "Ġlocal": 1571,
      "Ġway": 1572,
      "Ġ2009": 1573,
      "Ġsold": 1574,
      "Ġcaus": 1575,
      "ĠDivision": 1576,
      "Ġwest": 1577,
      "Ġhistory": 1578,
      "Ġmid": 1579,
      "ott": 1580,
      "ĠChurch": 1581,
      "gy": 1582,
      "atter": 1583,
      "ior": 1584,
      "ĠTe": 1585,
      "Ġview": 1586,
      "line": 1587,
      "bs": 1588,
      "oon": 1589,
      "Ġheld": 1590,
      "rew": 1591,
      "uted": 1592,
      "Ġforces": 1593,
      "aining": 1594,
      "ival": 1595,
      "embers": 1596,
      "Ġsug": 1597,
      "Ġauth": 1598,
      "Ġformer": 1599,
      "ĠPr": 1600,
      "Ġiss": 1601,
      "Ġaddition": 1602,
      "read": 1603,
      "Ġroad": 1604,
      "uss": 1605,
      "ĠAm": 1606,
      "riend": 1607,
      "lev": 1608,
      "ĠBro": 1609,
      "eng": 1610,
      "lu": 1611,
      "Ġant": 1612,
      "Ġcover": 1613,
      "Ġoften": 1614,
      "ne": 1615,
      "ĠChar": 1616,
      "sh": 1617,
      "Ġeast": 1618,
      "Ġfurther": 1619,
      "astern": 1620,
      "ograph": 1621,
      "Ġconsidered": 1622,
      "Ġcareer": 1623,
      "Ġeffect": 1624,
      "ĠEd": 1625,
      "ĠWe": 1626,
      "Ġstand": 1627,
      "ining": 1628,
      "arn": 1629,
      "Ġtown": 1630,
      "ĠWill": 1631,
      "Ġclaim": 1632,
      "Ġright": 1633,
      "Ġcr": 1634,
      "ront": 1635,
      "Ġinit": 1636,
      "Ġdeb": 1637,
      "ampions": 1638,
      "ches": 1639,
      "eter": 1640,
      "Ġ21": 1641,
      "Ġtot": 1642,
      "Ġ2007": 1643,
      "ĠOne": 1644,
      "Ġposition": 1645,
      "self": 1646,
      "ories": 1647,
      "Ġexper": 1648,
      "Ġdel": 1649,
      "Ġarch": 1650,
      "Ġnort": 1651,
      "ĠState": 1652,
      "Ġmilitary": 1653,
      "Ġmatch": 1654,
      "Ġ23": 1655,
      "ĠWith": 1656,
      "enc": 1657,
      "Ġdra": 1658,
      "ĠAb": 1659,
      "Ġhalf": 1660,
      "Ġtropical": 1661,
      "ĠAcc": 1662,
      "ternational": 1663,
      "Ġsimilar": 1664,
      "Ġhelp": 1665,
      "Ġsuggest": 1666,
      "par": 1667,
      "roy": 1668,
      "Ġstrong": 1669,
      "Ġ24": 1670,
      "Ġdefe": 1671,
      "Ġfire": 1672,
      "Ġconv": 1673,
      "ister": 1674,
      "Ġband": 1675,
      "ĠCount": 1676,
      "ĠRec": 1677,
      "Ġimport": 1678,
      "Ġplayer": 1679,
      "Ġrefer": 1680,
      "Ġwithout": 1681,
      "ĠGener": 1682,
      "Ġcur": 1683,
      "Ġreal": 1684,
      "Ġpolit": 1685,
      "alion": 1686,
      "Ġdays": 1687,
      "Ġtrad": 1688,
      "urricane": 1689,
      "Ġplan": 1690,
      "Ġcommun": 1691,
      "estern": 1692,
      "Ġmembers": 1693,
      "Ġ2011": 1694,
      "Ġtake": 1695,
      "ĠTr": 1696,
      "Ġspe": 1697,
      "ebru": 1698,
      "ead": 1699,
      "ĠX": 1700,
      "Ġtw": 1701,
      "Ġmy": 1702,
      "ried": 1703,
      "Ġcompany": 1704,
      "Ġclub": 1705,
      "iment": 1706,
      "ĠPer": 1707,
      "Ġcommon": 1708,
      "Ġav": 1709,
      "Ġamong": 1710,
      "Ġ22": 1711,
      "Ġlevel": 1712,
      "ensive": 1713,
      "Ġdifferent": 1714,
      "ones": 1715,
      "Ġyou": 1716,
      "Ġevery": 1717,
      "Ġpost": 1718,
      "Ġrecorded": 1719,
      "Ġprop": 1720,
      "ots": 1721,
      "Ġel": 1722,
      "itar": 1723,
      "Ġhowever": 1724,
      "ĠFebru": 1725,
      "ĠEar": 1726,
      "ĠAlthough": 1727,
      "ĠFebruary": 1728,
      "Ġelect": 1729,
      "Ġbeh": 1730,
      "Ġinvol": 1731,
      "augh": 1732,
      "Ġfore": 1733,
      "Ġ2012": 1734,
      "ĠAustralian": 1735,
      "iter": 1736,
      "ĠPort": 1737,
      "Ġrepres": 1738,
      "eal": 1739,
      "Ġ2006": 1740,
      "ĠEnglish": 1741,
      "Ġarr": 1742,
      "yn": 1743,
      "arr": 1744,
      "Ġpublished": 1745,
      "ĠAf": 1746,
      "Ġ26": 1747,
      "Ġlow": 1748,
      "ize": 1749,
      "ression": 1750,
      "reen": 1751,
      "yle": 1752,
      "hern": 1753,
      "ĠAccording": 1754,
      "Ġfind": 1755,
      "Ġships": 1756,
      "Ġorder": 1757,
      "lear": 1758,
      "Ġwritten": 1759,
      "ering": 1760,
      "ittle": 1761,
      "outher": 1762,
      "Ġmag": 1763,
      "Ġtro": 1764,
      "atic": 1765,
      "be": 1766,
      "Ġvict": 1767,
      "Ġtotal": 1768,
      "isc": 1769,
      "ices": 1770,
      "ploy": 1771,
      "Ġfre": 1772,
      "Ġpat": 1773,
      "rodu": 1774,
      "Ġrelease": 1775,
      "Ġorigin": 1776,
      "outhern": 1777,
      "ĠSu": 1778,
      "ĠAustralia": 1779,
      "Ġfield": 1780,
      "Ġparticular": 1781,
      "Ġsongs": 1782,
      "Ġtitle": 1783,
      "Ġbecome": 1784,
      "Ġfoot": 1785,
      "ĠAir": 1786,
      "Ġcompet": 1787,
      "Ġer": 1788,
      "ĠAng": 1789,
      "ising": 1790,
      "ĠPark": 1791,
      "Ġreported": 1792,
      "Ġcontrol": 1793,
      "ĠGeneral": 1794,
      "Ġlost": 1795,
      "ĠMich": 1796,
      "rick": 1797,
      "Ġprof": 1798,
      "Ġord": 1799,
      "Ġproject": 1800,
      "reet": 1801,
      "ush": 1802,
      "Ġcomb": 1803,
      "ĠCanad": 1804,
      "Ġtimes": 1805,
      "Ġhaving": 1806,
      "aces": 1807,
      "sequ": 1808,
      "Ġsurv": 1809,
      "Ġft": 1810,
      "Ġgave": 1811,
      "Ġter": 1812,
      "aying": 1813,
      "ĠCent": 1814,
      "Ġproduced": 1815,
      "Ġstat": 1816,
      "Ġversion": 1817,
      "ĠLeague": 1818,
      "Ġsk": 1819,
      "Ġcy": 1820,
      "urs": 1821,
      "esc": 1822,
      "ĠEl": 1823,
      "ampionship": 1824,
      "ĠAss": 1825,
      "rest": 1826,
      "ĠWest": 1827,
      "ĠUniversity": 1828,
      "Ġ!": 1829,
      "Ġequ": 1830,
      "rent": 1831,
      "Ġlight": 1832,
      "ĠMin": 1833,
      "ĠBar": 1834,
      "Ġ28": 1835,
      "Ġproduction": 1836,
      "iety": 1837,
      "oung": 1838,
      "Ġsignific": 1839,
      "Ġless": 1840,
      "Ġchang": 1841,
      "Ġauthor": 1842,
      "iron": 1843,
      "ĠGeor": 1844,
      "ream": 1845,
      "ably": 1846,
      "ours": 1847,
      "ailed": 1848,
      "ĠReg": 1849,
      "levision": 1850,
      "Ġhistor": 1851,
      "ges": 1852,
      "Ġjo": 1853,
      "ĠThese": 1854,
      "Ġnever": 1855,
      "Ġinflu": 1856,
      "ĠRich": 1857,
      "ille": 1858,
      "Ġcountry": 1859,
      "quad": 1860,
      "ald": 1861,
      "Ã¡": 1862,
      "Ġgiven": 1863,
      "ĠRoman": 1864,
      "Ġarm": 1865,
      "Ġaff": 1866,
      "Ġsite": 1867,
      "Ġmaking": 1868,
      "Ġforce": 1869,
      "Ġ&": 1870,
      "Ġwant": 1871,
      "used": 1872,
      "Ġ27": 1873,
      "Ġinclude": 1874,
      "Ġreturned": 1875,
      "echn": 1876,
      "Ġpopular": 1877,
      "ĠAfric": 1878,
      "aul": 1879,
      "work": 1880,
      "Ġsol": 1881,
      "Ġ50": 1882,
      "Ġground": 1883,
      "na": 1884,
      "ither": 1885,
      "Ġobs": 1886,
      "Ġpress": 1887,
      "Ġeight": 1888,
      "ĠMiss": 1889,
      "vers": 1890,
      "oard": 1891,
      "Ġsit": 1892,
      "ĠRoad": 1893,
      "Ġ2013": 1894,
      "Ġdestroy": 1895,
      "ades": 1896,
      "ivil": 1897,
      "Ġisland": 1898,
      "antry": 1899,
      "Ġcritic": 1900,
      "ator": 1901,
      "Ġnight": 1902,
      "Ġstated": 1903,
      "ĠLes": 1904,
      "ization": 1905,
      "Ġacross": 1906,
      "ĠPol": 1907,
      "ination": 1908,
      "ask": 1909,
      "Ġstruct": 1910,
      "me": 1911,
      "Ġreached": 1912,
      "Ġchurch": 1913,
      "ĠWilliam": 1914,
      "Ġfar": 1915,
      "Ġdeveloped": 1916,
      "Ġseen": 1917,
      "ring": 1918,
      "ffic": 1919,
      "aun": 1920,
      "fic": 1921,
      "ford": 1922,
      "ape": 1923,
      "ĠAmerica": 1924,
      "Ġpopulation": 1925,
      "ĠWhile": 1926,
      "ĠJapanese": 1927,
      "Ġcult": 1928,
      "aff": 1929,
      "Ġlim": 1930,
      "Ġpresent": 1931,
      "Ġmiles": 1932,
      "Ġprogram": 1933,
      "Ġannoun": 1934,
      "ration": 1935,
      "reek": 1936,
      "ĠSim": 1937,
      "ĠSong": 1938,
      "ius": 1939,
      "Ġfact": 1940,
      "Ġcross": 1941,
      "ument": 1942,
      "Ġsignificant": 1943,
      "sp": 1944,
      "Ġ29": 1945,
      "Ġshould": 1946,
      "Ġestabl": 1947,
      "Ġearl": 1948,
      "Ġ190": 1949,
      "ĠJack": 1950,
      "omb": 1951,
      "Ġusing": 1952,
      "oyal": 1953,
      "Ġchildren": 1954,
      "cess": 1955,
      "Ġread": 1956,
      "omen": 1957,
      "Ġaway": 1958,
      "iness": 1959,
      "Ġnov": 1960,
      "ground": 1961,
      "ĠLond": 1962,
      "Ġfriend": 1963,
      "Ġrad": 1964,
      "Ġguns": 1965,
      "aign": 1966,
      "ĠOld": 1967,
      "ological": 1968,
      "reg": 1969,
      "Ġdiv": 1970,
      "Ġhimself": 1971,
      "ĠCounty": 1972,
      "Ġhow": 1973,
      "Ġmanag": 1974,
      "craft": 1975,
      "Ġpit": 1976,
      "alth": 1977,
      "ĠMount": 1978,
      "ĠDav": 1979,
      "Ġdevelopment": 1980,
      "Ġestablished": 1981,
      "ĠLondon": 1982,
      "imately": 1983,
      "Ġmodern": 1984,
      "Ġbody": 1985,
      "Ġbattle": 1986,
      "Ġmm": 1987,
      "Ġformed": 1988,
      "Ġthought": 1989,
      "eared": 1990,
      "Ġbar": 1991,
      "Ġpra": 1992,
      "Ġsound": 1993,
      "Ġperformance": 1994,
      "igade": 1995,
      "isted": 1996,
      "ope": 1997,
      "Ġcast": 1998,
      "Ġhig": 1999,
      "Ġgen": 2000,
      "Ġthroughout": 2001,
      "iers": 2002,
      "Ġwent": 2003,
      "Ġfelt": 2004,
      "Ġpain": 2005,
      "Ġareas": 2006,
      "aren": 2007,
      "arch": 2008,
      "most": 2009,
      "Ġcat": 2010,
      "ĠIm": 2011,
      "rie": 2012,
      "Ġkilled": 2013,
      "Ġwat": 2014,
      "Ġtour": 2015,
      "ĠHigh": 2016,
      "ĠScient": 2017,
      "ero": 2018,
      "Ġlaw": 2019,
      "utes": 2020,
      "Ġprim": 2021,
      "ĠBlack": 2022,
      "Ġsomet": 2023,
      "Ġfight": 2024,
      "Ġgood": 2025,
      "ĠNe": 2026,
      "Ġsuccessful": 2027,
      "ĠCal": 2028,
      "Ġintrodu": 2029,
      "ylan": 2030,
      "iec": 2031,
      "Ġdied": 2032,
      "Ġgl": 2033,
      "ements": 2034,
      "Ġseven": 2035,
      "ĠDylan": 2036,
      "Ġnoted": 2037,
      "ords": 2038,
      "Ġcou": 2039,
      "acy": 2040,
      "oll": 2041,
      "ript": 2042,
      "Ġrange": 2043,
      "ublic": 2044,
      "field": 2045,
      "itive": 2046,
      "Ġdiscover": 2047,
      "Ġfull": 2048,
      "Ġtoo": 2049,
      "Ġste": 2050,
      "Ġimportant": 2051,
      "af": 2052,
      "Ġsoc": 2053,
      "Ġmount": 2054,
      "irc": 2055,
      "Ġadm": 2056,
      "Ġlocated": 2057,
      "Ġten": 2058,
      "Ġfront": 2059,
      "ĠEx": 2060,
      "ĠArmy": 2061,
      "Ġblack": 2062,
      "Ġstarted": 2063,
      "Ġput": 2064,
      "Ġdecl": 2065,
      "Ġbuilding": 2066,
      "ĠEv": 2067,
      "ief": 2068,
      "Ġneed": 2069,
      "ĠHa": 2070,
      "Ġchart": 2071,
      "ĠPhil": 2072,
      "Ġide": 2073,
      "Ġhuman": 2074,
      "ico": 2075,
      "ĠGl": 2076,
      "Ġ31": 2077,
      "Ġactiv": 2078,
      "Ġperformed": 2079,
      "Ġvarious": 2080,
      "epend": 2081,
      "ĠCompany": 2082,
      "eth": 2083,
      "osaur": 2084,
      "Ġremained": 2085,
      "Ġwriting": 2086,
      "Ġcas": 2087,
      "Ġlook": 2088,
      "Ġtelevision": 2089,
      "Ġfeet": 2090,
      "fall": 2091,
      "Ġsee": 2092,
      "Ġtroops": 2093,
      "ĠOl": 2094,
      "ways": 2095,
      "Ġofficial": 2096,
      "con": 2097,
      "reland": 2098,
      "Ġfem": 2099,
      "Ġfather": 2100,
      "ĠFeder": 2101,
      "Ġcaused": 2102,
      "itted": 2103,
      "Ġfun": 2104,
      "Ġnational": 2105,
      "ĠIreland": 2106,
      "Ġpoem": 2107,
      "com": 2108,
      "Ġwid": 2109,
      "Ġwhite": 2110,
      "ogn": 2111,
      "Ġhouse": 2112,
      "ĠTo": 2113,
      "ĠJames": 2114,
      "ries": 2115,
      "Äģ": 2116,
      "Ġtechn": 2117,
      "Ġheavy": 2118,
      "Ġinterest": 2119,
      "ĠSec": 2120,
      "idence": 2121,
      "ĠHar": 2122,
      "Ġconstruction": 2123,
      "Ġage": 2124,
      "Ġred": 2125,
      "Ġsum": 2126,
      "hem": 2127,
      "ara": 2128,
      "Ġget": 2129,
      "Ġ2005": 2130,
      "iting": 2131,
      "ĠMon": 2132,
      "ĠHist": 2133,
      "Ġplayers": 2134,
      "uck": 2135,
      "gr": 2136,
      "Ġstri": 2137,
      "Ġstyle": 2138,
      "ĠPal": 2139,
      "ump": 2140,
      "ael": 2141,
      "Ġentire": 2142,
      "Ġsw": 2143,
      "Ġke": 2144,
      "idd": 2145,
      "ino": 2146,
      "ĠKe": 2147,
      "Ġevents": 2148,
      "Ġdoes": 2149,
      "Ġsett": 2150,
      "ĠIsland": 2151,
      "ĠRober": 2152,
      "ourn": 2153,
      "Ġmix": 2154,
      "Ġrev": 2155,
      "Ġbegin": 2156,
      "Ġvill": 2157,
      "Ġable": 2158,
      "Ġrelig": 2159,
      "quadron": 2160,
      "ressed": 2161,
      "Ġcoast": 2162,
      "Ġserved": 2163,
      "Ġpeak": 2164,
      "asing": 2165,
      "Ġcampaign": 2166,
      "Ġfav": 2167,
      "ĠBut": 2168,
      "Ġpolitical": 2169,
      "Ġlik": 2170,
      "ĠYou": 2171,
      "enced": 2172,
      "Ġ40": 2173,
      "Ġregion": 2174,
      "lected": 2175,
      "Ġcreated": 2176,
      "Ġtre": 2177,
      "ened": 2178,
      "ĠCo": 2179,
      "mar": 2180,
      "leet": 2181,
      "Ġonce": 2182,
      "Ġgod": 2183,
      "por": 2184,
      "ids": 2185,
      "duct": 2186,
      "Ġfig": 2187,
      "enth": 2188,
      "ĠCare": 2189,
      "ĠMag": 2190,
      "Ġfollowed": 2191,
      "ĠBattalion": 2192,
      "antic": 2193,
      "Ġ189": 2194,
      "Ġothers": 2195,
      "ĠAtl": 2196,
      "Ġpromot": 2197,
      "Ġpri": 2198,
      "Ġagre": 2199,
      "Ġworks": 2200,
      "ÃŃ": 2201,
      "Ġson": 2202,
      "ster": 2203,
      "abor": 2204,
      "ĠâĢĻ": 2205,
      "Ġroute": 2206,
      "Ġestim": 2207,
      "less": 2208,
      "Ġcompleted": 2209,
      "ficult": 2210,
      "Ġcond": 2211,
      "elling": 2212,
      "Ġannounced": 2213,
      "ĠCro": 2214,
      "Ġ2004": 2215,
      "here": 2216,
      "Ġbecom": 2217,
      "day": 2218,
      "ĠSy": 2219,
      "Ġrank": 2220,
      "Ġleast": 2221,
      "Ġmeet": 2222,
      "Ġdifficult": 2223,
      "Ġcoun": 2224,
      "Ġhold": 2225,
      "ĠDu": 2226,
      "Ġadded": 2227,
      "Ġball": 2228,
      "ivid": 2229,
      "rab": 2230,
      "Ġoriginally": 2231,
      "Ġval": 2232,
      "rought": 2233,
      "ample": 2234,
      "ique": 2235,
      "ana": 2236,
      "ĠSw": 2237,
      "play": 2238,
      "ought": 2239,
      "rict": 2240,
      "Ġrelations": 2241,
      "Ġcharacters": 2242,
      "Ġoccur": 2243,
      "Ġfac": 2244,
      "Ġbus": 2245,
      "Ġappeared": 2246,
      "Ġrock": 2247,
      "Ġmonths": 2248,
      "Ġcert": 2249,
      "ĠHam": 2250,
      "Ġspecial": 2251,
      "br": 2252,
      "Ġident": 2253,
      "urb": 2254,
      "ki": 2255,
      "Ġsouthern": 2256,
      "rap": 2257,
      "Ġcolle": 2258,
      "Ġround": 2259,
      "Ġpred": 2260,
      "Ġloss": 2261,
      "ament": 2262,
      "ects": 2263,
      "Ġbase": 2264,
      "Ġlittle": 2265,
      "odes": 2266,
      "Ġcomment": 2267,
      "Ġassoci": 2268,
      "cher": 2269,
      "ĠMer": 2270,
      "ĠRoyal": 2271,
      "Ġconn": 2272,
      "ĠOther": 2273,
      "Ġprocess": 2274,
      "Ġsuper": 2275,
      "Ġbroad": 2276,
      "Ġmi": 2277,
      "ĠAct": 2278,
      "ĠSom": 2279,
      "Ġinstead": 2280,
      "Ġdamage": 2281,
      "Ġborn": 2282,
      "emy": 2283,
      "ality": 2284,
      "Ġtradition": 2285,
      "Ġ2015": 2286,
      "Ġaircraft": 2287,
      "cer": 2288,
      "aly": 2289,
      "ett": 2290,
      "ĠKingdom": 2291,
      "ying": 2292,
      "ĠRout": 2293,
      "pped": 2294,
      "Ġfeatures": 2295,
      "Ġ2003": 2296,
      "Ġaud": 2297,
      "orse": 2298,
      "ĠTown": 2299,
      "unk": 2300,
      "Ġdecided": 2301,
      "Ġbehind": 2302,
      "Ġcycl": 2303,
      "oice": 2304,
      "Ġlack": 2305,
      "Ġenc": 2306,
      "Ġaccom": 2307,
      "ency": 2308,
      "cil": 2309,
      "Ġeastern": 2310,
      "Ġknow": 2311,
      "Ġservice": 2312,
      "Ġredu": 2313,
      "ĠRep": 2314,
      "Ġlet": 2315,
      "ĠTwo": 2316,
      "Ġgrow": 2317,
      "Ġnovel": 2318,
      "oo": 2319,
      "ĠSan": 2320,
      "ĠMad": 2321,
      "Ġnon": 2322,
      "umb": 2323,
      "Ġvol": 2324,
      "Ġsuff": 2325,
      "igned": 2326,
      "Ġ188": 2327,
      "Ġhighway": 2328,
      "ray": 2329,
      "Ġaward": 2330,
      "Ġriver": 2331,
      "Ġcritics": 2332,
      "heast": 2333,
      "Ġcirc": 2334,
      "ĠEast": 2335,
      "Ġsaw": 2336,
      "ĠScientology": 2337,
      "Ġtaken": 2338,
      "Ġoperations": 2339,
      "ĠMex": 2340,
      "ĠRoute": 2341,
      "Ġfif": 2342,
      "Ġmass": 2343,
      "ĠMor": 2344,
      "ĠBra": 2345,
      "Ġrecogn": 2346,
      "ĠMcC": 2347,
      "ming": 2348,
      "Ġwife": 2349,
      "Ġtowards": 2350,
      "Ġclose": 2351,
      "angu": 2352,
      "Ġfourth": 2353,
      "ault": 2354,
      "ned": 2355,
      "Ġaver": 2356,
      "Ġaction": 2357,
      "ĠSome": 2358,
      "ĠBill": 2359,
      "gg": 2360,
      "Ġvoc": 2361,
      "Ġeither": 2362,
      "ĠPres": 2363,
      "Ġanim": 2364,
      "oph": 2365,
      "ĠStreet": 2366,
      "ĠChampionship": 2367,
      "off": 2368,
      "Ġeventually": 2369,
      "Ġtest": 2370,
      "ata": 2371,
      "ators": 2372,
      "ecut": 2373,
      "istic": 2374,
      "aching": 2375,
      "ĠDavid": 2376,
      "Ġclos": 2377,
      "Ġreb": 2378,
      "ĠSer": 2379,
      "ĠFrance": 2380,
      "Ġrepresent": 2381,
      "Ġhurricane": 2382,
      "urg": 2383,
      "olution": 2384,
      "illa": 2385,
      "Ġsepar": 2386,
      "Ġscored": 2387,
      "Ġappoint": 2388,
      "Ġsubsequ": 2389,
      "alt": 2390,
      "Ġlive": 2391,
      "Ġimpro": 2392,
      "cast": 2393,
      "Ġz": 2394,
      "ica": 2395,
      "Ġmother": 2396,
      "Ġfort": 2397,
      "Ġalmost": 2398,
      "Ġproble": 2399,
      "Ġcoll": 2400,
      "Ġbird": 2401,
      "ĠWales": 2402,
      "Ġindivid": 2403,
      "Ġprofess": 2404,
      "Ġstage": 2405,
      "iff": 2406,
      "Ġ185": 2407,
      "azine": 2408,
      "Ġnorthern": 2409,
      "Ġstars": 2410,
      "Ġcommer": 2411,
      "ude": 2412,
      "Ġyoung": 2413,
      "ĠMusic": 2414,
      "Ġcut": 2415,
      "Ġmiss": 2416,
      "Ġsex": 2417,
      "Ġce": 2418,
      "Ġfall": 2419,
      "ĠFollow": 2420,
      "Ġ35": 2421,
      "iber": 2422,
      "Ġwall": 2423,
      "Ġren": 2424,
      "Ġask": 2425,
      "aval": 2426,
      "ĠEm": 2427,
      "Ġcentral": 2428,
      "ĠIndian": 2429,
      "Ġfeatured": 2430,
      "Ġcor": 2431,
      "Ġlaun": 2432,
      "aper": 2433,
      "ĠCup": 2434,
      "ĠBo": 2435,
      "ĠHill": 2436,
      "ĠNY": 2437,
      "Ġcrew": 2438,
      "ography": 2439,
      "ores": 2440,
      "Ġdou": 2441,
      "ceed": 2442,
      "ĠGrand": 2443,
      "Ġhon": 2444,
      "orts": 2445,
      "Ġunits": 2446,
      "medi": 2447,
      "ĠRock": 2448,
      "ĠInf": 2449,
      "Ġexample": 2450,
      "iol": 2451,
      "Ġhost": 2452,
      "ota": 2453,
      "Ġrul": 2454,
      "Ġplaying": 2455,
      "Ġaccept": 2456,
      "Ġmove": 2457,
      "Ġwomen": 2458,
      "ston": 2459,
      "stit": 2460,
      "ully": 2461,
      "Ġarg": 2462,
      "Ġrespons": 2463,
      "Ġgeneral": 2464,
      "Ġbelieved": 2465,
      "ĠFollowing": 2466,
      "west": 2467,
      "ĠAg": 2468,
      "ending": 2469,
      "Ġgoal": 2470,
      "Ġiron": 2471,
      "Ġbrought": 2472,
      "ama": 2473,
      "emor": 2474,
      "chie": 2475,
      "Ġ500": 2476,
      "Ġmot": 2477,
      "lement": 2478,
      "Ġking": 2479,
      "ĠRobert": 2480,
      "ĠCarey": 2481,
      "Ġcase": 2482,
      "Ġtoget": 2483,
      "aves": 2484,
      "ĠInternational": 2485,
      "Ġtogether": 2486,
      "men": 2487,
      "uation": 2488,
      "arter": 2489,
      "Ġmater": 2490,
      "ĠGod": 2491,
      "Ġexc": 2492,
      "Ġwinds": 2493,
      "aut": 2494,
      "ĠSl": 2495,
      "ĠBer": 2496,
      "cial": 2497,
      "eum": 2498,
      "Ġnuc": 2499,
      "Ġdev": 2500,
      "Ġplaced": 2501,
      "Ġlargest": 2502,
      "Ġdirected": 2503,
      "Ġrelationship": 2504,
      "Ġmph": 2505,
      "ĠMed": 2506,
      "Ġstru": 2507,
      "ĠPart": 2508,
      "reng": 2509,
      "Ġleading": 2510,
      "Ġfinished": 2511,
      "iation": 2512,
      "Ġlangu": 2513,
      "Ġintens": 2514,
      "wood": 2515,
      "Ġ186": 2516,
      "Ġupon": 2517,
      "Ġinsp": 2518,
      "Ġcourt": 2519,
      "Ġsour": 2520,
      "Ġmember": 2521,
      "ĠJew": 2522,
      "Ġcontract": 2523,
      "Ġindust": 2524,
      "Ġprovided": 2525,
      "board": 2526,
      "co": 2527,
      "ential": 2528,
      "ĠPaul": 2529,
      "Ġrather": 2530,
      "ĠBrigade": 2531,
      "Ġweeks": 2532,
      "head": 2533,
      "Ġshot": 2534,
      "Ġflood": 2535,
      "Ġcurrent": 2536,
      "ving": 2537,
      "ĠFrom": 2538,
      "Ġopened": 2539,
      "oring": 2540,
      "ĠDay": 2541,
      "ĠGame": 2542,
      "Ġsequ": 2543,
      "Ġemploy": 2544,
      "uel": 2545,
      "ville": 2546,
      "Ġcreat": 2547,
      "Ġhy": 2548,
      "ĠPe": 2549,
      "artment": 2550,
      "ĠThom": 2551,
      "val": 2552,
      "icated": 2553,
      "ishing": 2554,
      "Ġappearance": 2555,
      "Ġcivil": 2556,
      "Ġey": 2557,
      "bert": 2558,
      "ights": 2559,
      "cing": 2560,
      "Ġprob": 2561,
      "Ġve": 2562,
      "Ġinvest": 2563,
      "ĠCommand": 2564,
      "Ġopening": 2565,
      "Ġelements": 2566,
      "go": 2567,
      "ule": 2568,
      "Ġ-": 2569,
      "ĠHen": 2570,
      "Ġstreng": 2571,
      "AF": 2572,
      "ĠPre": 2573,
      "Ġregular": 2574,
      "ih": 2575,
      "atin": 2576,
      "Ġinform": 2577,
      "asion": 2578,
      "ĠFirst": 2579,
      "Ġdirector": 2580,
      "Ġdesigned": 2581,
      "Ġpoints": 2582,
      "Ġinvolved": 2583,
      "Ġearlier": 2584,
      "Ġcost": 2585,
      "Ġcell": 2586,
      "Ġhours": 2587,
      "ida": 2588,
      "iding": 2589,
      "Ġyards": 2590,
      "Ġemb": 2591,
      "Ġrespect": 2592,
      "Ġgenerally": 2593,
      "Ġallowed": 2594,
      "hing": 2595,
      "Ġreve": 2596,
      "iction": 2597,
      "Ġmeas": 2598,
      "ĠWhite": 2599,
      "ĠGeorge": 2600,
      "Ġfoc": 2601,
      "Ġconduct": 2602,
      "ĠEuropean": 2603,
      "Ġsaying": 2604,
      "Ġoutside": 2605,
      "Ġpossible": 2606,
      "erous": 2607,
      "Ġbeg": 2608,
      "ĠNavy": 2609,
      "Ġmean": 2610,
      "Ġquick": 2611,
      "Ġbi": 2612,
      "Ġburn": 2613,
      "ĠSm": 2614,
      "ĠMy": 2615,
      "ĠViet": 2616,
      "enes": 2617,
      "Ġengine": 2618,
      "Ġreplaced": 2619,
      "Ġwanted": 2620,
      "cent": 2621,
      "now": 2622,
      "ĠMark": 2623,
      "Ġgra": 2624,
      "conom": 2625,
      "ls": 2626,
      "uk": 2627,
      "Ġmer": 2628,
      "Ġreact": 2629,
      "ĠDep": 2630,
      "aps": 2631,
      "ellow": 2632,
      "nar": 2633,
      "ĠAc": 2634,
      "ĠBest": 2635,
      "Ġdesp": 2636,
      "Ġvictory": 2637,
      "Ġwood": 2638,
      "ington": 2639,
      "eck": 2640,
      "Ġhom": 2641,
      "Ġexist": 2642,
      "Ġpreviously": 2643,
      "liam": 2644,
      "tar": 2645,
      "Ġfund": 2646,
      "ĠCr": 2647,
      "Ġleng": 2648,
      "ĠRh": 2649,
      "Ġworking": 2650,
      "Ġparticularly": 2651,
      "Ġestimated": 2652,
      "Ġabove": 2653,
      "Ġ187": 2654,
      "Ġ2014": 2655,
      "Ġjoined": 2656,
      "to": 2657,
      "etwork": 2658,
      "Ġpract": 2659,
      "Ġmetres": 2660,
      "ĠQu": 2661,
      "ĠChristian": 2662,
      "ĠAngel": 2663,
      "Ġbusiness": 2664,
      "Ġill": 2665,
      "Ġesc": 2666,
      "ĠMost": 2667,
      "ĠIr": 2668,
      "ĠPac": 2669,
      "ĠRed": 2670,
      "ze": 2671,
      "Ġclear": 2672,
      "ĠDesp": 2673,
      "ĠKore": 2674,
      "Ġ2001": 2675,
      "inese": 2676,
      "ĠLove": 2677,
      "Ġseem": 2678,
      "Ġ2000": 2679,
      "Ġneg": 2680,
      "Ġtravel": 2681,
      "anned": 2682,
      "ĠFlor": 2683,
      "for": 2684,
      "osition": 2685,
      "ĠChinese": 2686,
      "Ġremov": 2687,
      "Ġ1970": 2688,
      "sel": 2689,
      "uter": 2690,
      "Ġachie": 2691,
      "ita": 2692,
      "Ġhit": 2693,
      "Ġforced": 2694,
      "ula": 2695,
      "Ġdraw": 2696,
      "ĠDespite": 2697,
      "bor": 2698,
      "ma": 2699,
      "Ġcop": 2700,
      "ĠHouse": 2701,
      "pper": 2702,
      "Ġdiss": 2703,
      "liament": 2704,
      "Ġly": 2705,
      "Ġworked": 2706,
      "Ġtransport": 2707,
      "Ġavail": 2708,
      "Ġpraised": 2709,
      "Ġmach": 2710,
      "ĠCorp": 2711,
      "ĠMo": 2712,
      "urt": 2713,
      "Ġprote": 2714,
      "onst": 2715,
      "Ġpers": 2716,
      "Ġpast": 2717,
      "Ġwithd": 2718,
      "Ġtransfer": 2719,
      "Ġlength": 2720,
      "Ġbur": 2721,
      "Ġinj": 2722,
      "Ġmult": 2723,
      "Ġscene": 2724,
      "Ġpoet": 2725,
      "rated": 2726,
      "Ġreason": 2727,
      "ecess": 2728,
      "aint": 2729,
      "elled": 2730,
      "ĠZeal": 2731,
      "Ġstudy": 2732,
      "ĠZealand": 2733,
      "nel": 2734,
      "Ġslow": 2735,
      "atural": 2736,
      "itz": 2737,
      "Ġfr": 2738,
      "Ġfree": 2739,
      "Ġthreat": 2740,
      "ĠMac": 2741,
      "ĠLa": 2742,
      "osing": 2743,
      "ĠVal": 2744,
      "Ġrain": 2745,
      "Ġmaint": 2746,
      "ĠPlay": 2747,
      "Ġincreased": 2748,
      "ps": 2749,
      "ties": 2750,
      "Ġcondom": 2751,
      "ĠOper": 2752,
      "ĠKh": 2753,
      "Ġresear": 2754,
      "ĠBritain": 2755,
      "Ġordered": 2756,
      "ste": 2757,
      "Ġconstruct": 2758,
      "ĠBattle": 2759,
      "ee": 2760,
      "Ġthink": 2761,
      "Ġstation": 2762,
      "opp": 2763,
      "ĠMichael": 2764,
      "Ġmaterial": 2765,
      "mb": 2766,
      "ĠRuss": 2767,
      "ago": 2768,
      "ĠÂ°": 2769,
      "ĠSuper": 2770,
      "Ġ1990": 2771,
      "Ġregard": 2772,
      "Ġobject": 2773,
      "ĠLesnar": 2774,
      "ĠMexico": 2775,
      "ĠCreek": 2776,
      "ĠBay": 2777,
      "ĠWal": 2778,
      "ĠWil": 2779,
      "aker": 2780,
      "Ġevidence": 2781,
      "ĠAtlantic": 2782,
      "nes": 2783,
      "rd": 2784,
      "acing": 2785,
      "ĠLater": 2786,
      "ĠGal": 2787,
      "Ġ45": 2788,
      "ibility": 2789,
      "Ġaccount": 2790,
      "Ġfootball": 2791,
      "Ġtrib": 2792,
      "ĠGreat": 2793,
      "Ġviol": 2794,
      "Ġremains": 2795,
      "Ġrap": 2796,
      "Ġsyn": 2797,
      "Ġmanager": 2798,
      "Ġnomin": 2799,
      "ĠMary": 2800,
      "irth": 2801,
      "Ġwhom": 2802,
      "anding": 2803,
      "Ġpoor": 2804,
      "Ġsoon": 2805,
      "Ġhous": 2806,
      "ĠHall": 2807,
      "Ġwestern": 2808,
      "ania": 2809,
      "ĠTor": 2810,
      "Ġlines": 2811,
      "ĠDon": 2812,
      "Ġrace": 2813,
      "Ġ60": 2814,
      "Ġcenter": 2815,
      "ification": 2816,
      "ĠPacific": 2817,
      "Ġface": 2818,
      "ching": 2819,
      "ĠGovern": 2820,
      "ĠEarly": 2821,
      "ĠRepublic": 2822,
      "uz": 2823,
      "ĠOs": 2824,
      "ributed": 2825,
      "ready": 2826,
      "Ġhighest": 2827,
      "ĠFederer": 2828,
      "ĠÃ": 2829,
      "ites": 2830,
      "leg": 2831,
      "oms": 2832,
      "Ġarmy": 2833,
      "ĠFlorida": 2834,
      "wh": 2835,
      "Ġtreat": 2836,
      "ulf": 2837,
      "Ġrail": 2838,
      "ĠQue": 2839,
      "vest": 2840,
      "aries": 2841,
      "anish": 2842,
      "Ġdon": 2843,
      "Ġgre": 2844,
      "ĠPo": 2845,
      "ĠGold": 2846,
      "Ġchange": 2847,
      "Ġ2002": 2848,
      "Ġparticip": 2849,
      "Ġturned": 2850,
      "ĠÂ£": 2851,
      "ship": 2852,
      "Ġnine": 2853,
      "Ġsurf": 2854,
      "Ġfemale": 2855,
      "Ġaverage": 2856,
      "lict": 2857,
      "Ġpen": 2858,
      "ĠSchool": 2859,
      "ession": 2860,
      "ordan": 2861,
      "Ġinterview": 2862,
      "Ġarrived": 2863,
      "ĠRichard": 2864,
      "porary": 2865,
      "Ġyard": 2866,
      "Ġsigned": 2867,
      "Ġbreak": 2868,
      "Ġterrit": 2869,
      "BC": 2870,
      "Ġtaking": 2871,
      "Ġpur": 2872,
      "ĠSch": 2873,
      "clus": 2874,
      "Ġitself": 2875,
      "Ġsubject": 2876,
      "Ġpriv": 2877,
      "anks": 2878,
      "Ġblock": 2879,
      "Ġclaimed": 2880,
      "ĠInfantry": 2881,
      "ĠOp": 2882,
      "Ġdamaged": 2883,
      "ĠHero": 2884,
      "Ġstructure": 2885,
      "ecutive": 2886,
      "Ġavailable": 2887,
      "erved": 2888,
      "Ġlove": 2889,
      "eler": 2890,
      "Ġheav": 2891,
      "ĠGr": 2892,
      "Ġcontr": 2893,
      "Ġsurround": 2894,
      "Ġcommercial": 2895,
      "ĠThomas": 2896,
      "oul": 2897,
      "ĠJordan": 2898,
      "Ġimmedi": 2899,
      "Ġstudio": 2900,
      "Ġoccup": 2901,
      "Ġdefeated": 2902,
      "Ġpiec": 2903,
      "ouri": 2904,
      "ĠApp": 2905,
      "Ġinitially": 2906,
      "Ġcommunity": 2907,
      "Ġdro": 2908,
      "Ġhard": 2909,
      "ĠHol": 2910,
      "abit": 2911,
      "ĠUnion": 2912,
      "Ġtraining": 2913,
      "Ġbrother": 2914,
      "ĠRegiment": 2915,
      "chest": 2916,
      "hib": 2917,
      "ky": 2918,
      "Ġsection": 2919,
      "arily": 2920,
      "Ġbill": 2921,
      "vert": 2922,
      "ĠOliv": 2923,
      "Ġdespite": 2924,
      "band": 2925,
      "Ġcal": 2926,
      "Ġnames": 2927,
      "ulated": 2928,
      "ĠOd": 2929,
      "Ġdisp": 2930,
      "Ġdepression": 2931,
      "gypt": 2932,
      "ĠPresident": 2933,
      "ximately": 2934,
      "ĠAward": 2935,
      "ĠMet": 2936,
      "Ġgold": 2937,
      "ĠDr": 2938,
      "rian": 2939,
      "Ġ36": 2940,
      "ĠVir": 2941,
      "Ġtru": 2942,
      "ĠEgypt": 2943,
      "Ġpassed": 2944,
      "ĠCanada": 2945,
      "Ġvillage": 2946,
      "Ġesp": 2947,
      "Ġinternational": 2948,
      "Ġtold": 2949,
      "Ġeconom": 2950,
      "Ġwhose": 2951,
      "Ġexcept": 2952,
      "ference": 2953,
      "Ġquarter": 2954,
      "Ġhar": 2955,
      "Ġalready": 2956,
      "ateg": 2957,
      "ĠUnder": 2958,
      "Ġ75": 2959,
      "Ġincreasing": 2960,
      "oor": 2961,
      "Ġcru": 2962,
      "arters": 2963,
      "ila": 2964,
      "Ġlatter": 2965,
      "ĠMa": 2966,
      "ĠBel": 2967,
      "ĠYear": 2968,
      "Ġ1960": 2969,
      "ĠCarol": 2970,
      "Ġrequired": 2971,
      "Ġprobably": 2972,
      "Ġwide": 2973,
      "ases": 2974,
      "ĠTom": 2975,
      "ĠBus": 2976,
      "ĠThat": 2977,
      "Ġparts": 2978,
      "Ġappointed": 2979,
      "Ġstates": 2980,
      "ription": 2981,
      "Ġkey": 2982,
      "Ġ38": 2983,
      "Ġ183": 2984,
      "Ġestablish": 2985,
      "stein": 2986,
      "ari": 2987,
      "urity": 2988,
      "rag": 2989,
      "ume": 2990,
      "ĠScott": 2991,
      "Ġdebut": 2992,
      "Ġreligious": 2993,
      "ĠVietn": 2994,
      "down": 2995,
      "inist": 2996,
      "oration": 2997,
      "Ġfly": 2998,
      "ĠTimes": 2999,
      "Ġproper": 3000,
      "Ġpolice": 3001,
      "Ġcomplet": 3002,
      "Ġgrad": 3003,
      "Ġsoldiers": 3004,
      "ĠArt": 3005,
      "Ġcapital": 3006,
      "ĠMissouri": 3007,
      "ĠHenry": 3008,
      "AS": 3009,
      "ney": 3010,
      "Ġliter": 3011,
      "Ġforward": 3012,
      "thlet": 3013,
      "ranch": 3014,
      "Ġbetter": 3015,
      "Ġassist": 3016,
      "oid": 3017,
      "áĥ": 3018,
      "Ġmust": 3019,
      "ĠTem": 3020,
      "Ġabs": 3021,
      "Ġcolon": 3022,
      "Ġden": 3023,
      "Ġdate": 3024,
      "ilities": 3025,
      "ĠNot": 3026,
      "Ġcome": 3027,
      "Ġdead": 3028,
      "Ġremaining": 3029,
      "Ġsuggested": 3030,
      "Ġbeginning": 3031,
      "Ġsize": 3032,
      "atory": 3033,
      "Ġgive": 3034,
      "Ġanc": 3035,
      "Ġenough": 3036,
      "Ġgoing": 3037,
      "Ġwinning": 3038,
      "Ġanti": 3039,
      "Ġap": 3040,
      "Ġpot": 3041,
      "ĠTra": 3042,
      "ĠFort": 3043,
      "aby": 3044,
      "ability": 3045,
      "Ġdecision": 3046,
      "Ġended": 3047,
      "hens": 3048,
      "Ġdeterm": 3049,
      "gu": 3050,
      "itor": 3051,
      "Ġfailed": 3052,
      "ĠSun": 3053,
      "ĠHel": 3054,
      "Ġwriter": 3055,
      "Ġaccording": 3056,
      "Ġindepend": 3057,
      "Ġnearly": 3058,
      "rang": 3059,
      "atives": 3060,
      "Ġtouch": 3061,
      "ĠTech": 3062,
      "ĠCong": 3063,
      "ĠMal": 3064,
      "olic": 3065,
      "ĠFe": 3066,
      "ĠNero": 3067,
      "ĠAfrica": 3068,
      "gl": 3069,
      "ks": 3070,
      "Ġsect": 3071,
      "ecially": 3072,
      "ĠFilm": 3073,
      "ĠIndia": 3074,
      "Ġgoals": 3075,
      "Ġshows": 3076,
      "Ġcomplete": 3077,
      "Ġphys": 3078,
      "Ġlanguage": 3079,
      "Ġaut": 3080,
      "Ġmight": 3081,
      "ĠSquadron": 3082,
      "Ġlower": 3083,
      "Ġscore": 3084,
      "ĠCharles": 3085,
      "Ġintroduced": 3086,
      "Ã³": 3087,
      "onse": 3088,
      "Ġfut": 3089,
      "ĠPet": 3090,
      "uments": 3091,
      "Ġremain": 3092,
      "Ġfeel": 3093,
      "ĠAssoci": 3094,
      "of": 3095,
      "Ġtow": 3096,
      "illery": 3097,
      "Ġrecording": 3098,
      "Ġdepict": 3099,
      "Ġrunning": 3100,
      "Ġcaptured": 3101,
      "den": 3102,
      "Ġ?": 3103,
      "ĠCard": 3104,
      "ĠCamp": 3105,
      "ĠMont": 3106,
      "ĠPeter": 3107,
      "ĠOt": 3108,
      "Ġspent": 3109,
      "Ġleague": 3110,
      "ĠVict": 3111,
      "rics": 3112,
      "Ġ80": 3113,
      "ronic": 3114,
      "Ġminor": 3115,
      "ĠSpanish": 3116,
      "ĠGermany": 3117,
      "Ġeduc": 3118,
      "ĠBrown": 3119,
      "aughter": 3120,
      "Ġprior": 3121,
      "Ġespecially": 3122,
      "iest": 3123,
      "lor": 3124,
      "ĠMany": 3125,
      "idents": 3126,
      "ĠPat": 3127,
      "ests": 3128,
      "Ġsupported": 3129,
      "Ġapproximately": 3130,
      "Ġdestroyed": 3131,
      "Ġlimited": 3132,
      "ĠIrish": 3133,
      "ga": 3134,
      "aring": 3135,
      "ĠSing": 3136,
      "Ġchap": 3137,
      "ĠVar": 3138,
      "Ġintended": 3139,
      "Ġgroups": 3140,
      "Ġissue": 3141,
      "ĠHistory": 3142,
      "ĠWhe": 3143,
      "Ġ1980": 3144,
      "Ġmur": 3145,
      "Ġdivision": 3146,
      "Ġnetwork": 3147,
      "ĠMil": 3148,
      "odies": 3149,
      "Ġdeal": 3150,
      "quare": 3151,
      "Ġimm": 3152,
      "Ġreviews": 3153,
      "Ġdiscovered": 3154,
      "Ġfleet": 3155,
      "ĠMos": 3156,
      "raw": 3157,
      "Ġkil": 3158,
      "rying": 3159,
      "Ġresponse": 3160,
      "Ġreveal": 3161,
      "Ġsat": 3162,
      "Ġdoc": 3163,
      "ĠAwards": 3164,
      "Ġstaff": 3165,
      "Ġincludes": 3166,
      "Ġsometimes": 3167,
      "inct": 3168,
      "reak": 3169,
      "Ġscreen": 3170,
      "Ġoffice": 3171,
      "inent": 3172,
      "Ġfood": 3173,
      "ils": 3174,
      "ĠNort": 3175,
      "ĠStud": 3176,
      "Ġ184": 3177,
      "Ġpositive": 3178,
      "Ġlarger": 3179,
      "Ġruns": 3180,
      "Ġarchae": 3181,
      "ĠCanadian": 3182,
      "Ġchanges": 3183,
      "rief": 3184,
      "Ġcertain": 3185,
      "ises": 3186,
      "Ġinn": 3187,
      "ĠTur": 3188,
      "ĠWestern": 3189,
      "ĠAnother": 3190,
      "orning": 3191,
      "Ġadditional": 3192,
      "Ġmagazine": 3193,
      "Ġagreed": 3194,
      "fect": 3195,
      "Ġri": 3196,
      "Ġmale": 3197,
      "Ġhapp": 3198,
      "ĠCoun": 3199,
      "order": 3200,
      "ĠColle": 3201,
      "Ġmixed": 3202,
      "back": 3203,
      "ha": 3204,
      "uing": 3205,
      "Ġsch": 3206,
      "ĠCour": 3207,
      "ishop": 3208,
      "ples": 3209,
      "Ġscript": 3210,
      "Ġprovide": 3211,
      "ĠOldham": 3212,
      "Ġfighting": 3213,
      "Ġche": 3214,
      "anies": 3215,
      "ĠSoc": 3216,
      "ĠPri": 3217,
      "Ġexam": 3218,
      "quarters": 3219,
      "Ġjourn": 3220,
      "Ġsocial": 3221,
      "Ġsem": 3222,
      "Ġfail": 3223,
      "ication": 3224,
      "Ġdomin": 3225,
      "ads": 3226,
      "ĠJe": 3227,
      "Ġmostly": 3228,
      "ires": 3229,
      "lymp": 3230,
      "Ġfeature": 3231,
      "ĠFrank": 3232,
      "edy": 3233,
      "lex": 3234,
      "ĠBur": 3235,
      "ĠHurricane": 3236,
      "Ġdeep": 3237,
      "hedral": 3238,
      "Ġusually": 3239,
      "Ġpositions": 3240,
      "anna": 3241,
      "Ġforest": 3242,
      "Ġfrequ": 3243,
      "Ġpressure": 3244,
      "ĠOlymp": 3245,
      "Ġuns": 3246,
      "Ġpair": 3247,
      "Ġmention": 3248,
      "change": 3249,
      "Ġcompl": 3250,
      "Ġamount": 3251,
      "ĠIII": 3252,
      "Ġtype": 3253,
      "iser": 3254,
      "Ġbomb": 3255,
      "irt": 3256,
      "igan": 3257,
      "ĠHot": 3258,
      "ĠRad": 3259,
      "ĠLaw": 3260,
      "ĠInter": 3261,
      "oke": 3262,
      "Ġadop": 3263,
      "Ġminutes": 3264,
      "Ġguitar": 3265,
      "fact": 3266,
      "Ġens": 3267,
      "atively": 3268,
      "ĠServ": 3269,
      "stant": 3270,
      "iring": 3271,
      "ĠOver": 3272,
      "ĠUK": 3273,
      "Ġ1999": 3274,
      "Ġcarried": 3275,
      "Ġradio": 3276,
      "osaurus": 3277,
      "Ġbecoming": 3278,
      "Ġfuture": 3279,
      "Ġsil": 3280,
      "umn": 3281,
      "Ġshown": 3282,
      "ĠChina": 3283,
      "Ġunc": 3284,
      "teen": 3285,
      "Ġ70": 3286,
      "Ġsmaller": 3287,
      "Ġdefeat": 3288,
      "Ġsubsequently": 3289,
      "isions": 3290,
      "ĠVer": 3291,
      "ospital": 3292,
      "ĠOlivier": 3293,
      "bers": 3294,
      "Ġword": 3295,
      "ĠTV": 3296,
      "ĠTer": 3297,
      "ĠSince": 3298,
      "Ġconclud": 3299,
      "ills": 3300,
      "Ġcontem": 3301,
      "Ġpresident": 3302,
      "Ġfavor": 3303,
      "Ġlikely": 3304,
      "mon": 3305,
      "mond": 3306,
      "under": 3307,
      "asy": 3308,
      "enty": 3309,
      "ĠJin": 3310,
      "ĠEver": 3311,
      "ĠStar": 3312,
      "Ġadapt": 3313,
      "Ġ1995": 3314,
      "Ġteams": 3315,
      "Ġcounter": 3316,
      "NA": 3317,
      "het": 3318,
      "itte": 3319,
      "ĠMart": 3320,
      "Ġvot": 3321,
      "Ġpercent": 3322,
      "ĠAnt": 3323,
      "oys": 3324,
      "Ġreferred": 3325,
      "ĠJewish": 3326,
      "Ġquickly": 3327,
      "uals": 3328,
      "Ġtons": 3329,
      "Ġwoman": 3330,
      "ady": 3331,
      "aded": 3332,
      "ĠBack": 3333,
      "Ġstay": 3334,
      "ĠRes": 3335,
      "ĠDan": 3336,
      "Ġ32": 3337,
      "Ġund": 3338,
      "Ġquest": 3339,
      "Ġentered": 3340,
      "Ġlocation": 3341,
      "Ġproblems": 3342,
      "ror": 3343,
      "onna": 3344,
      "Ġwound": 3345,
      "oud": 3346,
      "ĠCath": 3347,
      "omm": 3348,
      "ĠBen": 3349,
      "ĠRac": 3350,
      "cean": 3351,
      "ands": 3352,
      "ĠOff": 3353,
      "peror": 3354,
      "ĠGuitar": 3355,
      "ĠVictor": 3356,
      "ios": 3357,
      "Ġinters": 3358,
      "Ġder": 3359,
      "Ġlo": 3360,
      "ĠPenn": 3361,
      "Ġnotes": 3362,
      "Ġtemper": 3363,
      "Ġranked": 3364,
      "Ġfifth": 3365,
      "ĠBillboard": 3366,
      "ĠAssociation": 3367,
      "Ġbirth": 3368,
      "imum": 3369,
      "unt": 3370,
      "Ġ400": 3371,
      "Ġappl": 3372,
      "Ġprofessional": 3373,
      "gen": 3374,
      "gely": 3375,
      "Ġflow": 3376,
      "Ġbrief": 3377,
      "Ġstra": 3378,
      "rael": 3379,
      "Ġrelated": 3380,
      "ĠSecond": 3381,
      "Ġkeep": 3382,
      "Ġsurface": 3383,
      "dle": 3384,
      "Ġdi": 3385,
      "ĠTropical": 3386,
      "imate": 3387,
      "iforn": 3388,
      "Ġsea": 3389,
      "Ġleaving": 3390,
      "Ġunit": 3391,
      "Ġmoving": 3392,
      "Ġindic": 3393,
      "Ġconcern": 3394,
      "ĠForce": 3395,
      "Ġmedia": 3396,
      "well": 3397,
      "Ġself": 3398,
      "usp": 3399,
      "Ġ33": 3400,
      "Ġ90": 3401,
      "Ġamb": 3402,
      "Ġofficers": 3403,
      "ĠManila": 3404,
      "Ġmajority": 3405,
      "Ġconstructed": 3406,
      "ny": 3407,
      "Ġthick": 3408,
      "Ġenv": 3409,
      "Ġconsist": 3410,
      "Ġstudents": 3411,
      "Ġminute": 3412,
      "Ġcomplex": 3413,
      "Ġconcert": 3414,
      "Ġvisit": 3415,
      "Ġidea": 3416,
      "Ġsuffered": 3417,
      "Ġlaunched": 3418,
      "gar": 3419,
      "hy": 3420,
      "rat": 3421,
      "ses": 3422,
      "anced": 3423,
      "andon": 3424,
      "Ġattacked": 3425,
      "Ġrapid": 3426,
      "ĠTour": 3427,
      "ĠSur": 3428,
      "Ġshoot": 3429,
      "ĠItal": 3430,
      "Ġthemsel": 3431,
      "Ġassigned": 3432,
      "Ġ1950": 3433,
      "Ġprimary": 3434,
      "ĠVirgin": 3435,
      "Ġthemselves": 3436,
      "Ġmakes": 3437,
      "Ġalways": 3438,
      "ĠLight": 3439,
      "ĠLatin": 3440,
      "Ġoverall": 3441,
      "Ġlargely": 3442,
      "Ġartillery": 3443,
      "Ġdiscuss": 3444,
      "Ġeffects": 3445,
      "ĠCaliforn": 3446,
      "ners": 3447,
      "Ġult": 3448,
      "era": 3449,
      "ĠHead": 3450,
      "ĠIsrael": 3451,
      "Ġspeed": 3452,
      "Ġsummer": 3453,
      "ĠJer": 3454,
      "Ġlearn": 3455,
      "Ġfilms": 3456,
      "Ġcreate": 3457,
      "ĠCentral": 3458,
      "Ġoccurred": 3459,
      "Ġcele": 3460,
      "ĠCouncil": 3461,
      "Ġcm": 3462,
      "ĠTre": 3463,
      "Ġrein": 3464,
      "ĠSam": 3465,
      "Ġlink": 3466,
      "ĠMr": 3467,
      "ĠHow": 3468,
      "Ġran": 3469,
      "Ġcontains": 3470,
      "Ġ1998": 3471,
      "Ġcann": 3472,
      "Ġconsider": 3473,
      "arent": 3474,
      "Ġlyrics": 3475,
      "Ġcer": 3476,
      "alled": 3477,
      "Ġattract": 3478,
      "Ġproduct": 3479,
      "Ġlonger": 3480,
      "Ġcritical": 3481,
      "Ġattacks": 3482,
      "hou": 3483,
      "vens": 3484,
      "Ġcred": 3485,
      "Ġdark": 3486,
      "Ġemer": 3487,
      "aches": 3488,
      "thing": 3489,
      "ulpt": 3490,
      "ĠWood": 3491,
      "ĠJose": 3492,
      "Ġ300": 3493,
      "ĠArch": 3494,
      "Ġtraffic": 3495,
      "ĠBrad": 3496,
      "Ġinvestig": 3497,
      "ĠWheeler": 3498,
      "Ġfans": 3499,
      "ĠUp": 3500,
      "ĠStorm": 3501,
      "Ġimage": 3502,
      "Ġmeth": 3503,
      "Ġslight": 3504,
      "Ġbroadcast": 3505,
      "rown": 3506,
      "Ġlived": 3507,
      "ĠMajor": 3508,
      "Ġdeg": 3509,
      "lands": 3510,
      "Ġmovement": 3511,
      "Ġmusical": 3512,
      "Ġ1940": 3513,
      "Ġappears": 3514,
      "Ġcontroll": 3515,
      "Ġincrease": 3516,
      "Ġstatus": 3517,
      "ĠCroat": 3518,
      "Ġkilomet": 3519,
      "Ġschol": 3520,
      "Ġlab": 3521,
      "ĠDem": 3522,
      "Ġabandon": 3523,
      "Ġjob": 3524,
      "Ġ2016": 3525,
      "Ġprem": 3526,
      "Ġcommission": 3527,
      "undred": 3528,
      "Ġconflict": 3529,
      "Ġexperience": 3530,
      "Ġproposed": 3531,
      "Ġcasual": 3532,
      "Ġasked": 3533,
      "ĠCalifornia": 3534,
      "RA": 3535,
      "Ġpurch": 3536,
      "Ġdoll": 3537,
      "Ġscenes": 3538,
      "Ġsculpt": 3539,
      "Ġaccess": 3540,
      "Ġmoney": 3541,
      "itting": 3542,
      "lin": 3543,
      "Ġtar": 3544,
      "ani": 3545,
      "imb": 3546,
      "ĠHaw": 3547,
      "Ġvoice": 3548,
      "Ġjud": 3549,
      "ĠSever": 3550,
      "Ġforms": 3551,
      "Ġelection": 3552,
      "Ġgrant": 3553,
      "Ġlisted": 3554,
      "ex": 3555,
      "zy": 3556,
      "inated": 3557,
      "Ġbow": 3558,
      "ĠFore": 3559,
      "riage": 3560,
      "arts": 3561,
      "Ġbelow": 3562,
      "Ġcommander": 3563,
      "Ġrequest": 3564,
      "incip": 3565,
      "Ġinfluence": 3566,
      "Ġobserv": 3567,
      "Ġremoved": 3568,
      "mas": 3569,
      "ĠCamb": 3570,
      "ĠRoss": 3571,
      "cend": 3572,
      "eway": 3573,
      "ously": 3574,
      "Ġparty": 3575,
      "Ġcentre": 3576,
      "ĠCommission": 3577,
      "Ġbring": 3578,
      "Ġ1930": 3579,
      "ĠStevens": 3580,
      "Ġassociated": 3581,
      "ken": 3582,
      "erve": 3583,
      "ergy": 3584,
      "eding": 3585,
      "Ġcle": 3586,
      "Ġdram": 3587,
      "Ġreach": 3588,
      "ĠSov": 3589,
      "Ġnature": 3590,
      "ĠRA": 3591,
      "ĠDist": 3592,
      "Ġconcept": 3593,
      "Ġending": 3594,
      "Ġmeant": 3595,
      "Ġnumbers": 3596,
      "Ġacqu": 3597,
      "Ġdaughter": 3598,
      "ĠRob": 3599,
      "ander": 3600,
      "Ġplanned": 3601,
      "Ġserious": 3602,
      "Ġcyclone": 3603,
      "ĠNorthern": 3604,
      "Ġbound": 3605,
      "Ġmom": 3606,
      "Ġded": 3607,
      "ĠFI": 3608,
      "ulu": 3609,
      "Ġleave": 3610,
      "ruit": 3611,
      "Ġdism": 3612,
      "Ġearth": 3613,
      "Ġterms": 3614,
      "ĠEarth": 3615,
      "ĠMichigan": 3616,
      "Ġchanged": 3617,
      "ĠAfrican": 3618,
      "Ġprivate": 3619,
      "ĠRachel": 3620,
      "awn": 3621,
      "ging": 3622,
      "Ġthus": 3623,
      "Ġlif": 3624,
      "ĠBu": 3625,
      "ĠLake": 3626,
      "umed": 3627,
      "Ġunderst": 3628,
      "ĠAtt": 3629,
      "Ġsusp": 3630,
      "Ġbad": 3631,
      "Ġmorning": 3632,
      "ĠArab": 3633,
      "Ġstone": 3634,
      "ĠLou": 3635,
      "Ġplat": 3636,
      "Ġplot": 3637,
      "Ġupper": 3638,
      "ylv": 3639,
      "Ġperformances": 3640,
      "Ġpersonal": 3641,
      "Ġawarded": 3642,
      "Ġbirds": 3643,
      "ĠCourt": 3644,
      "II": 3645,
      "lo": 3646,
      "itation": 3647,
      "itect": 3648,
      "ĠSal": 3649,
      "Ġgot": 3650,
      "Ġplans": 3651,
      "Ġunable": 3652,
      "Ġwhether": 3653,
      "Ġtrade": 3654,
      "Ġrare": 3655,
      "Ġbuildings": 3656,
      "ĠTex": 3657,
      "Ġdouble": 3658,
      "atre": 3659,
      "Ġlay": 3660,
      "ĠBC": 3661,
      "ĠIf": 3662,
      "ĠRose": 3663,
      "Ġconver": 3664,
      "ria": 3665,
      "ify": 3666,
      "Ġchall": 3667,
      "Ġflight": 3668,
      "Ġoperation": 3669,
      "Ġfinally": 3670,
      "Ġculture": 3671,
      "Ġresearch": 3672,
      "tr": 3673,
      "Ġtell": 3674,
      "Ġnatural": 3675,
      "irl": 3676,
      "ĠDo": 3677,
      "ĠDel": 3678,
      "aven": 3679,
      "iano": 3680,
      "ellig": 3681,
      "Ġweap": 3682,
      "hips": 3683,
      "Ġrecords": 3684,
      "Ġinfantry": 3685,
      "ĠCenter": 3686,
      "Ġfocus": 3687,
      "Ġconducted": 3688,
      "ittee": 3689,
      "ĠHu": 3690,
      "Ġasp": 3691,
      "ĠJim": 3692,
      "ortun": 3693,
      "Ġcompared": 3694,
      "ĠThree": 3695,
      "Ġsched": 3696,
      "ails": 3697,
      "Ġcollect": 3698,
      "ĠClub": 3699,
      "Ġissued": 3700,
      "Ġcompetition": 3701,
      "Ġcommented": 3702,
      "Ġstrength": 3703,
      "Ġmeaning": 3704,
      "Ġtakes": 3705,
      "Ġfell": 3706,
      "ĠSen": 3707,
      "Ġliving": 3708,
      "ĠNic": 3709,
      "ĠJane": 3710,
      "ective": 3711,
      "Ġyet": 3712,
      "ĠChic": 3713,
      "ĠIts": 3714,
      "aily": 3715,
      "aught": 3716,
      "Ġaccomp": 3717,
      "iant": 3718,
      "Ġdig": 3719,
      "ĠThrough": 3720,
      "Ġtheme": 3721,
      "Ġcovered": 3722,
      "Ġmethod": 3723,
      "iqu": 3724,
      "ĠTay": 3725,
      "Ġcoach": 3726,
      "Ġpresence": 3727,
      "venue": 3728,
      "Ġpolic": 3729,
      "Ġprevent": 3730,
      "Ġlog": 3731,
      "ĠBow": 3732,
      "ĠForm": 3733,
      "ifa": 3734,
      "Ġ37": 3735,
      "Ġ42": 3736,
      "Ġnewsp": 3737,
      "Ġraised": 3738,
      "Ġepisodes": 3739,
      "Ġadvance": 3740,
      "Ġbattles": 3741,
      "Ġattempted": 3742,
      "Ġfigure": 3743,
      "Ġindustry": 3744,
      "bury": 3745,
      "sen": 3746,
      "Ġtalk": 3747,
      "ening": 3748,
      "Ġbatter": 3749,
      "ĠTrans": 3750,
      "ili": 3751,
      "usband": 3752,
      "Ġhealth": 3753,
      "Ġoffered": 3754,
      "ologist": 3755,
      "ĠMuseum": 3756,
      "Ġnortheast": 3757,
      "Ġresponsible": 3758,
      "car": 3759,
      "enon": 3760,
      "Ġdone": 3761,
      "ĠTw": 3762,
      "ado": 3763,
      "ĠBob": 3764,
      "istics": 3765,
      "rial": 3766,
      "ĠEmp": 3767,
      "Ġcompanies": 3768,
      "Ġwhole": 3769,
      "Ġearned": 3770,
      "Ġ1993": 3771,
      "ĠEnter": 3772,
      "Ġmarked": 3773,
      "Ġexperi": 3774,
      "ĠPortug": 3775,
      "Ġimmediately": 3776,
      "ĠCollege": 3777,
      "oir": 3778,
      "tain": 3779,
      "Ġour": 3780,
      "Ġbig": 3781,
      "Ġtourn": 3782,
      "Ġgiving": 3783,
      "ĠHo": 3784,
      "ĠGo": 3785,
      "Ġvia": 3786,
      "ocr": 3787,
      "Ġweaken": 3788,
      "Ġmatches": 3789,
      "ĠParliament": 3790,
      "Ġschools": 3791,
      "Ġera": 3792,
      "ĠPhilipp": 3793,
      "emorial": 3794,
      "Ġmurder": 3795,
      "ĠTexas": 3796,
      "ras": 3797,
      "itude": 3798,
      "Ġpark": 3799,
      "ĠBoth": 3800,
      "Ġstories": 3801,
      "ĠJust": 3802,
      "Ġselected": 3803,
      "Ġ39": 3804,
      "Ġprep": 3805,
      "Ġdirectly": 3806,
      "ipped": 3807,
      "Ġhelped": 3808,
      "Ġ+": 3809,
      "Ġsal": 3810,
      "alys": 3811,
      "Ġpurs": 3812,
      "Ġ47": 3813,
      "Ġ1996": 3814,
      "Ġstarting": 3815,
      "Ġphot": 3816,
      "ĠHaifa": 3817,
      "Ġbegins": 3818,
      "ĠCorps": 3819,
      "ĠChicago": 3820,
      "bar": 3821,
      "Ġhundred": 3822,
      "ĠSar": 3823,
      "Ġcomposed": 3824,
      "Ġ1997": 3825,
      "embly": 3826,
      "onym": 3827,
      "Ġmarried": 3828,
      "Ġindividual": 3829,
      "ĠAcad": 3830,
      "Ġmachine": 3831,
      "ĠTaylor": 3832,
      "kan": 3833,
      "vement": 3834,
      "Ġpay": 3835,
      "ĠCross": 3836,
      "ĠBey": 3837,
      "etic": 3838,
      "olk": 3839,
      "ows": 3840,
      "ĠNor": 3841,
      "Ġuses": 3842,
      "Ġnearby": 3843,
      "ĠAdm": 3844,
      "Ġtraditional": 3845,
      "ĠDepartment": 3846,
      "Ġgreater": 3847,
      "ĠCatholic": 3848,
      "ĠSeveral": 3849,
      "CA": 3850,
      "Ġcause": 3851,
      "Ġhop": 3852,
      "Ġrear": 3853,
      "Ġreally": 3854,
      "ada": 3855,
      "etr": 3856,
      "ĠFoot": 3857,
      "rain": 3858,
      "Ġkind": 3859,
      "ports": 3860,
      "ĠSea": 3861,
      "Ġbattalion": 3862,
      "ĠChristmas": 3863,
      "Ġwaters": 3864,
      "Ġbox": 3865,
      "Ġreject": 3866,
      "Ġnecess": 3867,
      "ĠBig": 3868,
      "Ġclosed": 3869,
      "Ġevac": 3870,
      "Ġcontinue": 3871,
      "Ã¡n": 3872,
      "ĠOperation": 3873,
      "Ġox": 3874,
      "isl": 3875,
      "Ġhour": 3876,
      "Ġhighly": 3877,
      "Ġannual": 3878,
      "Ġmarket": 3879,
      "MS": 3880,
      "can": 3881,
      "isation": 3882,
      "Ġmor": 3883,
      "ĠSol": 3884,
      "Ġthrow": 3885,
      "Ġnorm": 3886,
      "berg": 3887,
      "Ġrecover": 3888,
      "Ġshell": 3889,
      "rowd": 3890,
      "Ġleaders": 3891,
      "ype": 3892,
      "Ġinside": 3893,
      "Ġfinanc": 3894,
      "Ġinitial": 3895,
      "ĠSeries": 3896,
      "stitute": 3897,
      "Ġcasualties": 3898,
      "ev": 3899,
      "Ġtax": 3900,
      "hew": 3901,
      "ĠCer": 3902,
      "Ġgraph": 3903,
      "iva": 3904,
      "agon": 3905,
      "ĠOut": 3906,
      "ondyl": 3907,
      "ibly": 3908,
      "Ġassault": 3909,
      "ĠScot": 3910,
      "Ġartist": 3911,
      "Ġimpact": 3912,
      "Ġresulted": 3913,
      "orpor": 3914,
      "Ġgreatest": 3915,
      "Ġnucle": 3916,
      "ĠGalvest": 3917,
      "ĠGalveston": 3918,
      "onc": 3919,
      "ican": 3920,
      "ĠTurn": 3921,
      "ether": 3922,
      "Ġ1991": 3923,
      "Ġ150": 3924,
      "Ġcourse": 3925,
      "Ġsituation": 3926,
      "ĠService": 3927,
      "ĠItalian": 3928,
      "ien": 3929,
      "edo": 3930,
      "Ġdom": 3931,
      "Ġdyn": 3932,
      "ĠIll": 3933,
      "olf": 3934,
      "ĠLos": 3935,
      "aped": 3936,
      "Ġdefend": 3937,
      "Ġspecific": 3938,
      "Ġmetal": 3939,
      "Ġdrum": 3940,
      "Ġmiddle": 3941,
      "ĠGeorg": 3942,
      "ares": 3943,
      "like": 3944,
      "Ġess": 3945,
      "Ġsout": 3946,
      "Ġpil": 3947,
      "Ġhot": 3948,
      "ĠSaint": 3949,
      "uries": 3950,
      "Ġdeploy": 3951,
      "Ġsecret": 3952,
      "Ġcontrovers": 3953,
      "Ġbooks": 3954,
      "Ġattempts": 3955,
      "ospondyl": 3956,
      "Ġgods": 3957,
      "Ġfigures": 3958,
      "Ġinspired": 3959,
      "Ġinformation": 3960,
      "Ġtouchdown": 3961,
      "Ã³n": 3962,
      "TV": 3963,
      "pool": 3964,
      "Ġsides": 3965,
      "atops": 3966,
      "isk": 3967,
      "icle": 3968,
      "ĠTenn": 3969,
      "ĠSix": 3970,
      "Ġthings": 3971,
      "ĠHum": 3972,
      "Ġsev": 3973,
      "anta": 3974,
      "Ġactive": 3975,
      "Ġheadquarters": 3976,
      "Ġextended": 3977,
      "Ġservices": 3978,
      "Ġallowing": 3979,
      "Ġtracks": 3980,
      "Ġboats": 3981,
      "ĠCharl": 3982,
      "Ġstandard": 3983,
      "Ġsomething": 3984,
      "lers": 3985,
      "Ġx": 3986,
      "Ġfeder": 3987,
      "Ġpick": 3988,
      "ĠAI": 3989,
      "ĠAre": 3990,
      "Ġnaval": 3991,
      "ctor": 3992,
      "ĠJam": 3993,
      "Ġadvant": 3994,
      "Ġpowerful": 3995,
      "Ġaudience": 3996,
      "ĠParty": 3997,
      "light": 3998,
      "rey": 3999,
      "Ġpath": 4000,
      "adium": 4001,
      "ims": 4002,
      "Ġstating": 4003,
      "ĠLong": 4004,
      "Ġsearch": 4005,
      "ĠVilla": 4006,
      "rane": 4007,
      "Ġenj": 4008,
      "Ġ65": 4009,
      "Ġ1994": 4010,
      "Ġnumerous": 4011,
      "Ġvers": 4012,
      "Ġrefused": 4013,
      "Ġapproach": 4014,
      "ĠJackson": 4015,
      "Ġneeded": 4016,
      "Ġvocals": 4017,
      "Ġstruck": 4018,
      "ĠCarolina": 4019,
      "uit": 4020,
      "Ġast": 4021,
      "Ġwalk": 4022,
      "itch": 4023,
      "Ġmax": 4024,
      "ĠLady": 4025,
      "agan": 4026,
      "aging": 4027,
      "Ġheads": 4028,
      "Ġlands": 4029,
      "Ġconfir": 4030,
      "Ġheavily": 4031,
      "ĠSoviet": 4032,
      "een": 4033,
      "rid": 4034,
      "vin": 4035,
      "ĠCrit": 4036,
      "ĠMill": 4037,
      "ĠBec": 4038,
      "Ġrate": 4039,
      "Ġrule": 4040,
      "Ġroom": 4041,
      "Ġ180": 4042,
      "izing": 4043,
      "ĠAlice": 4044,
      "Ġblood": 4045,
      "Ġintensity": 4046,
      "Ġmultip": 4047,
      "ĠOtt": 4048,
      "Ġcontemporary": 4049,
      "ĠEmpire": 4050,
      "Ġbodies": 4051,
      "roll": 4052,
      "ĠTheir": 4053,
      "ĠLive": 4054,
      "ĠGroup": 4055,
      "ĠEr": 4056,
      "Ġ51": 4057,
      "Ġvariety": 4058,
      "Ġcombat": 4059,
      "Ġgenus": 4060,
      "Ġconditions": 4061,
      "Ġmeeting": 4062,
      "Ġseparate": 4063,
      "ĠSmith": 4064,
      "Ġpurp": 4065,
      "ĠJoseph": 4066,
      "Ġtask": 4067,
      "eds": 4068,
      "ĠAlex": 4069,
      "ams": 4070,
      "Ġpeace": 4071,
      "Ġtransl": 4072,
      "ĠConf": 4073,
      "ĠSpec": 4074,
      "chester": 4075,
      "house": 4076,
      "Ġcrowd": 4077,
      "Ġhusband": 4078,
      "iles": 4079,
      "ĠFin": 4080,
      "ĠNix": 4081,
      "Ġplant": 4082,
      "ecting": 4083,
      "Ġ76": 4084,
      "ĠPolish": 4085,
      "Ġhigher": 4086,
      "ĠHighway": 4087,
      "Ġdeclared": 4088,
      "Ġpeaked": 4089,
      "Ġsource": 4090,
      "Ġhouses": 4091,
      "Ġeducation": 4092,
      "Ġslightly": 4093,
      "ylvania": 4094,
      "ees": 4095,
      "ĠMey": 4096,
      "ĠMidd": 4097,
      "ols": 4098,
      "ushed": 4099,
      "ĠFour": 4100,
      "ĠLo": 4101,
      "perial": 4102,
      "Ġproducer": 4103,
      "Ġpresented": 4104,
      "Ġhands": 4105,
      "Ġreduced": 4106,
      "Ġrespectively": 4107,
      "uated": 4108,
      "yph": 4109,
      "Ġple": 4110,
      "icip": 4111,
      "ĠCivil": 4112,
      "omer": 4113,
      "Ġnative": 4114,
      "ĠPost": 4115,
      "ĠDj": 4116,
      "ĠNations": 4117,
      "ĠLiver": 4118,
      "odon": 4119,
      "ĠKn": 4120,
      "Ġresidents": 4121,
      "Ġ44": 4122,
      "ribution": 4123,
      "Ġsecurity": 4124,
      "Ġ1992": 4125,
      "Ġstudies": 4126,
      "Ġextre": 4127,
      "Ġofficer": 4128,
      "Ġsixth": 4129,
      "Ġcollection": 4130,
      "ĠPenns": 4131,
      "Ġcelebr": 4132,
      "ka": 4133,
      "iny": 4134,
      "anas": 4135,
      "Ġthr": 4136,
      "Ġhero": 4137,
      "ĠLittle": 4138,
      "ĠCont": 4139,
      "Ġconstit": 4140,
      "Ġfriends": 4141,
      "arrow": 4142,
      "rol": 4143,
      "ĠSir": 4144,
      "ĠCast": 4145,
      "ĠCapt": 4146,
      "ĠBurn": 4147,
      "ĠFinal": 4148,
      "ĠWash": 4149,
      "Ġchampionship": 4150,
      "Ġspace": 4151,
      "rance": 4152,
      "irection": 4153,
      "ension": 4154,
      "ĠYoung": 4155,
      "Ġprec": 4156,
      "Ġprincip": 4157,
      "Ġnorthwest": 4158,
      "arents": 4159,
      "Ġcompletely": 4160,
      "Ġwounded": 4161,
      "bon": 4162,
      "Åį": 4163,
      "Ġsaf": 4164,
      "ĠTime": 4165,
      "Ġgrand": 4166,
      "iral": 4167,
      "Ġbeat": 4168,
      "estival": 4169,
      "pted": 4170,
      "ĠAlkan": 4171,
      "Ġtext": 4172,
      "athan": 4173,
      "Ġmeans": 4174,
      "Ġwriters": 4175,
      "ĠRev": 4176,
      "ĠCommon": 4177,
      "ĠChris": 4178,
      "Ġbridge": 4179,
      "Ġcombined": 4180,
      "Ġactivity": 4181,
      "ĠSomers": 4182,
      "Ġeye": 4183,
      "Ġintern": 4184,
      "ĠFam": 4185,
      "ĠLand": 4186,
      "oses": 4187,
      "andid": 4188,
      "illed": 4189,
      "Ġ34": 4190,
      "Ġdisplay": 4191,
      "Ġsinger": 4192,
      "Ġcontinues": 4193,
      "Ġrespond": 4194,
      "Ġdistance": 4195,
      "Ġcountries": 4196,
      "ĠDef": 4197,
      "Ġmarriage": 4198,
      "Ġarchitect": 4199,
      "Ġadminist": 4200,
      "Ġcopies": 4201,
      "Ġcontrast": 4202,
      "ĠLiverpool": 4203,
      "ket": 4204,
      "Ġir": 4205,
      "alist": 4206,
      "oura": 4207,
      "ĠBet": 4208,
      "tered": 4209,
      "ĠGames": 4210,
      "ift": 4211,
      "ogue": 4212,
      "Ġ48": 4213,
      "Ġdisapp": 4214,
      "Ġsymb": 4215,
      "Ġexpected": 4216,
      "ĠParis": 4217,
      "orpedo": 4218,
      "ĠSomal": 4219,
      "Ġveh": 4220,
      "ĠVirginia": 4221,
      "Ġreinfor": 4222,
      "ĠFootball": 4223,
      "ĠNixon": 4224,
      "ĠWashington": 4225,
      "Ġcam": 4226,
      "Ġborder": 4227,
      "Ġdraft": 4228,
      "stone": 4229,
      "emic": 4230,
      "Ġsust": 4231,
      "Ġdispl": 4232,
      "Ġinteract": 4233,
      "Ġinches": 4234,
      "ĠIndepend": 4235,
      "Ġissues": 4236,
      "Ġlevels": 4237,
      "Ġwidely": 4238,
      "ĠHistor": 4239,
      "Ġtransferred": 4240,
      "ĠBusch": 4241,
      "Ġconcluded": 4242,
      "track": 4243,
      "ĠSomerset": 4244,
      "ware": 4245,
      "inth": 4246,
      "Ġpow": 4247,
      "ĠSouthern": 4248,
      "ĠCor": 4249,
      "ĠCons": 4250,
      "ĠBre": 4251,
      "ĠBook": 4252,
      "ĠWater": 4253,
      "ĠJul": 4254,
      "Ġang": 4255,
      "Ġrelief": 4256,
      "Ġactually": 4257,
      "ĠAustralians": 4258,
      "Ġcathedral": 4259,
      "Ġactivities": 4260,
      "Ġstrike": 4261,
      "Ġterritory": 4262,
      "ĠPennsylvania": 4263,
      "iated": 4264,
      "Ġbene": 4265,
      "ems": 4266,
      "ĠFow": 4267,
      "ĠLock": 4268,
      "umber": 4269,
      "ĠSpain": 4270,
      "Ġefforts": 4271,
      "Ġboard": 4272,
      "while": 4273,
      "ĠQueen": 4274,
      "ĠMosley": 4275,
      "Ġenjoy": 4276,
      "lam": 4277,
      "Ã¼": 4278,
      "Ġtoward": 4279,
      "iled": 4280,
      "ĠCat": 4281,
      "ĠDes": 4282,
      "ulations": 4283,
      "ĠGreen": 4284,
      "ĠJos": 4285,
      "ĠEs": 4286,
      "asty": 4287,
      "Ġactions": 4288,
      "Ġsuppl": 4289,
      "annel": 4290,
      "Ġdescribes": 4291,
      "ĠColon": 4292,
      "Ġeffort": 4293,
      "Ġelev": 4294,
      "ĠFranc": 4295,
      "Ġsexual": 4296,
      "Ġwithdraw": 4297,
      "Ġancient": 4298,
      "ĠLouis": 4299,
      "bour": 4300,
      "ij": 4301,
      "ufact": 4302,
      "Ġrough": 4303,
      "Ġtorpedo": 4304,
      "inus": 4305,
      "onic": 4306,
      "isher": 4307,
      "anz": 4308,
      "anes": 4309,
      "Ġinh": 4310,
      "Ġpun": 4311,
      "Ġreign": 4312,
      "ĠDam": 4313,
      "ĠNaz": 4314,
      "ĠLi": 4315,
      "ĠLike": 4316,
      "anded": 4317,
      "bery": 4318,
      "Ġexhib": 4319,
      "Ġadult": 4320,
      "ibr": 4321,
      "Ġmanaged": 4322,
      "Ġoffensive": 4323,
      "Ġattention": 4324,
      "ocks": 4325,
      "Ġqual": 4326,
      "Ġbackground": 4327,
      "Ġ1942": 4328,
      "Ġironcl": 4329,
      "Ġrainfall": 4330,
      "Ġrevealed": 4331,
      "mark": 4332,
      "Ġtur": 4333,
      "Ġtoday": 4334,
      "Ġmission": 4335,
      "oured": 4336,
      "irit": 4337,
      "utch": 4338,
      "ĠDer": 4339,
      "ersh": 4340,
      "ĠInn": 4341,
      "Ġ49": 4342,
      "Ġ52": 4343,
      "Ġ182": 4344,
      "ĠArm": 4345,
      "Ġdefense": 4346,
      "Ġblue": 4347,
      "iami": 4348,
      "Ġdistinct": 4349,
      "Ġcounty": 4350,
      "Ġresulting": 4351,
      "Ġrights": 4352,
      "Ġprimarily": 4353,
      "Ġbecomes": 4354,
      "Ġaccepted": 4355,
      "Ġsequence": 4356,
      "ĠVietnam": 4357,
      "hood": 4358,
      "tation": 4359,
      "yr": 4360,
      "Ġsays": 4361,
      "Ġmel": 4362,
      "Ġhabit": 4363,
      "ĠTri": 4364,
      "idian": 4365,
      "imony": 4366,
      "Ġmainly": 4367,
      "Ġalongside": 4368,
      "Ġdesignated": 4369,
      "Ġopportun": 4370,
      "Ġmountain": 4371,
      "ĠGovernment": 4372,
      "ĠBecause": 4373,
      "Ġsquadron": 4374,
      "Ġsquare": 4375,
      "Ġfaced": 4376,
      "ĠBon": 4377,
      "usion": 4378,
      "Ġkick": 4379,
      "Ġrecent": 4380,
      "Ġ181": 4381,
      "Ġdise": 4382,
      "ampion": 4383,
      "ĠClass": 4384,
      "Ġconcent": 4385,
      "Ġdemonst": 4386,
      "Ġpattern": 4387,
      "Ġtrees": 4388,
      "ĠKorean": 4389,
      "ĠFowler": 4390,
      "cy": 4391,
      "Ġwear": 4392,
      "Ġpound": 4393,
      "room": 4394,
      "ĠMiami": 4395,
      "ĠFer": 4396,
      "ĠWW": 4397,
      "Ġprint": 4398,
      "ledge": 4399,
      "Ġfeaturing": 4400,
      "Ġappearances": 4401,
      "ĠAdd": 4402,
      "Ġprogress": 4403,
      "ĠMinnes": 4404,
      "ĠAngeles": 4405,
      "Ġquestion": 4406,
      "ĠMinnesota": 4407,
      "kin": 4408,
      "enant": 4409,
      "ingu": 4410,
      "Ġpiano": 4411,
      "Ġonto": 4412,
      "ĠBol": 4413,
      "use": 4414,
      "ĠPen": 4415,
      "Ġability": 4416,
      "Ġroles": 4417,
      "Ġjump": 4418,
      "Ġ64": 4419,
      "echan": 4420,
      "Ġtrue": 4421,
      "hold": 4422,
      "itness": 4423,
      "Ġcorn": 4424,
      "Ġpaper": 4425,
      "ĠTod": 4426,
      "ela": 4427,
      "acher": 4428,
      "ĠKent": 4429,
      "apo": 4430,
      "Ġcompos": 4431,
      "Ġ46": 4432,
      "Ġplays": 4433,
      "Ġdepart": 4434,
      "Ġorganization": 4435,
      "Ġcondoms": 4436,
      "Ġfederal": 4437,
      "bed": 4438,
      "cle": 4439,
      "Ġsense": 4440,
      "ena": 4441,
      "Ġbott": 4442,
      "Ġparents": 4443,
      "adm": 4444,
      "Ġaltern": 4445,
      "ĠOf": 4446,
      "Ġcoming": 4447,
      "Ġvess": 4448,
      "Ġyoun": 4449,
      "Ġresc": 4450,
      "Ġroy": 4451,
      "Ġ55": 4452,
      "Ġrecomm": 4453,
      "Ġscoring": 4454,
      "Ġseasons": 4455,
      "Ġquality": 4456,
      "Ġcalling": 4457,
      "Ġshowed": 4458,
      "ĠManchester": 4459,
      "Ġportion": 4460,
      "shire": 4461,
      "Ġobserved": 4462,
      "ceeded": 4463,
      "Ġpractice": 4464,
      "ĠAcademy": 4465,
      "ĠScotland": 4466,
      "BA": 4467,
      "ãĥ": 4468,
      "Ġhol": 4469,
      "Ġlot": 4470,
      "ĠBint": 4471,
      "Ġrhy": 4472,
      "ĠAnn": 4473,
      "Ġrelatively": 4474,
      "airs": 4475,
      "Ġinstit": 4476,
      "ĠMean": 4477,
      "Ġelected": 4478,
      "ironment": 4479,
      "Ġhistorical": 4480,
      "yphoon": 4481,
      "ĠBintulu": 4482,
      "mun": 4483,
      "Ġwords": 4484,
      "Ġlosing": 4485,
      "ĠRam": 4486,
      "essa": 4487,
      "Ġuniversity": 4488,
      "Ġremark": 4489,
      "ologists": 4490,
      "ĠNews": 4491,
      "Ġinvasion": 4492,
      "Ġreception": 4493,
      "Ġbrown": 4494,
      "ervation": 4495,
      "Ġowned": 4496,
      "Ġ1920": 4497,
      "Ġencoun": 4498,
      "Ġstrugg": 4499,
      "Ġultimately": 4500,
      "cript": 4501,
      "kn": 4502,
      "ĠMog": 4503,
      "ĠField": 4504,
      "estic": 4505,
      "Ġrang": 4506,
      "Ġsuc": 4507,
      "Ġarmed": 4508,
      "Ġscale": 4509,
      "Ġapparent": 4510,
      "Ġ1941": 4511,
      "Ġedge": 4512,
      "ĠRussian": 4513,
      "ĠSociety": 4514,
      "ĠMeyer": 4515,
      "ĠCaptain": 4516,
      "gal": 4517,
      "pole": 4518,
      "Ġathlet": 4519,
      "Ġfast": 4520,
      "icles": 4521,
      "ĠCap": 4522,
      "Ġnation": 4523,
      "ĠMat": 4524,
      "ĠMass": 4525,
      "ĠMatt": 4526,
      "Ġheart": 4527,
      "osen": 4528,
      "ĠGar": 4529,
      "udd": 4530,
      "essions": 4531,
      "Ġenemy": 4532,
      "Ġdefence": 4533,
      "Ġlegal": 4534,
      "Ġtwenty": 4535,
      "Ġinfluenced": 4536,
      "ĠMeridian": 4537,
      "Ġexcav": 4538,
      "elligence": 4539,
      "ĠBeyonc": 4540,
      "ĠBeyoncÃ©": 4541,
      "che": 4542,
      "Ġfully": 4543,
      "ications": 4544,
      "Ġmile": 4545,
      "ĠTik": 4546,
      "Ġthous": 4547,
      "ĠChe": 4548,
      "Ġnarr": 4549,
      "ĠDou": 4550,
      "ĠUl": 4551,
      "Ġspl": 4552,
      "ĠThough": 4553,
      "Ġagg": 4554,
      "Ġoffer": 4555,
      "Ġprepar": 4556,
      "Ġexpressed": 4557,
      "Ġinstr": 4558,
      "ĠColumb": 4559,
      "ĠAnderson": 4560,
      "Ġtypically": 4561,
      "ricket": 4562,
      "Ġproteins": 4563,
      "Ġsurrounding": 4564,
      "Ġcannot": 4565,
      "ĠHawai": 4566,
      "town": 4567,
      "onents": 4568,
      "Ġchem": 4569,
      "Ġmem": 4570,
      "Ġmole": 4571,
      "ĠSum": 4572,
      "Ġnarrow": 4573,
      "utions": 4574,
      "Ġstep": 4575,
      "ĠPit": 4576,
      "oper": 4577,
      "pping": 4578,
      "Ġspread": 4579,
      "Ġproduce": 4580,
      "Ġprison": 4581,
      "Ġsets": 4582,
      "Ġemph": 4583,
      "Ġportray": 4584,
      "ĠChurchill": 4585,
      "Ġrepresented": 4586,
      "Ġmagn": 4587,
      "Ġhomes": 4588,
      "Ġdissip": 4589,
      "uzz": 4590,
      "Ġadopted": 4591,
      "alysis": 4592,
      "eption": 4593,
      "the": 4594,
      "Ġwing": 4595,
      "ala": 4596,
      "asc": 4597,
      "road": 4598,
      "acement": 4599,
      "ĠPop": 4600,
      "ĠFar": 4601,
      "ĠWels": 4602,
      "Ġcontact": 4603,
      "orship": 4604,
      "Ġemot": 4605,
      "Ġ1986": 4606,
      "Ġorganized": 4607,
      "Ġlegisl": 4608,
      "ĠRichmond": 4609,
      "Ġreaction": 4610,
      "ĠTemple": 4611,
      "Ġadvantage": 4612,
      "Ġmaximum": 4613,
      "burg": 4614,
      "gs": 4615,
      "mes": 4616,
      "ona": 4617,
      "Ġsen": 4618,
      "Ġinch": 4619,
      "Ġdu": 4620,
      "ĠHal": 4621,
      "ends": 4622,
      "Ġwebs": 4623,
      "Ġneigh": 4624,
      "ugby": 4625,
      "Ġfloor": 4626,
      "Ġartists": 4627,
      "Ġextra": 4628,
      "Ġbroken": 4629,
      "Ġtried": 4630,
      "ĠPrince": 4631,
      "Ġofficials": 4632,
      "Ġnuclear": 4633,
      "admium": 4634,
      "ĠWelsh": 4635,
      "rical": 4636,
      "Ġaid": 4637,
      "Ġpal": 4638,
      "ĠSil": 4639,
      "ĠDirect": 4640,
      "ĠGall": 4641,
      "ĠOx": 4642,
      "ĠOcean": 4643,
      "Ġvo": 4644,
      "astic": 4645,
      "Ġmanufact": 4646,
      "Ġthemes": 4647,
      "ĠCommun": 4648,
      "Ġedition": 4649,
      "Ġreports": 4650,
      "ĠAndrew": 4651,
      "Ġpersonnel": 4652,
      "Ġtypes": 4653,
      "ĠWeek": 4654,
      "Ġearliest": 4655,
      "Ġpaint": 4656,
      "mitted": 4657,
      "ply": 4658,
      "rong": 4659,
      "enge": 4660,
      "Ġmis": 4661,
      "ĠHome": 4662,
      "ĠRo": 4663,
      "ĠKa": 4664,
      "ĠThunder": 4665,
      "ĠMarine": 4666,
      "ĠBlue": 4667,
      "Ġcapture": 4668,
      "ĠOrig": 4669,
      "Ġdivided": 4670,
      "Ġsources": 4671,
      "Ġhyd": 4672,
      "ĠOpen": 4673,
      "Ġtower": 4674,
      "Ġabandoned": 4675,
      "ĠDistrict": 4676,
      "Ġfinancial": 4677,
      "aen": 4678,
      "lim": 4679,
      "pre": 4680,
      "rate": 4681,
      "ux": 4682,
      "writ": 4683,
      "Ġsister": 4684,
      "Ġwa": 4685,
      "Ġmouth": 4686,
      "Ġhorse": 4687,
      "ĠAv": 4688,
      "etts": 4689,
      "Ġalone": 4690,
      "issipp": 4691,
      "Ġacting": 4692,
      "Ġ1988": 4693,
      "Ġmodel": 4694,
      "ĠProt": 4695,
      "Ġtitled": 4696,
      "ĠMississipp": 4697,
      "Ġsoundtrack": 4698,
      "Ġachieved": 4699,
      "ĠIllino": 4700,
      "ĠTikal": 4701,
      "Ġemphas": 4702,
      "nospondyl": 4703,
      "Ġsn": 4704,
      "Ġdirection": 4705,
      "ĠBoy": 4706,
      "ĠBalt": 4707,
      "Ġstopp": 4708,
      "unction": 4709,
      "ĠLie": 4710,
      "izes": 4711,
      "Ġactor": 4712,
      "Ġspecim": 4713,
      "Ġrepe": 4714,
      "Ġprominent": 4715,
      "Ġshortly": 4716,
      "Ġviewers": 4717,
      "ĠEdward": 4718,
      "Ġaffected": 4719,
      "ĠSecret": 4720,
      "ĠTurk": 4721,
      "ĠMiddle": 4722,
      "Ġroyal": 4723,
      "ĠMogad": 4724,
      "wen": 4725,
      "Ġthir": 4726,
      "ĠFred": 4727,
      "ĠFleet": 4728,
      "acks": 4729,
      "send": 4730,
      "Ġdefensive": 4731,
      "Ġmovie": 4732,
      "Ġwrite": 4733,
      "Ġfounded": 4734,
      "Ġbasis": 4735,
      "ĠRecords": 4736,
      "ĠRhodes": 4737,
      "Ġnewspaper": 4738,
      "ĠMississippi": 4739,
      "Ġcities": 4740,
      "Ġcandid": 4741,
      "alions": 4742,
      "Ġmind": 4743,
      "ĠAvenue": 4744,
      "ura": 4745,
      "ĠBall": 4746,
      "Ġgirl": 4747,
      "ĠNes": 4748,
      "ĠKir": 4749,
      "ograp": 4750,
      "Ġ41": 4751,
      "Ġattended": 4752,
      "Ġweak": 4753,
      "ĠArg": 4754,
      "ĠReview": 4755,
      "Ġdoing": 4756,
      "ĠJohnson": 4757,
      "Ġoperated": 4758,
      "Ġstructures": 4759,
      "ĠBraat": 4760,
      "Ġflooding": 4761,
      "Ġmentioned": 4762,
      "Ġsac": 4763,
      "Ġfruit": 4764,
      "Ġpaid": 4765,
      "Ġhospital": 4766,
      "ette": 4767,
      "ĠGib": 4768,
      "ipment": 4769,
      "claim": 4770,
      "Ġofficially": 4771,
      "Ġcouple": 4772,
      "Ġpotential": 4773,
      "Ġdedicated": 4774,
      "Ġtournament": 4775,
      "Ġxenon": 4776,
      "known": 4777,
      "bit": 4778,
      "hu": 4779,
      "uous": 4780,
      "wide": 4781,
      "orus": 4782,
      "Ġmechan": 4783,
      "irm": 4784,
      "ĠWild": 4785,
      "Ġcomedy": 4786,
      "Ġplaces": 4787,
      "Ġshape": 4788,
      "ector": 4789,
      "Ġyour": 4790,
      "eller": 4791,
      "Ġ43": 4792,
      "anger": 4793,
      "ĠEngine": 4794,
      "prise": 4795,
      "Ġauthorities": 4796,
      "Ġcultural": 4797,
      "ĠTurner": 4798,
      "FA": 4799,
      "bird": 4800,
      "iro": 4801,
      "ãģ": 4802,
      "ora": 4803,
      "Ġlives": 4804,
      "ĠBh": 4805,
      "ĠHMS": 4806,
      "Ġproved": 4807,
      "akapo": 4808,
      "Ġarrest": 4809,
      "Ġcompound": 4810,
      "Ġperman": 4811,
      "Ġscient": 4812,
      "Ġconsisted": 4813,
      "Ġbroke": 4814,
      "inkel": 4815,
      "Ġpassing": 4816,
      "Ġtitles": 4817,
      "Ġtrial": 4818,
      "Ġbasket": 4819,
      "ĠNicole": 4820,
      "ĠMogadish": 4821,
      "inem": 4822,
      "Ġsens": 4823,
      "edd": 4824,
      "Ġmess": 4825,
      "Ġlb": 4826,
      "ĠMore": 4827,
      "ĠBost": 4828,
      "Ġrat": 4829,
      "ĠInt": 4830,
      "Ġroll": 4831,
      "Ġ56": 4832,
      "Ġappeal": 4833,
      "athus": 4834,
      "orney": 4835,
      "Ġenter": 4836,
      "fully": 4837,
      "Ġ179": 4838,
      "Ġoccasion": 4839,
      "Ġcausing": 4840,
      "Ġsociety": 4841,
      "ĠTownsend": 4842,
      "Ġpiece": 4843,
      "ĠRosebery": 4844,
      "ĠMeyerbe": 4845,
      "VD": 4846,
      "right": 4847,
      "inary": 4848,
      "rect": 4849,
      "Ġsales": 4850,
      "Ġoil": 4851,
      "alle": 4852,
      "Ġhun": 4853,
      "lection": 4854,
      "ĠCra": 4855,
      "ĠBond": 4856,
      "Ġgrew": 4857,
      "ĠFurther": 4858,
      "ĠWay": 4859,
      "ĠLar": 4860,
      "istry": 4861,
      "ricult": 4862,
      "Ġ93": 4863,
      "Ġcolumn": 4864,
      "ĠAmericans": 4865,
      "Ġlanding": 4866,
      "ĠClark": 4867,
      "Ġolder": 4868,
      "Äģd": 4869,
      "Ġindividuals": 4870,
      "Ġillust": 4871,
      "ĠWalpole": 4872,
      "Ġdetermined": 4873,
      "Ġstraight": 4874,
      "Ġweapons": 4875,
      "ĠMogadishu": 4876,
      "ĠMeyerbeer": 4877,
      "Ġut": 4878,
      "Ġtry": 4879,
      "Ġcore": 4880,
      "Ġpan": 4881,
      "Ġdut": 4882,
      "ĠMort": 4883,
      "ĠRaj": 4884,
      "ĠFinkel": 4885,
      "resh": 4886,
      "iana": 4887,
      "Ġunivers": 4888,
      "Ġimages": 4889,
      "ĠYue": 4890,
      "Ġincorpor": 4891,
      "Ġseconds": 4892,
      "aha": 4893,
      "Ġletter": 4894,
      "ĠApple": 4895,
      "ĠFinkelstein": 4896,
      "sy": 4897,
      "inn": 4898,
      "isters": 4899,
      "Ġbank": 4900,
      "ĠTessa": 4901,
      "ĠMax": 4902,
      "ĠHy": 4903,
      "Ġsport": 4904,
      "Ġunknown": 4905,
      "Ġcontain": 4906,
      "Ġadj": 4907,
      "duction": 4908,
      "Ġ97": 4909,
      "Ġconsecutive": 4910,
      "Ġformation": 4911,
      "Ġmonument": 4912,
      "ĠShort": 4913,
      "ĠShiva": 4914,
      "Ġ1985": 4915,
      "Ġ1944": 4916,
      "ancy": 4917,
      "Ġpossibly": 4918,
      "Ġorders": 4919,
      "Ġprojects": 4920,
      "Ġsites": 4921,
      "Ġdoub": 4922,
      "Ġphysical": 4923,
      "Ġkilometres": 4924,
      "Ġschedul": 4925,
      "ĠOttoman": 4926,
      "iti": 4927,
      "Ġfired": 4928,
      "Ġfiction": 4929,
      "Ġhair": 4930,
      "ĠSo": 4931,
      "ĠMD": 4932,
      "ĠHorn": 4933,
      "Ġstop": 4934,
      "Ġ53": 4935,
      "Ġimag": 4936,
      "Ġfollows": 4937,
      "Ġleader": 4938,
      "Ġsuggests": 4939,
      "Ġcriticized": 4940,
      "Ġrapidly": 4941,
      "Ġcerem": 4942,
      "gn": 4943,
      "uff": 4944,
      "Ġfrag": 4945,
      "omy": 4946,
      "ĠHorse": 4947,
      "ĠDVD": 4948,
      "ĠWat": 4949,
      "abama": 4950,
      "ĠAlabama": 4951,
      "Ġworkers": 4952,
      "Ġpoly": 4953,
      "Ġflank": 4954,
      "Ġ120": 4955,
      "Ġclaims": 4956,
      "Ġforeign": 4957,
      "Ġkept": 4958,
      "Ġidentified": 4959,
      "Ġhonor": 4960,
      "ĠPortugues": 4961,
      "ĠMeanwhile": 4962,
      "ĠIllinois": 4963,
      "aith": 4964,
      "uan": 4965,
      "win": 4966,
      "orter": 4967,
      "Ġlaid": 4968,
      "Ġgained": 4969,
      "ĠDue": 4970,
      "unte": 4971,
      "ĠWrit": 4972,
      "aine": 4973,
      "ĠEastern": 4974,
      "ĠOm": 4975,
      "Ġseek": 4976,
      "Ġchief": 4977,
      "Ġrow": 4978,
      "Ġsupply": 4979,
      "Ġkilling": 4980,
      "Ġrequire": 4981,
      "Ġequipment": 4982,
      "Ġmanagement": 4983,
      "Ġprotein": 4984,
      "ĠPhilippines": 4985,
      "ĠBraathens": 4986,
      "ĠPortuguese": 4987,
      "uct": 4988,
      "ãĤ": 4989,
      "Ġahead": 4990,
      "Ġwild": 4991,
      "ĠTru": 4992,
      "ĠBul": 4993,
      "ĠBBC": 4994,
      "antly": 4995,
      "gend": 4996,
      "Ġattend": 4997,
      "Ġacad": 4998,
      "Ġentrance": 4999
    },
    "merges": [
      "Ġ t",
      "h e",
      "Ġ a",
      "i n",
      "Ġt he",
      "e r",
      "o n",
      "Ġ ,",
      "r e",
      "Ġ s",
      "e d",
      "Ġ w",
      "Ġ o",
      "n d",
      "a t",
      "Ġ .",
      "o r",
      "i t",
      "Ġ c",
      "e n",
      "Ġ f",
      "e s",
      "i s",
      "a r",
      "Ġo f",
      "a n",
      "Ġ b",
      "Ġ in",
      "a l",
      "in g",
      "Ġ p",
      "a s",
      "Ġa nd",
      "Ġt o",
      "r o",
      "i c",
      "Ġ m",
      "Ġ d",
      "Ġ h",
      "i on",
      "o u",
      "l e",
      "Ġ T",
      "Ġ re",
      "Ġ =",
      "Ġ A",
      "Ġ S",
      "i l",
      "en t",
      "Ġ \"",
      "Ġt h",
      "Ġ 1",
      "s t",
      "Ġ C",
      "Ġ l",
      "e l",
      "o m",
      "a m",
      "Ġ Ċ",
      "Ġ e",
      "Ġ n",
      "Ġ @",
      "a d",
      "a c",
      "Ġ M",
      "Ġw as",
      "u r",
      "ĠT he",
      "e c",
      "Ġ on",
      "l y",
      "Ġ B",
      "Ġ I",
      "e t",
      "Ġ '",
      "o l",
      "Ġ g",
      "i d",
      "i v",
      "i m",
      "Ġf or",
      "i r",
      "i g",
      "- @",
      "Ġ@ -@",
      "t er",
      "o t",
      "Ġ H",
      "Ġa s",
      "u s",
      "o w",
      "u t",
      "Ġs t",
      "Ġ 2",
      "a y",
      "it h",
      "Ġ P",
      "at ion",
      "v er",
      "Ġb e",
      "Ġw ith",
      "Ġ he",
      "Ġth at",
      "Ġ R",
      "e m",
      "t h",
      "Ġ D",
      "u n",
      "c e",
      "Ġ F",
      "Ġ is",
      "u l",
      "Ġw h",
      "Ġb y",
      "c h",
      "Ġ )",
      "Ġ (",
      "Ġa l",
      "Ġc on",
      "Ġ N",
      "Ġ W",
      "r a",
      "Ġa t",
      "Ġ L",
      "o s",
      "Ġ G",
      "er s",
      "c t",
      "Ġ1 9",
      "Ġ it",
      "ro m",
      "a nd",
      "Ġ J",
      "Ġa n",
      "he r",
      "es t",
      "u m",
      "0 0",
      "a g",
      "is t",
      "a in",
      "a v",
      "r i",
      "o d",
      "Ġ E",
      "Ġ O",
      "Ġf rom",
      "Ġc om",
      "Ġh is",
      "o p",
      "re s",
      "i f",
      "er e",
      "or t",
      "Ġp ro",
      "i es",
      "Ġ v",
      "il l",
      "Ġd e",
      "p p",
      "o re",
      "l d",
      "Ġ r",
      "Ġw ere",
      "Ġs u",
      "ĠI n",
      "Ġs e",
      "on g",
      "ig h",
      "e w",
      "at e",
      "al l",
      "a k",
      "ar d",
      "ic h",
      "ar t",
      "b er",
      "an t",
      "Ġo r",
      "it y",
      "u d",
      "o c",
      "at ed",
      "a b",
      "Ġ K",
      "Ġc h",
      "g h",
      "Ġe x",
      "q u",
      "p t",
      "Ġp l",
      "ro u",
      "es s",
      "e ar",
      "Ġ U",
      "am e",
      "iv e",
      "Ġ â",
      "ac k",
      "Ġs h",
      "Ġ k",
      "Ġa re",
      "ec t",
      "Ġh ad",
      "Ġâ Ģ",
      "i an",
      "ĠS t",
      "s e",
      "Ġwh ich",
      "as t",
      "re d",
      "g e",
      "ou r",
      "o v",
      "i p",
      "m ent",
      "Ġs p",
      "Ġn ot",
      "Ġ y",
      "Ġ le",
      "i al",
      "in e",
      "r it",
      "o st",
      "a p",
      "u st",
      "igh t",
      "el l",
      "ĠC h",
      "or d",
      "Ġ 3",
      "Ġ u",
      "ou n",
      "i a",
      "ic al",
      "t her",
      "is h",
      "ar y",
      "av e",
      "o g",
      "Ġ un",
      "c l",
      "Ġ2 00",
      "ir st",
      "Ġ V",
      "ou s",
      "ion s",
      "Ġ ;",
      "Ġa r",
      "Ġin t",
      "r u",
      "id e",
      "s o",
      "Ġcom p",
      "f ter",
      "Ġb ut",
      "Ġthe ir",
      "Ġcon t",
      "c c",
      "u re",
      "ou t",
      "ou ld",
      "Ġit s",
      "Ġw he",
      "Ġf irst",
      "w o",
      "Ġ2 0",
      "p er",
      "f f",
      "he d",
      "ĠâĢ ĵ",
      "ow n",
      "as s",
      "ig n",
      "Ġal so",
      "u e",
      "r y",
      "or m",
      "Ġc l",
      "o k",
      "u b",
      "ĠH e",
      "i e",
      "at er",
      "r an",
      "om e",
      "Ġre s",
      "i re",
      "Ġ :",
      "on d",
      "or k",
      "e nd",
      "Ġa d",
      "Ġa b",
      "m er",
      "Ġ us",
      "Ġ 4",
      "ag e",
      "Ġhe r",
      "Ġ ro",
      "Ġh ave",
      "Ġ 5",
      "l ow",
      "Ġon e",
      "Ġp er",
      "Ġre c",
      "Ġbe en",
      "Ġh as",
      "Ġt wo",
      ". @",
      "Ġ@ .@",
      "im e",
      "ĠT h",
      "re e",
      "ur ing",
      "d u",
      "al ly",
      "en ce",
      "p l",
      "Ġ1 8",
      "i le",
      "ul t",
      "Ġs c",
      "l and",
      "ou gh",
      "it ion",
      "i z",
      "Ġa g",
      "Ġwh o",
      "Ġth is",
      "ac h",
      "ation s",
      "Ġd is",
      "ĠA l",
      "r ic",
      "Ġb ec",
      "ĠI t",
      "Ġa pp",
      "Ġ j",
      "Ġp art",
      "oun t",
      "a re",
      "Ġd es",
      "cl ud",
      "ac t",
      "el y",
      "ad e",
      "or y",
      "Ġ20 1",
      "Ġthe y",
      "Ġo ver",
      "Ġpl ay",
      "o ver",
      "i b",
      "Ġm an",
      "ou nd",
      "Ġa fter",
      "Ġy ear",
      "en s",
      ", @",
      "Ġ@ ,@",
      "i k",
      "Ġof f",
      "Ġs er",
      "Ġat t",
      "Ġ im",
      "ct ion",
      "Ġo ther",
      "Ġ Y",
      "ur n",
      "p h",
      "em ber",
      "ac e",
      "Ġin clud",
      "an ce",
      "res s",
      "it e",
      "Ġo ut",
      "ic e",
      "t e",
      "Ġ en",
      "ar k",
      "an g",
      "m an",
      "e y",
      "rou nd",
      "w n",
      "Ġint o",
      "rou gh",
      "Ġu p",
      "Ġp re",
      "nd er",
      "Ġe v",
      "re n",
      "Ġ 6",
      "Ġt ime",
      "in t",
      "w e",
      "ĠO n",
      "c ed",
      "p ort",
      "Ġcom m",
      "w ard",
      "in d",
      "c es",
      "am p",
      "Ġt e",
      "i ed",
      "ĠU n",
      "Ġw ould",
      "v el",
      "os e",
      "Ġ 7",
      "Ġw e",
      "Ġm ore",
      "ter n",
      "it ed",
      "Ġal l",
      "ent s",
      "ĠA n",
      "l es",
      "Ġh im",
      "as on",
      "Ġn e",
      "ab le",
      "is s",
      "ri b",
      "or s",
      "ing s",
      "o y",
      "as ed",
      "Ġs he",
      "a w",
      "at es",
      "ro p",
      "o od",
      "at t",
      "Ġc ent",
      "as e",
      "on e",
      "Ġw ork",
      "Ġp o",
      "r al",
      "i ous",
      "ol d",
      "or th",
      "i x",
      "ic t",
      "g an",
      "Ġ 9",
      "il d",
      "Ġre m",
      "in al",
      "Ġs ec",
      "e p",
      "a il",
      "Ġf e",
      "f orm",
      "Ġe ar",
      "Ġd uring",
      "at h",
      "Ġb et",
      "Ġthe m",
      "er ed",
      "Ġwhe n",
      "Ġcon s",
      "Ġ 8",
      "il m",
      "ou th",
      "v ed",
      "r on",
      "Ġk n",
      "ĠA s",
      "a us",
      "f er",
      "Ġm ost",
      "ub l",
      "Ġd ec",
      "f t",
      "ic k",
      "Ġon ly",
      "Ġs ong",
      "w ay",
      "Ġag ain",
      "ak e",
      "ĠS e",
      "ol low",
      "Ġn ew",
      "u g",
      "ĠM ar",
      "ter s",
      "ĠC om",
      "ot h",
      "Ġ19 9",
      "re at",
      "we en",
      "ation al",
      "on s",
      "ĠA r",
      "h ip",
      "Ġth ree",
      "Ġt r",
      "Ġu nder",
      "Ġg ame",
      "o ok",
      "is ion",
      "Ġab out",
      "oc k",
      "Ġf l",
      "Ġre l",
      "o b",
      "ol og",
      "Ġc ol",
      "Ġ 00",
      "al s",
      "Ġth an",
      "Ġse ason",
      "Ġp os",
      "Ġbet ween",
      "v e",
      "Ġf ilm",
      "Ġth rough",
      "mer ic",
      "f ore",
      "Ġe nd",
      "Ġc an",
      "ĠA meric",
      "Ġm e",
      "Ġn um",
      "or n",
      "ĠE n",
      "ĠN ew",
      "i ew",
      "Ġl ater",
      "Ġde f",
      "Ġre t",
      "Ġas s",
      "t ed",
      "Ġwh ile",
      "ul ar",
      "an s",
      "Ġch ar",
      "Ġa ct",
      "Ġsu b",
      "h n",
      "Ġ ver",
      "Ġrec ord",
      "t s",
      "Ġpro du",
      "Ġ ra",
      "Ġp e",
      "Ġp r",
      "Ġre g",
      "Ġwhe re",
      "Ġm ade",
      "am es",
      "or ld",
      "Ġfor m",
      "at ing",
      "Ġb u",
      "Ġa c",
      "Ġl ar",
      "Ġm ov",
      "Ġre le",
      "Ġin ter",
      "en er",
      "e ver",
      "he s",
      "ur y",
      "is hed",
      "in es",
      "Ġs ome",
      "Ġf ollow",
      "Ġs o",
      "Ġw rit",
      "ro s",
      "Ġ qu",
      "Ġc o",
      "Ġd ay",
      "Ġsp ec",
      "Ġin c",
      "ĠA t",
      "Ġf our",
      "Ġa m",
      "iv ed",
      "ĠL e",
      "u al",
      "Ġsec ond",
      "Ġa cc",
      "ĠR e",
      "Ġ00 0",
      "Ġus ed",
      "in s",
      "le ct",
      "Ġin d",
      "n ing",
      "ik e",
      "Ġbe fore",
      "an k",
      "b um",
      "a id",
      "i el",
      "Ġsu pp",
      "if ic",
      "Ġsu ch",
      "Ġm on",
      "ran s",
      "Ġm us",
      "Ġ 0",
      "ĠTh is",
      "l l",
      "ic s",
      "Ġ1 0",
      "il y",
      "Ġ1 2",
      "he n",
      "Ġh igh",
      "iv er",
      "ĠS h",
      "Ġc all",
      "ĠB rit",
      "Ġbe ing",
      "Ġthe re",
      "an y",
      "Ġp ubl",
      "a j",
      "i o",
      "Ġ ent",
      "ar s",
      "ĠS c",
      "ow ever",
      "ĠJ o",
      "Ġs y",
      "Ġs ur",
      "Ġd o",
      "ĠA ust",
      "Ġyear s",
      "Ġnum ber",
      "Ġf ound",
      "Ġe p",
      "Ġl oc",
      "Ġal bum",
      "Ġt ra",
      "Ġse ver",
      "vel op",
      "Ġagain st",
      "Ġn o",
      "t on",
      "e k",
      "Ġs et",
      "ĠâĢ Ķ",
      "Ġin v",
      "if e",
      "in ce",
      "is ed",
      "ot her",
      "Ġb l",
      "j ect",
      "u c",
      "i er",
      "Ġ Z",
      "em ent",
      "Ġe m",
      "t en",
      "ir d",
      "ĠEn g",
      "Ġ /",
      "Ġb oth",
      "it ies",
      "Ġp res",
      "Ġinclud ing",
      "Ġb ack",
      "Ġser ies",
      "ain ed",
      "aus e",
      "Ġthe n",
      "Ġbec ame",
      "it s",
      "an e",
      "ire ct",
      "Ġw ell",
      "y l",
      "p r",
      "od e",
      "r am",
      "is e",
      "Ġkn own",
      "ur ch",
      "Ġt rans",
      "Ġper form",
      "Ġte am",
      "Ġad d",
      "id ent",
      "al e",
      "s on",
      "Ġex p",
      "Ġ1 6",
      "ĠUn ited",
      "Ġde p",
      "u res",
      "an n",
      "a z",
      "Ġ19 8",
      "er t",
      "Ġep is",
      "in ed",
      "Ġm ain",
      "ro w",
      "f ul",
      "Ġp op",
      "Ġre ce",
      "iel d",
      "Ġ19 4",
      "Ġm et",
      "th ough",
      "Ġ1 5",
      "over n",
      "ow er",
      "Ġs ing",
      "i et",
      "u ch",
      "Ġ1 1",
      "Ġman y",
      "a ir",
      "ros s",
      "ĠA fter",
      "Ġchar ac",
      "Ġl ong",
      "ĠI nd",
      "Ġsever al",
      "Ġdes c",
      "at her",
      "o ber",
      "Ġre p",
      "Ġcont in",
      "Ġ est",
      "Ġ1 7",
      "Ġde velop",
      "Ġo p",
      "o ol",
      "ĠAust ral",
      "ĠAmeric an",
      "Ġm ill",
      "u p",
      "iv ers",
      "Ġg o",
      "ut e",
      "Ġs m",
      "er n",
      "el f",
      "Ġor ig",
      "l ed",
      "Ġc ity",
      "Ġbe gan",
      "at ive",
      "a red",
      "Ġsh ow",
      "Ġst ud",
      "ĠG er",
      "Ġm in",
      "a u",
      "Ġc re",
      "un e",
      "em b",
      "d er",
      "rou p",
      "ĠW ar",
      "ĠS he",
      "ĠBrit ish",
      "Ġal ong",
      "a h",
      "ĠM ay",
      "v en",
      "Ġp ol",
      "Ġhe ad",
      "Ġcomp le",
      "a pt",
      "Ġ19 7",
      "Ġcent ury",
      "ĠJo hn",
      "u ed",
      "Ġd id",
      "Ġle ad",
      "er m",
      "Ġs ign",
      "Ġ19 6",
      "i red",
      "Ġm il",
      "Ġd irect",
      "Ġsh ip",
      "t il",
      "Ġar t",
      "u ally",
      "Ġc ould",
      "iz ed",
      "Ġo b",
      "Ġex t",
      "Ġd own",
      "i am",
      "Ġear ly",
      "le y",
      "Ġh ist",
      "v iew",
      "Ġn ear",
      "Ġc ar",
      "Ġb el",
      "Ġd if",
      "Ġw ar",
      "Ġo per",
      "ĠC on",
      "Ġin f",
      "i ent",
      "Ġb ro",
      "ĠW h",
      "ĠU S",
      "Ġthe se",
      "el s",
      "Ġm at",
      "Ġcall ed",
      "o ot",
      "Ġa ir",
      "ĠB r",
      "Ġim p",
      "Ġm ay",
      "Ġs aid",
      "ak ing",
      "Ġr un",
      "Ġc rit",
      "Ġk m",
      "ĠI s",
      "op le",
      "ul l",
      "ru ct",
      "cc ess",
      "Ġfe at",
      "Ġepis ode",
      "Ġdes ign",
      "it t",
      "u red",
      "Ġl and",
      "Ġin st",
      "Ġres p",
      "Ġdis c",
      "ment s",
      "ĠS p",
      "im es",
      "Ġd ist",
      "Ġun til",
      "Ġret urn",
      "g est",
      "Ġdesc rib",
      "y p",
      "ist s",
      "Ġin s",
      "ĠC l",
      "Ġst art",
      "Ġatt ack",
      "x t",
      "aj or",
      "Ġpre v",
      "id ed",
      "os s",
      "Ġan y",
      "Ġf in",
      "ĠB l",
      "ĠA ug",
      "ĠGer man",
      "ĠAug ust",
      "in k",
      "Ġare a",
      "am ed",
      "ers on",
      "ain s",
      "ial ly",
      "ĠSe pt",
      "m y",
      "er v",
      "Ġpro v",
      "en n",
      "ib le",
      "is m",
      "ĠC ol",
      "Ġth ough",
      "Ġg ener",
      "ĠSept ember",
      "ĠC ar",
      "Ġcon st",
      "Ġ1 3",
      "Ġp ass",
      "Ġg overn",
      "Ġn orth",
      "ĠN orth",
      "t y",
      "Ġoff ic",
      "an ge",
      "ĠThe y",
      "os ed",
      "ĠCom m",
      "Ġs ame",
      "Ġo wn",
      "Ġa round",
      "ĠM an",
      "Ġg roup",
      "ov e",
      "Ġop en",
      "Ġbec ause",
      "Ġsupp ort",
      "ce pt",
      "Ġrele ased",
      "Ġmill ion",
      "ĠP l",
      "Ġe ff",
      "et s",
      "Ġus e",
      "Ġl ike",
      "i um",
      "Ġs ix",
      "Ġsm all",
      "Ġo cc",
      "as h",
      "Ġsu ccess",
      "Ġf inal",
      "Ġc ount",
      "ch ool",
      "Ġad v",
      "Ã ©",
      "Ġb att",
      "ĠJ u",
      "Ġapp ear",
      "Ġmus ic",
      "ac ed",
      "Ġg u",
      "Ġs im",
      "Ġpe ople",
      "u es",
      "st em",
      "ĠW orld",
      "Ġf am",
      "ĠCh r",
      "Ġfollow ing",
      "ward s",
      "iv ision",
      "ĠD e",
      "Ġb r",
      "Ġcon c",
      "Ġd am",
      "ou se",
      "Ġm od",
      "Ġw in",
      "Ġp h",
      "ut h",
      "ĠAl l",
      "ĠH owever",
      "in a",
      "k e",
      "u nd",
      "il t",
      "ian s",
      "Ġcons id",
      "Ġlar ge",
      "Ġe ach",
      "Ġ19 5",
      "ĠJ une",
      "ĠA d",
      "om an",
      "Ġres ult",
      "c k",
      "olog y",
      "ut ion",
      "ĠF or",
      "o le",
      "Ġ ed",
      "at s",
      "rop ical",
      "Ġe le",
      "iv es",
      "ĠS outh",
      "Ġan n",
      "Ġ19 1",
      "Ġf ive",
      "Ġ %",
      "Ġre port",
      "Ġpo int",
      "Ġcont ro",
      "Ġcharac ter",
      "ĠM e",
      "g ed",
      "Ġl ife",
      "Ġs outh",
      "Ġst r",
      "Ġ1 4",
      "ĠJ an",
      "Ġv ar",
      "ĠP ro",
      "ra ph",
      "er y",
      "ĠB e",
      "Ġg un",
      "ord ing",
      "e b",
      "al es",
      "Ġe ver",
      "end ed",
      "on y",
      "Ġ19 3",
      "at ely",
      "Ġs ince",
      "Ġp rom",
      "Ġg r",
      "ur al",
      "a x",
      "ĠG u",
      "ĠO ct",
      "Ġ Q",
      "m ed",
      "b le",
      "ical ly",
      "av y",
      "ĠSt ates",
      "o x",
      "av ing",
      "l ing",
      "Ġwe ek",
      "ore d",
      "u ary",
      "Ġst ate",
      "Ġ $",
      "Ġm ajor",
      "ĠF ran",
      "on t",
      "Ġto ok",
      "ĠOct ober",
      "if ied",
      "ĠN ov",
      "t ing",
      "y s",
      "ect ion",
      "ĠE u",
      "ect ed",
      "Ġw ill",
      "em pt",
      "ĠI I",
      "iv ing",
      "Ġrece ived",
      "l ish",
      "b all",
      "Ġpart ic",
      "Ġpubl ic",
      "il ity",
      "ĠJu ly",
      "ra ft",
      "Ġcl ass",
      "a e",
      "Ġre st",
      "iss ion",
      "Ġc are",
      "ag ue",
      "Ġt it",
      "Ġplay ed",
      "Ġl ine",
      "Ġhe l",
      "ĠD ec",
      "Ġwh at",
      "Ġb ook",
      "Ġd et",
      "ĠH er",
      "ion al",
      "Ġsy stem",
      "p le",
      "b y",
      "Ġn ame",
      "op s",
      "ant s",
      "Ġl ast",
      "Ġn ow",
      "Ġ2 5",
      "Ġpro t",
      "Ġp ort",
      "Ġbu ild",
      "ĠJan uary",
      "Ġ [",
      "Ġ ]",
      "Ġinc re",
      "a im",
      "ĠC an",
      "es p",
      "Ġst orm",
      "ĠChr ist",
      "om et",
      "Ġser v",
      "Ġre f",
      "iv ely",
      "Ġ3 0",
      "ĠM c",
      "he l",
      "Ġl ate",
      "Ġinclud ed",
      "ĠP h",
      "Ġcon f",
      "Ġd ue",
      "ag es",
      "Ġm ar",
      "Ġt ri",
      "ĠY ork",
      "Ġdescrib ed",
      "re t",
      "d om",
      "ĠD uring",
      "a ur",
      "Ġw on",
      "ĠK ing",
      "an c",
      "Ġj ust",
      "h am",
      "Ġm uch",
      "a pp",
      "Ġsing le",
      "ĠA pr",
      "ap an",
      "ĠApr il",
      "Ġgovern ment",
      "g in",
      "Ġal low",
      "n er",
      "od y",
      ". .",
      "Ġs l",
      "i od",
      "ide o",
      "Ġw orld",
      "ĠJ apan",
      "g et",
      "Ġde ath",
      "o ad",
      "Ġapp ro",
      "s ion",
      "Ġatt empt",
      "it al",
      "Ġcomm and",
      "ĠNov ember",
      "Ġk ill",
      "ro te",
      "Ġan other",
      "it ions",
      "Ġle ft",
      "Ġc amp",
      "Ġm en",
      "Ġ. ..",
      "ent ly",
      "Ġal though",
      "a i",
      "Ġwith in",
      "Ġsh ort",
      "Ġpos s",
      "g er",
      "Ġo ld",
      "ĠP ar",
      "or p",
      "Ġn amed",
      "ec h",
      "Ġw rote",
      "ĠEu rop",
      "en e",
      "ĠM us",
      "Ġev en",
      "Ġbu ilt",
      "ur ther",
      "Ġor gan",
      "ra nd",
      "c hed",
      "Ġt urn",
      "Ġto p",
      "om in",
      "pt ion",
      "r act",
      "Ġb ased",
      "id ge",
      "Ġtr ack",
      "ay s",
      "Ġpl ace",
      "ĠMar ch",
      "it ary",
      "ĠB att",
      "Ġpro g",
      "Ġch ild",
      "ren ch",
      "Ġp ower",
      "Ġth ird",
      "ĠG e",
      "ĠDec ember",
      "Ġprev ious",
      "n ess",
      "Ġev ent",
      "Ġp ar",
      "Ġst ar",
      "Ġspec ies",
      "ul ation",
      "ĠN ational",
      "Ġ if",
      "Ġc ap",
      "Ġest ab",
      "Ġv is",
      "Ġdif fer",
      "ard s",
      "i pp",
      "Ġs chool",
      "ac hed",
      "Ġbel ie",
      "ĠB y",
      "Ġver y",
      "ĠA nd",
      "Ġb re",
      "un g",
      "Ġp erson",
      "Ġh ome",
      "il ar",
      "Ġd r",
      "os p",
      "Ġex pl",
      "Ġper iod",
      "l er",
      "Ġw ater",
      "an ces",
      "Ġl ist",
      "Ġre qu",
      "ĠThe re",
      "Ġg ames",
      "Ġh al",
      "m s",
      "Ġt em",
      "v es",
      "am b",
      "Ġh and",
      "Ġre view",
      "ivers ity",
      "ĠC ity",
      "ĠR iver",
      "ĠF rench",
      "Ġ19 2",
      "qu e",
      "Ġen g",
      "is on",
      "o int",
      "ed er",
      "Ġb est",
      "Ġs ent",
      "ag ed",
      "Ġre pl",
      "Ġth ose",
      "iv en",
      "Ġh um",
      "id es",
      "ĠEurop e",
      "Ġw ind",
      "Ġ1 00",
      "Ġmon th",
      "es e",
      "en se",
      "ĠH is",
      "ĠW hen",
      "oc i",
      "ĠEng land",
      "Ġm ed",
      "s ide",
      "Ġd est",
      "ru ction",
      "he st",
      "at ure",
      "Ġl ed",
      "ĠN o",
      "Ġc our",
      "el t",
      "Ġ201 0",
      "Ġb o",
      "Ġg reat",
      "Ġc apt",
      "en ces",
      "ak en",
      "le t",
      "ĠF l",
      "Ġfam ily",
      "as ter",
      "i ence",
      "Ġ Â",
      "Ġb as",
      "Ġm ake",
      "ĠSt e",
      "m p",
      "Ġv ideo",
      "Ġorig inal",
      "Ġo pp",
      "Ġ200 8",
      "Ġne xt",
      "Ġc ame",
      "in c",
      "Ġd em",
      "ak es",
      "Ġt yp",
      "ur ric",
      "ent ion",
      "Ġst ill",
      "ĠCom p",
      "Ġt erm",
      "Ġs ide",
      "Ġm ark",
      "Ġmov ed",
      "Ġro le",
      "Ġle g",
      "Ġcontin ued",
      "ent ed",
      "Ġst ory",
      "ĠO r",
      "al k",
      "Ġf ew",
      "Ġloc al",
      "Ġw ay",
      "Ġ200 9",
      "Ġs old",
      "Ġc aus",
      "ĠD ivision",
      "Ġw est",
      "Ġhist ory",
      "Ġm id",
      "ot t",
      "ĠCh urch",
      "g y",
      "at ter",
      "i or",
      "ĠT e",
      "Ġv iew",
      "l ine",
      "b s",
      "o on",
      "Ġhe ld",
      "re w",
      "ut ed",
      "Ġfor ces",
      "ain ing",
      "iv al",
      "emb ers",
      "Ġsu g",
      "Ġa uth",
      "Ġfor mer",
      "ĠP r",
      "Ġis s",
      "Ġadd ition",
      "re ad",
      "Ġro ad",
      "us s",
      "ĠA m",
      "ri end",
      "le v",
      "ĠB ro",
      "en g",
      "l u",
      "Ġan t",
      "Ġc over",
      "Ġof ten",
      "n e",
      "ĠCh ar",
      "s h",
      "Ġe ast",
      "Ġf urther",
      "as tern",
      "og raph",
      "Ġconsid ered",
      "Ġcare er",
      "Ġeff ect",
      "ĠE d",
      "ĠW e",
      "Ġst and",
      "in ing",
      "ar n",
      "Ġto wn",
      "ĠW ill",
      "Ġcl aim",
      "Ġr ight",
      "Ġc r",
      "ron t",
      "Ġin it",
      "Ġde b",
      "amp ions",
      "c hes",
      "et er",
      "Ġ2 1",
      "Ġto t",
      "Ġ200 7",
      "ĠOn e",
      "Ġpos ition",
      "s elf",
      "or ies",
      "Ġex per",
      "Ġd el",
      "Ġar ch",
      "Ġn ort",
      "ĠSt ate",
      "Ġmil itary",
      "Ġmat ch",
      "Ġ2 3",
      "ĠW ith",
      "en c",
      "Ġd ra",
      "ĠA b",
      "Ġhal f",
      "Ġt ropical",
      "ĠA cc",
      "tern ational",
      "Ġsim ilar",
      "Ġhel p",
      "Ġsug gest",
      "p ar",
      "ro y",
      "Ġstr ong",
      "Ġ2 4",
      "Ġdef e",
      "Ġf ire",
      "Ġcon v",
      "is ter",
      "Ġb and",
      "ĠC ount",
      "ĠR ec",
      "Ġim port",
      "Ġplay er",
      "Ġre fer",
      "Ġwith out",
      "ĠG ener",
      "Ġc ur",
      "Ġre al",
      "Ġpol it",
      "al ion",
      "Ġday s",
      "Ġtr ad",
      "urric ane",
      "Ġpl an",
      "Ġcomm un",
      "es tern",
      "Ġm embers",
      "Ġ201 1",
      "Ġt ake",
      "ĠT r",
      "Ġsp e",
      "eb ru",
      "e ad",
      "Ġ X",
      "Ġt w",
      "Ġm y",
      "ri ed",
      "Ġcomp any",
      "Ġcl ub",
      "im ent",
      "ĠP er",
      "Ġcomm on",
      "Ġa v",
      "Ġam ong",
      "Ġ2 2",
      "Ġle vel",
      "ens ive",
      "Ġdiffer ent",
      "on es",
      "Ġy ou",
      "Ġever y",
      "Ġp ost",
      "Ġrecord ed",
      "Ġpro p",
      "ot s",
      "Ġ el",
      "it ar",
      "Ġh owever",
      "ĠF ebru",
      "ĠE ar",
      "ĠAl though",
      "ĠFebru ary",
      "Ġe lect",
      "Ġbe h",
      "Ġinv ol",
      "au gh",
      "Ġf ore",
      "Ġ201 2",
      "ĠAustral ian",
      "it er",
      "ĠP ort",
      "Ġrep res",
      "e al",
      "Ġ200 6",
      "ĠEng lish",
      "Ġar r",
      "y n",
      "ar r",
      "Ġpubl ished",
      "ĠA f",
      "Ġ2 6",
      "Ġl ow",
      "iz e",
      "ress ion",
      "re en",
      "y le",
      "her n",
      "ĠAcc ording",
      "Ġf ind",
      "Ġship s",
      "Ġor der",
      "le ar",
      "Ġwrit ten",
      "er ing",
      "itt le",
      "ou ther",
      "Ġm ag",
      "Ġt ro",
      "at ic",
      "b e",
      "Ġv ict",
      "Ġtot al",
      "is c",
      "ic es",
      "pl oy",
      "Ġf re",
      "Ġp at",
      "ro du",
      "Ġrele ase",
      "Ġorig in",
      "outher n",
      "ĠS u",
      "ĠAustral ia",
      "Ġf ield",
      "Ġpartic ular",
      "Ġsong s",
      "Ġtit le",
      "Ġbec ome",
      "Ġf oot",
      "ĠA ir",
      "Ġcomp et",
      "Ġ er",
      "ĠAn g",
      "is ing",
      "ĠP ark",
      "Ġreport ed",
      "Ġcontro l",
      "ĠGener al",
      "Ġl ost",
      "ĠM ich",
      "ric k",
      "Ġpro f",
      "Ġor d",
      "Ġpro ject",
      "re et",
      "us h",
      "Ġcom b",
      "ĠCan ad",
      "Ġt imes",
      "Ġh aving",
      "ac es",
      "se qu",
      "Ġsur v",
      "Ġf t",
      "Ġg ave",
      "Ġt er",
      "ay ing",
      "ĠC ent",
      "Ġprodu ced",
      "Ġst at",
      "Ġver sion",
      "ĠLe ague",
      "Ġs k",
      "Ġc y",
      "ur s",
      "es c",
      "ĠE l",
      "ampions hip",
      "ĠAs s",
      "re st",
      "ĠW est",
      "ĠUn iversity",
      "Ġ !",
      "Ġe qu",
      "ren t",
      "Ġl ight",
      "ĠM in",
      "ĠB ar",
      "Ġ2 8",
      "Ġprodu ction",
      "iet y",
      "oun g",
      "Ġsign ific",
      "Ġl ess",
      "Ġch ang",
      "Ġauth or",
      "ir on",
      "ĠGe or",
      "re am",
      "ab ly",
      "our s",
      "ail ed",
      "ĠRe g",
      "lev ision",
      "Ġhist or",
      "g es",
      "Ġj o",
      "ĠThe se",
      "Ġne ver",
      "Ġinf lu",
      "ĠR ich",
      "il le",
      "Ġcount ry",
      "qu ad",
      "al d",
      "Ã ¡",
      "Ġg iven",
      "ĠR oman",
      "Ġar m",
      "Ġa ff",
      "Ġs ite",
      "Ġm aking",
      "Ġfor ce",
      "Ġ &",
      "Ġw ant",
      "us ed",
      "Ġ2 7",
      "Ġinclud e",
      "Ġreturn ed",
      "ec hn",
      "Ġpop ular",
      "ĠAf ric",
      "a ul",
      "w ork",
      "Ġs ol",
      "Ġ5 0",
      "Ġg round",
      "n a",
      "it her",
      "Ġob s",
      "Ġp ress",
      "Ġe ight",
      "ĠM iss",
      "ver s",
      "o ard",
      "Ġs it",
      "ĠR oad",
      "Ġ201 3",
      "Ġdest roy",
      "ad es",
      "iv il",
      "Ġis land",
      "ant ry",
      "Ġcrit ic",
      "at or",
      "Ġn ight",
      "Ġst ated",
      "ĠL es",
      "iz ation",
      "Ġac ross",
      "ĠP ol",
      "in ation",
      "as k",
      "Ġst ruct",
      "m e",
      "Ġre ached",
      "Ġch urch",
      "ĠWill iam",
      "Ġf ar",
      "Ġdevelop ed",
      "Ġse en",
      "r ing",
      "ff ic",
      "a un",
      "f ic",
      "f ord",
      "ap e",
      "ĠAmeric a",
      "Ġpop ulation",
      "ĠWh ile",
      "ĠJapan ese",
      "Ġc ult",
      "a ff",
      "Ġl im",
      "Ġpres ent",
      "Ġmil es",
      "Ġprog ram",
      "Ġann oun",
      "r ation",
      "ree k",
      "ĠS im",
      "ĠS ong",
      "i us",
      "Ġf act",
      "Ġc ross",
      "um ent",
      "Ġsignific ant",
      "s p",
      "Ġ2 9",
      "Ġsh ould",
      "Ġestab l",
      "Ġear l",
      "Ġ19 0",
      "ĠJ ack",
      "om b",
      "Ġus ing",
      "oy al",
      "Ġchild ren",
      "c ess",
      "Ġre ad",
      "om en",
      "Ġa way",
      "in ess",
      "Ġn ov",
      "g round",
      "ĠL ond",
      "Ġf riend",
      "Ġr ad",
      "Ġgun s",
      "a ign",
      "ĠO ld",
      "olog ical",
      "re g",
      "Ġd iv",
      "Ġhim self",
      "ĠCount y",
      "Ġh ow",
      "Ġman ag",
      "c raft",
      "Ġp it",
      "al th",
      "ĠM ount",
      "ĠD av",
      "Ġdevelop ment",
      "Ġestabl ished",
      "ĠLond on",
      "im ately",
      "Ġmod ern",
      "Ġb ody",
      "Ġbatt le",
      "Ġm m",
      "Ġform ed",
      "Ġthough t",
      "e ared",
      "Ġb ar",
      "Ġp ra",
      "Ġs ound",
      "Ġperform ance",
      "ig ade",
      "ist ed",
      "op e",
      "Ġc ast",
      "Ġh ig",
      "Ġg en",
      "Ġthrough out",
      "i ers",
      "Ġw ent",
      "Ġf elt",
      "Ġp ain",
      "Ġare as",
      "are n",
      "ar ch",
      "m ost",
      "Ġc at",
      "ĠI m",
      "ri e",
      "Ġkill ed",
      "Ġw at",
      "Ġto ur",
      "ĠH igh",
      "ĠSc ient",
      "er o",
      "Ġl aw",
      "ut es",
      "Ġpr im",
      "ĠBl ack",
      "Ġs omet",
      "Ġf ight",
      "Ġg ood",
      "ĠN e",
      "Ġsuccess ful",
      "ĠC al",
      "Ġint rodu",
      "yl an",
      "i ec",
      "Ġd ied",
      "Ġg l",
      "em ents",
      "Ġse ven",
      "ĠD ylan",
      "Ġnot ed",
      "ord s",
      "Ġc ou",
      "ac y",
      "ol l",
      "ri pt",
      "Ġr ange",
      "ubl ic",
      "f ield",
      "it ive",
      "Ġdisc over",
      "Ġf ull",
      "Ġto o",
      "Ġst e",
      "Ġimport ant",
      "a f",
      "Ġs oc",
      "Ġm ount",
      "ir c",
      "Ġad m",
      "Ġloc ated",
      "Ġt en",
      "Ġf ront",
      "ĠE x",
      "ĠAr my",
      "Ġbl ack",
      "Ġstart ed",
      "Ġp ut",
      "Ġdec l",
      "Ġbuild ing",
      "ĠE v",
      "ie f",
      "Ġne ed",
      "ĠH a",
      "Ġch art",
      "ĠPh il",
      "Ġ ide",
      "Ġhum an",
      "ic o",
      "ĠG l",
      "Ġ3 1",
      "Ġact iv",
      "Ġperform ed",
      "Ġvar ious",
      "ep end",
      "ĠComp any",
      "et h",
      "os aur",
      "Ġrem ained",
      "Ġwrit ing",
      "Ġc as",
      "Ġl ook",
      "Ġte levision",
      "Ġfe et",
      "f all",
      "Ġse e",
      "Ġtro ops",
      "ĠO l",
      "way s",
      "Ġoffic ial",
      "c on",
      "re land",
      "Ġf em",
      "Ġf ather",
      "ĠF eder",
      "Ġcaus ed",
      "it ted",
      "Ġf un",
      "Ġn ational",
      "ĠI reland",
      "Ġpo em",
      "c om",
      "Ġw id",
      "Ġwh ite",
      "og n",
      "Ġh ouse",
      "ĠT o",
      "ĠJ ames",
      "ri es",
      "Ä ģ",
      "Ġt echn",
      "Ġhe avy",
      "Ġinter est",
      "ĠS ec",
      "id ence",
      "ĠH ar",
      "Ġconst ruction",
      "Ġa ge",
      "Ġre d",
      "Ġs um",
      "he m",
      "ar a",
      "Ġg et",
      "Ġ200 5",
      "it ing",
      "ĠM on",
      "ĠH ist",
      "Ġplay ers",
      "uc k",
      "g r",
      "Ġst ri",
      "Ġst yle",
      "ĠP al",
      "um p",
      "a el",
      "Ġent ire",
      "Ġs w",
      "Ġk e",
      "id d",
      "in o",
      "ĠK e",
      "Ġev ents",
      "Ġdo es",
      "Ġset t",
      "ĠIs land",
      "ĠR ober",
      "our n",
      "Ġm ix",
      "Ġre v",
      "Ġbe gin",
      "Ġv ill",
      "Ġab le",
      "Ġrel ig",
      "quad ron",
      "ress ed",
      "Ġco ast",
      "Ġser ved",
      "Ġpe ak",
      "as ing",
      "Ġcamp aign",
      "Ġf av",
      "ĠB ut",
      "Ġpolit ical",
      "Ġl ik",
      "ĠY ou",
      "en ced",
      "Ġ4 0",
      "Ġreg ion",
      "lect ed",
      "Ġcre ated",
      "Ġt re",
      "en ed",
      "ĠC o",
      "m ar",
      "le et",
      "Ġon ce",
      "Ġg od",
      "p or",
      "id s",
      "du ct",
      "Ġf ig",
      "ent h",
      "ĠC are",
      "ĠM ag",
      "Ġfollow ed",
      "ĠBatt alion",
      "ant ic",
      "Ġ18 9",
      "Ġother s",
      "ĠAt l",
      "Ġprom ot",
      "Ġp ri",
      "Ġag re",
      "Ġwork s",
      "Ã Ń",
      "Ġs on",
      "st er",
      "ab or",
      "ĠâĢ Ļ",
      "Ġro ute",
      "Ġest im",
      "l ess",
      "Ġcomple ted",
      "fic ult",
      "Ġcon d",
      "ell ing",
      "Ġannoun ced",
      "ĠC ro",
      "Ġ200 4",
      "he re",
      "Ġbec om",
      "d ay",
      "ĠS y",
      "Ġr ank",
      "Ġle ast",
      "Ġme et",
      "Ġdif ficult",
      "Ġc oun",
      "Ġh old",
      "ĠD u",
      "Ġadd ed",
      "Ġb all",
      "iv id",
      "ra b",
      "Ġorigin ally",
      "Ġv al",
      "rough t",
      "amp le",
      "i que",
      "an a",
      "ĠS w",
      "pl ay",
      "ough t",
      "ric t",
      "Ġrel ations",
      "Ġcharac ters",
      "Ġocc ur",
      "Ġf ac",
      "Ġb us",
      "Ġapp eared",
      "Ġro ck",
      "Ġmonth s",
      "Ġc ert",
      "ĠH am",
      "Ġspec ial",
      "b r",
      "Ġ ident",
      "ur b",
      "k i",
      "Ġs outhern",
      "ra p",
      "Ġcol le",
      "Ġ round",
      "Ġp red",
      "Ġl oss",
      "am ent",
      "ect s",
      "Ġb ase",
      "Ġl ittle",
      "od es",
      "Ġcom ment",
      "Ġass oci",
      "c her",
      "ĠM er",
      "ĠR oyal",
      "Ġcon n",
      "ĠO ther",
      "Ġpro cess",
      "Ġsu per",
      "Ġbro ad",
      "Ġm i",
      "ĠA ct",
      "ĠS om",
      "Ġinst ead",
      "Ġdam age",
      "Ġb orn",
      "em y",
      "al ity",
      "Ġtrad ition",
      "Ġ201 5",
      "Ġair craft",
      "c er",
      "al y",
      "et t",
      "ĠKing dom",
      "y ing",
      "ĠR out",
      "pp ed",
      "Ġfeat ures",
      "Ġ200 3",
      "Ġa ud",
      "or se",
      "ĠT own",
      "un k",
      "Ġdec ided",
      "Ġbeh ind",
      "Ġcy cl",
      "o ice",
      "Ġl ack",
      "Ġen c",
      "Ġacc om",
      "enc y",
      "c il",
      "Ġe astern",
      "Ġkn ow",
      "Ġserv ice",
      "Ġre du",
      "ĠR ep",
      "Ġle t",
      "ĠT wo",
      "Ġg row",
      "Ġnov el",
      "o o",
      "ĠS an",
      "ĠM ad",
      "Ġn on",
      "um b",
      "Ġv ol",
      "Ġsu ff",
      "ign ed",
      "Ġ18 8",
      "Ġhigh way",
      "r ay",
      "Ġa ward",
      "Ġr iver",
      "Ġcrit ics",
      "he ast",
      "Ġc irc",
      "ĠE ast",
      "Ġs aw",
      "ĠScient ology",
      "Ġt aken",
      "Ġoper ations",
      "ĠMe x",
      "ĠRout e",
      "Ġf if",
      "Ġm ass",
      "ĠM or",
      "ĠB ra",
      "Ġrec ogn",
      "ĠMc C",
      "m ing",
      "Ġw ife",
      "Ġto wards",
      "Ġcl ose",
      "ang u",
      "Ġfour th",
      "a ult",
      "n ed",
      "Ġa ver",
      "Ġa ction",
      "ĠS ome",
      "ĠB ill",
      "g g",
      "Ġv oc",
      "Ġe ither",
      "ĠP res",
      "Ġan im",
      "op h",
      "ĠSt reet",
      "ĠCh ampionship",
      "o ff",
      "Ġevent ually",
      "Ġt est",
      "at a",
      "at ors",
      "ec ut",
      "ist ic",
      "ach ing",
      "ĠDav id",
      "Ġcl os",
      "Ġre b",
      "ĠS er",
      "ĠFran ce",
      "Ġrepres ent",
      "Ġh urricane",
      "ur g",
      "ol ution",
      "ill a",
      "Ġse par",
      "Ġsc ored",
      "Ġapp oint",
      "Ġsub sequ",
      "al t",
      "Ġl ive",
      "Ġimp ro",
      "c ast",
      "Ġ z",
      "ic a",
      "Ġm other",
      "Ġfor t",
      "Ġal most",
      "Ġpro ble",
      "Ġcol l",
      "Ġb ird",
      "ĠW ales",
      "Ġind ivid",
      "Ġprof ess",
      "Ġst age",
      "if f",
      "Ġ18 5",
      "az ine",
      "Ġnort hern",
      "Ġst ars",
      "Ġcom mer",
      "ud e",
      "Ġy oung",
      "ĠMus ic",
      "Ġc ut",
      "Ġm iss",
      "Ġse x",
      "Ġc e",
      "Ġf all",
      "ĠF ollow",
      "Ġ3 5",
      "i ber",
      "Ġw all",
      "Ġre n",
      "Ġas k",
      "av al",
      "ĠE m",
      "Ġcent ral",
      "ĠInd ian",
      "Ġfeat ured",
      "Ġc or",
      "Ġl aun",
      "ap er",
      "ĠC up",
      "ĠB o",
      "ĠH ill",
      "ĠN Y",
      "Ġcre w",
      "ograph y",
      "o res",
      "Ġd ou",
      "ce ed",
      "ĠG rand",
      "Ġh on",
      "ort s",
      "Ġun its",
      "med i",
      "ĠR ock",
      "ĠIn f",
      "Ġex ample",
      "i ol",
      "Ġh ost",
      "ot a",
      "Ġr ul",
      "Ġplay ing",
      "Ġac cept",
      "Ġmov e",
      "Ġw omen",
      "st on",
      "st it",
      "ul ly",
      "Ġar g",
      "Ġresp ons",
      "Ġgener al",
      "Ġbelie ved",
      "ĠFollow ing",
      "w est",
      "ĠA g",
      "end ing",
      "Ġgo al",
      "Ġ iron",
      "Ġb rought",
      "am a",
      "em or",
      "ch ie",
      "Ġ5 00",
      "Ġm ot",
      "le ment",
      "Ġk ing",
      "ĠRober t",
      "ĠCare y",
      "Ġc ase",
      "Ġto get",
      "av es",
      "ĠIn ternational",
      "Ġtoget her",
      "m en",
      "u ation",
      "ar ter",
      "Ġm ater",
      "ĠG od",
      "Ġex c",
      "Ġwind s",
      "a ut",
      "ĠS l",
      "ĠB er",
      "c ial",
      "e um",
      "Ġn uc",
      "Ġde v",
      "Ġpl aced",
      "Ġlar gest",
      "Ġdirect ed",
      "Ġrelations hip",
      "Ġm ph",
      "ĠM ed",
      "Ġst ru",
      "ĠP art",
      "ren g",
      "Ġlead ing",
      "Ġfin ished",
      "i ation",
      "Ġl angu",
      "Ġint ens",
      "wo od",
      "Ġ18 6",
      "Ġup on",
      "Ġins p",
      "Ġcour t",
      "Ġs our",
      "Ġm ember",
      "ĠJ ew",
      "Ġcont ract",
      "Ġind ust",
      "Ġprov ided",
      "b oard",
      "c o",
      "ent ial",
      "ĠP aul",
      "Ġr ather",
      "ĠBr igade",
      "Ġweek s",
      "he ad",
      "Ġsh ot",
      "Ġfl ood",
      "Ġcur rent",
      "v ing",
      "ĠF rom",
      "Ġopen ed",
      "or ing",
      "ĠD ay",
      "ĠG ame",
      "Ġse qu",
      "Ġem ploy",
      "u el",
      "v ille",
      "Ġc reat",
      "Ġh y",
      "ĠP e",
      "art ment",
      "ĠTh om",
      "v al",
      "ic ated",
      "ish ing",
      "Ġappear ance",
      "Ġc ivil",
      "Ġe y",
      "ber t",
      "ight s",
      "c ing",
      "Ġpro b",
      "Ġv e",
      "Ġinv est",
      "ĠComm and",
      "Ġopen ing",
      "Ġele ments",
      "g o",
      "u le",
      "Ġ -",
      "ĠH en",
      "Ġst reng",
      "A F",
      "ĠP re",
      "Ġreg ular",
      "i h",
      "at in",
      "Ġin form",
      "as ion",
      "ĠF irst",
      "Ġdirect or",
      "Ġdesign ed",
      "Ġpoint s",
      "Ġinvol ved",
      "Ġearl ier",
      "Ġc ost",
      "Ġc ell",
      "Ġh ours",
      "id a",
      "id ing",
      "Ġy ards",
      "Ġem b",
      "Ġresp ect",
      "Ġgener ally",
      "Ġallow ed",
      "h ing",
      "Ġre ve",
      "ict ion",
      "Ġme as",
      "ĠWh ite",
      "ĠGeor ge",
      "Ġf oc",
      "Ġcon duct",
      "ĠEurope an",
      "Ġs aying",
      "Ġout side",
      "Ġposs ible",
      "er ous",
      "Ġbe g",
      "ĠN avy",
      "Ġme an",
      "Ġqu ick",
      "Ġb i",
      "Ġb urn",
      "ĠS m",
      "ĠM y",
      "ĠV iet",
      "en es",
      "Ġeng ine",
      "Ġrepl aced",
      "Ġwant ed",
      "c ent",
      "n ow",
      "ĠM ark",
      "Ġg ra",
      "con om",
      "l s",
      "u k",
      "Ġm er",
      "Ġre act",
      "ĠD ep",
      "ap s",
      "ell ow",
      "n ar",
      "ĠA c",
      "ĠB est",
      "Ġdes p",
      "Ġvict ory",
      "Ġw ood",
      "ing ton",
      "ec k",
      "Ġh om",
      "Ġex ist",
      "Ġprevious ly",
      "l iam",
      "t ar",
      "Ġf und",
      "ĠC r",
      "Ġl eng",
      "ĠR h",
      "Ġwork ing",
      "Ġparticular ly",
      "Ġestim ated",
      "Ġab ove",
      "Ġ18 7",
      "Ġ201 4",
      "Ġjo ined",
      "t o",
      "et work",
      "Ġpr act",
      "Ġmet res",
      "ĠQ u",
      "ĠChrist ian",
      "ĠAng el",
      "Ġbus iness",
      "Ġ ill",
      "Ġ esc",
      "ĠM ost",
      "ĠI r",
      "ĠP ac",
      "ĠR ed",
      "z e",
      "Ġc lear",
      "ĠD esp",
      "ĠK ore",
      "Ġ200 1",
      "ines e",
      "ĠL ove",
      "Ġse em",
      "Ġ200 0",
      "Ġne g",
      "Ġtra vel",
      "ann ed",
      "ĠFl or",
      "f or",
      "os ition",
      "ĠCh inese",
      "Ġrem ov",
      "Ġ197 0",
      "s el",
      "u ter",
      "Ġa chie",
      "it a",
      "Ġh it",
      "Ġfor ced",
      "ul a",
      "Ġdra w",
      "ĠDesp ite",
      "b or",
      "m a",
      "Ġc op",
      "ĠH ouse",
      "pp er",
      "Ġdis s",
      "liam ent",
      "Ġl y",
      "Ġwork ed",
      "Ġtrans port",
      "Ġav ail",
      "Ġpra ised",
      "Ġm ach",
      "ĠC orp",
      "ĠM o",
      "ur t",
      "Ġpro te",
      "on st",
      "Ġp ers",
      "Ġp ast",
      "Ġwith d",
      "Ġtrans fer",
      "Ġleng th",
      "Ġb ur",
      "Ġin j",
      "Ġm ult",
      "Ġsc ene",
      "Ġpo et",
      "r ated",
      "Ġre ason",
      "ec ess",
      "ain t",
      "ell ed",
      "ĠZ eal",
      "Ġstud y",
      "ĠZeal and",
      "n el",
      "Ġs low",
      "at ural",
      "it z",
      "Ġf r",
      "Ġf ree",
      "Ġth reat",
      "ĠM ac",
      "ĠL a",
      "os ing",
      "ĠV al",
      "Ġra in",
      "Ġmain t",
      "ĠPl ay",
      "Ġincre ased",
      "p s",
      "t ies",
      "Ġcon dom",
      "ĠO per",
      "ĠK h",
      "Ġres ear",
      "ĠBrit ain",
      "Ġord ered",
      "st e",
      "Ġconst ruct",
      "ĠBatt le",
      "e e",
      "Ġth ink",
      "Ġst ation",
      "op p",
      "ĠMich ael",
      "Ġmater ial",
      "m b",
      "ĠR uss",
      "ag o",
      "ĠÂ °",
      "ĠSu per",
      "Ġ199 0",
      "Ġreg ard",
      "Ġob ject",
      "ĠLes nar",
      "ĠMex ico",
      "ĠC reek",
      "ĠB ay",
      "ĠW al",
      "ĠW il",
      "ak er",
      "Ġev idence",
      "ĠAtl antic",
      "n es",
      "r d",
      "ac ing",
      "ĠL ater",
      "ĠG al",
      "Ġ4 5",
      "ib ility",
      "Ġacc ount",
      "Ġfoot ball",
      "Ġt rib",
      "ĠG reat",
      "Ġv iol",
      "Ġrem ains",
      "Ġra p",
      "Ġsy n",
      "Ġmanag er",
      "Ġn omin",
      "ĠM ary",
      "ir th",
      "Ġwh om",
      "and ing",
      "Ġpo or",
      "Ġso on",
      "Ġh ous",
      "ĠH all",
      "Ġw estern",
      "an ia",
      "ĠT or",
      "Ġl ines",
      "ĠD on",
      "Ġr ace",
      "Ġ6 0",
      "Ġcent er",
      "ific ation",
      "ĠPac ific",
      "Ġf ace",
      "ch ing",
      "ĠG overn",
      "ĠEar ly",
      "ĠRep ublic",
      "u z",
      "ĠO s",
      "rib uted",
      "read y",
      "Ġhig hest",
      "ĠFeder er",
      "Ġ Ã",
      "it es",
      "le g",
      "om s",
      "Ġar my",
      "ĠFlor ida",
      "w h",
      "Ġt reat",
      "ul f",
      "Ġra il",
      "ĠQ ue",
      "v est",
      "ar ies",
      "an ish",
      "Ġd on",
      "Ġg re",
      "ĠP o",
      "ĠG old",
      "Ġch ange",
      "Ġ200 2",
      "Ġpartic ip",
      "Ġturn ed",
      "ĠÂ £",
      "s hip",
      "Ġn ine",
      "Ġsur f",
      "Ġfem ale",
      "Ġaver age",
      "l ict",
      "Ġp en",
      "ĠS chool",
      "ess ion",
      "ord an",
      "Ġinter view",
      "Ġarr ived",
      "ĠRich ard",
      "por ary",
      "Ġy ard",
      "Ġsign ed",
      "Ġbre ak",
      "Ġter rit",
      "B C",
      "Ġt aking",
      "Ġp ur",
      "ĠS ch",
      "cl us",
      "Ġits elf",
      "Ġsub ject",
      "Ġpr iv",
      "ank s",
      "Ġbl ock",
      "Ġclaim ed",
      "ĠInf antry",
      "ĠO p",
      "Ġdam aged",
      "ĠHer o",
      "Ġstruct ure",
      "ecut ive",
      "Ġavail able",
      "er ved",
      "Ġl ove",
      "el er",
      "Ġhe av",
      "ĠG r",
      "Ġcont r",
      "Ġsur round",
      "Ġcommer cial",
      "ĠThom as",
      "ou l",
      "ĠJ ordan",
      "Ġim medi",
      "Ġstud io",
      "Ġocc up",
      "Ġdefe ated",
      "Ġp iec",
      "ou ri",
      "ĠA pp",
      "Ġinit ially",
      "Ġcommun ity",
      "Ġd ro",
      "Ġh ard",
      "ĠH ol",
      "ab it",
      "ĠUn ion",
      "Ġtra ining",
      "Ġbro ther",
      "ĠReg iment",
      "c hest",
      "h ib",
      "k y",
      "Ġs ection",
      "ar ily",
      "Ġb ill",
      "ver t",
      "ĠOl iv",
      "Ġdesp ite",
      "b and",
      "Ġc al",
      "Ġn ames",
      "ul ated",
      "ĠO d",
      "Ġdis p",
      "Ġdep ression",
      "gy pt",
      "ĠPres ident",
      "x imately",
      "ĠA ward",
      "ĠM et",
      "Ġg old",
      "ĠD r",
      "ri an",
      "Ġ3 6",
      "ĠV ir",
      "Ġt ru",
      "ĠE gypt",
      "Ġpass ed",
      "ĠCanad a",
      "Ġvill age",
      "Ġ esp",
      "Ġin ternational",
      "Ġto ld",
      "Ġe conom",
      "Ġwh ose",
      "Ġex cept",
      "fer ence",
      "Ġqu arter",
      "Ġh ar",
      "Ġal ready",
      "ate g",
      "ĠU nder",
      "Ġ7 5",
      "Ġincre asing",
      "o or",
      "Ġc ru",
      "ar ters",
      "il a",
      "Ġl atter",
      "ĠM a",
      "ĠB el",
      "ĠY ear",
      "Ġ196 0",
      "ĠCar ol",
      "Ġrequ ired",
      "Ġprob ably",
      "Ġw ide",
      "as es",
      "ĠT om",
      "ĠB us",
      "ĠTh at",
      "Ġpart s",
      "Ġappoint ed",
      "Ġst ates",
      "ri ption",
      "Ġk ey",
      "Ġ3 8",
      "Ġ18 3",
      "Ġestab lish",
      "ste in",
      "ar i",
      "ur ity",
      "ra g",
      "um e",
      "ĠSc ott",
      "Ġdeb ut",
      "Ġrelig ious",
      "ĠViet n",
      "d own",
      "in ist",
      "or ation",
      "Ġf ly",
      "ĠT imes",
      "Ġpro per",
      "Ġpol ice",
      "Ġcomple t",
      "Ġgr ad",
      "Ġsold iers",
      "ĠAr t",
      "Ġcap ital",
      "ĠMiss ouri",
      "ĠHen ry",
      "A S",
      "n ey",
      "Ġl iter",
      "Ġfor ward",
      "th let",
      "ran ch",
      "Ġbet ter",
      "Ġass ist",
      "o id",
      "á ĥ",
      "Ġm ust",
      "ĠT em",
      "Ġab s",
      "Ġcol on",
      "Ġd en",
      "Ġd ate",
      "il ities",
      "ĠN ot",
      "Ġcom e",
      "Ġde ad",
      "Ġrem aining",
      "Ġsuggest ed",
      "Ġbegin ning",
      "Ġs ize",
      "at ory",
      "Ġg ive",
      "Ġan c",
      "Ġen ough",
      "Ġgo ing",
      "Ġwin ning",
      "Ġant i",
      "Ġa p",
      "Ġp ot",
      "ĠT ra",
      "ĠF ort",
      "ab y",
      "ab ility",
      "Ġdec ision",
      "Ġend ed",
      "hen s",
      "Ġdet erm",
      "g u",
      "it or",
      "Ġf ailed",
      "ĠS un",
      "ĠH el",
      "Ġwrit er",
      "Ġacc ording",
      "Ġind epend",
      "Ġnear ly",
      "ran g",
      "at ives",
      "Ġto uch",
      "ĠT ech",
      "ĠC ong",
      "ĠM al",
      "ol ic",
      "ĠF e",
      "ĠN ero",
      "ĠAfric a",
      "g l",
      "k s",
      "Ġs ect",
      "ec ially",
      "ĠF ilm",
      "ĠInd ia",
      "Ġgo als",
      "Ġshow s",
      "Ġcomple te",
      "Ġph ys",
      "Ġlangu age",
      "Ġa ut",
      "Ġm ight",
      "ĠS quadron",
      "Ġl ower",
      "Ġsc ore",
      "ĠChar les",
      "Ġintrodu ced",
      "Ã ³",
      "on se",
      "Ġf ut",
      "ĠP et",
      "um ents",
      "Ġrem ain",
      "Ġfe el",
      "ĠAss oci",
      "o f",
      "Ġto w",
      "ill ery",
      "Ġrecord ing",
      "Ġdep ict",
      "Ġrun ning",
      "Ġcapt ured",
      "d en",
      "Ġ ?",
      "ĠC ard",
      "ĠC amp",
      "ĠM ont",
      "ĠP eter",
      "ĠO t",
      "Ġsp ent",
      "Ġle ague",
      "ĠV ict",
      "ric s",
      "Ġ8 0",
      "ron ic",
      "Ġmin or",
      "ĠSp anish",
      "ĠGerman y",
      "Ġed uc",
      "ĠBro wn",
      "augh ter",
      "Ġpri or",
      "Ġesp ecially",
      "i est",
      "l or",
      "ĠM any",
      "id ents",
      "ĠP at",
      "est s",
      "Ġsupport ed",
      "Ġappro ximately",
      "Ġdestroy ed",
      "Ġlim ited",
      "ĠIr ish",
      "g a",
      "ar ing",
      "ĠS ing",
      "Ġch ap",
      "ĠV ar",
      "Ġint ended",
      "Ġgroup s",
      "Ġiss ue",
      "ĠHist ory",
      "ĠW he",
      "Ġ198 0",
      "Ġm ur",
      "Ġd ivision",
      "Ġn etwork",
      "ĠM il",
      "od ies",
      "Ġde al",
      "qu are",
      "Ġim m",
      "Ġreview s",
      "Ġdiscover ed",
      "Ġf leet",
      "ĠM os",
      "ra w",
      "Ġk il",
      "ry ing",
      "Ġresp onse",
      "Ġreve al",
      "Ġs at",
      "Ġd oc",
      "ĠA wards",
      "Ġst aff",
      "Ġinclud es",
      "Ġsomet imes",
      "in ct",
      "re ak",
      "Ġsc reen",
      "Ġoff ice",
      "in ent",
      "Ġf ood",
      "il s",
      "ĠN ort",
      "ĠSt ud",
      "Ġ18 4",
      "Ġpos itive",
      "Ġlar ger",
      "Ġrun s",
      "Ġarch ae",
      "ĠCanad ian",
      "Ġchang es",
      "rie f",
      "Ġcert ain",
      "is es",
      "Ġin n",
      "ĠT ur",
      "ĠW estern",
      "ĠAn other",
      "orn ing",
      "Ġaddition al",
      "Ġmag azine",
      "Ġagre ed",
      "f ect",
      "Ġ ri",
      "Ġm ale",
      "Ġh app",
      "ĠC oun",
      "ord er",
      "ĠCol le",
      "Ġmix ed",
      "b ack",
      "h a",
      "u ing",
      "Ġs ch",
      "ĠC our",
      "ish op",
      "pl es",
      "Ġsc ript",
      "Ġprov ide",
      "ĠOld ham",
      "Ġfight ing",
      "Ġc he",
      "an ies",
      "ĠS oc",
      "ĠP ri",
      "Ġex am",
      "qu arters",
      "Ġj ourn",
      "Ġsoc ial",
      "Ġs em",
      "Ġf ail",
      "ic ation",
      "Ġd omin",
      "ad s",
      "ĠJ e",
      "Ġmost ly",
      "i res",
      "ly mp",
      "Ġfeat ure",
      "ĠFran k",
      "ed y",
      "le x",
      "ĠB ur",
      "ĠH urricane",
      "Ġde ep",
      "hed ral",
      "Ġus ually",
      "Ġpos itions",
      "ann a",
      "Ġfore st",
      "Ġfre qu",
      "Ġpress ure",
      "ĠO lymp",
      "Ġun s",
      "Ġp air",
      "Ġm ention",
      "ch ange",
      "Ġcomp l",
      "Ġam ount",
      "ĠII I",
      "Ġtyp e",
      "is er",
      "Ġb omb",
      "ir t",
      "ig an",
      "ĠH ot",
      "ĠR ad",
      "ĠL aw",
      "ĠIn ter",
      "ok e",
      "Ġad op",
      "Ġmin utes",
      "Ġgu itar",
      "f act",
      "Ġ ens",
      "at ively",
      "ĠS erv",
      "st ant",
      "ir ing",
      "ĠO ver",
      "ĠU K",
      "Ġ199 9",
      "Ġcar ried",
      "Ġrad io",
      "osaur us",
      "Ġbecom ing",
      "Ġfut ure",
      "Ġs il",
      "um n",
      "Ġsh own",
      "ĠCh ina",
      "Ġun c",
      "te en",
      "Ġ7 0",
      "Ġsmall er",
      "Ġdefe at",
      "Ġsubsequ ently",
      "is ions",
      "ĠV er",
      "osp ital",
      "ĠOliv ier",
      "b ers",
      "Ġw ord",
      "ĠT V",
      "ĠT er",
      "ĠS ince",
      "Ġcon clud",
      "ill s",
      "Ġcont em",
      "Ġpres ident",
      "Ġfav or",
      "Ġlik ely",
      "m on",
      "m ond",
      "u nder",
      "as y",
      "ent y",
      "ĠJ in",
      "ĠE ver",
      "ĠSt ar",
      "Ġad apt",
      "Ġ199 5",
      "Ġteam s",
      "Ġcoun ter",
      "N A",
      "he t",
      "it te",
      "ĠM art",
      "Ġv ot",
      "Ġper cent",
      "ĠAn t",
      "oy s",
      "Ġrefer red",
      "ĠJew ish",
      "Ġquick ly",
      "u als",
      "Ġt ons",
      "Ġw oman",
      "ad y",
      "ad ed",
      "ĠB ack",
      "Ġst ay",
      "ĠR es",
      "ĠD an",
      "Ġ3 2",
      "Ġu nd",
      "Ġqu est",
      "Ġent ered",
      "Ġloc ation",
      "Ġproble ms",
      "r or",
      "on na",
      "Ġw ound",
      "ou d",
      "ĠC ath",
      "om m",
      "ĠB en",
      "ĠR ac",
      "ce an",
      "and s",
      "ĠO ff",
      "per or",
      "ĠGu itar",
      "ĠVict or",
      "i os",
      "Ġin ters",
      "Ġd er",
      "Ġl o",
      "ĠP enn",
      "Ġnot es",
      "Ġtem per",
      "Ġrank ed",
      "Ġfif th",
      "ĠBill board",
      "ĠAssoci ation",
      "Ġb irth",
      "im um",
      "un t",
      "Ġ4 00",
      "Ġapp l",
      "Ġprofess ional",
      "g en",
      "g ely",
      "Ġf low",
      "Ġb rief",
      "Ġst ra",
      "ra el",
      "Ġrel ated",
      "ĠSec ond",
      "Ġke ep",
      "Ġsurf ace",
      "d le",
      "Ġd i",
      "ĠT ropical",
      "im ate",
      "if orn",
      "Ġse a",
      "Ġle aving",
      "Ġun it",
      "Ġmov ing",
      "Ġind ic",
      "Ġconc ern",
      "ĠFor ce",
      "Ġmed ia",
      "w ell",
      "Ġs elf",
      "us p",
      "Ġ3 3",
      "Ġ9 0",
      "Ġam b",
      "Ġoffic ers",
      "ĠMan ila",
      "Ġmajor ity",
      "Ġconstruct ed",
      "n y",
      "Ġth ick",
      "Ġen v",
      "Ġcons ist",
      "Ġstud ents",
      "Ġmin ute",
      "Ġcomple x",
      "Ġconc ert",
      "Ġvis it",
      "Ġide a",
      "Ġsuff ered",
      "Ġlaun ched",
      "g ar",
      "h y",
      "r at",
      "s es",
      "an ced",
      "and on",
      "Ġattack ed",
      "Ġrap id",
      "ĠT our",
      "ĠS ur",
      "Ġsh oot",
      "ĠIt al",
      "Ġthem sel",
      "Ġass igned",
      "Ġ195 0",
      "Ġprim ary",
      "ĠVir gin",
      "Ġthemsel ves",
      "Ġm akes",
      "Ġal ways",
      "ĠL ight",
      "ĠL atin",
      "Ġover all",
      "Ġlar gely",
      "Ġart illery",
      "Ġdisc uss",
      "Ġeffect s",
      "ĠCal iforn",
      "n ers",
      "Ġ ult",
      "er a",
      "ĠHe ad",
      "ĠIs rael",
      "Ġspe ed",
      "Ġsum mer",
      "ĠJ er",
      "Ġle arn",
      "Ġfilm s",
      "Ġcre ate",
      "ĠCent ral",
      "Ġoccur red",
      "Ġce le",
      "ĠCoun cil",
      "Ġc m",
      "ĠT re",
      "Ġre in",
      "ĠS am",
      "Ġl ink",
      "ĠM r",
      "ĠH ow",
      "Ġr an",
      "Ġcont ains",
      "Ġ199 8",
      "Ġcan n",
      "Ġconsid er",
      "aren t",
      "Ġly rics",
      "Ġc er",
      "all ed",
      "Ġatt ract",
      "Ġprodu ct",
      "Ġlong er",
      "Ġcrit ical",
      "Ġattack s",
      "h ou",
      "v ens",
      "Ġc red",
      "Ġd ark",
      "Ġe mer",
      "ac hes",
      "th ing",
      "ul pt",
      "ĠW ood",
      "ĠJ ose",
      "Ġ3 00",
      "ĠAr ch",
      "Ġtra ffic",
      "ĠBr ad",
      "Ġinvest ig",
      "ĠWhe eler",
      "Ġf ans",
      "ĠU p",
      "ĠSt orm",
      "Ġim age",
      "Ġmet h",
      "Ġsl ight",
      "Ġbroad cast",
      "ro wn",
      "Ġl ived",
      "ĠM ajor",
      "Ġde g",
      "land s",
      "Ġmov ement",
      "Ġmus ical",
      "Ġ194 0",
      "Ġappear s",
      "Ġcontro ll",
      "Ġincre ase",
      "Ġstat us",
      "ĠCro at",
      "Ġkil omet",
      "Ġsch ol",
      "Ġl ab",
      "ĠD em",
      "Ġab andon",
      "Ġj ob",
      "Ġ201 6",
      "Ġpre m",
      "Ġcomm ission",
      "und red",
      "Ġconf lict",
      "Ġexper ience",
      "Ġprop osed",
      "Ġcas ual",
      "Ġask ed",
      "ĠCaliforn ia",
      "R A",
      "Ġp urch",
      "Ġd oll",
      "Ġsc enes",
      "Ġsc ulpt",
      "Ġacc ess",
      "Ġmon ey",
      "itt ing",
      "l in",
      "Ġt ar",
      "an i",
      "im b",
      "ĠH aw",
      "Ġv oice",
      "Ġj ud",
      "ĠSe ver",
      "Ġform s",
      "Ġele ction",
      "Ġgr ant",
      "Ġlist ed",
      "e x",
      "z y",
      "in ated",
      "Ġb ow",
      "ĠF ore",
      "ri age",
      "art s",
      "Ġbel ow",
      "Ġcommand er",
      "Ġrequ est",
      "inc ip",
      "Ġinflu ence",
      "Ġobs erv",
      "Ġremov ed",
      "m as",
      "ĠC amb",
      "ĠR oss",
      "ce nd",
      "ew ay",
      "ous ly",
      "Ġpart y",
      "Ġcent re",
      "ĠComm ission",
      "Ġbr ing",
      "Ġ193 0",
      "ĠSte vens",
      "Ġassoci ated",
      "k en",
      "er ve",
      "er gy",
      "ed ing",
      "Ġc le",
      "Ġd ram",
      "Ġre ach",
      "ĠS ov",
      "Ġn ature",
      "ĠR A",
      "ĠD ist",
      "Ġcon cept",
      "Ġend ing",
      "Ġme ant",
      "Ġnum bers",
      "Ġac qu",
      "Ġd aughter",
      "ĠR ob",
      "and er",
      "Ġpl anned",
      "Ġser ious",
      "Ġcycl one",
      "ĠNort hern",
      "Ġb ound",
      "Ġm om",
      "Ġd ed",
      "ĠF I",
      "ul u",
      "Ġle ave",
      "ru it",
      "Ġdis m",
      "Ġear th",
      "Ġterm s",
      "ĠEar th",
      "ĠMich igan",
      "Ġchang ed",
      "ĠAfric an",
      "Ġpriv ate",
      "ĠRac hel",
      "a wn",
      "g ing",
      "Ġth us",
      "Ġl if",
      "ĠB u",
      "ĠL ake",
      "um ed",
      "Ġunder st",
      "ĠAt t",
      "Ġs usp",
      "Ġb ad",
      "Ġm orning",
      "ĠA rab",
      "Ġst one",
      "ĠL ou",
      "Ġpl at",
      "Ġpl ot",
      "Ġu pper",
      "yl v",
      "Ġperform ances",
      "Ġperson al",
      "Ġaward ed",
      "Ġbird s",
      "ĠCour t",
      "I I",
      "l o",
      "it ation",
      "it ect",
      "ĠS al",
      "Ġg ot",
      "Ġpl ans",
      "Ġun able",
      "Ġwhe ther",
      "Ġtr ade",
      "Ġra re",
      "Ġbuild ings",
      "ĠTe x",
      "Ġdou ble",
      "at re",
      "Ġl ay",
      "ĠB C",
      "ĠI f",
      "ĠR ose",
      "Ġcon ver",
      "ri a",
      "if y",
      "Ġch all",
      "Ġfl ight",
      "Ġoper ation",
      "Ġfin ally",
      "Ġcult ure",
      "Ġresear ch",
      "t r",
      "Ġt ell",
      "Ġn atural",
      "ir l",
      "ĠD o",
      "ĠD el",
      "av en",
      "ian o",
      "ell ig",
      "Ġwe ap",
      "hip s",
      "Ġrecord s",
      "Ġinf antry",
      "ĠCent er",
      "Ġfoc us",
      "Ġconduct ed",
      "itte e",
      "ĠH u",
      "Ġas p",
      "ĠJ im",
      "ort un",
      "Ġcomp ared",
      "ĠTh ree",
      "Ġsc hed",
      "ail s",
      "Ġcol lect",
      "ĠCl ub",
      "Ġiss ued",
      "Ġcompet ition",
      "Ġcomment ed",
      "Ġstreng th",
      "Ġmean ing",
      "Ġt akes",
      "Ġf ell",
      "ĠS en",
      "Ġl iving",
      "ĠN ic",
      "ĠJ ane",
      "ect ive",
      "Ġy et",
      "ĠCh ic",
      "ĠIt s",
      "ail y",
      "augh t",
      "Ġaccom p",
      "i ant",
      "Ġd ig",
      "ĠTh rough",
      "Ġthem e",
      "Ġcover ed",
      "Ġmeth od",
      "i qu",
      "ĠT ay",
      "Ġco ach",
      "Ġpres ence",
      "ven ue",
      "Ġpol ic",
      "Ġprev ent",
      "Ġl og",
      "ĠB ow",
      "ĠF orm",
      "if a",
      "Ġ3 7",
      "Ġ4 2",
      "Ġnew sp",
      "Ġra ised",
      "Ġepis odes",
      "Ġadv ance",
      "Ġbatt les",
      "Ġattempt ed",
      "Ġfig ure",
      "Ġindust ry",
      "b ury",
      "s en",
      "Ġt alk",
      "en ing",
      "Ġb atter",
      "ĠT rans",
      "il i",
      "us band",
      "Ġhe alth",
      "Ġoff ered",
      "olog ist",
      "ĠMus eum",
      "Ġnort heast",
      "Ġrespons ible",
      "c ar",
      "en on",
      "Ġd one",
      "ĠT w",
      "ad o",
      "ĠB ob",
      "ist ics",
      "ri al",
      "ĠE mp",
      "Ġcomp anies",
      "Ġwho le",
      "Ġear ned",
      "Ġ199 3",
      "ĠEn ter",
      "Ġmark ed",
      "Ġexper i",
      "ĠPort ug",
      "Ġimmedi ately",
      "ĠColle ge",
      "o ir",
      "t ain",
      "Ġo ur",
      "Ġb ig",
      "Ġto urn",
      "Ġg iving",
      "ĠH o",
      "ĠG o",
      "Ġv ia",
      "oc r",
      "Ġwe aken",
      "Ġmat ches",
      "ĠPar liament",
      "Ġschool s",
      "Ġer a",
      "ĠPhil ipp",
      "emor ial",
      "Ġmur der",
      "ĠTex as",
      "r as",
      "it ude",
      "Ġp ark",
      "ĠB oth",
      "Ġst ories",
      "ĠJ ust",
      "Ġse lected",
      "Ġ3 9",
      "Ġpre p",
      "Ġdirect ly",
      "ipp ed",
      "Ġhelp ed",
      "Ġ +",
      "Ġs al",
      "al ys",
      "Ġp urs",
      "Ġ4 7",
      "Ġ199 6",
      "Ġstart ing",
      "Ġph ot",
      "ĠHa ifa",
      "Ġbeg ins",
      "ĠCorp s",
      "ĠChic ago",
      "b ar",
      "Ġh undred",
      "ĠS ar",
      "Ġcomp osed",
      "Ġ199 7",
      "emb ly",
      "ony m",
      "Ġmar ried",
      "Ġindivid ual",
      "ĠAc ad",
      "Ġmach ine",
      "ĠTay lor",
      "k an",
      "v ement",
      "Ġp ay",
      "ĠC ross",
      "ĠB ey",
      "et ic",
      "ol k",
      "ow s",
      "ĠN or",
      "Ġus es",
      "Ġnear by",
      "ĠAd m",
      "Ġtradition al",
      "ĠDep artment",
      "Ġgre ater",
      "ĠCath olic",
      "ĠSever al",
      "C A",
      "Ġc ause",
      "Ġh op",
      "Ġre ar",
      "Ġre ally",
      "ad a",
      "et r",
      "ĠF oot",
      "ra in",
      "Ġk ind",
      "port s",
      "ĠSe a",
      "Ġbatt alion",
      "ĠChrist mas",
      "Ġwat ers",
      "Ġb ox",
      "Ġre ject",
      "Ġn ecess",
      "ĠB ig",
      "Ġcl osed",
      "Ġev ac",
      "Ġcontin ue",
      "Ã¡ n",
      "ĠOper ation",
      "Ġo x",
      "is l",
      "Ġh our",
      "Ġhigh ly",
      "Ġann ual",
      "Ġmark et",
      "M S",
      "c an",
      "is ation",
      "Ġm or",
      "ĠS ol",
      "Ġth row",
      "Ġn orm",
      "ber g",
      "Ġrec over",
      "Ġshe ll",
      "row d",
      "Ġlead ers",
      "yp e",
      "Ġins ide",
      "Ġfin anc",
      "Ġinit ial",
      "ĠSer ies",
      "stit ute",
      "Ġcasual ties",
      "e v",
      "Ġt ax",
      "he w",
      "ĠC er",
      "Ġg raph",
      "iv a",
      "ag on",
      "ĠO ut",
      "ond yl",
      "ib ly",
      "Ġass ault",
      "ĠSc ot",
      "Ġart ist",
      "Ġimp act",
      "Ġresult ed",
      "orp or",
      "Ġgreat est",
      "Ġnuc le",
      "ĠGal vest",
      "ĠGalvest on",
      "on c",
      "ic an",
      "ĠT urn",
      "et her",
      "Ġ199 1",
      "Ġ15 0",
      "Ġcour se",
      "Ġsit uation",
      "ĠServ ice",
      "ĠItal ian",
      "i en",
      "ed o",
      "Ġd om",
      "Ġd yn",
      "ĠI ll",
      "ol f",
      "ĠL os",
      "ap ed",
      "Ġdef end",
      "Ġspec ific",
      "Ġmet al",
      "Ġdr um",
      "Ġmid dle",
      "ĠGeor g",
      "a res",
      "l ike",
      "Ġ ess",
      "Ġs out",
      "Ġp il",
      "Ġh ot",
      "ĠS aint",
      "ur ies",
      "Ġde ploy",
      "Ġsec ret",
      "Ġcontro vers",
      "Ġbook s",
      "Ġattempt s",
      "osp ondyl",
      "Ġgod s",
      "Ġfig ures",
      "Ġinsp ired",
      "Ġinform ation",
      "Ġtouch down",
      "Ã³ n",
      "T V",
      "p ool",
      "Ġs ides",
      "at ops",
      "is k",
      "ic le",
      "ĠT enn",
      "ĠS ix",
      "Ġth ings",
      "ĠH um",
      "Ġse v",
      "ant a",
      "Ġact ive",
      "Ġhead quarters",
      "Ġext ended",
      "Ġserv ices",
      "Ġallow ing",
      "Ġtrack s",
      "Ġbo ats",
      "ĠChar l",
      "Ġstand ard",
      "Ġsomet hing",
      "l ers",
      "Ġ x",
      "Ġf eder",
      "Ġp ick",
      "ĠA I",
      "ĠA re",
      "Ġn aval",
      "ct or",
      "ĠJ am",
      "Ġadv ant",
      "Ġpower ful",
      "Ġaud ience",
      "ĠPart y",
      "l ight",
      "re y",
      "Ġp ath",
      "ad ium",
      "im s",
      "Ġst ating",
      "ĠL ong",
      "Ġse arch",
      "ĠV illa",
      "ran e",
      "Ġen j",
      "Ġ6 5",
      "Ġ199 4",
      "Ġnum erous",
      "Ġver s",
      "Ġref used",
      "Ġappro ach",
      "ĠJack son",
      "Ġneed ed",
      "Ġvoc als",
      "Ġstru ck",
      "ĠCarol ina",
      "u it",
      "Ġa st",
      "Ġw alk",
      "it ch",
      "Ġm ax",
      "ĠL ady",
      "ag an",
      "ag ing",
      "Ġhead s",
      "Ġland s",
      "Ġconf ir",
      "Ġheav ily",
      "ĠSov iet",
      "e en",
      "r id",
      "v in",
      "ĠC rit",
      "ĠM ill",
      "ĠB ec",
      "Ġr ate",
      "Ġr ule",
      "Ġro om",
      "Ġ18 0",
      "iz ing",
      "ĠAl ice",
      "Ġbl ood",
      "Ġintens ity",
      "Ġmult ip",
      "ĠOt t",
      "Ġcontem porary",
      "ĠEmp ire",
      "Ġb odies",
      "ro ll",
      "ĠThe ir",
      "ĠL ive",
      "ĠG roup",
      "ĠE r",
      "Ġ5 1",
      "Ġvar iety",
      "Ġcomb at",
      "Ġgen us",
      "Ġcond itions",
      "Ġmeet ing",
      "Ġsepar ate",
      "ĠSm ith",
      "Ġpur p",
      "ĠJose ph",
      "Ġt ask",
      "ed s",
      "ĠA lex",
      "am s",
      "Ġpe ace",
      "Ġtrans l",
      "ĠCon f",
      "ĠSp ec",
      "chest er",
      "h ouse",
      "Ġc rowd",
      "Ġh usband",
      "il es",
      "ĠF in",
      "ĠN ix",
      "Ġpl ant",
      "ect ing",
      "Ġ7 6",
      "ĠPol ish",
      "Ġhig her",
      "ĠHigh way",
      "Ġdecl ared",
      "Ġpeak ed",
      "Ġsour ce",
      "Ġhous es",
      "Ġeduc ation",
      "Ġslight ly",
      "ylv ania",
      "e es",
      "ĠM ey",
      "ĠM idd",
      "ol s",
      "us hed",
      "ĠF our",
      "ĠL o",
      "per ial",
      "Ġprodu cer",
      "Ġpres ented",
      "Ġhand s",
      "Ġredu ced",
      "Ġrespect ively",
      "u ated",
      "y ph",
      "Ġp le",
      "ic ip",
      "ĠC ivil",
      "om er",
      "Ġn ative",
      "ĠP ost",
      "ĠD j",
      "ĠN ations",
      "ĠL iver",
      "od on",
      "ĠK n",
      "Ġres idents",
      "Ġ4 4",
      "rib ution",
      "Ġsec urity",
      "Ġ199 2",
      "Ġstud ies",
      "Ġext re",
      "Ġoffic er",
      "Ġsix th",
      "Ġcolle ction",
      "ĠPenn s",
      "Ġcele br",
      "k a",
      "in y",
      "an as",
      "Ġth r",
      "Ġhe ro",
      "ĠL ittle",
      "ĠCon t",
      "Ġconst it",
      "Ġfriend s",
      "ar row",
      "ro l",
      "ĠS ir",
      "ĠC ast",
      "ĠC apt",
      "ĠB urn",
      "ĠF inal",
      "ĠW ash",
      "Ġch ampionship",
      "Ġsp ace",
      "ran ce",
      "ire ction",
      "ens ion",
      "ĠY oung",
      "Ġpre c",
      "Ġpr incip",
      "Ġnorth west",
      "aren ts",
      "Ġcomplet ely",
      "Ġwound ed",
      "b on",
      "Å į",
      "Ġs af",
      "ĠT ime",
      "Ġg rand",
      "ir al",
      "Ġbe at",
      "est ival",
      "pt ed",
      "ĠAl kan",
      "Ġte xt",
      "ath an",
      "Ġme ans",
      "Ġwrit ers",
      "ĠRe v",
      "ĠComm on",
      "ĠChr is",
      "Ġbr idge",
      "Ġcomb ined",
      "Ġactiv ity",
      "ĠSom ers",
      "Ġey e",
      "Ġin tern",
      "ĠF am",
      "ĠL and",
      "os es",
      "and id",
      "ill ed",
      "Ġ3 4",
      "Ġdis play",
      "Ġsing er",
      "Ġcontin ues",
      "Ġresp ond",
      "Ġdist ance",
      "Ġcount ries",
      "ĠDe f",
      "Ġmar riage",
      "Ġarch itect",
      "Ġadm inist",
      "Ġcop ies",
      "Ġcontr ast",
      "ĠLiver pool",
      "k et",
      "Ġ ir",
      "al ist",
      "ou ra",
      "ĠB et",
      "ter ed",
      "ĠG ames",
      "if t",
      "og ue",
      "Ġ4 8",
      "Ġdis app",
      "Ġsy mb",
      "Ġexp ected",
      "ĠPar is",
      "orp edo",
      "ĠSom al",
      "Ġve h",
      "ĠVirgin ia",
      "Ġrein for",
      "ĠFoot ball",
      "ĠNix on",
      "ĠWash ington",
      "Ġc am",
      "Ġb order",
      "Ġd raft",
      "st one",
      "em ic",
      "Ġsu st",
      "Ġdis pl",
      "Ġinter act",
      "Ġinc hes",
      "ĠInd epend",
      "Ġiss ues",
      "Ġlevel s",
      "Ġwid ely",
      "ĠHist or",
      "Ġtransfer red",
      "ĠBus ch",
      "Ġconclud ed",
      "tr ack",
      "ĠSomers et",
      "w are",
      "in th",
      "Ġp ow",
      "ĠS outhern",
      "ĠC or",
      "ĠC ons",
      "ĠB re",
      "ĠB ook",
      "ĠW ater",
      "ĠJ ul",
      "Ġan g",
      "Ġrel ief",
      "Ġact ually",
      "ĠAustral ians",
      "Ġcat hedral",
      "Ġactiv ities",
      "Ġstri ke",
      "Ġterrit ory",
      "ĠPenns ylvania",
      "i ated",
      "Ġb ene",
      "em s",
      "ĠF ow",
      "ĠL ock",
      "um ber",
      "ĠSp ain",
      "Ġeff orts",
      "Ġbo ard",
      "wh ile",
      "ĠQue en",
      "ĠMos ley",
      "Ġenj oy",
      "l am",
      "Ã ¼",
      "Ġto ward",
      "il ed",
      "ĠC at",
      "ĠD es",
      "ul ations",
      "ĠG reen",
      "ĠJ os",
      "ĠE s",
      "ast y",
      "Ġact ions",
      "Ġsupp l",
      "ann el",
      "Ġdescrib es",
      "ĠCol on",
      "Ġeff ort",
      "Ġele v",
      "ĠFran c",
      "Ġsex ual",
      "Ġwithd raw",
      "Ġanc ient",
      "ĠLou is",
      "b our",
      "i j",
      "u fact",
      "Ġ rough",
      "Ġt orpedo",
      "in us",
      "on ic",
      "is her",
      "an z",
      "an es",
      "Ġin h",
      "Ġp un",
      "Ġre ign",
      "ĠD am",
      "ĠN az",
      "ĠL i",
      "ĠL ike",
      "and ed",
      "ber y",
      "Ġex hib",
      "Ġad ult",
      "ib r",
      "Ġman aged",
      "Ġoff ensive",
      "Ġatt ention",
      "ock s",
      "Ġqu al",
      "Ġback ground",
      "Ġ194 2",
      "Ġiron cl",
      "Ġrain fall",
      "Ġreveal ed",
      "m ark",
      "Ġt ur",
      "Ġto day",
      "Ġm ission",
      "ou red",
      "ir it",
      "ut ch",
      "ĠD er",
      "ers h",
      "ĠIn n",
      "Ġ4 9",
      "Ġ5 2",
      "Ġ18 2",
      "ĠAr m",
      "Ġdef ense",
      "Ġbl ue",
      "iam i",
      "Ġdist inct",
      "Ġcount y",
      "Ġresult ing",
      "Ġright s",
      "Ġprim arily",
      "Ġbecom es",
      "Ġaccept ed",
      "Ġsequ ence",
      "ĠVietn am",
      "h ood",
      "t ation",
      "y r",
      "Ġs ays",
      "Ġm el",
      "Ġh abit",
      "ĠT ri",
      "id ian",
      "im ony",
      "Ġmain ly",
      "Ġalong side",
      "Ġdesign ated",
      "Ġopp ortun",
      "Ġmount ain",
      "ĠGovern ment",
      "ĠBec ause",
      "Ġs quadron",
      "Ġs quare",
      "Ġf aced",
      "ĠB on",
      "us ion",
      "Ġk ick",
      "Ġrec ent",
      "Ġ18 1",
      "Ġdis e",
      "amp ion",
      "ĠCl ass",
      "Ġconc ent",
      "Ġdem onst",
      "Ġpat tern",
      "Ġtre es",
      "ĠKore an",
      "ĠFow ler",
      "c y",
      "Ġw ear",
      "Ġp ound",
      "ro om",
      "ĠM iami",
      "ĠF er",
      "ĠW W",
      "Ġpr int",
      "led ge",
      "Ġfeat uring",
      "Ġappear ances",
      "ĠAd d",
      "Ġprog ress",
      "ĠMin nes",
      "ĠAngel es",
      "Ġquest ion",
      "ĠMinnes ota",
      "k in",
      "en ant",
      "ing u",
      "Ġp iano",
      "Ġon to",
      "ĠB ol",
      "us e",
      "ĠP en",
      "Ġab ility",
      "Ġro les",
      "Ġj ump",
      "Ġ6 4",
      "ech an",
      "Ġtru e",
      "h old",
      "it ness",
      "Ġc orn",
      "Ġp aper",
      "ĠT od",
      "el a",
      "ac her",
      "ĠK ent",
      "ap o",
      "Ġcomp os",
      "Ġ4 6",
      "Ġplay s",
      "Ġdep art",
      "Ġorgan ization",
      "Ġcondom s",
      "Ġfeder al",
      "b ed",
      "c le",
      "Ġs ense",
      "en a",
      "Ġb ott",
      "Ġp arents",
      "ad m",
      "Ġal tern",
      "ĠO f",
      "Ġcom ing",
      "Ġv ess",
      "Ġy oun",
      "Ġres c",
      "Ġro y",
      "Ġ5 5",
      "Ġrec omm",
      "Ġsc oring",
      "Ġseason s",
      "Ġqu ality",
      "Ġcall ing",
      "Ġshow ed",
      "ĠMan chester",
      "Ġport ion",
      "sh ire",
      "Ġobs erved",
      "ceed ed",
      "Ġpract ice",
      "ĠAcad emy",
      "ĠScot land",
      "B A",
      "ã ĥ",
      "Ġh ol",
      "Ġl ot",
      "ĠB int",
      "Ġr hy",
      "ĠAn n",
      "Ġrel atively",
      "air s",
      "Ġinst it",
      "ĠMe an",
      "Ġelect ed",
      "iron ment",
      "Ġhistor ical",
      "yph oon",
      "ĠBint ulu",
      "m un",
      "Ġw ords",
      "Ġl osing",
      "ĠR am",
      "ess a",
      "Ġun iversity",
      "Ġrem ark",
      "olog ists",
      "ĠNew s",
      "Ġinv asion",
      "Ġrece ption",
      "Ġbro wn",
      "erv ation",
      "Ġown ed",
      "Ġ192 0",
      "Ġenc oun",
      "Ġstru gg",
      "Ġult imately",
      "c ript",
      "k n",
      "ĠM og",
      "ĠF ield",
      "est ic",
      "Ġr ang",
      "Ġsu c",
      "Ġar med",
      "Ġsc ale",
      "Ġapp arent",
      "Ġ194 1",
      "Ġed ge",
      "ĠRuss ian",
      "ĠSoc iety",
      "ĠMey er",
      "ĠCapt ain",
      "g al",
      "p ole",
      "Ġa thlet",
      "Ġf ast",
      "ic les",
      "ĠC ap",
      "Ġn ation",
      "ĠM at",
      "ĠM ass",
      "ĠM att",
      "Ġhe art",
      "os en",
      "ĠG ar",
      "ud d",
      "ess ions",
      "Ġen emy",
      "Ġdef ence",
      "Ġleg al",
      "Ġtw enty",
      "Ġinflu enced",
      "ĠMer idian",
      "Ġexc av",
      "ellig ence",
      "ĠBey onc",
      "ĠBeyonc Ã©",
      "c he",
      "Ġf ully",
      "ic ations",
      "Ġm ile",
      "ĠT ik",
      "Ġth ous",
      "ĠC he",
      "Ġn arr",
      "ĠD ou",
      "ĠU l",
      "Ġsp l",
      "ĠTh ough",
      "Ġag g",
      "Ġoff er",
      "Ġpre par",
      "Ġexp ressed",
      "Ġinst r",
      "ĠCol umb",
      "ĠAnd erson",
      "Ġtyp ically",
      "rick et",
      "Ġprote ins",
      "Ġsurround ing",
      "Ġcann ot",
      "ĠHaw ai",
      "t own",
      "on ents",
      "Ġc hem",
      "Ġm em",
      "Ġm ole",
      "ĠS um",
      "Ġn arrow",
      "ut ions",
      "Ġst ep",
      "ĠP it",
      "op er",
      "pp ing",
      "Ġsp read",
      "Ġprodu ce",
      "Ġpr ison",
      "Ġset s",
      "Ġem ph",
      "Ġport ray",
      "ĠChurch ill",
      "Ġrepres ented",
      "Ġmag n",
      "Ġhom es",
      "Ġdiss ip",
      "uz z",
      "Ġadop ted",
      "alys is",
      "e ption",
      "t he",
      "Ġw ing",
      "al a",
      "as c",
      "ro ad",
      "ac ement",
      "ĠP op",
      "ĠF ar",
      "ĠW els",
      "Ġcont act",
      "ors hip",
      "Ġem ot",
      "Ġ198 6",
      "Ġorgan ized",
      "Ġleg isl",
      "ĠRich mond",
      "Ġreact ion",
      "ĠTem ple",
      "Ġadvant age",
      "Ġmax imum",
      "b urg",
      "g s",
      "m es",
      "on a",
      "Ġs en",
      "Ġin ch",
      "Ġd u",
      "ĠH al",
      "end s",
      "Ġwe bs",
      "Ġne igh",
      "ug by",
      "Ġfl oor",
      "Ġart ists",
      "Ġext ra",
      "Ġbro ken",
      "Ġtri ed",
      "ĠPr ince",
      "Ġofficial s",
      "Ġnuc lear",
      "adm ium",
      "ĠWels h",
      "r ical",
      "Ġa id",
      "Ġp al",
      "ĠS il",
      "ĠD irect",
      "ĠG all",
      "ĠO x",
      "ĠO cean",
      "Ġv o",
      "ast ic",
      "Ġman ufact",
      "Ġthem es",
      "ĠComm un",
      "Ġed ition",
      "Ġreport s",
      "ĠAnd rew",
      "Ġperson nel",
      "Ġtyp es",
      "ĠWe ek",
      "Ġearl iest",
      "Ġpain t",
      "m itted",
      "p ly",
      "r ong",
      "en ge",
      "Ġm is",
      "ĠH ome",
      "ĠR o",
      "ĠK a",
      "ĠTh under",
      "ĠMar ine",
      "ĠBl ue",
      "Ġcapt ure",
      "ĠOr ig",
      "Ġdiv ided",
      "Ġsour ces",
      "Ġhy d",
      "ĠOp en",
      "Ġtow er",
      "Ġabandon ed",
      "ĠDist rict",
      "Ġfinanc ial",
      "a en",
      "l im",
      "p re",
      "r ate",
      "u x",
      "w rit",
      "Ġs ister",
      "Ġw a",
      "Ġm outh",
      "Ġh orse",
      "ĠA v",
      "et ts",
      "Ġal one",
      "iss ipp",
      "Ġact ing",
      "Ġ198 8",
      "Ġmod el",
      "ĠPro t",
      "Ġtit led",
      "ĠMiss issipp",
      "Ġsound track",
      "Ġachie ved",
      "ĠIll ino",
      "ĠTik al",
      "Ġemph as",
      "n ospondyl",
      "Ġs n",
      "Ġd irection",
      "ĠB oy",
      "ĠB alt",
      "Ġst opp",
      "un ction",
      "ĠL ie",
      "iz es",
      "Ġact or",
      "Ġspec im",
      "Ġrep e",
      "Ġprom inent",
      "Ġshort ly",
      "Ġview ers",
      "ĠEd ward",
      "Ġaff ected",
      "ĠSec ret",
      "ĠTur k",
      "ĠMidd le",
      "Ġroy al",
      "ĠMog ad",
      "w en",
      "Ġth ir",
      "ĠF red",
      "ĠF leet",
      "ack s",
      "se nd",
      "Ġdef ensive",
      "Ġmov ie",
      "Ġwrit e",
      "Ġfound ed",
      "Ġbas is",
      "ĠRec ords",
      "ĠRh odes",
      "Ġnewsp aper",
      "ĠMississipp i",
      "Ġc ities",
      "Ġc andid",
      "al ions",
      "Ġm ind",
      "ĠA venue",
      "ur a",
      "ĠB all",
      "Ġg irl",
      "ĠN es",
      "ĠK ir",
      "og rap",
      "Ġ4 1",
      "Ġatt ended",
      "Ġwe ak",
      "ĠAr g",
      "ĠRe view",
      "Ġdo ing",
      "ĠJohn son",
      "Ġoper ated",
      "Ġstruct ures",
      "ĠBra at",
      "Ġflood ing",
      "Ġmention ed",
      "Ġs ac",
      "Ġf ruit",
      "Ġp aid",
      "Ġh ospital",
      "et te",
      "ĠG ib",
      "ip ment",
      "cl aim",
      "Ġoffic ially",
      "Ġcou ple",
      "Ġpot ential",
      "Ġded icated",
      "Ġtourn ament",
      "Ġx enon",
      "kn own",
      "b it",
      "h u",
      "u ous",
      "w ide",
      "or us",
      "Ġm echan",
      "ir m",
      "ĠW ild",
      "Ġcom edy",
      "Ġpl aces",
      "Ġsh ape",
      "ect or",
      "Ġy our",
      "ell er",
      "Ġ4 3",
      "ang er",
      "ĠEng ine",
      "pr ise",
      "Ġauthor ities",
      "Ġcult ural",
      "ĠTurn er",
      "F A",
      "b ird",
      "i ro",
      "ã ģ",
      "or a",
      "Ġl ives",
      "ĠB h",
      "ĠH MS",
      "Ġpro ved",
      "ak apo",
      "Ġar rest",
      "Ġcomp ound",
      "Ġper man",
      "Ġsc ient",
      "Ġcons isted",
      "Ġbro ke",
      "ink el",
      "Ġpass ing",
      "Ġtit les",
      "Ġtri al",
      "Ġbas ket",
      "ĠNic ole",
      "ĠMogad ish",
      "in em",
      "Ġs ens",
      "ed d",
      "Ġm ess",
      "Ġl b",
      "ĠM ore",
      "ĠB ost",
      "Ġr at",
      "ĠIn t",
      "Ġro ll",
      "Ġ5 6",
      "Ġapp eal",
      "ath us",
      "orn ey",
      "Ġent er",
      "ful ly",
      "Ġ17 9",
      "Ġocc asion",
      "Ġcaus ing",
      "Ġsoc iety",
      "ĠTown send",
      "Ġpiec e",
      "ĠRose bery",
      "ĠMeyer be",
      "V D",
      "r ight",
      "in ary",
      "re ct",
      "Ġs ales",
      "Ġo il",
      "al le",
      "Ġh un",
      "le ction",
      "ĠC ra",
      "ĠB ond",
      "Ġg rew",
      "ĠF urther",
      "ĠW ay",
      "ĠL ar",
      "ist ry",
      "ric ult",
      "Ġ9 3",
      "Ġcol umn",
      "ĠAmeric ans",
      "Ġland ing",
      "ĠCl ark",
      "Ġold er",
      "Äģ d",
      "Ġindivid uals",
      "Ġill ust",
      "ĠWal pole",
      "Ġdeterm ined",
      "Ġstra ight",
      "Ġweap ons",
      "ĠMogadish u",
      "ĠMeyerbe er",
      "Ġ ut",
      "Ġt ry",
      "Ġc ore",
      "Ġp an",
      "Ġd ut",
      "ĠM ort",
      "ĠR aj",
      "ĠF inkel",
      "res h",
      "ian a",
      "Ġun ivers",
      "Ġim ages",
      "ĠY ue",
      "Ġinc orpor",
      "Ġsecond s",
      "ah a",
      "Ġlet ter",
      "ĠApp le",
      "ĠFinkel stein",
      "s y",
      "in n",
      "is ters",
      "Ġb ank",
      "ĠT essa",
      "ĠM ax",
      "ĠH y",
      "Ġsp ort",
      "Ġun known",
      "Ġcont ain",
      "Ġad j",
      "du ction",
      "Ġ9 7",
      "Ġcons ecutive",
      "Ġform ation",
      "Ġmon ument",
      "ĠSh ort",
      "ĠSh iva",
      "Ġ198 5",
      "Ġ194 4",
      "anc y",
      "Ġposs ibly",
      "Ġord ers",
      "Ġproject s",
      "Ġsit es",
      "Ġdou b",
      "Ġphys ical",
      "Ġkilomet res",
      "Ġsched ul",
      "ĠOtt oman",
      "it i",
      "Ġf ired",
      "Ġf iction",
      "Ġh air",
      "ĠS o",
      "ĠM D",
      "ĠH orn",
      "Ġst op",
      "Ġ5 3",
      "Ġim ag",
      "Ġfollow s",
      "Ġlead er",
      "Ġsuggest s",
      "Ġcritic ized",
      "Ġrapid ly",
      "Ġcer em",
      "g n",
      "u ff",
      "Ġf rag",
      "om y",
      "ĠH orse",
      "ĠD VD",
      "ĠW at",
      "ab ama",
      "ĠAl abama",
      "Ġwork ers",
      "Ġpo ly",
      "Ġfl ank",
      "Ġ12 0",
      "Ġclaim s",
      "Ġfore ign",
      "Ġke pt",
      "Ġident ified",
      "Ġhon or",
      "ĠPortug ues",
      "ĠMean while",
      "ĠIllino is",
      "a ith",
      "u an",
      "w in",
      "or ter",
      "Ġl aid",
      "Ġg ained",
      "ĠD ue",
      "un te",
      "ĠW rit",
      "ain e",
      "ĠE astern",
      "ĠO m",
      "Ġse ek",
      "Ġch ief",
      "Ġro w",
      "Ġsupp ly",
      "Ġkill ing",
      "Ġrequ ire",
      "Ġequ ipment",
      "Ġmanag ement",
      "Ġprote in",
      "ĠPhilipp ines",
      "ĠBraat hens",
      "ĠPortugues e",
      "u ct",
      "ã Ĥ",
      "Ġa head",
      "Ġw ild",
      "ĠT ru",
      "ĠB ul",
      "ĠB BC",
      "ant ly",
      "ge nd",
      "Ġatt end",
      "Ġac ad",
      "Ġent rance"
    ]
  }
}