{"<|endoftext|>":0,"!":1,"\"":2,"#":3,"$":4,"%":5,"&":6,"'":7,"(":8,")":9,"*":10,"+":11,",":12,"-":13,".":14,"/":15,"0":16,"1":17,"2":18,"3":19,"4":20,"5":21,"6":22,"7":23,"8":24,"9":25,":":26,";":27,"<":28,"=":29,">":30,"?":31,"@":32,"A":33,"B":34,"C":35,"D":36,"E":37,"F":38,"G":39,"H":40,"I":41,"J":42,"K":43,"L":44,"M":45,"N":46,"O":47,"P":48,"Q":49,"R":50,"S":51,"T":52,"U":53,"V":54,"W":55,"X":56,"Y":57,"Z":58,"[":59,"\\":60,"]":61,"^":62,"_":63,"`":64,"a":65,"b":66,"c":67,"d":68,"e":69,"f":70,"g":71,"h":72,"i":73,"j":74,"k":75,"l":76,"m":77,"n":78,"o":79,"p":80,"q":81,"r":82,"s":83,"t":84,"u":85,"v":86,"w":87,"x":88,"y":89,"z":90,"{":91,"|":92,"}":93,"~":94,"¡":95,"¢":96,"£":97,"¤":98,"¥":99,"¦":100,"§":101,"¨":102,"©":103,"ª":104,"«":105,"¬":106,"®":107,"¯":108,"°":109,"±":110,"²":111,"³":112,"´":113,"µ":114,"¶":115,"·":116,"¸":117,"¹":118,"º":119,"»":120,"¼":121,"½":122,"¾":123,"¿":124,"À":125,"Á":126,"Â":127,"Ã":128,"Ä":129,"Å":130,"Æ":131,"Ç":132,"È":133,"É":134,"Ê":135,"Ë":136,"Ì":137,"Í":138,"Î":139,"Ï":140,"Ð":141,"Ñ":142,"Ò":143,"Ó":144,"Ô":145,"Õ":146,"Ö":147,"×":148,"Ø":149,"Ù":150,"Ú":151,"Û":152,"Ü":153,"Ý":154,"Þ":155,"ß":156,"à":157,"á":158,"â":159,"ã":160,"ä":161,"å":162,"æ":163,"ç":164,"è":165,"é":166,"ê":167,"ë":168,"ì":169,"í":170,"î":171,"ï":172,"ð":173,"ñ":174,"ò":175,"ó":176,"ô":177,"õ":178,"ö":179,"÷":180,"ø":181,"ù":182,"ú":183,"û":184,"ü":185,"ý":186,"þ":187,"ÿ":188,"Ā":189,"ā":190,"Ă":191,"ă":192,"Ą":193,"ą":194,"Ć":195,"ć":196,"Ĉ":197,"ĉ":198,"Ċ":199,"ċ":200,"Č":201,"č":202,"Ď":203,"ď":204,"Đ":205,"đ":206,"Ē":207,"ē":208,"Ĕ":209,"ĕ":210,"Ė":211,"ė":212,"Ę":213,"ę":214,"Ě":215,"ě":216,"Ĝ":217,"ĝ":218,"Ğ":219,"ğ":220,"Ġ":221,"ġ":222,"Ģ":223,"ģ":224,"Ĥ":225,"ĥ":226,"Ħ":227,"ħ":228,"Ĩ":229,"ĩ":230,"Ī":231,"ī":232,"Ĭ":233,"ĭ":234,"Į":235,"į":236,"İ":237,"ı":238,"Ĳ":239,"ĳ":240,"Ĵ":241,"ĵ":242,"Ķ":243,"ķ":244,"ĸ":245,"Ĺ":246,"ĺ":247,"Ļ":248,"ļ":249,"Ľ":250,"ľ":251,"Ŀ":252,"ŀ":253,"Ł":254,"ł":255,"Ń":256,"Ġt":257,"he":258,"Ġa":259,"in":260,"Ġthe":261,"er":262,"on":263,"Ġ,":264,"re":265,"Ġs":266,"ed":267,"Ġw":268,"Ġo":269,"nd":270,"at":271,"Ġ.":272,"or":273,"it":274,"Ġc":275,"en":276,"Ġf":277,"es":278,"is":279,"ar":280,"Ġof":281,"an":282,"Ġb":283,"Ġin":284,"al":285,"ing":286,"Ġp":287,"as":288,"Ġand":289,"Ġto":290,"ro":291,"ic":292,"Ġm":293,"Ġd":294,"Ġh":295,"ion":296,"ou":297,"le":298,"ĠT":299,"Ġre":300,"Ġ=":301,"ĠA":302,"ĠS":303,"il":304,"ent":305,"Ġ\"":306,"Ġth":307,"Ġ1":308,"st":309,"ĠC":310,"Ġl":311,"el":312,"om":313,"am":314,"ĠĊ":315,"Ġe":316,"Ġn":317,"Ġ@":318,"ad":319,"ac":320,"ĠM":321,"Ġwas":322,"ur":323,"ĠThe":324,"ec":325,"Ġon":326,"ly":327,"ĠB":328,"ĠI":329,"et":330,"Ġ'":331,"ol":332,"Ġg":333,"id":334,"iv":335,"im":336,"Ġfor":337,"ir":338,"ig":339,"-@":340,"Ġ@-@":341,"ter":342,"ot":343,"ĠH":344,"Ġas":345,"us":346,"ow":347,"ut":348,"Ġst":349,"Ġ2":350,"ay":351,"ith":352,"ĠP":353,"ation":354,"ver":355,"Ġbe":356,"Ġwith":357,"Ġhe":358,"Ġthat":359,"ĠR":360,"em":361,"th":362,"ĠD":363,"un":364,"ce":365,"ĠF":366,"Ġis":367,"ul":368,"Ġwh":369,"Ġby":370,"ch":371,"Ġ)":372,"Ġ(":373,"Ġal":374,"Ġcon":375,"ĠN":376,"ĠW":377,"ra":378,"Ġat":379,"ĠL":380,"os":381,"ĠG":382,"ers":383,"ct":384,"Ġ19":385,"Ġit":386,"rom":387,"and":388,"ĠJ":389,"Ġan":390,"her":391,"est":392,"um":393,"00":394,"ag":395,"ist":396,"ain":397,"av":398,"ri":399,"od":400,"ĠE":401,"ĠO":402,"Ġfrom":403,"Ġcom":404,"Ġhis":405,"op":406,"res":407,"if":408,"ere":409,"ort":410,"Ġpro":411,"ies":412,"Ġv":413,"ill":414,"Ġde":415,"pp":416,"ore":417,"ld":418,"Ġr":419,"Ġwere":420,"Ġsu":421,"ĠIn":422,"Ġse":423,"ong":424,"igh":425,"ew":426,"ate":427,"all":428,"ak":429,"ard":430,"ich":431,"art":432,"ber":433,"ant":434,"Ġor":435,"ity":436,"ud":437,"oc":438,"ated":439,"ab":440,"ĠK":441,"Ġch":442,"gh":443,"Ġex":444,"qu":445,"pt":446,"Ġpl":447,"rou":448,"ess":449,"ear":450,"ĠU":451,"ame":452,"ive":453,"Ġâ":454,"ack":455,"Ġsh":456,"Ġk":457,"Ġare":458,"ect":459,"Ġhad":460,"ĠâĢ":461,"ian":462,"ĠSt":463,"se":464,"Ġwhich":465,"ast":466,"red":467,"ge":468,"our":469,"ov":470,"ip":471,"ment":472,"Ġsp":473,"Ġnot":474,"Ġy":475,"Ġle":476,"ial":477,"ine":478,"rit":479,"ost":480,"ap":481,"ust":482,"ight":483,"ell":484,"ĠCh":485,"ord":486,"Ġ3":487,"Ġu":488,"oun":489,"ia":490,"ical":491,"ther":492,"ish":493,"ary":494,"ave":495,"og":496,"Ġun":497,"cl":498,"Ġ200":499,"irst":500,"ĠV":501,"ous":502,"ions":503,"Ġ;":504,"Ġar":505,"Ġint":506,"ru":507,"ide":508,"so":509,"Ġcomp":510,"fter":511,"Ġbut":512,"Ġtheir":513,"Ġcont":514,"cc":515,"ure":516,"out":517,"ould":518,"Ġits":519,"Ġwhe":520,"Ġfirst":521,"wo":522,"Ġ20":523,"per":524,"ff":525,"hed":526,"ĠâĢĵ":527,"own":528,"ass":529,"ign":530,"Ġalso":531,"ue":532,"ry":533,"orm":534,"Ġcl":535,"ok":536,"ub":537,"ĠHe":538,"ie":539,"ater":540,"ran":541,"ome":542,"Ġres":543,"ire":544,"Ġ:":545,"ond":546,"ork":547,"end":548,"Ġad":549,"Ġab":550,"mer":551,"Ġus":552,"Ġ4":553,"age":554,"Ġher":555,"Ġro":556,"Ġhave":557,"Ġ5":558,"low":559,"Ġone":560,"Ġper":561,"Ġrec":562,"Ġbeen":563,"Ġhas":564,"Ġtwo":565,".@":566,"Ġ@.@":567,"ime":568,"ĠTh":569,"ree":570,"uring":571,"du":572,"ally":573,"ence":574,"pl":575,"Ġ18":576,"ile":577,"ult":578,"Ġsc":579,"land":580,"ough":581,"ition":582,"iz":583,"Ġag":584,"Ġwho":585,"Ġthis":586,"ach":587,"ations":588,"Ġdis":589,"ĠAl":590,"ric":591,"Ġbec":592,"ĠIt":593,"Ġapp":594,"Ġj":595,"Ġpart":596,"ount":597,"are":598,"Ġdes":599,"clud":600,"act":601,"ely":602,"ade":603,"ory":604,"Ġ201":605,"Ġthey":606,"Ġover":607,"Ġplay":608,"over":609,"ib":610,"Ġman":611,"ound":612,"Ġafter":613,"Ġyear":614,"ens":615,",@":616,"Ġ@,@":617,"ik":618,"Ġoff":619,"Ġser":620,"Ġatt":621,"Ġim":622,"ction":623,"Ġother":624,"ĠY":625,"urn":626,"ph":627,"ember":628,"ace":629,"Ġinclud":630,"ance":631,"ress":632,"ite":633,"Ġout":634,"ice":635,"te":636,"Ġen":637,"ark":638,"ang":639,"man":640,"ey":641,"round":642,"wn":643,"Ġinto":644,"rough":645,"Ġup":646,"Ġpre":647,"nder":648,"Ġev":649,"ren":650,"Ġ6":651,"Ġtime":652,"int":653,"we":654,"ĠOn":655,"ced":656,"port":657,"Ġcomm":658,"ward":659,"ind":660,"ces":661,"amp":662,"Ġte":663,"ied":664,"ĠUn":665,"Ġwould":666,"vel":667,"ose":668,"Ġ7":669,"Ġwe":670,"Ġmore":671,"tern":672,"ited":673,"Ġall":674,"ents":675,"ĠAn":676,"les":677,"Ġhim":678,"ason":679,"Ġne":680,"able":681,"iss":682,"rib":683,"ors":684,"ings":685,"oy":686,"ased":687,"Ġshe":688,"aw":689,"ates":690,"rop":691,"ood":692,"att":693,"Ġcent":694,"ase":695,"one":696,"Ġwork":697,"Ġpo":698,"ral":699,"ious":700,"old":701,"orth":702,"ix":703,"ict":704,"gan":705,"Ġ9":706,"ild":707,"Ġrem":708,"inal":709,"Ġsec":710,"ep":711,"ail":712,"Ġfe":713,"form":714,"Ġear":715,"Ġduring":716,"ath":717,"Ġbet":718,"Ġthem":719,"ered":720,"Ġwhen":721,"Ġcons":722,"Ġ8":723,"ilm":724,"outh":725,"ved":726,"ron":727,"Ġkn":728,"ĠAs":729,"aus":730,"fer":731,"Ġmost":732,"ubl":733,"Ġdec":734,"ft":735,"ick":736,"Ġonly":737,"Ġsong":738,"way":739,"Ġagain":740,"ake":741,"ĠSe":742,"ollow":743,"Ġnew":744,"ug":745,"ĠMar":746,"ters":747,"ĠCom":748,"oth":749,"Ġ199":750,"reat":751,"ween":752,"ational":753,"ons":754,"ĠAr":755,"hip":756,"Ġthree":757,"Ġtr":758,"Ġunder":759,"Ġgame":760,"ook":761,"ision":762,"Ġabout":763,"ock":764,"Ġfl":765,"Ġrel":766,"ob":767,"olog":768,"Ġcol":769,"Ġ00":770,"als":771,"Ġthan":772,"Ġseason":773,"Ġpos":774,"Ġbetween":775,"ve":776,"Ġfilm":777,"Ġthrough":778,"meric":779,"fore":780,"Ġend":781,"Ġcan":782,"ĠAmeric":783,"Ġme":784,"Ġnum":785,"orn":786,"ĠEn":787,"ĠNew":788,"iew":789,"Ġlater":790,"Ġdef":791,"Ġret":792,"Ġass":793,"ted":794,"Ġwhile":795,"ular":796,"ans":797,"Ġchar":798,"Ġact":799,"Ġsub":800,"hn":801,"Ġver":802,"Ġrecord":803,"ts":804,"Ġprodu":805,"Ġra":806,"Ġpe":807,"Ġpr":808,"Ġreg":809,"Ġwhere":810,"Ġmade":811,"ames":812,"orld":813,"Ġform":814,"ating":815,"Ġbu":816,"Ġac":817,"Ġlar":818,"Ġmov":819,"Ġrele":820,"Ġinter":821,"ener":822,"ever":823,"hes":824,"ury":825,"ished":826,"ines":827,"Ġsome":828,"Ġfollow":829,"Ġso":830,"Ġwrit":831,"ros":832,"Ġqu":833,"Ġco":834,"Ġday":835,"Ġspec":836,"Ġinc":837,"ĠAt":838,"Ġfour":839,"Ġam":840,"ived":841,"ĠLe":842,"ual":843,"Ġsecond":844,"Ġacc":845,"ĠRe":846,"Ġ000":847,"Ġused":848,"ins":849,"lect":850,"Ġind":851,"ning":852,"ike":853,"Ġbefore":854,"ank":855,"bum":856,"aid":857,"iel":858,"Ġsupp":859,"ific":860,"Ġsuch":861,"Ġmon":862,"rans":863,"Ġmus":864,"Ġ0":865,"ĠThis":866,"ll":867,"ics":868,"Ġ10":869,"ily":870,"Ġ12":871,"hen":872,"Ġhigh":873,"iver":874,"ĠSh":875,"Ġcall":876,"ĠBrit":877,"Ġbeing":878,"Ġthere":879,"any":880,"Ġpubl":881,"aj":882,"io":883,"Ġent":884,"ars":885,"ĠSc":886,"owever":887,"ĠJo":888,"Ġsy":889,"Ġsur":890,"Ġdo":891,"ĠAust":892,"Ġyears":893,"Ġnumber":894,"Ġfound":895,"Ġep":896,"Ġloc":897,"Ġalbum":898,"Ġtra":899,"Ġsever":900,"velop":901,"Ġagainst":902,"Ġno":903,"ton":904,"ek":905,"Ġset":906,"ĠâĢĶ":907,"Ġinv":908,"ife":909,"ince":910,"ised":911,"other":912,"Ġbl":913,"ject":914,"uc":915,"ier":916,"ĠZ":917,"ement":918,"Ġem":919,"ten":920,"ird":921,"ĠEng":922,"Ġ/":923,"Ġboth":924,"ities":925,"Ġpres":926,"Ġincluding":927,"Ġback":928,"Ġseries":929,"ained":930,"ause":931,"Ġthen":932,"Ġbecame":933,"its":934,"ane":935,"irect":936,"Ġwell":937,"yl":938,"pr":939,"ode":940,"ram":941,"ise":942,"Ġknown":943,"urch":944,"Ġtrans":945,"Ġperform":946,"Ġteam":947,"Ġadd":948,"ident":949,"ale":950,"son":951,"Ġexp":952,"Ġ16":953,"ĠUnited":954,"Ġdep":955,"ures":956,"ann":957,"az":958,"Ġ198":959,"ert":960,"Ġepis":961,"ined":962,"Ġmain":963,"row":964,"ful":965,"Ġpop":966,"Ġrece":967,"ield":968,"Ġ194":969,"Ġmet":970,"though":971,"Ġ15":972,"overn":973,"ower":974,"Ġsing":975,"iet":976,"uch":977,"Ġ11":978,"Ġmany":979,"air":980,"ross":981,"ĠAfter":982,"Ġcharac":983,"Ġlong":984,"ĠInd":985,"Ġseveral":986,"Ġdesc":987,"ather":988,"ober":989,"Ġrep":990,"Ġcontin":991,"Ġest":992,"Ġ17":993,"Ġdevelop":994,"Ġop":995,"ool":996,"ĠAustral":997,"ĠAmerican":998,"Ġmill":999,"up":1000,"ivers":1001,"Ġgo":1002,"ute":1003,"Ġsm":1004,"ern":1005,"elf":1006,"Ġorig":1007,"led":1008,"Ġcity":1009,"Ġbegan":1010,"ative":1011,"ared":1012,"Ġshow":1013,"Ġstud":1014,"ĠGer":1015,"Ġmin":1016,"au":1017,"Ġcre":1018,"une":1019,"emb":1020,"der":1021,"roup":1022,"ĠWar":1023,"ĠShe":1024,"ĠBritish":1025,"Ġalong":1026,"ah":1027,"ĠMay":1028,"ven":1029,"Ġpol":1030,"Ġhead":1031,"Ġcomple":1032,"apt":1033,"Ġ197":1034,"Ġcentury":1035,"ĠJohn":1036,"ued":1037,"Ġdid":1038,"Ġlead":1039,"erm":1040,"Ġsign":1041,"Ġ196":1042,"ired":1043,"Ġmil":1044,"Ġdirect":1045,"Ġship":1046,"til":1047,"Ġart":1048,"ually":1049,"Ġcould":1050,"ized":1051,"Ġob":1052,"Ġext":1053,"Ġdown":1054,"iam":1055,"Ġearly":1056,"ley":1057,"Ġhist":1058,"view":1059,"Ġnear":1060,"Ġcar":1061,"Ġbel":1062,"Ġdif":1063,"Ġwar":1064,"Ġoper":1065,"ĠCon":1066,"Ġinf":1067,"ient":1068,"Ġbro":1069,"ĠWh":1070,"ĠUS":1071,"Ġthese":1072,"els":1073,"Ġmat":1074,"Ġcalled":1075,"oot":1076,"Ġair":1077,"ĠBr":1078,"Ġimp":1079,"Ġmay":1080,"Ġsaid":1081,"aking":1082,"Ġrun":1083,"Ġcrit":1084,"Ġkm":1085,"ĠIs":1086,"ople":1087,"ull":1088,"ruct":1089,"ccess":1090,"Ġfeat":1091,"Ġepisode":1092,"Ġdesign":1093,"itt":1094,"ured":1095,"Ġland":1096,"Ġinst":1097,"Ġresp":1098,"Ġdisc":1099,"ments":1100,"ĠSp":1101,"imes":1102,"Ġdist":1103,"Ġuntil":1104,"Ġreturn":1105,"gest":1106,"Ġdescrib":1107,"yp":1108,"ists":1109,"Ġins":1110,"ĠCl":1111,"Ġstart":1112,"Ġattack":1113,"xt":1114,"ajor":1115,"Ġprev":1116,"ided":1117,"oss":1118,"Ġany":1119,"Ġfin":1120,"ĠBl":1121,"ĠAug":1122,"ĠGerman":1123,"ĠAugust":1124,"ink":1125,"Ġarea":1126,"amed":1127,"erson":1128,"ains":1129,"ially":1130,"ĠSept":1131,"my":1132,"erv":1133,"Ġprov":1134,"enn":1135,"ible":1136,"ism":1137,"ĠCol":1138,"Ġthough":1139,"Ġgener":1140,"ĠSeptember":1141,"ĠCar":1142,"Ġconst":1143,"Ġ13":1144,"Ġpass":1145,"Ġgovern":1146,"Ġnorth":1147,"ĠNorth":1148,"ty":1149,"Ġoffic":1150,"ange":1151,"ĠThey":1152,"osed":1153,"ĠComm":1154,"Ġsame":1155,"Ġown":1156,"Ġaround":1157,"ĠMan":1158,"Ġgroup":1159,"ove":1160,"Ġopen":1161,"Ġbecause":1162,"Ġsupport":1163,"cept":1164,"Ġreleased":1165,"Ġmillion":1166,"ĠPl":1167,"Ġeff":1168,"ets":1169,"Ġuse":1170,"Ġlike":1171,"ium":1172,"Ġsix":1173,"Ġsmall":1174,"Ġocc":1175,"ash":1176,"Ġsuccess":1177,"Ġfinal":1178,"Ġcount":1179,"chool":1180,"Ġadv":1181,"Ã©":1182,"Ġbatt":1183,"ĠJu":1184,"Ġappear":1185,"Ġmusic":1186,"aced":1187,"Ġgu":1188,"Ġsim":1189,"Ġpeople":1190,"ues":1191,"stem":1192,"ĠWorld":1193,"Ġfam":1194,"ĠChr":1195,"Ġfollowing":1196,"wards":1197,"ivision":1198,"ĠDe":1199,"Ġbr":1200,"Ġconc":1201,"Ġdam":1202,"ouse":1203,"Ġmod":1204,"Ġwin":1205,"Ġph":1206,"uth":1207,"ĠAll":1208,"ĠHowever":1209,"ina":1210,"ke":1211,"und":1212,"ilt":1213,"ians":1214,"Ġconsid":1215,"Ġlarge":1216,"Ġeach":1217,"Ġ195":1218,"ĠJune":1219,"ĠAd":1220,"oman":1221,"Ġresult":1222,"ck":1223,"ology":1224,"ution":1225,"ĠFor":1226,"ole":1227,"Ġed":1228,"ats":1229,"ropical":1230,"Ġele":1231,"ives":1232,"ĠSouth":1233,"Ġann":1234,"Ġ191":1235,"Ġfive":1236,"Ġ%":1237,"Ġreport":1238,"Ġpoint":1239,"Ġcontro":1240,"Ġcharacter":1241,"ĠMe":1242,"ged":1243,"Ġlife":1244,"Ġsouth":1245,"Ġstr":1246,"Ġ14":1247,"ĠJan":1248,"Ġvar":1249,"ĠPro":1250,"raph":1251,"ery":1252,"ĠBe":1253,"Ġgun":1254,"ording":1255,"eb":1256,"ales":1257,"Ġever":1258,"ended":1259,"ony":1260,"Ġ193":1261,"ately":1262,"Ġsince":1263,"Ġprom":1264,"Ġgr":1265,"ural":1266,"ax":1267,"ĠGu":1268,"ĠOct":1269,"ĠQ":1270,"med":1271,"ble":1272,"ically":1273,"avy":1274,"ĠStates":1275,"ox":1276,"aving":1277,"ling":1278,"Ġweek":1279,"ored":1280,"uary":1281,"Ġstate":1282,"Ġ$":1283,"Ġmajor":1284,"ĠFran":1285,"ont":1286,"Ġtook":1287,"ĠOctober":1288,"ified":1289,"ĠNov":1290,"ting":1291,"ys":1292,"ection":1293,"ĠEu":1294,"ected":1295,"Ġwill":1296,"empt":1297,"ĠII":1298,"iving":1299,"Ġreceived":1300,"lish":1301,"ball":1302,"Ġpartic":1303,"Ġpublic":1304,"ility":1305,"ĠJuly":1306,"raft":1307,"Ġclass":1308,"ae":1309,"Ġrest":1310,"ission":1311,"Ġcare":1312,"ague":1313,"Ġtit":1314,"Ġplayed":1315,"Ġline":1316,"Ġhel":1317,"ĠDec":1318,"Ġwhat":1319,"Ġbook":1320,"Ġdet":1321,"ĠHer":1322,"ional":1323,"Ġsystem":1324,"ple":1325,"by":1326,"Ġname":1327,"ops":1328,"ants":1329,"Ġlast":1330,"Ġnow":1331,"Ġ25":1332,"Ġprot":1333,"Ġport":1334,"Ġbuild":1335,"ĠJanuary":1336,"Ġ[":1337,"Ġ]":1338,"Ġincre":1339,"aim":1340,"ĠCan":1341,"esp":1342,"Ġstorm":1343,"ĠChrist":1344,"omet":1345,"Ġserv":1346,"Ġref":1347,"ively":1348,"Ġ30":1349,"ĠMc":1350,"hel":1351,"Ġlate":1352,"Ġincluded":1353,"ĠPh":1354,"Ġconf":1355,"Ġdue":1356,"ages":1357,"Ġmar":1358,"Ġtri":1359,"ĠYork":1360,"Ġdescribed":1361,"ret":1362,"dom":1363,"ĠDuring":1364,"aur":1365,"Ġwon":1366,"ĠKing":1367,"anc":1368,"Ġjust":1369,"ham":1370,"Ġmuch":1371,"app":1372,"Ġsingle":1373,"ĠApr":1374,"apan":1375,"ĠApril":1376,"Ġgovernment":1377,"gin":1378,"Ġallow":1379,"ner":1380,"ody":1381,"..":1382,"Ġsl":1383,"iod":1384,"ideo":1385,"Ġworld":1386,"ĠJapan":1387,"get":1388,"Ġdeath":1389,"oad":1390,"Ġappro":1391,"sion":1392,"Ġattempt":1393,"ital":1394,"Ġcommand":1395,"ĠNovember":1396,"Ġkill":1397,"rote":1398,"Ġanother":1399,"itions":1400,"Ġleft":1401,"Ġcamp":1402,"Ġmen":1403,"Ġ...":1404,"ently":1405,"Ġalthough":1406,"ai":1407,"Ġwithin":1408,"Ġshort":1409,"Ġposs":1410,"ger":1411,"Ġold":1412,"ĠPar":1413,"orp":1414,"Ġnamed":1415,"ech":1416,"Ġwrote":1417,"ĠEurop":1418,"ene":1419,"ĠMus":1420,"Ġeven":1421,"Ġbuilt":1422,"urther":1423,"Ġorgan":1424,"rand":1425,"ched":1426,"Ġturn":1427,"Ġtop":1428,"omin":1429,"ption":1430,"ract":1431,"Ġbased":1432,"idge":1433,"Ġtrack":1434,"ays":1435,"Ġplace":1436,"ĠMarch":1437,"itary":1438,"ĠBatt":1439,"Ġprog":1440,"Ġchild":1441,"rench":1442,"Ġpower":1443,"Ġthird":1444,"ĠGe":1445,"ĠDecember":1446,"Ġprevious":1447,"ness":1448,"Ġevent":1449,"Ġpar":1450,"Ġstar":1451,"Ġspecies":1452,"ulation":1453,"ĠNational":1454,"Ġif":1455,"Ġcap":1456,"Ġestab":1457,"Ġvis":1458,"Ġdiffer":1459,"ards":1460,"ipp":1461,"Ġschool":1462,"ached":1463,"Ġbelie":1464,"ĠBy":1465,"Ġvery":1466,"ĠAnd":1467,"Ġbre":1468,"ung":1469,"Ġperson":1470,"Ġhome":1471,"ilar":1472,"Ġdr":1473,"osp":1474,"Ġexpl":1475,"Ġperiod":1476,"ler":1477,"Ġwater":1478,"ances":1479,"Ġlist":1480,"Ġrequ":1481,"ĠThere":1482,"Ġgames":1483,"Ġhal":1484,"ms":1485,"Ġtem":1486,"ves":1487,"amb":1488,"Ġhand":1489,"Ġreview":1490,"iversity":1491,"ĠCity":1492,"ĠRiver":1493,"ĠFrench":1494,"Ġ192":1495,"que":1496,"Ġeng":1497,"ison":1498,"oint":1499,"eder":1500,"Ġbest":1501,"Ġsent":1502,"aged":1503,"Ġrepl":1504,"Ġthose":1505,"iven":1506,"Ġhum":1507,"ides":1508,"ĠEurope":1509,"Ġwind":1510,"Ġ100":1511,"Ġmonth":1512,"ese":1513,"ense":1514,"ĠHis":1515,"ĠWhen":1516,"oci":1517,"ĠEngland":1518,"Ġmed":1519,"side":1520,"Ġdest":1521,"ruction":1522,"hest":1523,"ature":1524,"Ġled":1525,"ĠNo":1526,"Ġcour":1527,"elt":1528,"Ġ2010":1529,"Ġbo":1530,"Ġgreat":1531,"Ġcapt":1532,"ences":1533,"aken":1534,"let":1535,"ĠFl":1536,"Ġfamily":1537,"aster":1538,"ience":1539,"ĠÂ":1540,"Ġbas":1541,"Ġmake":1542,"ĠSte":1543,"mp":1544,"Ġvideo":1545,"Ġoriginal":1546,"Ġopp":1547,"Ġ2008":1548,"Ġnext":1549,"Ġcame":1550,"inc":1551,"Ġdem":1552,"akes":1553,"Ġtyp":1554,"urric":1555,"ention":1556,"Ġstill":1557,"ĠComp":1558,"Ġterm":1559,"Ġside":1560,"Ġmark":1561,"Ġmoved":1562,"Ġrole":1563,"Ġleg":1564,"Ġcontinued":1565,"ented":1566,"Ġstory":1567,"ĠOr":1568,"alk":1569,"Ġfew":1570,"Ġlocal":1571,"Ġway":1572,"Ġ2009":1573,"Ġsold":1574,"Ġcaus":1575,"ĠDivision":1576,"Ġwest":1577,"Ġhistory":1578,"Ġmid":1579,"ott":1580,"ĠChurch":1581,"gy":1582,"atter":1583,"ior":1584,"ĠTe":1585,"Ġview":1586,"line":1587,"bs":1588,"oon":1589,"Ġheld":1590,"rew":1591,"uted":1592,"Ġforces":1593,"aining":1594,"ival":1595,"embers":1596,"Ġsug":1597,"Ġauth":1598,"Ġformer":1599,"ĠPr":1600,"Ġiss":1601,"Ġaddition":1602,"read":1603,"Ġroad":1604,"uss":1605,"ĠAm":1606,"riend":1607,"lev":1608,"ĠBro":1609,"eng":1610,"lu":1611,"Ġant":1612,"Ġcover":1613,"Ġoften":1614,"ne":1615,"ĠChar":1616,"sh":1617,"Ġeast":1618,"Ġfurther":1619,"astern":1620,"ograph":1621,"Ġconsidered":1622,"Ġcareer":1623,"Ġeffect":1624,"ĠEd":1625,"ĠWe":1626,"Ġstand":1627,"ining":1628,"arn":1629,"Ġtown":1630,"ĠWill":1631,"Ġclaim":1632,"Ġright":1633,"Ġcr":1634,"ront":1635,"Ġinit":1636,"Ġdeb":1637,"ampions":1638,"ches":1639,"eter":1640,"Ġ21":1641,"Ġtot":1642,"Ġ2007":1643,"ĠOne":1644,"Ġposition":1645,"self":1646,"ories":1647,"Ġexper":1648,"Ġdel":1649,"Ġarch":1650,"Ġnort":1651,"ĠState":1652,"Ġmilitary":1653,"Ġmatch":1654,"Ġ23":1655,"ĠWith":1656,"enc":1657,"Ġdra":1658,"ĠAb":1659,"Ġhalf":1660,"Ġtropical":1661,"ĠAcc":1662,"ternational":1663,"Ġsimilar":1664,"Ġhelp":1665,"Ġsuggest":1666,"par":1667,"roy":1668,"Ġstrong":1669,"Ġ24":1670,"Ġdefe":1671,"Ġfire":1672,"Ġconv":1673,"ister":1674,"Ġband":1675,"ĠCount":1676,"ĠRec":1677,"Ġimport":1678,"Ġplayer":1679,"Ġrefer":1680,"Ġwithout":1681,"ĠGener":1682,"Ġcur":1683,"Ġreal":1684,"Ġpolit":1685,"alion":1686,"Ġdays":1687,"Ġtrad":1688,"urricane":1689,"Ġplan":1690,"Ġcommun":1691,"estern":1692,"Ġmembers":1693,"Ġ2011":1694,"Ġtake":1695,"ĠTr":1696,"Ġspe":1697,"ebru":1698,"ead":1699,"ĠX":1700,"Ġtw":1701,"Ġmy":1702,"ried":1703,"Ġcompany":1704,"Ġclub":1705,"iment":1706,"ĠPer":1707,"Ġcommon":1708,"Ġav":1709,"Ġamong":1710,"Ġ22":1711,"Ġlevel":1712,"ensive":1713,"Ġdifferent":1714,"ones":1715,"Ġyou":1716,"Ġevery":1717,"Ġpost":1718,"Ġrecorded":1719,"Ġprop":1720,"ots":1721,"Ġel":1722,"itar":1723,"Ġhowever":1724,"ĠFebru":1725,"ĠEar":1726,"ĠAlthough":1727,"ĠFebruary":1728,"Ġelect":1729,"Ġbeh":1730,"Ġinvol":1731,"augh":1732,"Ġfore":1733,"Ġ2012":1734,"ĠAustralian":1735,"iter":1736,"ĠPort":1737,"Ġrepres":1738,"eal":1739,"Ġ2006":1740,"ĠEnglish":1741,"Ġarr":1742,"yn":1743,"arr":1744,"Ġpublished":1745,"ĠAf":1746,"Ġ26":1747,"Ġlow":1748,"ize":1749,"ression":1750,"reen":1751,"yle":1752,"hern":1753,"ĠAccording":1754,"Ġfind":1755,"Ġships":1756,"Ġorder":1757,"lear":1758,"Ġwritten":1759,"ering":1760,"ittle":1761,"outher":1762,"Ġmag":1763,"Ġtro":1764,"atic":1765,"be":1766,"Ġvict":1767,"Ġtotal":1768,"isc":1769,"ices":1770,"ploy":1771,"Ġfre":1772,"Ġpat":1773,"rodu":1774,"Ġrelease":1775,"Ġorigin":1776,"outhern":1777,"ĠSu":1778,"ĠAustralia":1779,"Ġfield":1780,"Ġparticular":1781,"Ġsongs":1782,"Ġtitle":1783,"Ġbecome":1784,"Ġfoot":1785,"ĠAir":1786,"Ġcompet":1787,"Ġer":1788,"ĠAng":1789,"ising":1790,"ĠPark":1791,"Ġreported":1792,"Ġcontrol":1793,"ĠGeneral":1794,"Ġlost":1795,"ĠMich":1796,"rick":1797,"Ġprof":1798,"Ġord":1799,"Ġproject":1800,"reet":1801,"ush":1802,"Ġcomb":1803,"ĠCanad":1804,"Ġtimes":1805,"Ġhaving":1806,"aces":1807,"sequ":1808,"Ġsurv":1809,"Ġft":1810,"Ġgave":1811,"Ġter":1812,"aying":1813,"ĠCent":1814,"Ġproduced":1815,"Ġstat":1816,"Ġversion":1817,"ĠLeague":1818,"Ġsk":1819,"Ġcy":1820,"urs":1821,"esc":1822,"ĠEl":1823,"ampionship":1824,"ĠAss":1825,"rest":1826,"ĠWest":1827,"ĠUniversity":1828,"Ġ!":1829,"Ġequ":1830,"rent":1831,"Ġlight":1832,"ĠMin":1833,"ĠBar":1834,"Ġ28":1835,"Ġproduction":1836,"iety":1837,"oung":1838,"Ġsignific":1839,"Ġless":1840,"Ġchang":1841,"Ġauthor":1842,"iron":1843,"ĠGeor":1844,"ream":1845,"ably":1846,"ours":1847,"ailed":1848,"ĠReg":1849,"levision":1850,"Ġhistor":1851,"ges":1852,"Ġjo":1853,"ĠThese":1854,"Ġnever":1855,"Ġinflu":1856,"ĠRich":1857,"ille":1858,"Ġcountry":1859,"quad":1860,"ald":1861,"Ã¡":1862,"Ġgiven":1863,"ĠRoman":1864,"Ġarm":1865,"Ġaff":1866,"Ġsite":1867,"Ġmaking":1868,"Ġforce":1869,"Ġ&":1870,"Ġwant":1871,"used":1872,"Ġ27":1873,"Ġinclude":1874,"Ġreturned":1875,"echn":1876,"Ġpopular":1877,"ĠAfric":1878,"aul":1879,"work":1880,"Ġsol":1881,"Ġ50":1882,"Ġground":1883,"na":1884,"ither":1885,"Ġobs":1886,"Ġpress":1887,"Ġeight":1888,"ĠMiss":1889,"vers":1890,"oard":1891,"Ġsit":1892,"ĠRoad":1893,"Ġ2013":1894,"Ġdestroy":1895,"ades":1896,"ivil":1897,"Ġisland":1898,"antry":1899,"Ġcritic":1900,"ator":1901,"Ġnight":1902,"Ġstated":1903,"ĠLes":1904,"ization":1905,"Ġacross":1906,"ĠPol":1907,"ination":1908,"ask":1909,"Ġstruct":1910,"me":1911,"Ġreached":1912,"Ġchurch":1913,"ĠWilliam":1914,"Ġfar":1915,"Ġdeveloped":1916,"Ġseen":1917,"ring":1918,"ffic":1919,"aun":1920,"fic":1921,"ford":1922,"ape":1923,"ĠAmerica":1924,"Ġpopulation":1925,"ĠWhile":1926,"ĠJapanese":1927,"Ġcult":1928,"aff":1929,"Ġlim":1930,"Ġpresent":1931,"Ġmiles":1932,"Ġprogram":1933,"Ġannoun":1934,"ration":1935,"reek":1936,"ĠSim":1937,"ĠSong":1938,"ius":1939,"Ġfact":1940,"Ġcross":1941,"ument":1942,"Ġsignificant":1943,"sp":1944,"Ġ29":1945,"Ġshould":1946,"Ġestabl":1947,"Ġearl":1948,"Ġ190":1949,"ĠJack":1950,"omb":1951,"Ġusing":1952,"oyal":1953,"Ġchildren":1954,"cess":1955,"Ġread":1956,"omen":1957,"Ġaway":1958,"iness":1959,"Ġnov":1960,"ground":1961,"ĠLond":1962,"Ġfriend":1963,"Ġrad":1964,"Ġguns":1965,"aign":1966,"ĠOld":1967,"ological":1968,"reg":1969,"Ġdiv":1970,"Ġhimself":1971,"ĠCounty":1972,"Ġhow":1973,"Ġmanag":1974,"craft":1975,"Ġpit":1976,"alth":1977,"ĠMount":1978,"ĠDav":1979,"Ġdevelopment":1980,"Ġestablished":1981,"ĠLondon":1982,"imately":1983,"Ġmodern":1984,"Ġbody":1985,"Ġbattle":1986,"Ġmm":1987,"Ġformed":1988,"Ġthought":1989,"eared":1990,"Ġbar":1991,"Ġpra":1992,"Ġsound":1993,"Ġperformance":1994,"igade":1995,"isted":1996,"ope":1997,"Ġcast":1998,"Ġhig":1999,"Ġgen":2000,"Ġthroughout":2001,"iers":2002,"Ġwent":2003,"Ġfelt":2004,"Ġpain":2005,"Ġareas":2006,"aren":2007,"arch":2008,"most":2009,"Ġcat":2010,"ĠIm":2011,"rie":2012,"Ġkilled":2013,"Ġwat":2014,"Ġtour":2015,"ĠHigh":2016,"ĠScient":2017,"ero":2018,"Ġlaw":2019,"utes":2020,"Ġprim":2021,"ĠBlack":2022,"Ġsomet":2023,"Ġfight":2024,"Ġgood":2025,"ĠNe":2026,"Ġsuccessful":2027,"ĠCal":2028,"Ġintrodu":2029,"ylan":2030,"iec":2031,"Ġdied":2032,"Ġgl":2033,"ements":2034,"Ġseven":2035,"ĠDylan":2036,"Ġnoted":2037,"ords":2038,"Ġcou":2039,"acy":2040,"oll":2041,"ript":2042,"Ġrange":2043,"ublic":2044,"field":2045,"itive":2046,"Ġdiscover":2047,"Ġfull":2048,"Ġtoo":2049,"Ġste":2050,"Ġimportant":2051,"af":2052,"Ġsoc":2053,"Ġmount":2054,"irc":2055,"Ġadm":2056,"Ġlocated":2057,"Ġten":2058,"Ġfront":2059,"ĠEx":2060,"ĠArmy":2061,"Ġblack":2062,"Ġstarted":2063,"Ġput":2064,"Ġdecl":2065,"Ġbuilding":2066,"ĠEv":2067,"ief":2068,"Ġneed":2069,"ĠHa":2070,"Ġchart":2071,"ĠPhil":2072,"Ġide":2073,"Ġhuman":2074,"ico":2075,"ĠGl":2076,"Ġ31":2077,"Ġactiv":2078,"Ġperformed":2079,"Ġvarious":2080,"epend":2081,"ĠCompany":2082,"eth":2083,"osaur":2084,"Ġremained":2085,"Ġwriting":2086,"Ġcas":2087,"Ġlook":2088,"Ġtelevision":2089,"Ġfeet":2090,"fall":2091,"Ġsee":2092,"Ġtroops":2093,"ĠOl":2094,"ways":2095,"Ġofficial":2096,"con":2097,"reland":2098,"Ġfem":2099,"Ġfather":2100,"ĠFeder":2101,"Ġcaused":2102,"itted":2103,"Ġfun":2104,"Ġnational":2105,"ĠIreland":2106,"Ġpoem":2107,"com":2108,"Ġwid":2109,"Ġwhite":2110,"ogn":2111,"Ġhouse":2112,"ĠTo":2113,"ĠJames":2114,"ries":2115,"Äģ":2116,"Ġtechn":2117,"Ġheavy":2118,"Ġinterest":2119,"ĠSec":2120,"idence":2121,"ĠHar":2122,"Ġconstruction":2123,"Ġage":2124,"Ġred":2125,"Ġsum":2126,"hem":2127,"ara":2128,"Ġget":2129,"Ġ2005":2130,"iting":2131,"ĠMon":2132,"ĠHist":2133,"Ġplayers":2134,"uck":2135,"gr":2136,"Ġstri":2137,"Ġstyle":2138,"ĠPal":2139,"ump":2140,"ael":2141,"Ġentire":2142,"Ġsw":2143,"Ġke":2144,"idd":2145,"ino":2146,"ĠKe":2147,"Ġevents":2148,"Ġdoes":2149,"Ġsett":2150,"ĠIsland":2151,"ĠRober":2152,"ourn":2153,"Ġmix":2154,"Ġrev":2155,"Ġbegin":2156,"Ġvill":2157,"Ġable":2158,"Ġrelig":2159,"quadron":2160,"ressed":2161,"Ġcoast":2162,"Ġserved":2163,"Ġpeak":2164,"asing":2165,"Ġcampaign":2166,"Ġfav":2167,"ĠBut":2168,"Ġpolitical":2169,"Ġlik":2170,"ĠYou":2171,"enced":2172,"Ġ40":2173,"Ġregion":2174,"lected":2175,"Ġcreated":2176,"Ġtre":2177,"ened":2178,"ĠCo":2179,"mar":2180,"leet":2181,"Ġonce":2182,"Ġgod":2183,"por":2184,"ids":2185,"duct":2186,"Ġfig":2187,"enth":2188,"ĠCare":2189,"ĠMag":2190,"Ġfollowed":2191,"ĠBattalion":2192,"antic":2193,"Ġ189":2194,"Ġothers":2195,"ĠAtl":2196,"Ġpromot":2197,"Ġpri":2198,"Ġagre":2199,"Ġworks":2200,"ÃŃ":2201,"Ġson":2202,"ster":2203,"abor":2204,"ĠâĢĻ":2205,"Ġroute":2206,"Ġestim":2207,"less":2208,"Ġcompleted":2209,"ficult":2210,"Ġcond":2211,"elling":2212,"Ġannounced":2213,"ĠCro":2214,"Ġ2004":2215,"here":2216,"Ġbecom":2217,"day":2218,"ĠSy":2219,"Ġrank":2220,"Ġleast":2221,"Ġmeet":2222,"Ġdifficult":2223,"Ġcoun":2224,"Ġhold":2225,"ĠDu":2226,"Ġadded":2227,"Ġball":2228,"ivid":2229,"rab":2230,"Ġoriginally":2231,"Ġval":2232,"rought":2233,"ample":2234,"ique":2235,"ana":2236,"ĠSw":2237,"play":2238,"ought":2239,"rict":2240,"Ġrelations":2241,"Ġcharacters":2242,"Ġoccur":2243,"Ġfac":2244,"Ġbus":2245,"Ġappeared":2246,"Ġrock":2247,"Ġmonths":2248,"Ġcert":2249,"ĠHam":2250,"Ġspecial":2251,"br":2252,"Ġident":2253,"urb":2254,"ki":2255,"Ġsouthern":2256,"rap":2257,"Ġcolle":2258,"Ġround":2259,"Ġpred":2260,"Ġloss":2261,"ament":2262,"ects":2263,"Ġbase":2264,"Ġlittle":2265,"odes":2266,"Ġcomment":2267,"Ġassoci":2268,"cher":2269,"ĠMer":2270,"ĠRoyal":2271,"Ġconn":2272,"ĠOther":2273,"Ġprocess":2274,"Ġsuper":2275,"Ġbroad":2276,"Ġmi":2277,"ĠAct":2278,"ĠSom":2279,"Ġinstead":2280,"Ġdamage":2281,"Ġborn":2282,"emy":2283,"ality":2284,"Ġtradition":2285,"Ġ2015":2286,"Ġaircraft":2287,"cer":2288,"aly":2289,"ett":2290,"ĠKingdom":2291,"ying":2292,"ĠRout":2293,"pped":2294,"Ġfeatures":2295,"Ġ2003":2296,"Ġaud":2297,"orse":2298,"ĠTown":2299,"unk":2300,"Ġdecided":2301,"Ġbehind":2302,"Ġcycl":2303,"oice":2304,"Ġlack":2305,"Ġenc":2306,"Ġaccom":2307,"ency":2308,"cil":2309,"Ġeastern":2310,"Ġknow":2311,"Ġservice":2312,"Ġredu":2313,"ĠRep":2314,"Ġlet":2315,"ĠTwo":2316,"Ġgrow":2317,"Ġnovel":2318,"oo":2319,"ĠSan":2320,"ĠMad":2321,"Ġnon":2322,"umb":2323,"Ġvol":2324,"Ġsuff":2325,"igned":2326,"Ġ188":2327,"Ġhighway":2328,"ray":2329,"Ġaward":2330,"Ġriver":2331,"Ġcritics":2332,"heast":2333,"Ġcirc":2334,"ĠEast":2335,"Ġsaw":2336,"ĠScientology":2337,"Ġtaken":2338,"Ġoperations":2339,"ĠMex":2340,"ĠRoute":2341,"Ġfif":2342,"Ġmass":2343,"ĠMor":2344,"ĠBra":2345,"Ġrecogn":2346,"ĠMcC":2347,"ming":2348,"Ġwife":2349,"Ġtowards":2350,"Ġclose":2351,"angu":2352,"Ġfourth":2353,"ault":2354,"ned":2355,"Ġaver":2356,"Ġaction":2357,"ĠSome":2358,"ĠBill":2359,"gg":2360,"Ġvoc":2361,"Ġeither":2362,"ĠPres":2363,"Ġanim":2364,"oph":2365,"ĠStreet":2366,"ĠChampionship":2367,"off":2368,"Ġeventually":2369,"Ġtest":2370,"ata":2371,"ators":2372,"ecut":2373,"istic":2374,"aching":2375,"ĠDavid":2376,"Ġclos":2377,"Ġreb":2378,"ĠSer":2379,"ĠFrance":2380,"Ġrepresent":2381,"Ġhurricane":2382,"urg":2383,"olution":2384,"illa":2385,"Ġsepar":2386,"Ġscored":2387,"Ġappoint":2388,"Ġsubsequ":2389,"alt":2390,"Ġlive":2391,"Ġimpro":2392,"cast":2393,"Ġz":2394,"ica":2395,"Ġmother":2396,"Ġfort":2397,"Ġalmost":2398,"Ġproble":2399,"Ġcoll":2400,"Ġbird":2401,"ĠWales":2402,"Ġindivid":2403,"Ġprofess":2404,"Ġstage":2405,"iff":2406,"Ġ185":2407,"azine":2408,"Ġnorthern":2409,"Ġstars":2410,"Ġcommer":2411,"ude":2412,"Ġyoung":2413,"ĠMusic":2414,"Ġcut":2415,"Ġmiss":2416,"Ġsex":2417,"Ġce":2418,"Ġfall":2419,"ĠFollow":2420,"Ġ35":2421,"iber":2422,"Ġwall":2423,"Ġren":2424,"Ġask":2425,"aval":2426,"ĠEm":2427,"Ġcentral":2428,"ĠIndian":2429,"Ġfeatured":2430,"Ġcor":2431,"Ġlaun":2432,"aper":2433,"ĠCup":2434,"ĠBo":2435,"ĠHill":2436,"ĠNY":2437,"Ġcrew":2438,"ography":2439,"ores":2440,"Ġdou":2441,"ceed":2442,"ĠGrand":2443,"Ġhon":2444,"orts":2445,"Ġunits":2446,"medi":2447,"ĠRock":2448,"ĠInf":2449,"Ġexample":2450,"iol":2451,"Ġhost":2452,"ota":2453,"Ġrul":2454,"Ġplaying":2455,"Ġaccept":2456,"Ġmove":2457,"Ġwomen":2458,"ston":2459,"stit":2460,"ully":2461,"Ġarg":2462,"Ġrespons":2463,"Ġgeneral":2464,"Ġbelieved":2465,"ĠFollowing":2466,"west":2467,"ĠAg":2468,"ending":2469,"Ġgoal":2470,"Ġiron":2471,"Ġbrought":2472,"ama":2473,"emor":2474,"chie":2475,"Ġ500":2476,"Ġmot":2477,"lement":2478,"Ġking":2479,"ĠRobert":2480,"ĠCarey":2481,"Ġcase":2482,"Ġtoget":2483,"aves":2484,"ĠInternational":2485,"Ġtogether":2486,"men":2487,"uation":2488,"arter":2489,"Ġmater":2490,"ĠGod":2491,"Ġexc":2492,"Ġwinds":2493,"aut":2494,"ĠSl":2495,"ĠBer":2496,"cial":2497,"eum":2498,"Ġnuc":2499,"Ġdev":2500,"Ġplaced":2501,"Ġlargest":2502,"Ġdirected":2503,"Ġrelationship":2504,"Ġmph":2505,"ĠMed":2506,"Ġstru":2507,"ĠPart":2508,"reng":2509,"Ġleading":2510,"Ġfinished":2511,"iation":2512,"Ġlangu":2513,"Ġintens":2514,"wood":2515,"Ġ186":2516,"Ġupon":2517,"Ġinsp":2518,"Ġcourt":2519,"Ġsour":2520,"Ġmember":2521,"ĠJew":2522,"Ġcontract":2523,"Ġindust":2524,"Ġprovided":2525,"board":2526,"co":2527,"ential":2528,"ĠPaul":2529,"Ġrather":2530,"ĠBrigade":2531,"Ġweeks":2532,"head":2533,"Ġshot":2534,"Ġflood":2535,"Ġcurrent":2536,"ving":2537,"ĠFrom":2538,"Ġopened":2539,"oring":2540,"ĠDay":2541,"ĠGame":2542,"Ġsequ":2543,"Ġemploy":2544,"uel":2545,"ville":2546,"Ġcreat":2547,"Ġhy":2548,"ĠPe":2549,"artment":2550,"ĠThom":2551,"val":2552,"icated":2553,"ishing":2554,"Ġappearance":2555,"Ġcivil":2556,"Ġey":2557,"bert":2558,"ights":2559,"cing":2560,"Ġprob":2561,"Ġve":2562,"Ġinvest":2563,"ĠCommand":2564,"Ġopening":2565,"Ġelements":2566,"go":2567,"ule":2568,"Ġ-":2569,"ĠHen":2570,"Ġstreng":2571,"AF":2572,"ĠPre":2573,"Ġregular":2574,"ih":2575,"atin":2576,"Ġinform":2577,"asion":2578,"ĠFirst":2579,"Ġdirector":2580,"Ġdesigned":2581,"Ġpoints":2582,"Ġinvolved":2583,"Ġearlier":2584,"Ġcost":2585,"Ġcell":2586,"Ġhours":2587,"ida":2588,"iding":2589,"Ġyards":2590,"Ġemb":2591,"Ġrespect":2592,"Ġgenerally":2593,"Ġallowed":2594,"hing":2595,"Ġreve":2596,"iction":2597,"Ġmeas":2598,"ĠWhite":2599,"ĠGeorge":2600,"Ġfoc":2601,"Ġconduct":2602,"ĠEuropean":2603,"Ġsaying":2604,"Ġoutside":2605,"Ġpossible":2606,"erous":2607,"Ġbeg":2608,"ĠNavy":2609,"Ġmean":2610,"Ġquick":2611,"Ġbi":2612,"Ġburn":2613,"ĠSm":2614,"ĠMy":2615,"ĠViet":2616,"enes":2617,"Ġengine":2618,"Ġreplaced":2619,"Ġwanted":2620,"cent":2621,"now":2622,"ĠMark":2623,"Ġgra":2624,"conom":2625,"ls":2626,"uk":2627,"Ġmer":2628,"Ġreact":2629,"ĠDep":2630,"aps":2631,"ellow":2632,"nar":2633,"ĠAc":2634,"ĠBest":2635,"Ġdesp":2636,"Ġvictory":2637,"Ġwood":2638,"ington":2639,"eck":2640,"Ġhom":2641,"Ġexist":2642,"Ġpreviously":2643,"liam":2644,"tar":2645,"Ġfund":2646,"ĠCr":2647,"Ġleng":2648,"ĠRh":2649,"Ġworking":2650,"Ġparticularly":2651,"Ġestimated":2652,"Ġabove":2653,"Ġ187":2654,"Ġ2014":2655,"Ġjoined":2656,"to":2657,"etwork":2658,"Ġpract":2659,"Ġmetres":2660,"ĠQu":2661,"ĠChristian":2662,"ĠAngel":2663,"Ġbusiness":2664,"Ġill":2665,"Ġesc":2666,"ĠMost":2667,"ĠIr":2668,"ĠPac":2669,"ĠRed":2670,"ze":2671,"Ġclear":2672,"ĠDesp":2673,"ĠKore":2674,"Ġ2001":2675,"inese":2676,"ĠLove":2677,"Ġseem":2678,"Ġ2000":2679,"Ġneg":2680,"Ġtravel":2681,"anned":2682,"ĠFlor":2683,"for":2684,"osition":2685,"ĠChinese":2686,"Ġremov":2687,"Ġ1970":2688,"sel":2689,"uter":2690,"Ġachie":2691,"ita":2692,"Ġhit":2693,"Ġforced":2694,"ula":2695,"Ġdraw":2696,"ĠDespite":2697,"bor":2698,"ma":2699,"Ġcop":2700,"ĠHouse":2701,"pper":2702,"Ġdiss":2703,"liament":2704,"Ġly":2705,"Ġworked":2706,"Ġtransport":2707,"Ġavail":2708,"Ġpraised":2709,"Ġmach":2710,"ĠCorp":2711,"ĠMo":2712,"urt":2713,"Ġprote":2714,"onst":2715,"Ġpers":2716,"Ġpast":2717,"Ġwithd":2718,"Ġtransfer":2719,"Ġlength":2720,"Ġbur":2721,"Ġinj":2722,"Ġmult":2723,"Ġscene":2724,"Ġpoet":2725,"rated":2726,"Ġreason":2727,"ecess":2728,"aint":2729,"elled":2730,"ĠZeal":2731,"Ġstudy":2732,"ĠZealand":2733,"nel":2734,"Ġslow":2735,"atural":2736,"itz":2737,"Ġfr":2738,"Ġfree":2739,"Ġthreat":2740,"ĠMac":2741,"ĠLa":2742,"osing":2743,"ĠVal":2744,"Ġrain":2745,"Ġmaint":2746,"ĠPlay":2747,"Ġincreased":2748,"ps":2749,"ties":2750,"Ġcondom":2751,"ĠOper":2752,"ĠKh":2753,"Ġresear":2754,"ĠBritain":2755,"Ġordered":2756,"ste":2757,"Ġconstruct":2758,"ĠBattle":2759,"ee":2760,"Ġthink":2761,"Ġstation":2762,"opp":2763,"ĠMichael":2764,"Ġmaterial":2765,"mb":2766,"ĠRuss":2767,"ago":2768,"ĠÂ°":2769,"ĠSuper":2770,"Ġ1990":2771,"Ġregard":2772,"Ġobject":2773,"ĠLesnar":2774,"ĠMexico":2775,"ĠCreek":2776,"ĠBay":2777,"ĠWal":2778,"ĠWil":2779,"aker":2780,"Ġevidence":2781,"ĠAtlantic":2782,"nes":2783,"rd":2784,"acing":2785,"ĠLater":2786,"ĠGal":2787,"Ġ45":2788,"ibility":2789,"Ġaccount":2790,"Ġfootball":2791,"Ġtrib":2792,"ĠGreat":2793,"Ġviol":2794,"Ġremains":2795,"Ġrap":2796,"Ġsyn":2797,"Ġmanager":2798,"Ġnomin":2799,"ĠMary":2800,"irth":2801,"Ġwhom":2802,"anding":2803,"Ġpoor":2804,"Ġsoon":2805,"Ġhous":2806,"ĠHall":2807,"Ġwestern":2808,"ania":2809,"ĠTor":2810,"Ġlines":2811,"ĠDon":2812,"Ġrace":2813,"Ġ60":2814,"Ġcenter":2815,"ification":2816,"ĠPacific":2817,"Ġface":2818,"ching":2819,"ĠGovern":2820,"ĠEarly":2821,"ĠRepublic":2822,"uz":2823,"ĠOs":2824,"ributed":2825,"ready":2826,"Ġhighest":2827,"ĠFederer":2828,"ĠÃ":2829,"ites":2830,"leg":2831,"oms":2832,"Ġarmy":2833,"ĠFlorida":2834,"wh":2835,"Ġtreat":2836,"ulf":2837,"Ġrail":2838,"ĠQue":2839,"vest":2840,"aries":2841,"anish":2842,"Ġdon":2843,"Ġgre":2844,"ĠPo":2845,"ĠGold":2846,"Ġchange":2847,"Ġ2002":2848,"Ġparticip":2849,"Ġturned":2850,"ĠÂ£":2851,"ship":2852,"Ġnine":2853,"Ġsurf":2854,"Ġfemale":2855,"Ġaverage":2856,"lict":2857,"Ġpen":2858,"ĠSchool":2859,"ession":2860,"ordan":2861,"Ġinterview":2862,"Ġarrived":2863,"ĠRichard":2864,"porary":2865,"Ġyard":2866,"Ġsigned":2867,"Ġbreak":2868,"Ġterrit":2869,"BC":2870,"Ġtaking":2871,"Ġpur":2872,"ĠSch":2873,"clus":2874,"Ġitself":2875,"Ġsubject":2876,"Ġpriv":2877,"anks":2878,"Ġblock":2879,"Ġclaimed":2880,"ĠInfantry":2881,"ĠOp":2882,"Ġdamaged":2883,"ĠHero":2884,"Ġstructure":2885,"ecutive":2886,"Ġavailable":2887,"erved":2888,"Ġlove":2889,"eler":2890,"Ġheav":2891,"ĠGr":2892,"Ġcontr":2893,"Ġsurround":2894,"Ġcommercial":2895,"ĠThomas":2896,"oul":2897,"ĠJordan":2898,"Ġimmedi":2899,"Ġstudio":2900,"Ġoccup":2901,"Ġdefeated":2902,"Ġpiec":2903,"ouri":2904,"ĠApp":2905,"Ġinitially":2906,"Ġcommunity":2907,"Ġdro":2908,"Ġhard":2909,"ĠHol":2910,"abit":2911,"ĠUnion":2912,"Ġtraining":2913,"Ġbrother":2914,"ĠRegiment":2915,"chest":2916,"hib":2917,"ky":2918,"Ġsection":2919,"arily":2920,"Ġbill":2921,"vert":2922,"ĠOliv":2923,"Ġdespite":2924,"band":2925,"Ġcal":2926,"Ġnames":2927,"ulated":2928,"ĠOd":2929,"Ġdisp":2930,"Ġdepression":2931,"gypt":2932,"ĠPresident":2933,"ximately":2934,"ĠAward":2935,"ĠMet":2936,"Ġgold":2937,"ĠDr":2938,"rian":2939,"Ġ36":2940,"ĠVir":2941,"Ġtru":2942,"ĠEgypt":2943,"Ġpassed":2944,"ĠCanada":2945,"Ġvillage":2946,"Ġesp":2947,"Ġinternational":2948,"Ġtold":2949,"Ġeconom":2950,"Ġwhose":2951,"Ġexcept":2952,"ference":2953,"Ġquarter":2954,"Ġhar":2955,"Ġalready":2956,"ateg":2957,"ĠUnder":2958,"Ġ75":2959,"Ġincreasing":2960,"oor":2961,"Ġcru":2962,"arters":2963,"ila":2964,"Ġlatter":2965,"ĠMa":2966,"ĠBel":2967,"ĠYear":2968,"Ġ1960":2969,"ĠCarol":2970,"Ġrequired":2971,"Ġprobably":2972,"Ġwide":2973,"ases":2974,"ĠTom":2975,"ĠBus":2976,"ĠThat":2977,"Ġparts":2978,"Ġappointed":2979,"Ġstates":2980,"ription":2981,"Ġkey":2982,"Ġ38":2983,"Ġ183":2984,"Ġestablish":2985,"stein":2986,"ari":2987,"urity":2988,"rag":2989,"ume":2990,"ĠScott":2991,"Ġdebut":2992,"Ġreligious":2993,"ĠVietn":2994,"down":2995,"inist":2996,"oration":2997,"Ġfly":2998,"ĠTimes":2999,"Ġproper":3000,"Ġpolice":3001,"Ġcomplet":3002,"Ġgrad":3003,"Ġsoldiers":3004,"ĠArt":3005,"Ġcapital":3006,"ĠMissouri":3007,"ĠHenry":3008,"AS":3009,"ney":3010,"Ġliter":3011,"Ġforward":3012,"thlet":3013,"ranch":3014,"Ġbetter":3015,"Ġassist":3016,"oid":3017,"áĥ":3018,"Ġmust":3019,"ĠTem":3020,"Ġabs":3021,"Ġcolon":3022,"Ġden":3023,"Ġdate":3024,"ilities":3025,"ĠNot":3026,"Ġcome":3027,"Ġdead":3028,"Ġremaining":3029,"Ġsuggested":3030,"Ġbeginning":3031,"Ġsize":3032,"atory":3033,"Ġgive":3034,"Ġanc":3035,"Ġenough":3036,"Ġgoing":3037,"Ġwinning":3038,"Ġanti":3039,"Ġap":3040,"Ġpot":3041,"ĠTra":3042,"ĠFort":3043,"aby":3044,"ability":3045,"Ġdecision":3046,"Ġended":3047,"hens":3048,"Ġdeterm":3049,"gu":3050,"itor":3051,"Ġfailed":3052,"ĠSun":3053,"ĠHel":3054,"Ġwriter":3055,"Ġaccording":3056,"Ġindepend":3057,"Ġnearly":3058,"rang":3059,"atives":3060,"Ġtouch":3061,"ĠTech":3062,"ĠCong":3063,"ĠMal":3064,"olic":3065,"ĠFe":3066,"ĠNero":3067,"ĠAfrica":3068,"gl":3069,"ks":3070,"Ġsect":3071,"ecially":3072,"ĠFilm":3073,"ĠIndia":3074,"Ġgoals":3075,"Ġshows":3076,"Ġcomplete":3077,"Ġphys":3078,"Ġlanguage":3079,"Ġaut":3080,"Ġmight":3081,"ĠSquadron":3082,"Ġlower":3083,"Ġscore":3084,"ĠCharles":3085,"Ġintroduced":3086,"Ã³":3087,"onse":3088,"Ġfut":3089,"ĠPet":3090,"uments":3091,"Ġremain":3092,"Ġfeel":3093,"ĠAssoci":3094,"of":3095,"Ġtow":3096,"illery":3097,"Ġrecording":3098,"Ġdepict":3099,"Ġrunning":3100,"Ġcaptured":3101,"den":3102,"Ġ?":3103,"ĠCard":3104,"ĠCamp":3105,"ĠMont":3106,"ĠPeter":3107,"ĠOt":3108,"Ġspent":3109,"Ġleague":3110,"ĠVict":3111,"rics":3112,"Ġ80":3113,"ronic":3114,"Ġminor":3115,"ĠSpanish":3116,"ĠGermany":3117,"Ġeduc":3118,"ĠBrown":3119,"aughter":3120,"Ġprior":3121,"Ġespecially":3122,"iest":3123,"lor":3124,"ĠMany":3125,"idents":3126,"ĠPat":3127,"ests":3128,"Ġsupported":3129,"Ġapproximately":3130,"Ġdestroyed":3131,"Ġlimited":3132,"ĠIrish":3133,"ga":3134,"aring":3135,"ĠSing":3136,"Ġchap":3137,"ĠVar":3138,"Ġintended":3139,"Ġgroups":3140,"Ġissue":3141,"ĠHistory":3142,"ĠWhe":3143,"Ġ1980":3144,"Ġmur":3145,"Ġdivision":3146,"Ġnetwork":3147,"ĠMil":3148,"odies":3149,"Ġdeal":3150,"quare":3151,"Ġimm":3152,"Ġreviews":3153,"Ġdiscovered":3154,"Ġfleet":3155,"ĠMos":3156,"raw":3157,"Ġkil":3158,"rying":3159,"Ġresponse":3160,"Ġreveal":3161,"Ġsat":3162,"Ġdoc":3163,"ĠAwards":3164,"Ġstaff":3165,"Ġincludes":3166,"Ġsometimes":3167,"inct":3168,"reak":3169,"Ġscreen":3170,"Ġoffice":3171,"inent":3172,"Ġfood":3173,"ils":3174,"ĠNort":3175,"ĠStud":3176,"Ġ184":3177,"Ġpositive":3178,"Ġlarger":3179,"Ġruns":3180,"Ġarchae":3181,"ĠCanadian":3182,"Ġchanges":3183,"rief":3184,"Ġcertain":3185,"ises":3186,"Ġinn":3187,"ĠTur":3188,"ĠWestern":3189,"ĠAnother":3190,"orning":3191,"Ġadditional":3192,"Ġmagazine":3193,"Ġagreed":3194,"fect":3195,"Ġri":3196,"Ġmale":3197,"Ġhapp":3198,"ĠCoun":3199,"order":3200,"ĠColle":3201,"Ġmixed":3202,"back":3203,"ha":3204,"uing":3205,"Ġsch":3206,"ĠCour":3207,"ishop":3208,"ples":3209,"Ġscript":3210,"Ġprovide":3211,"ĠOldham":3212,"Ġfighting":3213,"Ġche":3214,"anies":3215,"ĠSoc":3216,"ĠPri":3217,"Ġexam":3218,"quarters":3219,"Ġjourn":3220,"Ġsocial":3221,"Ġsem":3222,"Ġfail":3223,"ication":3224,"Ġdomin":3225,"ads":3226,"ĠJe":3227,"Ġmostly":3228,"ires":3229,"lymp":3230,"Ġfeature":3231,"ĠFrank":3232,"edy":3233,"lex":3234,"ĠBur":3235,"ĠHurricane":3236,"Ġdeep":3237,"hedral":3238,"Ġusually":3239,"Ġpositions":3240,"anna":3241,"Ġforest":3242,"Ġfrequ":3243,"Ġpressure":3244,"ĠOlymp":3245,"Ġuns":3246,"Ġpair":3247,"Ġmention":3248,"change":3249,"Ġcompl":3250,"Ġamount":3251,"ĠIII":3252,"Ġtype":3253,"iser":3254,"Ġbomb":3255,"irt":3256,"igan":3257,"ĠHot":3258,"ĠRad":3259,"ĠLaw":3260,"ĠInter":3261,"oke":3262,"Ġadop":3263,"Ġminutes":3264,"Ġguitar":3265,"fact":3266,"Ġens":3267,"atively":3268,"ĠServ":3269,"stant":3270,"iring":3271,"ĠOver":3272,"ĠUK":3273,"Ġ1999":3274,"Ġcarried":3275,"Ġradio":3276,"osaurus":3277,"Ġbecoming":3278,"Ġfuture":3279,"Ġsil":3280,"umn":3281,"Ġshown":3282,"ĠChina":3283,"Ġunc":3284,"teen":3285,"Ġ70":3286,"Ġsmaller":3287,"Ġdefeat":3288,"Ġsubsequently":3289,"isions":3290,"ĠVer":3291,"ospital":3292,"ĠOlivier":3293,"bers":3294,"Ġword":3295,"ĠTV":3296,"ĠTer":3297,"ĠSince":3298,"Ġconclud":3299,"ills":3300,"Ġcontem":3301,"Ġpresident":3302,"Ġfavor":3303,"Ġlikely":3304,"mon":3305,"mond":3306,"under":3307,"asy":3308,"enty":3309,"ĠJin":3310,"ĠEver":3311,"ĠStar":3312,"Ġadapt":3313,"Ġ1995":3314,"Ġteams":3315,"Ġcounter":3316,"NA":3317,"het":3318,"itte":3319,"ĠMart":3320,"Ġvot":3321,"Ġpercent":3322,"ĠAnt":3323,"oys":3324,"Ġreferred":3325,"ĠJewish":3326,"Ġquickly":3327,"uals":3328,"Ġtons":3329,"Ġwoman":3330,"ady":3331,"aded":3332,"ĠBack":3333,"Ġstay":3334,"ĠRes":3335,"ĠDan":3336,"Ġ32":3337,"Ġund":3338,"Ġquest":3339,"Ġentered":3340,"Ġlocation":3341,"Ġproblems":3342,"ror":3343,"onna":3344,"Ġwound":3345,"oud":3346,"ĠCath":3347,"omm":3348,"ĠBen":3349,"ĠRac":3350,"cean":3351,"ands":3352,"ĠOff":3353,"peror":3354,"ĠGuitar":3355,"ĠVictor":3356,"ios":3357,"Ġinters":3358,"Ġder":3359,"Ġlo":3360,"ĠPenn":3361,"Ġnotes":3362,"Ġtemper":3363,"Ġranked":3364,"Ġfifth":3365,"ĠBillboard":3366,"ĠAssociation":3367,"Ġbirth":3368,"imum":3369,"unt":3370,"Ġ400":3371,"Ġappl":3372,"Ġprofessional":3373,"gen":3374,"gely":3375,"Ġflow":3376,"Ġbrief":3377,"Ġstra":3378,"rael":3379,"Ġrelated":3380,"ĠSecond":3381,"Ġkeep":3382,"Ġsurface":3383,"dle":3384,"Ġdi":3385,"ĠTropical":3386,"imate":3387,"iforn":3388,"Ġsea":3389,"Ġleaving":3390,"Ġunit":3391,"Ġmoving":3392,"Ġindic":3393,"Ġconcern":3394,"ĠForce":3395,"Ġmedia":3396,"well":3397,"Ġself":3398,"usp":3399,"Ġ33":3400,"Ġ90":3401,"Ġamb":3402,"Ġofficers":3403,"ĠManila":3404,"Ġmajority":3405,"Ġconstructed":3406,"ny":3407,"Ġthick":3408,"Ġenv":3409,"Ġconsist":3410,"Ġstudents":3411,"Ġminute":3412,"Ġcomplex":3413,"Ġconcert":3414,"Ġvisit":3415,"Ġidea":3416,"Ġsuffered":3417,"Ġlaunched":3418,"gar":3419,"hy":3420,"rat":3421,"ses":3422,"anced":3423,"andon":3424,"Ġattacked":3425,"Ġrapid":3426,"ĠTour":3427,"ĠSur":3428,"Ġshoot":3429,"ĠItal":3430,"Ġthemsel":3431,"Ġassigned":3432,"Ġ1950":3433,"Ġprimary":3434,"ĠVirgin":3435,"Ġthemselves":3436,"Ġmakes":3437,"Ġalways":3438,"ĠLight":3439,"ĠLatin":3440,"Ġoverall":3441,"Ġlargely":3442,"Ġartillery":3443,"Ġdiscuss":3444,"Ġeffects":3445,"ĠCaliforn":3446,"ners":3447,"Ġult":3448,"era":3449,"ĠHead":3450,"ĠIsrael":3451,"Ġspeed":3452,"Ġsummer":3453,"ĠJer":3454,"Ġlearn":3455,"Ġfilms":3456,"Ġcreate":3457,"ĠCentral":3458,"Ġoccurred":3459,"Ġcele":3460,"ĠCouncil":3461,"Ġcm":3462,"ĠTre":3463,"Ġrein":3464,"ĠSam":3465,"Ġlink":3466,"ĠMr":3467,"ĠHow":3468,"Ġran":3469,"Ġcontains":3470,"Ġ1998":3471,"Ġcann":3472,"Ġconsider":3473,"arent":3474,"Ġlyrics":3475,"Ġcer":3476,"alled":3477,"Ġattract":3478,"Ġproduct":3479,"Ġlonger":3480,"Ġcritical":3481,"Ġattacks":3482,"hou":3483,"vens":3484,"Ġcred":3485,"Ġdark":3486,"Ġemer":3487,"aches":3488,"thing":3489,"ulpt":3490,"ĠWood":3491,"ĠJose":3492,"Ġ300":3493,"ĠArch":3494,"Ġtraffic":3495,"ĠBrad":3496,"Ġinvestig":3497,"ĠWheeler":3498,"Ġfans":3499,"ĠUp":3500,"ĠStorm":3501,"Ġimage":3502,"Ġmeth":3503,"Ġslight":3504,"Ġbroadcast":3505,"rown":3506,"Ġlived":3507,"ĠMajor":3508,"Ġdeg":3509,"lands":3510,"Ġmovement":3511,"Ġmusical":3512,"Ġ1940":3513,"Ġappears":3514,"Ġcontroll":3515,"Ġincrease":3516,"Ġstatus":3517,"ĠCroat":3518,"Ġkilomet":3519,"Ġschol":3520,"Ġlab":3521,"ĠDem":3522,"Ġabandon":3523,"Ġjob":3524,"Ġ2016":3525,"Ġprem":3526,"Ġcommission":3527,"undred":3528,"Ġconflict":3529,"Ġexperience":3530,"Ġproposed":3531,"Ġcasual":3532,"Ġasked":3533,"ĠCalifornia":3534,"RA":3535,"Ġpurch":3536,"Ġdoll":3537,"Ġscenes":3538,"Ġsculpt":3539,"Ġaccess":3540,"Ġmoney":3541,"itting":3542,"lin":3543,"Ġtar":3544,"ani":3545,"imb":3546,"ĠHaw":3547,"Ġvoice":3548,"Ġjud":3549,"ĠSever":3550,"Ġforms":3551,"Ġelection":3552,"Ġgrant":3553,"Ġlisted":3554,"ex":3555,"zy":3556,"inated":3557,"Ġbow":3558,"ĠFore":3559,"riage":3560,"arts":3561,"Ġbelow":3562,"Ġcommander":3563,"Ġrequest":3564,"incip":3565,"Ġinfluence":3566,"Ġobserv":3567,"Ġremoved":3568,"mas":3569,"ĠCamb":3570,"ĠRoss":3571,"cend":3572,"eway":3573,"ously":3574,"Ġparty":3575,"Ġcentre":3576,"ĠCommission":3577,"Ġbring":3578,"Ġ1930":3579,"ĠStevens":3580,"Ġassociated":3581,"ken":3582,"erve":3583,"ergy":3584,"eding":3585,"Ġcle":3586,"Ġdram":3587,"Ġreach":3588,"ĠSov":3589,"Ġnature":3590,"ĠRA":3591,"ĠDist":3592,"Ġconcept":3593,"Ġending":3594,"Ġmeant":3595,"Ġnumbers":3596,"Ġacqu":3597,"Ġdaughter":3598,"ĠRob":3599,"ander":3600,"Ġplanned":3601,"Ġserious":3602,"Ġcyclone":3603,"ĠNorthern":3604,"Ġbound":3605,"Ġmom":3606,"Ġded":3607,"ĠFI":3608,"ulu":3609,"Ġleave":3610,"ruit":3611,"Ġdism":3612,"Ġearth":3613,"Ġterms":3614,"ĠEarth":3615,"ĠMichigan":3616,"Ġchanged":3617,"ĠAfrican":3618,"Ġprivate":3619,"ĠRachel":3620,"awn":3621,"ging":3622,"Ġthus":3623,"Ġlif":3624,"ĠBu":3625,"ĠLake":3626,"umed":3627,"Ġunderst":3628,"ĠAtt":3629,"Ġsusp":3630,"Ġbad":3631,"Ġmorning":3632,"ĠArab":3633,"Ġstone":3634,"ĠLou":3635,"Ġplat":3636,"Ġplot":3637,"Ġupper":3638,"ylv":3639,"Ġperformances":3640,"Ġpersonal":3641,"Ġawarded":3642,"Ġbirds":3643,"ĠCourt":3644,"II":3645,"lo":3646,"itation":3647,"itect":3648,"ĠSal":3649,"Ġgot":3650,"Ġplans":3651,"Ġunable":3652,"Ġwhether":3653,"Ġtrade":3654,"Ġrare":3655,"Ġbuildings":3656,"ĠTex":3657,"Ġdouble":3658,"atre":3659,"Ġlay":3660,"ĠBC":3661,"ĠIf":3662,"ĠRose":3663,"Ġconver":3664,"ria":3665,"ify":3666,"Ġchall":3667,"Ġflight":3668,"Ġoperation":3669,"Ġfinally":3670,"Ġculture":3671,"Ġresearch":3672,"tr":3673,"Ġtell":3674,"Ġnatural":3675,"irl":3676,"ĠDo":3677,"ĠDel":3678,"aven":3679,"iano":3680,"ellig":3681,"Ġweap":3682,"hips":3683,"Ġrecords":3684,"Ġinfantry":3685,"ĠCenter":3686,"Ġfocus":3687,"Ġconducted":3688,"ittee":3689,"ĠHu":3690,"Ġasp":3691,"ĠJim":3692,"ortun":3693,"Ġcompared":3694,"ĠThree":3695,"Ġsched":3696,"ails":3697,"Ġcollect":3698,"ĠClub":3699,"Ġissued":3700,"Ġcompetition":3701,"Ġcommented":3702,"Ġstrength":3703,"Ġmeaning":3704,"Ġtakes":3705,"Ġfell":3706,"ĠSen":3707,"Ġliving":3708,"ĠNic":3709,"ĠJane":3710,"ective":3711,"Ġyet":3712,"ĠChic":3713,"ĠIts":3714,"aily":3715,"aught":3716,"Ġaccomp":3717,"iant":3718,"Ġdig":3719,"ĠThrough":3720,"Ġtheme":3721,"Ġcovered":3722,"Ġmethod":3723,"iqu":3724,"ĠTay":3725,"Ġcoach":3726,"Ġpresence":3727,"venue":3728,"Ġpolic":3729,"Ġprevent":3730,"Ġlog":3731,"ĠBow":3732,"ĠForm":3733,"ifa":3734,"Ġ37":3735,"Ġ42":3736,"Ġnewsp":3737,"Ġraised":3738,"Ġepisodes":3739,"Ġadvance":3740,"Ġbattles":3741,"Ġattempted":3742,"Ġfigure":3743,"Ġindustry":3744,"bury":3745,"sen":3746,"Ġtalk":3747,"ening":3748,"Ġbatter":3749,"ĠTrans":3750,"ili":3751,"usband":3752,"Ġhealth":3753,"Ġoffered":3754,"ologist":3755,"ĠMuseum":3756,"Ġnortheast":3757,"Ġresponsible":3758,"car":3759,"enon":3760,"Ġdone":3761,"ĠTw":3762,"ado":3763,"ĠBob":3764,"istics":3765,"rial":3766,"ĠEmp":3767,"Ġcompanies":3768,"Ġwhole":3769,"Ġearned":3770,"Ġ1993":3771,"ĠEnter":3772,"Ġmarked":3773,"Ġexperi":3774,"ĠPortug":3775,"Ġimmediately":3776,"ĠCollege":3777,"oir":3778,"tain":3779,"Ġour":3780,"Ġbig":3781,"Ġtourn":3782,"Ġgiving":3783,"ĠHo":3784,"ĠGo":3785,"Ġvia":3786,"ocr":3787,"Ġweaken":3788,"Ġmatches":3789,"ĠParliament":3790,"Ġschools":3791,"Ġera":3792,"ĠPhilipp":3793,"emorial":3794,"Ġmurder":3795,"ĠTexas":3796,"ras":3797,"itude":3798,"Ġpark":3799,"ĠBoth":3800,"Ġstories":3801,"ĠJust":3802,"Ġselected":3803,"Ġ39":3804,"Ġprep":3805,"Ġdirectly":3806,"ipped":3807,"Ġhelped":3808,"Ġ+":3809,"Ġsal":3810,"alys":3811,"Ġpurs":3812,"Ġ47":3813,"Ġ1996":3814,"Ġstarting":3815,"Ġphot":3816,"ĠHaifa":3817,"Ġbegins":3818,"ĠCorps":3819,"ĠChicago":3820,"bar":3821,"Ġhundred":3822,"ĠSar":3823,"Ġcomposed":3824,"Ġ1997":3825,"embly":3826,"onym":3827,"Ġmarried":3828,"Ġindividual":3829,"ĠAcad":3830,"Ġmachine":3831,"ĠTaylor":3832,"kan":3833,"vement":3834,"Ġpay":3835,"ĠCross":3836,"ĠBey":3837,"etic":3838,"olk":3839,"ows":3840,"ĠNor":3841,"Ġuses":3842,"Ġnearby":3843,"ĠAdm":3844,"Ġtraditional":3845,"ĠDepartment":3846,"Ġgreater":3847,"ĠCatholic":3848,"ĠSeveral":3849,"CA":3850,"Ġcause":3851,"Ġhop":3852,"Ġrear":3853,"Ġreally":3854,"ada":3855,"etr":3856,"ĠFoot":3857,"rain":3858,"Ġkind":3859,"ports":3860,"ĠSea":3861,"Ġbattalion":3862,"ĠChristmas":3863,"Ġwaters":3864,"Ġbox":3865,"Ġreject":3866,"Ġnecess":3867,"ĠBig":3868,"Ġclosed":3869,"Ġevac":3870,"Ġcontinue":3871,"Ã¡n":3872,"ĠOperation":3873,"Ġox":3874,"isl":3875,"Ġhour":3876,"Ġhighly":3877,"Ġannual":3878,"Ġmarket":3879,"MS":3880,"can":3881,"isation":3882,"Ġmor":3883,"ĠSol":3884,"Ġthrow":3885,"Ġnorm":3886,"berg":3887,"Ġrecover":3888,"Ġshell":3889,"rowd":3890,"Ġleaders":3891,"ype":3892,"Ġinside":3893,"Ġfinanc":3894,"Ġinitial":3895,"ĠSeries":3896,"stitute":3897,"Ġcasualties":3898,"ev":3899,"Ġtax":3900,"hew":3901,"ĠCer":3902,"Ġgraph":3903,"iva":3904,"agon":3905,"ĠOut":3906,"ondyl":3907,"ibly":3908,"Ġassault":3909,"ĠScot":3910,"Ġartist":3911,"Ġimpact":3912,"Ġresulted":3913,"orpor":3914,"Ġgreatest":3915,"Ġnucle":3916,"ĠGalvest":3917,"ĠGalveston":3918,"onc":3919,"ican":3920,"ĠTurn":3921,"ether":3922,"Ġ1991":3923,"Ġ150":3924,"Ġcourse":3925,"Ġsituation":3926,"ĠService":3927,"ĠItalian":3928,"ien":3929,"edo":3930,"Ġdom":3931,"Ġdyn":3932,"ĠIll":3933,"olf":3934,"ĠLos":3935,"aped":3936,"Ġdefend":3937,"Ġspecific":3938,"Ġmetal":3939,"Ġdrum":3940,"Ġmiddle":3941,"ĠGeorg":3942,"ares":3943,"like":3944,"Ġess":3945,"Ġsout":3946,"Ġpil":3947,"Ġhot":3948,"ĠSaint":3949,"uries":3950,"Ġdeploy":3951,"Ġsecret":3952,"Ġcontrovers":3953,"Ġbooks":3954,"Ġattempts":3955,"ospondyl":3956,"Ġgods":3957,"Ġfigures":3958,"Ġinspired":3959,"Ġinformation":3960,"Ġtouchdown":3961,"Ã³n":3962,"TV":3963,"pool":3964,"Ġsides":3965,"atops":3966,"isk":3967,"icle":3968,"ĠTenn":3969,"ĠSix":3970,"Ġthings":3971,"ĠHum":3972,"Ġsev":3973,"anta":3974,"Ġactive":3975,"Ġheadquarters":3976,"Ġextended":3977,"Ġservices":3978,"Ġallowing":3979,"Ġtracks":3980,"Ġboats":3981,"ĠCharl":3982,"Ġstandard":3983,"Ġsomething":3984,"lers":3985,"Ġx":3986,"Ġfeder":3987,"Ġpick":3988,"ĠAI":3989,"ĠAre":3990,"Ġnaval":3991,"ctor":3992,"ĠJam":3993,"Ġadvant":3994,"Ġpowerful":3995,"Ġaudience":3996,"ĠParty":3997,"light":3998,"rey":3999,"Ġpath":4000,"adium":4001,"ims":4002,"Ġstating":4003,"ĠLong":4004,"Ġsearch":4005,"ĠVilla":4006,"rane":4007,"Ġenj":4008,"Ġ65":4009,"Ġ1994":4010,"Ġnumerous":4011,"Ġvers":4012,"Ġrefused":4013,"Ġapproach":4014,"ĠJackson":4015,"Ġneeded":4016,"Ġvocals":4017,"Ġstruck":4018,"ĠCarolina":4019,"uit":4020,"Ġast":4021,"Ġwalk":4022,"itch":4023,"Ġmax":4024,"ĠLady":4025,"agan":4026,"aging":4027,"Ġheads":4028,"Ġlands":4029,"Ġconfir":4030,"Ġheavily":4031,"ĠSoviet":4032,"een":4033,"rid":4034,"vin":4035,"ĠCrit":4036,"ĠMill":4037,"ĠBec":4038,"Ġrate":4039,"Ġrule":4040,"Ġroom":4041,"Ġ180":4042,"izing":4043,"ĠAlice":4044,"Ġblood":4045,"Ġintensity":4046,"Ġmultip":4047,"ĠOtt":4048,"Ġcontemporary":4049,"ĠEmpire":4050,"Ġbodies":4051,"roll":4052,"ĠTheir":4053,"ĠLive":4054,"ĠGroup":4055,"ĠEr":4056,"Ġ51":4057,"Ġvariety":4058,"Ġcombat":4059,"Ġgenus":4060,"Ġconditions":4061,"Ġmeeting":4062,"Ġseparate":4063,"ĠSmith":4064,"Ġpurp":4065,"ĠJoseph":4066,"Ġtask":4067,"eds":4068,"ĠAlex":4069,"ams":4070,"Ġpeace":4071,"Ġtransl":4072,"ĠConf":4073,"ĠSpec":4074,"chester":4075,"house":4076,"Ġcrowd":4077,"Ġhusband":4078,"iles":4079,"ĠFin":4080,"ĠNix":4081,"Ġplant":4082,"ecting":4083,"Ġ76":4084,"ĠPolish":4085,"Ġhigher":4086,"ĠHighway":4087,"Ġdeclared":4088,"Ġpeaked":4089,"Ġsource":4090,"Ġhouses":4091,"Ġeducation":4092,"Ġslightly":4093,"ylvania":4094,"ees":4095,"ĠMey":4096,"ĠMidd":4097,"ols":4098,"ushed":4099,"ĠFour":4100,"ĠLo":4101,"perial":4102,"Ġproducer":4103,"Ġpresented":4104,"Ġhands":4105,"Ġreduced":4106,"Ġrespectively":4107,"uated":4108,"yph":4109,"Ġple":4110,"icip":4111,"ĠCivil":4112,"omer":4113,"Ġnative":4114,"ĠPost":4115,"ĠDj":4116,"ĠNations":4117,"ĠLiver":4118,"odon":4119,"ĠKn":4120,"Ġresidents":4121,"Ġ44":4122,"ribution":4123,"Ġsecurity":4124,"Ġ1992":4125,"Ġstudies":4126,"Ġextre":4127,"Ġofficer":4128,"Ġsixth":4129,"Ġcollection":4130,"ĠPenns":4131,"Ġcelebr":4132,"ka":4133,"iny":4134,"anas":4135,"Ġthr":4136,"Ġhero":4137,"ĠLittle":4138,"ĠCont":4139,"Ġconstit":4140,"Ġfriends":4141,"arrow":4142,"rol":4143,"ĠSir":4144,"ĠCast":4145,"ĠCapt":4146,"ĠBurn":4147,"ĠFinal":4148,"ĠWash":4149,"Ġchampionship":4150,"Ġspace":4151,"rance":4152,"irection":4153,"ension":4154,"ĠYoung":4155,"Ġprec":4156,"Ġprincip":4157,"Ġnorthwest":4158,"arents":4159,"Ġcompletely":4160,"Ġwounded":4161,"bon":4162,"Åį":4163,"Ġsaf":4164,"ĠTime":4165,"Ġgrand":4166,"iral":4167,"Ġbeat":4168,"estival":4169,"pted":4170,"ĠAlkan":4171,"Ġtext":4172,"athan":4173,"Ġmeans":4174,"Ġwriters":4175,"ĠRev":4176,"ĠCommon":4177,"ĠChris":4178,"Ġbridge":4179,"Ġcombined":4180,"Ġactivity":4181,"ĠSomers":4182,"Ġeye":4183,"Ġintern":4184,"ĠFam":4185,"ĠLand":4186,"oses":4187,"andid":4188,"illed":4189,"Ġ34":4190,"Ġdisplay":4191,"Ġsinger":4192,"Ġcontinues":4193,"Ġrespond":4194,"Ġdistance":4195,"Ġcountries":4196,"ĠDef":4197,"Ġmarriage":4198,"Ġarchitect":4199,"Ġadminist":4200,"Ġcopies":4201,"Ġcontrast":4202,"ĠLiverpool":4203,"ket":4204,"Ġir":4205,"alist":4206,"oura":4207,"ĠBet":4208,"tered":4209,"ĠGames":4210,"ift":4211,"ogue":4212,"Ġ48":4213,"Ġdisapp":4214,"Ġsymb":4215,"Ġexpected":4216,"ĠParis":4217,"orpedo":4218,"ĠSomal":4219,"Ġveh":4220,"ĠVirginia":4221,"Ġreinfor":4222,"ĠFootball":4223,"ĠNixon":4224,"ĠWashington":4225,"Ġcam":4226,"Ġborder":4227,"Ġdraft":4228,"stone":4229,"emic":4230,"Ġsust":4231,"Ġdispl":4232,"Ġinteract":4233,"Ġinches":4234,"ĠIndepend":4235,"Ġissues":4236,"Ġlevels":4237,"Ġwidely":4238,"ĠHistor":4239,"Ġtransferred":4240,"ĠBusch":4241,"Ġconcluded":4242,"track":4243,"ĠSomerset":4244,"ware":4245,"inth":4246,"Ġpow":4247,"ĠSouthern":4248,"ĠCor":4249,"ĠCons":4250,"ĠBre":4251,"ĠBook":4252,"ĠWater":4253,"ĠJul":4254,"Ġang":4255,"Ġrelief":4256,"Ġactually":4257,"ĠAustralians":4258,"Ġcathedral":4259,"Ġactivities":4260,"Ġstrike":4261,"Ġterritory":4262,"ĠPennsylvania":4263,"iated":4264,"Ġbene":4265,"ems":4266,"ĠFow":4267,"ĠLock":4268,"umber":4269,"ĠSpain":4270,"Ġefforts":4271,"Ġboard":4272,"while":4273,"ĠQueen":4274,"ĠMosley":4275,"Ġenjoy":4276,"lam":4277,"Ã¼":4278,"Ġtoward":4279,"iled":4280,"ĠCat":4281,"ĠDes":4282,"ulations":4283,"ĠGreen":4284,"ĠJos":4285,"ĠEs":4286,"asty":4287,"Ġactions":4288,"Ġsuppl":4289,"annel":4290,"Ġdescribes":4291,"ĠColon":4292,"Ġeffort":4293,"Ġelev":4294,"ĠFranc":4295,"Ġsexual":4296,"Ġwithdraw":4297,"Ġancient":4298,"ĠLouis":4299,"bour":4300,"ij":4301,"ufact":4302,"Ġrough":4303,"Ġtorpedo":4304,"inus":4305,"onic":4306,"isher":4307,"anz":4308,"anes":4309,"Ġinh":4310,"Ġpun":4311,"Ġreign":4312,"ĠDam":4313,"ĠNaz":4314,"ĠLi":4315,"ĠLike":4316,"anded":4317,"bery":4318,"Ġexhib":4319,"Ġadult":4320,"ibr":4321,"Ġmanaged":4322,"Ġoffensive":4323,"Ġattention":4324,"ocks":4325,"Ġqual":4326,"Ġbackground":4327,"Ġ1942":4328,"Ġironcl":4329,"Ġrainfall":4330,"Ġrevealed":4331,"mark":4332,"Ġtur":4333,"Ġtoday":4334,"Ġmission":4335,"oured":4336,"irit":4337,"utch":4338,"ĠDer":4339,"ersh":4340,"ĠInn":4341,"Ġ49":4342,"Ġ52":4343,"Ġ182":4344,"ĠArm":4345,"Ġdefense":4346,"Ġblue":4347,"iami":4348,"Ġdistinct":4349,"Ġcounty":4350,"Ġresulting":4351,"Ġrights":4352,"Ġprimarily":4353,"Ġbecomes":4354,"Ġaccepted":4355,"Ġsequence":4356,"ĠVietnam":4357,"hood":4358,"tation":4359,"yr":4360,"Ġsays":4361,"Ġmel":4362,"Ġhabit":4363,"ĠTri":4364,"idian":4365,"imony":4366,"Ġmainly":4367,"Ġalongside":4368,"Ġdesignated":4369,"Ġopportun":4370,"Ġmountain":4371,"ĠGovernment":4372,"ĠBecause":4373,"Ġsquadron":4374,"Ġsquare":4375,"Ġfaced":4376,"ĠBon":4377,"usion":4378,"Ġkick":4379,"Ġrecent":4380,"Ġ181":4381,"Ġdise":4382,"ampion":4383,"ĠClass":4384,"Ġconcent":4385,"Ġdemonst":4386,"Ġpattern":4387,"Ġtrees":4388,"ĠKorean":4389,"ĠFowler":4390,"cy":4391,"Ġwear":4392,"Ġpound":4393,"room":4394,"ĠMiami":4395,"ĠFer":4396,"ĠWW":4397,"Ġprint":4398,"ledge":4399,"Ġfeaturing":4400,"Ġappearances":4401,"ĠAdd":4402,"Ġprogress":4403,"ĠMinnes":4404,"ĠAngeles":4405,"Ġquestion":4406,"ĠMinnesota":4407,"kin":4408,"enant":4409,"ingu":4410,"Ġpiano":4411,"Ġonto":4412,"ĠBol":4413,"use":4414,"ĠPen":4415,"Ġability":4416,"Ġroles":4417,"Ġjump":4418,"Ġ64":4419,"echan":4420,"Ġtrue":4421,"hold":4422,"itness":4423,"Ġcorn":4424,"Ġpaper":4425,"ĠTod":4426,"ela":4427,"acher":4428,"ĠKent":4429,"apo":4430,"Ġcompos":4431,"Ġ46":4432,"Ġplays":4433,"Ġdepart":4434,"Ġorganization":4435,"Ġcondoms":4436,"Ġfederal":4437,"bed":4438,"cle":4439,"Ġsense":4440,"ena":4441,"Ġbott":4442,"Ġparents":4443,"adm":4444,"Ġaltern":4445,"ĠOf":4446,"Ġcoming":4447,"Ġvess":4448,"Ġyoun":4449,"Ġresc":4450,"Ġroy":4451,"Ġ55":4452,"Ġrecomm":4453,"Ġscoring":4454,"Ġseasons":4455,"Ġquality":4456,"Ġcalling":4457,"Ġshowed":4458,"ĠManchester":4459,"Ġportion":4460,"shire":4461,"Ġobserved":4462,"ceeded":4463,"Ġpractice":4464,"ĠAcademy":4465,"ĠScotland":4466,"BA":4467,"ãĥ":4468,"Ġhol":4469,"Ġlot":4470,"ĠBint":4471,"Ġrhy":4472,"ĠAnn":4473,"Ġrelatively":4474,"airs":4475,"Ġinstit":4476,"ĠMean":4477,"Ġelected":4478,"ironment":4479,"Ġhistorical":4480,"yphoon":4481,"ĠBintulu":4482,"mun":4483,"Ġwords":4484,"Ġlosing":4485,"ĠRam":4486,"essa":4487,"Ġuniversity":4488,"Ġremark":4489,"ologists":4490,"ĠNews":4491,"Ġinvasion":4492,"Ġreception":4493,"Ġbrown":4494,"ervation":4495,"Ġowned":4496,"Ġ1920":4497,"Ġencoun":4498,"Ġstrugg":4499,"Ġultimately":4500,"cript":4501,"kn":4502,"ĠMog":4503,"ĠField":4504,"estic":4505,"Ġrang":4506,"Ġsuc":4507,"Ġarmed":4508,"Ġscale":4509,"Ġapparent":4510,"Ġ1941":4511,"Ġedge":4512,"ĠRussian":4513,"ĠSociety":4514,"ĠMeyer":4515,"ĠCaptain":4516,"gal":4517,"pole":4518,"Ġathlet":4519,"Ġfast":4520,"icles":4521,"ĠCap":4522,"Ġnation":4523,"ĠMat":4524,"ĠMass":4525,"ĠMatt":4526,"Ġheart":4527,"osen":4528,"ĠGar":4529,"udd":4530,"essions":4531,"Ġenemy":4532,"Ġdefence":4533,"Ġlegal":4534,"Ġtwenty":4535,"Ġinfluenced":4536,"ĠMeridian":4537,"Ġexcav":4538,"elligence":4539,"ĠBeyonc":4540,"ĠBeyoncÃ©":4541,"che":4542,"Ġfully":4543,"ications":4544,"Ġmile":4545,"ĠTik":4546,"Ġthous":4547,"ĠChe":4548,"Ġnarr":4549,"ĠDou":4550,"ĠUl":4551,"Ġspl":4552,"ĠThough":4553,"Ġagg":4554,"Ġoffer":4555,"Ġprepar":4556,"Ġexpressed":4557,"Ġinstr":4558,"ĠColumb":4559,"ĠAnderson":4560,"Ġtypically":4561,"ricket":4562,"Ġproteins":4563,"Ġsurrounding":4564,"Ġcannot":4565,"ĠHawai":4566,"town":4567,"onents":4568,"Ġchem":4569,"Ġmem":4570,"Ġmole":4571,"ĠSum":4572,"Ġnarrow":4573,"utions":4574,"Ġstep":4575,"ĠPit":4576,"oper":4577,"pping":4578,"Ġspread":4579,"Ġproduce":4580,"Ġprison":4581,"Ġsets":4582,"Ġemph":4583,"Ġportray":4584,"ĠChurchill":4585,"Ġrepresented":4586,"Ġmagn":4587,"Ġhomes":4588,"Ġdissip":4589,"uzz":4590,"Ġadopted":4591,"alysis":4592,"eption":4593,"the":4594,"Ġwing":4595,"ala":4596,"asc":4597,"road":4598,"acement":4599,"ĠPop":4600,"ĠFar":4601,"ĠWels":4602,"Ġcontact":4603,"orship":4604,"Ġemot":4605,"Ġ1986":4606,"Ġorganized":4607,"Ġlegisl":4608,"ĠRichmond":4609,"Ġreaction":4610,"ĠTemple":4611,"Ġadvantage":4612,"Ġmaximum":4613,"burg":4614,"gs":4615,"mes":4616,"ona":4617,"Ġsen":4618,"Ġinch":4619,"Ġdu":4620,"ĠHal":4621,"ends":4622,"Ġwebs":4623,"Ġneigh":4624,"ugby":4625,"Ġfloor":4626,"Ġartists":4627,"Ġextra":4628,"Ġbroken":4629,"Ġtried":4630,"ĠPrince":4631,"Ġofficials":4632,"Ġnuclear":4633,"admium":4634,"ĠWelsh":4635,"rical":4636,"Ġaid":4637,"Ġpal":4638,"ĠSil":4639,"ĠDirect":4640,"ĠGall":4641,"ĠOx":4642,"ĠOcean":4643,"Ġvo":4644,"astic":4645,"Ġmanufact":4646,"Ġthemes":4647,"ĠCommun":4648,"Ġedition":4649,"Ġreports":4650,"ĠAndrew":4651,"Ġpersonnel":4652,"Ġtypes":4653,"ĠWeek":4654,"Ġearliest":4655,"Ġpaint":4656,"mitted":4657,"ply":4658,"rong":4659,"enge":4660,"Ġmis":4661,"ĠHome":4662,"ĠRo":4663,"ĠKa":4664,"ĠThunder":4665,"ĠMarine":4666,"ĠBlue":4667,"Ġcapture":4668,"ĠOrig":4669,"Ġdivided":4670,"Ġsources":4671,"Ġhyd":4672,"ĠOpen":4673,"Ġtower":4674,"Ġabandoned":4675,"ĠDistrict":4676,"Ġfinancial":4677,"aen":4678,"lim":4679,"pre":4680,"rate":4681,"ux":4682,"writ":4683,"Ġsister":4684,"Ġwa":4685,"Ġmouth":4686,"Ġhorse":4687,"ĠAv":4688,"etts":4689,"Ġalone":4690,"issipp":4691,"Ġacting":4692,"Ġ1988":4693,"Ġmodel":4694,"ĠProt":4695,"Ġtitled":4696,"ĠMississipp":4697,"Ġsoundtrack":4698,"Ġachieved":4699,"ĠIllino":4700,"ĠTikal":4701,"Ġemphas":4702,"nospondyl":4703,"Ġsn":4704,"Ġdirection":4705,"ĠBoy":4706,"ĠBalt":4707,"Ġstopp":4708,"unction":4709,"ĠLie":4710,"izes":4711,"Ġactor":4712,"Ġspecim":4713,"Ġrepe":4714,"Ġprominent":4715,"Ġshortly":4716,"Ġviewers":4717,"ĠEdward":4718,"Ġaffected":4719,"ĠSecret":4720,"ĠTurk":4721,"ĠMiddle":4722,"Ġroyal":4723,"ĠMogad":4724,"wen":4725,"Ġthir":4726,"ĠFred":4727,"ĠFleet":4728,"acks":4729,"send":4730,"Ġdefensive":4731,"Ġmovie":4732,"Ġwrite":4733,"Ġfounded":4734,"Ġbasis":4735,"ĠRecords":4736,"ĠRhodes":4737,"Ġnewspaper":4738,"ĠMississippi":4739,"Ġcities":4740,"Ġcandid":4741,"alions":4742,"Ġmind":4743,"ĠAvenue":4744,"ura":4745,"ĠBall":4746,"Ġgirl":4747,"ĠNes":4748,"ĠKir":4749,"ograp":4750,"Ġ41":4751,"Ġattended":4752,"Ġweak":4753,"ĠArg":4754,"ĠReview":4755,"Ġdoing":4756,"ĠJohnson":4757,"Ġoperated":4758,"Ġstructures":4759,"ĠBraat":4760,"Ġflooding":4761,"Ġmentioned":4762,"Ġsac":4763,"Ġfruit":4764,"Ġpaid":4765,"Ġhospital":4766,"ette":4767,"ĠGib":4768,"ipment":4769,"claim":4770,"Ġofficially":4771,"Ġcouple":4772,"Ġpotential":4773,"Ġdedicated":4774,"Ġtournament":4775,"Ġxenon":4776,"known":4777,"bit":4778,"hu":4779,"uous":4780,"wide":4781,"orus":4782,"Ġmechan":4783,"irm":4784,"ĠWild":4785,"Ġcomedy":4786,"Ġplaces":4787,"Ġshape":4788,"ector":4789,"Ġyour":4790,"eller":4791,"Ġ43":4792,"anger":4793,"ĠEngine":4794,"prise":4795,"Ġauthorities":4796,"Ġcultural":4797,"ĠTurner":4798,"FA":4799,"bird":4800,"iro":4801,"ãģ":4802,"ora":4803,"Ġlives":4804,"ĠBh":4805,"ĠHMS":4806,"Ġproved":4807,"akapo":4808,"Ġarrest":4809,"Ġcompound":4810,"Ġperman":4811,"Ġscient":4812,"Ġconsisted":4813,"Ġbroke":4814,"inkel":4815,"Ġpassing":4816,"Ġtitles":4817,"Ġtrial":4818,"Ġbasket":4819,"ĠNicole":4820,"ĠMogadish":4821,"inem":4822,"Ġsens":4823,"edd":4824,"Ġmess":4825,"Ġlb":4826,"ĠMore":4827,"ĠBost":4828,"Ġrat":4829,"ĠInt":4830,"Ġroll":4831,"Ġ56":4832,"Ġappeal":4833,"athus":4834,"orney":4835,"Ġenter":4836,"fully":4837,"Ġ179":4838,"Ġoccasion":4839,"Ġcausing":4840,"Ġsociety":4841,"ĠTownsend":4842,"Ġpiece":4843,"ĠRosebery":4844,"ĠMeyerbe":4845,"VD":4846,"right":4847,"inary":4848,"rect":4849,"Ġsales":4850,"Ġoil":4851,"alle":4852,"Ġhun":4853,"lection":4854,"ĠCra":4855,"ĠBond":4856,"Ġgrew":4857,"ĠFurther":4858,"ĠWay":4859,"ĠLar":4860,"istry":4861,"ricult":4862,"Ġ93":4863,"Ġcolumn":4864,"ĠAmericans":4865,"Ġlanding":4866,"ĠClark":4867,"Ġolder":4868,"Äģd":4869,"Ġindividuals":4870,"Ġillust":4871,"ĠWalpole":4872,"Ġdetermined":4873,"Ġstraight":4874,"Ġweapons":4875,"ĠMogadishu":4876,"ĠMeyerbeer":4877,"Ġut":4878,"Ġtry":4879,"Ġcore":4880,"Ġpan":4881,"Ġdut":4882,"ĠMort":4883,"ĠRaj":4884,"ĠFinkel":4885,"resh":4886,"iana":4887,"Ġunivers":4888,"Ġimages":4889,"ĠYue":4890,"Ġincorpor":4891,"Ġseconds":4892,"aha":4893,"Ġletter":4894,"ĠApple":4895,"ĠFinkelstein":4896,"sy":4897,"inn":4898,"isters":4899,"Ġbank":4900,"ĠTessa":4901,"ĠMax":4902,"ĠHy":4903,"Ġsport":4904,"Ġunknown":4905,"Ġcontain":4906,"Ġadj":4907,"duction":4908,"Ġ97":4909,"Ġconsecutive":4910,"Ġformation":4911,"Ġmonument":4912,"ĠShort":4913,"ĠShiva":4914,"Ġ1985":4915,"Ġ1944":4916,"ancy":4917,"Ġpossibly":4918,"Ġorders":4919,"Ġprojects":4920,"Ġsites":4921,"Ġdoub":4922,"Ġphysical":4923,"Ġkilometres":4924,"Ġschedul":4925,"ĠOttoman":4926,"iti":4927,"Ġfired":4928,"Ġfiction":4929,"Ġhair":4930,"ĠSo":4931,"ĠMD":4932,"ĠHorn":4933,"Ġstop":4934,"Ġ53":4935,"Ġimag":4936,"Ġfollows":4937,"Ġleader":4938,"Ġsuggests":4939,"Ġcriticized":4940,"Ġrapidly":4941,"Ġcerem":4942,"gn":4943,"uff":4944,"Ġfrag":4945,"omy":4946,"ĠHorse":4947,"ĠDVD":4948,"ĠWat":4949,"abama":4950,"ĠAlabama":4951,"Ġworkers":4952,"Ġpoly":4953,"Ġflank":4954,"Ġ120":4955,"Ġclaims":4956,"Ġforeign":4957,"Ġkept":4958,"Ġidentified":4959,"Ġhonor":4960,"ĠPortugues":4961,"ĠMeanwhile":4962,"ĠIllinois":4963,"aith":4964,"uan":4965,"win":4966,"orter":4967,"Ġlaid":4968,"Ġgained":4969,"ĠDue":4970,"unte":4971,"ĠWrit":4972,"aine":4973,"ĠEastern":4974,"ĠOm":4975,"Ġseek":4976,"Ġchief":4977,"Ġrow":4978,"Ġsupply":4979,"Ġkilling":4980,"Ġrequire":4981,"Ġequipment":4982,"Ġmanagement":4983,"Ġprotein":4984,"ĠPhilippines":4985,"ĠBraathens":4986,"ĠPortuguese":4987,"uct":4988,"ãĤ":4989,"Ġahead":4990,"Ġwild":4991,"ĠTru":4992,"ĠBul":4993,"ĠBBC":4994,"antly":4995,"gend":4996,"Ġattend":4997,"Ġacad":4998,"Ġentrance":4999,"Ġ1964":5000,"Ġtemple":5001,"Ġbehav":5002,"fficient":5003,"ĠBackground":5004,"Ġdisease":5005,"bitt":5006,"Ġtim":5007,"Ġsought":5008,"ĠTim":5009,"Ġreaching":5010,"Ġhere":5011,"ĠRet":5012,"ĠGood":5013,"ighth":5014,"ĠStone":5015,"Ġyellow":5016,"Ġadvert":5017,"Ġenergy":5018,"ĠLeg":5019,"ĠBridge":5020,"ĠAssembly":5021,"Ġwalls":5022,"Ġsustained":5023,"born":5024,"more":5025,"Ġsand":5026,"Ġwor":5027,"Ġfought":5028,"ishes":5029,"Ġhors":5030,"ĠTint":5031,"adel":5032,"ĠDen":5033,"ĠFey":5034,"ĠGre":5035,"Ġspirit":5036,"ella":5037,"Ġ54":5038,"Ġ57":5039,"Ġ62":5040,"Ġweight":5041,"Ġnewly":5042,"Ġcharge":5043,"Ġlandfall":5044,"Ġgrass":5045,"Ġdebuted":5046,"arrison":5047,"ushing":5048,"Ġpieces":5049,"Ġenvironment":5050,"Ġtarget":5051,"Ġconfirmed":5052,"eg":5053,"Ġwars":5054,"asure":5055,"Ġmaster":5056,"ĠSat":5057,"ilies":5058,"Ġload":5059,"ĠMend":5060,"ĠFox":5061,"ĠLl":5062,"ĠLord":5063,"ĠEnd":5064,"ĠKar":5065,"Ġchosen":5066,"Ġexec":5067,"Ġspot":5068,"Ġsports":5069,"ĠVan":5070,"outs":5071,"Ġmuseum":5072,"Ġemperor":5073,"Ġ1987":5074,"Ġsimply":5075,"Ġwinter":5076,"ĠReception":5077,"Ġreference":5078,"Ġelim":5079,"Ġauthority":5080,"Ġpitched":5081,"Ġpromoted":5082,"Ġletters":5083,"Ġmeasure":5084,"ĠOlympic":5085,"Ġmoment":5086,"Ġdismiss":5087,"onymous":5088,"iate":5089,"mission":5090,"Ġrom":5091,"Ġtact":5092,"Ġmob":5093,"Ġdiam":5094,"ĠSub":5095,"ador":5096,"ĠPublic":5097,"Ġheight":5098,"Ġneut":5099,"Ġ95":5100,"Ġregions":5101,"Ġalbums":5102,"ĠUSA":5103,"Ġreturning":5104,"Ġpasses":5105,"Ġadvanced":5106,"ĠProv":5107,"Ġtwice":5108,"Ġcases":5109,"Ġfunction":5110,"Ġcondition":5111,"Ġburied":5112,"ĠValley":5113,"Ġgranted":5114,"Ġdomestic":5115,"aud":5116,"lings":5117,"uge":5118,"Ġtun":5119,"inet":5120,"Ġsay":5121,"Ġwave":5122,"ĠSarn":5123,"ĠMel":5124,"utenant":5125,"ĠEach":5126,"ĠZhou":5127,"ertain":5128,"ĠIndust":5129,"Ġbrigade":5130,"helm":5131,"heless":5132,"Ġvisited":5133,"Ġplanet":5134,"Ġfreeway":5135,"Ġseems":5136,"Ġinjury":5137,"Ġnominated":5138,"Ġdropped":5139,"Ġeconomic":5140,"Ġdocument":5141,"Ġplatform":5142,"ĠBoston":5143,"ef":5144,"iot":5145,"ya":5146,"rete":5147,"Ġsail":5148,"ĠAD":5149,"ental":5150,"ĠRos":5151,"ĠRome":5152,"ĠFre":5153,"ulate":5154,"ĠEven":5155,"Ġridge":5156,"Ġsend":5157,"ĠUN":5158,"Ġcontaining":5159,"ĠYank":5160,"Ġ600":5161,"Ġremix":5162,"Ġcolor":5163,"Ġtherefore":5164,"azz":5165,"Ġ1984":5166,"Ġstudent":5167,"Ġ1972":5168,"Ġdeliver":5169,"Ġpitcher":5170,"ĠMountain":5171,"urban":5172,"Ġgrowing":5173,"auty":5174,"Ġpoetry":5175,"Ġscholars":5176,"ĠForest":5177,"ĠTintin":5178,"Ã¨":5179,"Ġfear":5180,"Ġfix":5181,"Ġmort":5182,"ola":5183,"ĠNight":5184,"ĠLew":5185,"ĠGra":5186,"ĠGreek":5187,"ocated":5188,"Ġshare":5189,"Ġkg":5190,"ĠOnly":5191,"Ġweather":5192,"Ġactors":5193,"Ġdepth":5194,"Ġ1947":5195,"Ġresults":5196,"ĠBefore":5197,"Ġspeak":5198,"Ġmounted":5199,"Ġmaintained":5200,"Ġflying":5201,"ĠVaranas":5202,"Ġnecessary":5203,"ĠCeres":5204,"Ġmultiple":5205,"ĠAddition":5206,"ĠVaranasi":5207,"de":5208,"mosp":5209,"Ġhor":5210,"olved":5211,"ivity":5212,"ayer":5213,"resp":5214,"ovic":5215,"ipl":5216,"Ġcontent":5217,"Ġserve":5218,"ĠAsia":5219,"Ġfilmed":5220,"Ġopin":5221,"Ġstarts":5222,"Ġstanding":5223,"Ġhistorian":5224,"ĠEva":5225,"Ġlooking":5226,"Ġcouncil":5227,"Ġknowledge":5228,"Ġcurrently":5229,"ĠOdaen":5230,"Ġlabel":5231,"ĠNesbitt":5232,"ĠArgent":5233,"ao":5234,"bl":5235,"Ġbul":5236,"Ġboy":5237,"Ġpict":5238,"ĠMur":5239,"thur":5240,"Ġven":5241,"alls":5242,"ĠUs":5243,"Ġcompr":5244,"Ġ61":5245,"ĠAnth":5246,"Ġexped":5247,"Ġbelong":5248,"Ġguest":5249,"ĠDevelop":5250,"Ġphil":5251,"Ġboat":5252,"ĠTeam":5253,"ĠAmong":5254,"ĠWilliams":5255,"Ġreligion":5256,"Ġvocal":5257,"Ġproblem":5258,"Ġargued":5259,"ĠTorres":5260,"Ġindependent":5261,"Ġcontrolled":5262,"Ġversions":5263,"Ġwebsite":5264,"ĠOdaenathus":5265,"Mont":5266,"TC":5267,"Ġtank":5268,"Ġtanks":5269,"ider":5270,"ĠDream":5271,"ĠGord":5272,"ĠJup":5273,"ĠJourn":5274,"Ġspect":5275,"Ġ72":5276,"Ġassass":5277,"Ġ1989":5278,"Ġ1969":5279,"Ġsupporting":5280,"Ġelement":5281,"Ġsettlement":5282,"ĠDuMont":5283,"Ġanimal":5284,"ĠOffice":5285,"Ġrejected":5286,"ĠSarnia":5287,"ridge":5288,"iner":5289,"edar":5290,"Ġfolk":5291,"Ġham":5292,"enture":5293,"Ġnest":5294,"ĠIron":5295,"iments":5296,"ĠFant":5297,"ĠWork":5298,"ĠGulf":5299,"ĠJon":5300,"umes":5301,"agement":5302,"Ġseg":5303,"iance":5304,"ĠChild":5305,"Ġarrang":5306,"Ġnews":5307,"Ġretired":5308,"Ġwrites":5309,"ĠGuard":5310,"Ġexplained":5311,"Ġmedical":5312,"ĠPerÃ³n":5313,"Ġavoid":5314,"ĠExp":5315,"ĠPalest":5316,"Ġcollabor":5317,"ĠSlam":5318,"ĠPrem":5319,"Ġincreasingly":5320,"Ġtemperature":5321,"Ġfle":5322,"Ġbit":5323,"ĠBir":5324,"oted":5325,"ĠDest":5326,"ĠEll":5327,"Ġrival":5328,"ĠKey":5329,"Ġoverl":5330,"ĠOnce":5331,"Ġ96":5332,"insula":5333,"ĠConference":5334,"ĠConstant":5335,"ĠCarl":5336,"Ġ130":5337,"Ġreflect":5338,"ĠAirport":5339,"ĠMinister":5340,"Ġstrik":5341,"ĠEntertain":5342,"ĠOxford":5343,"ĠThunderbird":5344,"ographer":5345,"pass":5346,"ĠSR":5347,"ĠBan":5348,"Ġge":5349,"Ġrisk":5350,"Ġkakapo":5351,"Ġunique":5352,"Ġ73":5353,"Ġbattalions":5354,"Ġguard":5355,"ĠCongress":5356,"haps":5357,"Ġcadmium":5358,"arian":5359,"stream":5360,"add":5361,"ĠMod":5362,"imore":5363,"ote":5364,"ĠDar":5365,"ĠFA":5366,"Ġring":5367,"Ġresemb":5368,"Ġperfect":5369,"Ġscience":5370,"ĠAlbum":5371,"ĠItaly":5372,"awa":5373,"Ġconsp":5374,"Ġ81":5375,"Ġflag":5376,"Ġsetting":5377,"Ġsingles":5378,"ĠAllied":5379,"Ġprotest":5380,"ancing":5381,"Ġbelieve":5382,"ĠSystem":5383,"Ġconnected":5384,"Ġgrowth":5385,"Ġemployed":5386,"Ġsynt":5387,"ĠScottish":5388,"Ġfailure":5389,"Ġaccompan":5390,"Ġpolicy":5391,"ĠBowl":5392,"Ġweakened":5393,"Ġbasketball":5394,"Ġscheduled":5395,"ĠJupiter":5396,"cel":5397,"met":5398,"och":5399,"Ġáĥ":5400,"heastern":5401,"inity":5402,"Ġfung":5403,"Ġbass":5404,"ĠCa":5405,"ĠCole":5406,"ĠRog":5407,"ĠDom":5408,"ĠDutch":5409,"ĠNorm":5410,"oren":5411,"ĠVen":5412,"Ġherself":5413,"Ġcolony":5414,"Ġends":5415,"Ġsubmar":5416,"Ġincident":5417,"Ġmatter":5418,"Ġfamilies":5419,"Ġcampus":5420,"Ġideas":5421,"Ġentirely":5422,"Ġsubsequent":5423,"ĠHelms":5424,"ĠFamily":5425,"ĠOmaha":5426,"Station":5427,"bo":5428,"eed":5429,"onent":5430,"Ġcust":5431,"Ġdated":5432,"ĠSpr":5433,"ading":5434,"ĠLis":5435,"ifying":5436,"ĠInstitute":5437,"Ġunf":5438,"Ġcompar":5439,"Ġcontained":5440,"Ġcontributed":5441,"izations":5442,"Ġdescend":5443,"Ġ85":5444,"Ġsinging":5445,"Ġfamous":5446,"Ġbelief":5447,"Ġjoin":5448,"Ġsolo":5449,"Ġvalue":5450,"Ġcreating":5451,"Ġwooden":5452,"ĠPlayStation":5453,"ĠWilhelm":5454,"Ġparticipated":5455,"ĠVictoria":5456,"Ġsenior":5457,"oe":5458,"render":5459,"Ġwitness":5460,"itable":5461,"ĠAp":5462,"ĠSky":5463,"aming":5464,"ĠBas":5465,"ĠBishop":5466,"ĠDis":5467,"ĠLine":5468,"Ġanalysis":5469,"Ġrise":5470,"Ġchose":5471,"Ġchair":5472,"ĠStep":5473,"Ġ700":5474,"ocked":5475,"Ġ1981":5476,"Ġopposed":5477,"Ġsignificantly":5478,"Ġliterature":5479,"ĠJeff":5480,"Ġpremi":5481,"Ġbattery":5482,"Ġprepared":5483,"ĠAdmiral":5484,"Ġseventh":5485,"ĠInnis":5486,"Ġbottom":5487,"cers":5488,"eer":5489,"kare":5490,"load":5491,"upp":5492,"rot":5493,"ĠAst":5494,"ĠMong":5495,"ĠMike":5496,"uting":5497,"ĠPress":5498,"ĠRy":5499,"ĠGard":5500,"ĠStan":5501,"Ġunus":5502,"phia":5503,"ressive":5504,"Ġtemnospondyl":5505,"ĠImag":5506,"ĠMcCall":5507,"Ġanimals":5508,"clusion":5509,"Ġfrequently":5510,"Ġsoutheast":5511,"adelphia":5512,"ĠGordon":5513,"MA":5514,"sw":5515,"Ã¶":5516,"Ġaired":5517,"Ġawards":5518,"Ġswe":5519,"stead":5520,"ĠBart":5521,"ĠHart":5522,"ĠRif":5523,"ĠNever":5524,"Ġshaped":5525,"ips":5526,"usted":5527,"ĠChap":5528,"ĠVill":5529,"Ġroof":5530,"issance":5531,"Ġ800":5532,"Ġdefin":5533,"ashion":5534,"Ġdrive":5535,"Ġroads":5536,"Ġcommonly":5537,"Ġpopularity":5538,"ĠLester":5539,"Ġcollege":5540,"Ġlosses":5541,"Ġoccupied":5542,"ĠCardiff":5543,"Ġinnings":5544,"Ġunsu":5545,"ĠBaltimore":5546,"atus":5547,"Ġbud":5548,"Ġmist":5549,"Ġdress":5550,"ĠERA":5551,"aph":5552,"ansas":5553,"Ġtrav":5554,"ulls":5555,"ructure":5556,"Ġ1918":5557,"Ġsouthwest":5558,"Ġsystems":5559,"Ġparalle":5560,"Ġcriticism":5561,"Ġsuccessfully":5562,"ĠMorr":5563,"Ġrecognized":5564,"ĠEgyptian":5565,"Ġproperty":5566,"Ġexperienced":5567,"Ġsupplies":5568,"iable":5569,"jo":5570,"Äĩ":5571,"erts":5572,"Ġfresh":5573,"isers":5574,"Ġreform":5575,"ĠSund":5576,"ĠMov":5577,"lywood":5578,"ety":5579,"ĠRih":5580,"rait":5581,"Ġatmosp":5582,"ĠGi":5583,"ersey":5584,"Ġvirt":5585,"Ġrating":5586,"Ġspring":5587,"Ġagricult":5588,"Ġ98":5589,"Ġremn":5590,"Ġsevere":5591,"Ġminer":5592,"Ġpublication":5593,"Ġserving":5594,"Ġdeaths":5595,"Ġpainting":5596,"ĠImperial":5597,"Ġdeclined":5598,"Ġfacilities":5599,"ĠHamels":5600,"Ġbriefly":5601,"ĠDemocr":5602,"Ġpurchased":5603,"ĠRihanna":5604,"hat":5605,"rig":5606,"set":5607,"zo":5608,"Ġtheory":5609,"Ġselling":5610,"ato":5611,"Ġfict":5612,"Ġpet":5613,"Ġdim":5614,"Ġdates":5615,"ĠAM":5616,"Ġec":5617,"ĠMen":5618,"ĠMas":5619,"lys":5620,"Ġbey":5621,"unicip":5622,"ĠFive":5623,"Ġcomes":5624,"Ġchoice":5625,"Ġ59":5626,"Ġrecently":5627,"ĠAlso":5628,"aret":5629,"wealth":5630,"Ġteacher":5631,"Ġ77":5632,"Ġsecondary":5633,"Ġ1943":5634,"Ġdescription":5635,"Ġ1968":5636,"Ġextensive":5637,"Ġoccas":5638,"Ġeditor":5639,"Ġeffective":5640,"ĠMounted":5641,"Ġpoems":5642,"Ġtechnique":5643,"ĠCoast":5644,"ĠSwed":5645,"ĠPeople":5646,"Ġnegot":5647,"Ġslowly":5648,"Ġregarded":5649,"ĠMartin":5650,"ĠDaniel":5651,"ĠCroatia":5652,"ĠRAAF":5653,"ĠDjed":5654,"ĠRevolution":5655,"ĠBetween":5656,"ibrary":5657,"ĠLieutenant":5658,"ĠEntertainment":5659,"han":5660,"Ġtheat":5661,"Ġcited":5662,"Ġfan":5663,"ano":5664,"iced":5665,"Ġmic":5666,"Ġgas":5667,"Ġgives":5668,"Ġstations":5669,"Ġstages":5670,"ĠRail":5671,"ules":5672,"Ġnotable":5673,"Ġarms":5674,"ube":5675,"Ġ66":5676,"Ġ82":5677,"Ġcollected":5678,"Ġexpanded":5679,"Ġcreation":5680,"Ġ1965":5681,"espread":5682,"Ġturns":5683,"Ġarmor":5684,"Ġfarm":5685,"Ġsteel":5686,"ĠPhiladelphia":5687,"ĠMcCart":5688,"Ġdegree":5689,"Ġaspects":5690,"ĠToday":5691,"ĠSummer":5692,"Ġbeyond":5693,"ĠDjedkare":5694,"iences":5695,"rine":5696,"ycl":5697,"Ġcricket":5698,"Ġfur":5699,"Ġfox":5700,"roph":5701,"ĠHon":5702,"ĠHib":5703,"ĠDun":5704,"Ġisol":5705,"ĠNative":5706,"Ġru":5707,"Ġexecutive":5708,"Ġ71":5709,"Ġfinals":5710,"Ġsimple":5711,"Ġ1939":5712,"Ġprotection":5713,"Ġworldwide":5714,"Ġengaged":5715,"Ġcells":5716,"Ġsemi":5717,"Ġsilver":5718,"ias":5719,"uate":5720,"Ġtall":5721,"inate":5722,"Ġbid":5723,"Ġpul":5724,"Ġdaily":5725,"Ġeth":5726,"ĠBru":5727,"Ġgain":5728,"idges":5729,"ĠLuc":5730,"ager":5731,"Ġrac":5732,"Ġseat":5733,"Ġcoal":5734,"ĠDev":5735,"Ġphase":5736,"ĠAdv":5737,"Ġtrip":5738,"Ġallows":5739,"Ġoldest":5740,"Ġarrival":5741,"Ġcrossing":5742,"Ġpromotion":5743,"ĠGovernor":5744,"white":5745,"Ġtreatment":5746,"Ġbillion":5747,"Ġclean":5748,"ĠArea":5749,"Ġresponded":5750,"Ġunsuccess":5751,"ca":5752,"ez":5753,"fort":5754,"ini":5755,"reets":5756,"itan":5757,"Ġmales":5758,"Ġdrop":5759,"standing":5760,"ĠCD":5761,"ĠCre":5762,"ĠCle":5763,"ĠMic":5764,"ĠMot":5765,"ĠTheatre":5766,"ĠBand":5767,"ĠId":5768,"eton":5769,"imet":5770,"Ġheard":5771,"ĠDown":5772,"rak":5773,"ĠLiber":5774,"aved":5775,"ĠOh":5776,"illo":5777,"ogen":5778,"ieval":5779,"Ġdecades":5780,"iversary":5781,"Ġdistrict":5782,"Ġ1914":5783,"Ġprotect":5784,"Ġparliament":5785,"ĠSteve":5786,"Ġdelay":5787,"Ġfinds":5788,"graded":5789,"Ġimproved":5790,"Ġroughly":5791,"ĠWWE":5792,"Ġmolec":5793,"ĠApplewhite":5794,"Ġhorses":5795,"Ġphilos":5796,"hi":5797,"mit":5798,"Ġi":5799,"rel":5800,"itors":5801,"ĠAthlet":5802,"ĠSAF":5803,"Ġeas":5804,"lying":5805,"ivered":5806,"ĠFu":5807,"ĠFestival":5808,"ĠNBA":5809,"ĠGreg":5810,"ĠJur":5811,"ĠJud":5812,"Ġ94":5813,"Ġfilming":5814,"Ġactress":5815,"Ġaccident":5816,"Ġ1946":5817,"Ġdeveloping":5818,"Ġheaded":5819,"Ġrestaur":5820,"ĠAndy":5821,"Ġplanning":5822,"Ġfinding":5823,"Ġfocused":5824,"ĠBelg":5825,"Ġgradually":5826,"Ġconverted":5827,"ĠThroughout":5828,"ĠCommonwealth":5829,"ĠDevelopment":5830,"Ġbudget":5831,"ĠSAFE":5832,"OT":5833,"rum":5834,"tav":5835,"Ġfat":5836,"arp":5837,"rog":5838,"Ġmo":5839,"Ġdance":5840,"ĠTen":5841,"ĠHung":5842,"ĠRel":5843,"ĠRod":5844,"ĠDod":5845,"ĠDomin":5846,"ĠLu":5847,"ĠObs":5848,"aka":5849,"ĠVideo":5850,"Ġarc":5851,"Ġintelligence":5852,"assy":5853,"ĠAlf":5854,"Ġcenturies":5855,"Ġcool":5856,"Ġ110":5857,"Ġ177":5858,"Ġ1971":5859,"Ġgovernor":5860,"ĠProduction":5861,"Ġclassified":5862,"Ġturning":5863,"Ġexplos":5864,"Ġsteam":5865,"Ġwidespread":5866,"ÃŃa":5867,"Ġvolunte":5868,"Ġexisting":5869,"Ġcommissioned":5870,"Ġstopped":5871,"Le":5872,"lines":5873,"Ġtail":5874,"Ġaim":5875,"inj":5876,"eratops":5877,"Ġouter":5878,"ati":5879,"esh":5880,"ĠCold":5881,"Ġnor":5882,"urches":5883,"Ġstreet":5884,"ĠWind":5885,"anda":5886,"ava":5887,"ifically":5888,"Ġarran":5889,"phib":5890,"Ġprefer":5891,"Ġneither":5892,"icted":5893,"Ġproducers":5894,"Ġreceiving":5895,"Ġconcrete":5896,"ĠBroad":5897,"Ġdelivered":5898,"ĠBarb":5899,"Ġeyes":5900,"Ġbegun":5901,"Ġburns":5902,"Ġcolonial":5903,"SB":5904,"cop":5905,"cription":5906,"ym":5907,"Ġton":5908,"Ġsave":5909,"Ġcraft":5910,"Ġdial":5911,"Ġegg":5912,"Ġstret":5913,"rier":5914,"Ġdeities":5915,"Ġnote":5916,"Ġcontrib":5917,"Ġoverse":5918,"ropol":5919,"Ġundert":5920,"Ġsole":5921,"ifications":5922,"Ġ1975":5923,"ĠWhat":5924,"ĠBrig":5925,"Ġfinish":5926,"ĠProject":5927,"Ġcapable":5928,"Ġbreeding":5929,"ĠBarrow":5930,"Ġfemales":5931,"Ġvolume":5932,"Ġnegative":5933,"Ġdominated":5934,"ĠUpon":5935,"Ġsculpture":5936,"ĠLewis":5937,"iations":5938,"yles":5939,"Ġice":5940,"Ġfellow":5941,"ĠMu":5942,"ĠMir":5943,"Ġgreen":5944,"ĠRow":5945,"ĠNathan":5946,"ĠJac":5947,"Ġpros":5948,"Ġexclus":5949,"ĠUB":5950,"Ġresident":5951,"Ġreserv":5952,"weight":5953,"Ġsubt":5954,"Ġexpress":5955,"Ġdistingu":5956,"Ġanything":5957,"Ġlasted":5958,"Ġvisual":5959,"Ġdrawn":5960,"Ġintroduction":5961,"ĠKeats":5962,"ĠMagazine":5963,"Ġescape":5964,"Ġindependence":5965,"ĠCambod":5966,"Ġvehicles":5967,"Ġaccompanied":5968,"kins":5969,"Ã¤":5970,"Ġtend":5971,"Ġtrying":5972,"rell":5973,"ingly":5974,"iling":5975,"Ġneck":5976,"ĠBase":5977,"ĠBoard":5978,"ĠHor":5979,"ĠRon":5980,"ĠFriend":5981,"andy":5982,"Ġrit":5983,"ections":5984,"sea":5985,"Ġcomputer":5986,"rence":5987,"ropri":5988,"Ġdecre":5989,"Ġcharges":5990,"amese":5991,"Ġadding":5992,"Ġ160":5993,"ĠConst":5994,"restling":5995,"Ġagreement":5996,"Ġholding":5997,"ĠCardinal":5998,"Ġadapted":5999,"Ġnormal":6000,"ĠDougl":6001,"Ġpaintings":6002,"Ġtree":6003,"erc":6004,"Ġfuel":6005,"Ġbought":6006,"Ġmig":6007,"Ġdata":6008,"Ġhired":6009,"ĠCook":6010,"utation":6011,"ĠPers":6012,"ewhere":6013,"essed":6014,"Ġnothing":6015,"Ġrose":6016,"angers":6017,"ilding":6018,"ĠMario":6019,"Ġ1966":6020,"Ġopera":6021,"Ġstrateg":6022,"Ġserves":6023,"Ġpossibility":6024,"Ġhumans":6025,"Ġviewed":6026,"ographic":6027,"Ġcombination":6028,"Ġsurviv":6029,"Ġsurvey":6030,"Ġcrossed":6031,"Ġencoura":6032,"Ġrebu":6033,"Ġviolence":6034,"Ġtells":6035,"Ġfictional":6036,"come":6037,"Ġtrou":6038,"Ġfaith":6039,"isy":6040,"Ġlabor":6041,"ĠHan":6042,"ĠHard":6043,"ĠWall":6044,"ĠLy":6045,"ĠLow":6046,"istan":6047,"ighter":6048,"ĠChart":6049,"Ġcomposition":6050,"Ġ69":6051,"Ġ87":6052,"icks":6053,"Ġunderground":6054,"Ġacres":6055,"Ġtrain":6056,"Ġ164":6057,"Ġ1945":6058,"Ġdisturb":6059,"ĠColor":6060,"ĠJuan":6061,"Ġ1916":6062,"Ġcaptain":6063,"ĠAbu":6064,"Ġimportance":6065,"Ġsurvived":6066,"Ġglob":6067,"ĠCrown":6068,"Ġclosely":6069,"Ġexistence":6070,"borough":6071,"Ġreasons":6072,"Ġcalc":6073,"ĠVietnamese":6074,"Ġrif":6075,"Ġlearned":6076,"ĠColonel":6077,"respond":6078,"aver":6079,"aire":6080,"then":6081,"Ġcem":6082,"ĠSus":6083,"Ġthing":6084,"Ġstream":6085,"ĠNH":6086,"ĠLate":6087,"opher":6088,"abil":6089,"rupt":6090,"Ġresist":6091,"Ġperhaps":6092,"Ġconsists":6093,"Ġdecline":6094,"ĠMarc":6095,"Ġsubstant":6096,"Ġ1973":6097,"Ġ1967":6098,"Ġcarry":6099,"Ġinstruct":6100,"Ġprovides":6101,"Ġowners":6102,"Ġ1915":6103,"Ġinvolvement":6104,"ĠSongs":6105,"Ġcastle":6106,"ĠIslands":6107,"ĠWalter":6108,"Ġsections":6109,"Ġintersection":6110,"Ġ#":6111,"Ġaer":6112,"erted":6113,"Ġwins":6114,"Ġopt":6115,"ĠAri":6116,"ĠSound":6117,"ĠCub":6118,"ĠBor":6119,"ĠIG":6120,"iration":6121,"irls":6122,"ĠDet":6123,"uli":6124,"illing":6125,"ĠInstead":6126,"ĠKersh":6127,"Ġchorus":6128,"ĠUTC":6129,"Ġroutes":6130,"Ġagent":6131,"Ġdecor":6132,"ĠArthur":6133,"Ġdefined":6134,"Ġsubs":6135,"ĠLee":6136,"Ġmush":6137,"ĠJoe":6138,"Ġdoor":6139,"Ġemp":6140,"Ġperforming":6141,"Ġ1974":6142,"Ġdidn":6143,"Ġairport":6144,"ĠCommittee":6145,"Ġdetails":6146,"ĠPho":6147,"Ġcommanded":6148,"Ġstoryline":6149,"Ġprograms":6150,"Ġcougar":6151,"Ġhousehold":6152,"Ġaccompl":6153,"Ġmissing":6154,"ĠCommander":6155,"ĠStudios":6156,"Ġshooting":6157,"Ġnucleus":6158,"Ġenjoyed":6159,"sych":6160,"chen":6161,"hm":6162,"Ġster":6163,"arm":6164,"Ġbats":6165,"Ġhill":6166,"ĠType":6167,"ĠRay":6168,"eman":6169,"Ġwhy":6170,"ĠNap":6171,"Ġitems":6172,"sey":6173,"Ġenl":6174,"Ġ63":6175,"ooking":6176,"Ġtransform":6177,"Ġlongest":6178,"Ġ1978":6179,"Ġlanded":6180,"Ġ1952":6181,"Ġ1919":6182,"Ġevening":6183,"Ġsurviving":6184,"Ġlaws":6185,"Ġmassive":6186,"ĠBraz":6187,"Ġruled":6188,"Ġarchaeological":6189,"hetic":6190,"onnaissance":6191,"Ġconsisting":6192,"Ġdrama":6193,"Ġpurpose":6194,"ĠFrancisc":6195,"Ġathletes":6196,"Ġrepeated":6197,"ĠMendes":6198,"Ġtemnospondyls":6199,"ĠDouglas":6200,"ĠKershaw":6201,"AA":6202,"war":6203,"Å¡":6204,"Ġsle":6205,"Ġsom":6206,"Ġways":6207,"itiz":6208,"Ġcaught":6209,"Ġfirm":6210,"Ġfashion":6211,"ĠSnow":6212,"acity":6213,"ĠHaven":6214,"ĠRidge":6215,"ĠWin":6216,"ĠKenn":6217,"ĠStadium":6218,"Ġleaves":6219,"Ġattached":6220,"Ġdecade":6221,"ĠMarines":6222,"Ġinterior":6223,"Ġinterchange":6224,"Ġcalls":6225,"Ġ1976":6226,"Ġ250":6227,"Ġviews":6228,"Ġpropos":6229,"Ġislands":6230,"Ġcorrespond":6231,"Ġearthqu":6232,"Ġdeployed":6233,"Ġsynthes":6234,"gers":6235,"vis":6236,"Ġtomb":6237,"Ġmemorial":6238,"Ġdrew":6239,"ĠAer":6240,"entially":6241,"Ġlane":6242,"ĠBaby":6243,"imeter":6244,"Ġbeach":6245,"ĠRol":6246,"ĠRick":6247,"uma":6248,"iful":6249,"Ġcontest":6250,"Ġassemb":6251,"Ġ175":6252,"Ġmoder":6253,"Ġsentence":6254,"Ġmyth":6255,"Ġsettlers":6256,"Ġrenamed":6257,"Ġpenal":6258,"Ġsector":6259,"ĠSurv":6260,"Ġpilot":6261,"ĠSpecial":6262,"Ġopportunity":6263,"Ġdissipated":6264,"ĠTurkish":6265,"Ġpermanent":6266,"Äģda":6267,"ĠShortly":6268,"ĠThunderbirds":6269,"lik":6270,"à¸":6271,"Ġcateg":6272,"icop":6273,"ĠChel":6274,"amin":6275,"etery":6276,"iminal":6277,"ĠFree":6278,"ĠNick":6279,"iston":6280,"Ġrural":6281,"Ġselect":6282,"apes":6283,"iege":6284,"Ġreconst":6285,"achus":6286,"Ġ68":6287,"Ġsecure":6288,"ĠMarsh":6289,"ĠArts":6290,"Ġmoves":6291,"hess":6292,"Ġpopulations":6293,"Ġ1979":6294,"ĠConn":6295,"ĠSpace":6296,"Ġ1917":6297,"Ġ1936":6298,"Ġopposition":6299,"Ġtowns":6300,"ĠBoise":6301,"Ġdigital":6302,"Ġsymbol":6303,"edding":6304,"ĠPremier":6305,"Ġconspir":6306,"ii":6307,"la":6308,"yson":6309,"eda":6310,"Ġfilled":6311,"Ġha":6312,"Ġones":6313,"ĠBern":6314,"otes":6315,"Ġstore":6316,"ĠRox":6317,"ĠLife":6318,"osa":6319,"Ġsufficient":6320,"Ġcho":6321,"Ġchurches":6322,"elli":6323,"ĠChief":6324,"ĠAlbert":6325,"Ġimpr":6326,"Ġcommittee":6327,"iously":6328,"Ġknew":6329,"ĠLeon":6330,"Ġsupposed":6331,"Ġlocations":6332,"Ġinvited":6333,"Ġexpans":6334,"Ġproviding":6335,"Ġprotagon":6336,"Ġconvection":6337,"Ġskin":6338,"Ġassociation":6339,"Ġmissions":6340,"ĠEmperor":6341,"ĠGolden":6342,"Ġestablishment":6343,"Ġjourney":6344,"Ġderived":6345,"Ġadministration":6346,"Ġbenef":6347,"ĠCrazy":6348,"ĠAdditionally":6349,"RE":6350,"rist":6351,"Ġsun":6352,"Ġsort":6353,"Ġbranch":6354,"Ġdry":6355,"elve":6356,"uration":6357,"ĠBly":6358,"ĠBeck":6359,"iders":6360,"usal":6361,"Ġconference":6362,"ĠGab":6363,"Ġshared":6364,"Ġyouth":6365,"okes":6366,"ĠYe":6367,"ĠAnton":6368,"Ġknots":6369,"ublin":6370,"ĠScience":6371,"Ġsurrender":6372,"Ġ1982":6373,"Ġ1948":6374,"Ġarticle":6375,"Ġobt":6376,"ĠIsab":6377,"Ġfinishing":6378,"ipping":6379,"Ġreplace":6380,"Ġreplacement":6381,"Ġgreatly":6382,"ĠWithin":6383,"ĠAbout":6384,"Ġspeaking":6385,"Ġclubs":6386,"idden":6387,"Ġcoastal":6388,"Ġregarding":6389,"ĠHollywood":6390,"Ġeconomy":6391,"Ġdepicted":6392,"Ġapplied":6393,"Ġdynasty":6394,"ĠBono":6395,"Ġsucceeded":6396,"ĠDirector":6397,"Ġhydro":6398,"Ġign":6399,"Ġtied":6400,"Ġtable":6401,"err":6402,"Ġsan":6403,"Ġfer":6404,"Ġfil":6405,"Ġbat":6406,"Ġdating":6407,"ĠAge":6408,"ĠSor":6409,"ĠSanta":6410,"ilton":6411,"stances":6412,"Ġla":6413,"acon":6414,"ĠMid":6415,"ĠMTV":6416,"ĠJay":6417,"ĠJones":6418,"ĠOffic":6419,"Ġspons":6420,"apers":6421,"Ġjoint":6422,"aws":6423,"Ġdeck":6424,"Ġvert":6425,"Ġproducing":6426,"Ġsoft":6427,"Ġsuccessor":6428,"Ġantimony":6429,"Ġhistoric":6430,"regon":6431,"Ġglass":6432,"Ġcertified":6433,"chers":6434,"Ġzone":6435,"Ġmotion":6436,"Ġremainder":6437,"ĠMilitary":6438,"ĠRadio":6439,"Ġconsiderable":6440,"Ġacquired":6441,"ĠAttorney":6442,"ĠDoctor":6443,"ĠColorado":6444,"ĠBrazil":6445,"AG":6446,"ture":6447,"Ġurban":6448,"Ġcrop":6449,"Ġhyp":6450,"ĠSi":6451,"eld":6452,"omp":6453,"ĠIra":6454,"ĠDublin":6455,"ĠJain":6456,"agre":6457,"ĠOregon":6458,"ĠKang":6459,"Ġchampion":6460,"Ġexact":6461,"pty":6462,"ĠVol":6463,"assador":6464,"mann":6465,"ĠMaria":6466,"Ġunderw":6467,"Ġflu":6468,"Ġentering":6469,"anny":6470,"Ġreceive":6471,"Ġ1963":6472,"Ġhelicop":6473,"Ġcourts":6474,"engers":6475,"Ġhistorians":6476,"ĠSimilar":6477,"Ġfavour":6478,"ĠButler":6479,"Ġbaseball":6480,"Ġassistance":6481,"Ġchapel":6482,"Ġconcerns":6483,"Ã¡nh":6484,"ĠCharlie":6485,"ĠAnthony":6486,"ĠSunday":6487,"ĠIGN":6488,"ĠBlythe":6489,"SA":6490,"eor":6491,"host":6492,"Ġaware":6493,"Ġmut":6494,"ĠCop":6495,"ĠML":6496,"ĠBert":6497,"ĠBrian":6498,"ĠIgu":6499,"idae":6500,"ĠHin":6501,"Ġstem":6502,"ĠFire":6503,"opes":6504,"ichol":6505,"Ġchance":6506,"Ġunp":6507,"Ġarts":6508,"Ġ58":6509,"Ġcommit":6510,"Ġ78":6511,"Ġshel":6512,"attle":6513,"Ġtruth":6514,"Ġprotected":6515,"Ġiniti":6516,"Ġspeech":6517,"imental":6518,"sequently":6519,"ĠEvita":6520,"Ġtechnical":6521,"Ġtechnology":6522,"Ġgetting":6523,"Ġ1890":6524,"Ġfunding":6525,"ĠHoward":6526,"ĠCroatian":6527,"ranean":6528,"ba":6529,"break":6530,"die":6531,"theless":6532,"rets":6533,"Ġod":6534,"itled":6535,"Ġcold":6536,"Ġdru":6537,"ĠHell":6538,"ĠLenn":6539,"ĠGram":6540,"ĠJes":6541,"Ġcomic":6542,"Ġvon":6543,"Ġrub":6544,"Ġplum":6545,"Ġlegend":6546,"Ġcloud":6547,"Ġreserve":6548,"Ġrob":6549,"Ġteeth":6550,"Ġ74":6551,"ribed":6552,"Ġflights":6553,"Ġcolour":6554,"Ġverte":6555,"Ġacid":6556,"Ġtransit":6557,"Ġgoes":6558,"Ġattacking":6559,"Ġtries":6560,"Ġauthors":6561,"ĠMacLe":6562,"ĠKhÃ¡nh":6563,"ĠTransport":6564,"ĠJamal":6565,"Ġarranged":6566,"rant":6567,"ĠÎ":6568,"edom":6569,"Ġdog":6570,"entions":6571,"ĠCorn":6572,"Ġlob":6573,"eless":6574,"ĠHit":6575,"ĠPoint":6576,"Ġaltar":6577,"Ġvic":6578,"Ġsud":6579,"pton":6580,"ells":6581,"ĠHeavy":6582,"Ġresour":6583,"ĠAlan":6584,"ibbe":6585,"aware":6586,"Ġ91":6587,"Ġ89":6588,"Ġmeets":6589,"ĠSha":6590,"Ġfoundation":6591,"Ġdowntown":6592,"Ġdownload":6593,"Ġ1953":6594,"Ġcharacteristics":6595,"ĠPhill":6596,"encies":6597,"Ġwatched":6598,"Ġcorrect":6599,"Ġliterary":6600,"Ġdenied":6601,"Ġancest":6602,"Ġcontroversy":6603,"ĠTennyson":6604,"ĠAlexander":6605,"ĠLiu":6606,"ĠFreder":6607,"Ġoccasionally":6608,"Ġopinion":6609,"ĠStephen":6610,"pson":6611,"Ġtyphoon":6612,"Ġcab":6613,"Ġfair":6614,"Ġfiring":6615,"Ġdub":6616,"Ġhat":6617,"ĠTop":6618,"amy":6619,"ĠIV":6620,"ĠHomer":6621,"ĠRun":6622,"Ġcong":6623,"rake":6624,"ĠGA":6625,"agle":6626,"Ġrich":6627,"Ġchannel":6628,"ears":6629,"ĠAli":6630,"ĠMarl":6631,"Ġshowing":6632,"Ġ1913":6633,"Ġcapacity":6634,"Ġtypical":6635,"Ġterminus":6636,"ivalent":6637,"Ġpolitics":6638,"Ġpitch":6639,"Ġvalley":6640,"Ġstrengthen":6641,"Ġchapter":6642,"Ġimmig":6643,"Ġexamples":6644,"Ġdollar":6645,"Ġpowers":6646,"Ġsplit":6647,"borne":6648,"ĠIraq":6649,"nest":6650,"Ġtal":6651,"Ġmine":6652,"ĠAk":6653,"state":6654,"adow":6655,"ĠBi":6656,"ĠWars":6657,"ĠWalk":6658,"osis":6659,"Ġ1900":6660,"agn":6661,"ĠIng":6662,"Ġexerc":6663,"onder":6664,"Ġjack":6665,"Ġcommemor":6666,"Ġdepartment":6667,"Ġreputation":6668,"Ġgeneration":6669,"Ġreferences":6670,"Ġeverything":6671,"Ġfields":6672,"ĠSimon":6673,"ĠSimone":6674,"iece":6675,"Ġfacing":6676,"Ġ1880":6677,"Ġcircum":6678,"Ġlaunch":6679,"Ġresponsibility":6680,"Ġmotor":6681,"Ġmaintain":6682,"Ġextrem":6683,"Ġsafety":6684,"Ġinhabit":6685,"Ġhabitat":6686,"ĠColumbia":6687,"Ġportrayed":6688,"ĠSpring":6689,"ĠIguan":6690,"ban":6691,"min":6692,"oly":6693,"ta":6694,"Ġcorp":6695,"Ġpy":6696,"Ġdin":6697,"Ġhits":6698,"ĠTam":6699,"adal":6700,"ĠRem":6701,"ĠRoy":6702,"ĠLoren":6703,"Ġvary":6704,"ĠInc":6705,"ardo":6706,"Ġnoting":6707,"Ġoffers":6708,"Ġattributed":6709,"Ġgameplay":6710,"Ġretreat":6711,"Ġsomeone":6712,"Ġquite":6713,"Ġspecifically":6714,"Ġaddress":6715,"Ġ176":6716,"ĠCaribbe":6717,"Ġdetail":6718,"Ġcrime":6719,"Ġsolid":6720,"Ġdestroyers":6721,"Ġdiscovery":6722,"Ġrevolution":6723,"Ġindustrial":6724,"Ġembassy":6725,"Ġmeasures":6726,"ĠDepression":6727,"Ġcredited":6728,"Ġrecovered":6729,"Ġthousands":6730,"Ġinstrument":6731,"ĠModern":6732,"ĠMacLeod":6733,"eenth":6734,"iÄĩ":6735,"mod":6736,"Ġsquad":6737,"Ġworth":6738,"Ġcrown":6739,"ĠTs":6740,"ĠTetr":6741,"ĠSav":6742,"ĠSquare":6743,"ĠCas":6744,"Ġlov":6745,"ĠBat":6746,"Ġgross":6747,"ĠHun":6748,"ĠHere":6749,"ussion":6750,"ĠNether":6751,"ĠGil":6752,"estone":6753,"allow":6754,"Ġplants":6755,"ĠUlys":6756,"Ġshut":6757,"ĠStew":6758,"ĠChains":6759,"Ġju":6760,"intend":6761,"Ġwealth":6762,"raltar":6763,"Ġflo":6764,"Ġaccur":6765,"aza":6766,"Ġ1949":6767,"Ġcontinuing":6768,"Ġleads":6769,"Ġcarrying":6770,"Ġoccurs":6771,"Ġ1951":6772,"Ġ1956":6773,"Ġwindow":6774,"ĠBrook":6775,"ĠPerry":6776,"Ġpatron":6777,"Ġcompetitions":6778,"Äģn":6779,"Ġrecognition":6780,"Ġseparated":6781,"going":6782,"Ġdiscussed":6783,"ĠHoly":6784,"Ġvessels":6785,"Ġyounger":6786,"ĠSecretary":6787,"ĠGibraltar":6788,"Ġworst":6789,"unicipal":6790,"ĠCaribbean":6791,"ĠUlysses":6792,"eper":6793,"ients":6794,"know":6795,"ns":6796,"tty":6797,"Ġcard":6798,"Ġfranch":6799,"Ġbal":6800,"Ġinner":6801,"Ġpsych":6802,"ĠAy":6803,"Ġlit":6804,"amber":6805,"ĠMaster":6806,"ĠHospital":6807,"ĠDaily":6808,"ceived":6809,"ĠJersey":6810,"agu":6811,"agues":6812,"avia":6813,"ĠEdu":6814,"Ġshore":6815,"Ġcommitted":6816,"Ġ79":6817,"Ġpool":6818,"Ġflat":6819,"Ġ123":6820,"Ġstudied":6821,"Ġdescribing":6822,"Ġapproached":6823,"Ġopponents":6824,"Ġerected":6825,"Ġdifficulty":6826,"ĠDuke":6827,"Ġpredecess":6828,"iffe":6829,"Ġrules":6830,"Ġveget":6831,"ĠMoz":6832,"Ġindicate":6833,"ĠArchae":6834,"ĠSenate":6835,"ĠCritical":6836,"Ġconstitution":6837,"ĠHistoric":6838,"Ġdismissed":6839,"Ġearthquake":6840,"Ġpenalty":6841,"oh":6842,"rations":6843,"ÅĤ":6844,"Ġfit":6845,"ician":6846,"ĠAround":6847,"ĠAston":6848,"Ġthin":6849,"Ġeighth":6850,"ĠMah":6851,"ĠImp":6852,"ivals":6853,"ĠPerson":6854,"ĠPagan":6855,"ĠRio":6856,"aked":6857,"ĠStory":6858,"ĠStarr":6859,"ĠChan":6860,"ountain":6861,"Ġaftern":6862,"Ġ67":6863,"ĠAnonymous":6864,"Ġ88":6865,"Ġamphib":6866,"Ġaccused":6867,"ĠShow":6868,"Ġ1983":6869,"Ġdesignation":6870,"ossible":6871,"inking":6872,"erva":6873,"Ġwinner":6874,"ĠForces":6875,"Ġattempting":6876,"Ġorganizations":6877,"Ġbasin":6878,"Ġbasic":6879,"Ġdemol":6880,"Ġconvoy":6881,"ĠRecording":6882,"Ġcrosses":6883,"Ġhosted":6884,"Ġcreator":6885,"Ġbrothers":6886,"ĠOde":6887,"Ġapart":6888,"ĠCampb":6889,"ĠOlympics":6890,"Ġmethods":6891,"ĠGeorgian":6892,"Ġpicked":6893,"Ġastron":6894,"Ġrecommended":6895,"Ġrhyth":6896,"Ġduties":6897,"ĠHornung":6898,"Ġceremony":6899,"Ġacademic":6900,"Ġsudden":6901,"var":6902,"zz":6903,"rec":6904,"orer":6905,"Ġfant":6906,"Ġhang":6907,"Ġlic":6908,"aments":6909,"ĠMemorial":6910,"othes":6911,"ĠWy":6912,"ĠLess":6913,"aga":6914,"istol":6915,"Ġvan":6916,"Ġunn":6917,"ender":6918,"Ġdesire":6919,"Ġmanner":6920,"Ġsecured":6921,"oba":6922,"Ġretained":6923,"Ġregime":6924,"Ġ112":6925,"Ġ1961":6926,"Ġappearing":6927,"Ġcamps":6928,"Ġstarred":6929,"Ġbelieves":6930,"ĠTelevision":6931,"Ġstrongly":6932,"Ġreality":6933,"Ġstatement":6934,"ĠSimps":6935,"Ġdivisions":6936,"Ġcharts":6937,"Ġinterested":6938,"ĠTownship":6939,"Ġmissed":6940,"stitution":6941,"Ġfrig":6942,"Ġblocks":6943,"Ġexception":6944,"Ġfavorite":6945,"Ġemerged":6946,"Ġdollars":6947,"Ġchallenge":6948,"Ġbattleships":6949,"Ġleadership":6950,"ĠFantasy":6951,"Ġatmosphere":6952,"ĠAML":6953,"Ġisolated":6954,"Ġphilosoph":6955,"ĠFrancisco":6956,"ĠChelsea":6957,"Ġextremely":6958,"ĠSimpsons":6959,"gÃ©":6960,"key":6961,"nic":6962,"nell":6963,"ooth":6964,"Ġwedding":6965,"aton":6966,"orters":6967,"Ġinland":6968,"inger":6969,"ĠCru":6970,"Ġgal":6971,"igation":6972,"Ġstones":6973,"ĠDota":6974,"ĠFame":6975,"Ġalleg":6976,"Ġconqu":6977,"ĠGore":6978,"rif":6979,"oca":6980,"ĠKurt":6981,"ensus":6982,"Ġoutf":6983,"Ġpregn":6984,"Ġhighlight":6985,"Ġoperating":6986,"Ġprovince":6987,"Ġadvis":6988,"Ġbreaking":6989,"ĠOrgan":6990,"ĠOrder":6991,"ĠAmb":6992,"Ġstands":6993,"Ġconvin":6994,"Ġequipped":6995,"Ġholds":6996,"Ġsuperior":6997,"Ġintensified":6998,"Ġaccounts":6999,"Ġtribes":7000,"Ġassistant":7001,"ĠPatrick":7002,"ĠCambridge":7003,"Ġrarely":7004,"Ġprincipal":7005,"Ġironclads":7006,"Ġthirty":7007,"Ġdiameter":7008,"Ġunusual":7009,"Ġparallel":7010,"ĠPhoen":7011,"ĠTetrarch":7012,"Ġafternoon":7013,"VN":7014,"aft":7015,"cement":7016,"pret":7017,"zen":7018,"ĪĴ":7019,"organ":7020,"Ġfal":7021,"Ġfish":7022,"Ġbes":7023,"Ġble":7024,"ĠAld":7025,"elly":7026,"Ġeu":7027,"uri":7028,"aya":7029,"ĠPatt":7030,"ĠDi":7031,"ĠDisc":7032,"ĠDesc":7033,"ĠJenn":7034,"ĠEc":7035,"ĠElect":7036,"ĠKat":7037,"ĠKil":7038,"ĠâĪĴ":7039,"Ġshif":7040,"Ġshots":7041,"ĠStation":7042,"Ġintention":7043,"Ġoverw":7044,"Ġprey":7045,"Ġteaching":7046,"Ġdefended":7047,"Ġregional":7048,"Ġdoct":7049,"Ġcarved":7050,"Ġpassage":7051,"ĠPlot":7052,"Ġanniversary":7053,"Ġ1910":7054,"Ġreviewer":7055,"ĠPrime":7056,"Ġcovers":7057,"Ġcriminal":7058,"ĠTrack":7059,"Ġvictims":7060,"ĠRomani":7061,"ĠMountains":7062,"ĠHaiti":7063,"ĠHamilton":7064,"ĠMadonna":7065,"Ġnomination":7066,"ĠMaeda":7067,"Ġforests":7068,"ĠEngineer":7069,"ĠWriting":7070,"iplom":7071,"Ġexpedition":7072,"ĠConstantine":7073,"ĠHibari":7074,"Ġobtained":7075,"ĠHindu":7076,"LI":7077,"gie":7078,"ois":7079,"ruli":7080,"wise":7081,"yard":7082,"Ġtheatre":7083,"real":7084,"atures":7085,"ori":7086,"anth":7087,"Ġbond":7088,"Ġbaby":7089,"Ġpushed":7090,"Ġpuzz":7091,"Ġdie":7092,"ĠSports":7093,"ĠCam":7094,"oming":7095,"Ġnob":7096,"acent":7097,"Ġgall":7098,"ĠRÃ©":7099,"ĠRangers":7100,"ĠNC":7101,"ĠGang":7102,"Ġvision":7103,"ateur":7104,"ables":7105,"abled":7106,"earch":7107,"Ġspacing":7108,"oked":7109,"Ġpartly":7110,"Ġ99":7111,"ockey":7112,"Ġretire":7113,"Ġverse":7114,"Ġentry":7115,"Ġsym":7116,"Ġtransition":7117,"Ġpassengers":7118,"ception":7119,"ĠBeach":7120,"ĠQedar":7121,"Ġclasses":7122,"Ġapproved":7123,"Ġvisible":7124,"Ġmedieval":7125,"attered":7126,"istered":7127,"Ġwatch":7128,"Ġseeing":7129,"Ġsettle":7130,"Ġimprove":7131,"ĠQueens":7132,"Ġimmediate":7133,"glades":7134,"Ġattracted":7135,"senal":7136,"evo":7137,"ĠPeninsula":7138,"ĠMassachus":7139,"ĠIndustry":7140,"ĠVenus":7141,"Ġremnants":7142,"ĠFriends":7143,"ĠMassachusetts":7144,"body":7145,"cape":7146,"ext":7147,"point":7148,"Ġic":7149,"Ġsession":7150,"Ġwick":7151,"Ġfitted":7152,"Ġmart":7153,"lete":7154,"ĠTrib":7155,"ĠCape":7156,"ĠPot":7157,"ĠFront":7158,"osure":7159,"Ġproceed":7160,"ĠChronic":7161,"ogether":7162,"Ġreconnaissance":7163,"ultane":7164,"Ġparties":7165,"ĠUnlike":7166,"Ġdefences":7167,"Ġwhereas":7168,"Ġincome":7169,"Ġindig":7170,"Ġ1977":7171,"Ã©t":7172,"quez":7173,"ĠAbb":7174,"Ġtwelve":7175,"Ġelectric":7176,"ĠEliz":7177,"Ġequal":7178,"Ġadmitted":7179,"ucky":7180,"ĠRepublican":7181,"ĠOslo":7182,"ĠSingles":7183,"Ġhotel":7184,"ĠIndependent":7185,"Ġironclad":7186,"ĠWeekly":7187,"ĠRoger":7188,"Ġsurvivors":7189,"ĠIguanodon":7190,"FC":7191,"aug":7192,"fare":7193,"lan":7194,"math":7195,"pective":7196,"worth":7197,"Ġsed":7198,"isis":7199,"ĠTu":7200,"ĠCB":7201,"ĠChen":7202,"amar":7203,"Ġnav":7204,"Ġnone":7205,"Ġgather":7206,"ima":7207,"imal":7208,"Ġconvers":7209,"ewhat":7210,"anti":7211,"ocal":7212,"Ġplain":7213,"acked":7214,"cles":7215,"cliffe":7216,"Ġoffense":7217,"Ġupd":7218,"ĠAsh":7219,"Ġacknow":7220,"Ġ05":7221,"Ġ06":7222,"Ġpublisher":7223,"Ġdistribution":7224,"Ġreturns":7225,"Ġ1955":7226,"Ġ1937":7227,"aurus":7228,"Ġdriving":7229,"Ġcommunities":7230,"iterranean":7231,"Ġpainted":7232,"Ġpromote":7233,"Ġconnection":7234,"Ġsuffering":7235,"Ġfalling":7236,"ĠMediterranean":7237,"Ġcivilian":7238,"Ġseemed":7239,"Ġwithdrew":7240,"Ġcompletion":7241,"ASA":7242,"Ġfeeling":7243,"ĠHotel":7244,"ĠSamuel":7245,"ĠBradford":7246,"Ġrescue":7247,"Ġarrested":7248,"Ġutil":7249,"Ġarrangement":7250,"ĠMongol":7251,"ĠRolling":7252,"Ġexpansion":7253,"ĠFrederick":7254,"OC":7255,"bur":7256,"rast":7257,"va":7258,"wa":7259,"onica":7260,"Ġcul":7261,"Ġcart":7262,"Ġcinem":7263,"Ġbrick":7264,"eline":7265,"Ġninth":7266,"ĠMain":7267,"urrent":7268,"ĠHug":7269,"uses":7270,"ĠPict":7271,"verse":7272,"ĠDNA":7273,"ĠFish":7274,"ĠGully":7275,"Ġvac":7276,"Ġvide":7277,"Ġraces":7278,"Ġrugby":7279,"ĠInit":7280,"abeth":7281,"angerous":7282,"Ġpreced":7283,"ĠAnc":7284,"Ġshear":7285,"Ġcharter":7286,"Ġfollowers":7287,"Ġindicated":7288,"Ġ07":7289,"Ġdepos":7290,"Ġsigning":7291,"Ġcarbon":7292,"Ġwarm":7293,"Ġimplement":7294,"ĠDeath":7295,"Ġoppos":7296,"Ġlegs":7297,"Ġcloser":7298,"Ġregularly":7299,"Ġframe":7300,"Ġthreatened":7301,"ĠMaryland":7302,"ĠMontana":7303,"ĠTerrit":7304,"ĠEverglades":7305,"ĠJerusal":7306,"Ġdrums":7307,"ĠHuman":7308,"Ġemotional":7309,"Ġspecimens":7310,"ĠMorrison":7311,"Ġmushroom":7312,"ĠRoxas":7313,"ĠLorenzo":7314,"ĠJerusalem":7315,"bles":7316,"dal":7317,"Ġske":7318,"Ġwrong":7319,"Ġpup":7320,"ĠTel":7321,"ĠSher":7322,"ĠSup":7323,"ĠMul":7324,"urd":7325,"ĠBank":7326,"using":7327,"ĠPan":7328,"ĠPower":7329,"Ġhear":7330,"ĠNBC":7331,"ĠNerva":7332,"rage":7333,"ĠLab":7334,"ctions":7335,"ĠJun":7336,"Ġanth":7337,"Ġrum":7338,"Ġorn":7339,"Ġpartners":7340,"Ġimpl":7341,"amps":7342,"Ġassumed":7343,"Ġcoord":7344,"ĠLev":7345,"inson":7346,"Ġmonuments":7347,"Ġnoisy":7348,"ĠMaya":7349,"Ġ1954":7350,"ĠAdams":7351,"Ġpointed":7352,"Ġ1938":7353,"Ġ1927":7354,"iveness":7355,"ĠStef":7356,"Ġmarks":7357,"ĠEddie":7358,"Ġcirculation":7359,"Ġcollaps":7360,"Ġtreaty":7361,"Ġscholar":7362,"hews":7363,"ĠGeorgia":7364,"Ġcontroversial":7365,"ĠSomali":7366,"Ġalternative":7367,"ĠTruj":7368,"Ġeasily":7369,"Ġeggs":7370,"Ġsomewhat":7371,"30":7372,"iary":7373,"ni":7374,"Ã¸":7375,"Ġtaught":7376,"Ġworship":7377,"oral":7378,"itals":7379,"Ġbay":7380,"Ġmap":7381,"Ġhall":7382,"lease":7383,"entional":7384,"ĠCE":7385,"amic":7386,"Ġnick":7387,"oli":7388,"Ġgard":7389,"Ġforcing":7390,"igg":7391,"Ġstead":7392,"Ġstreak":7393,"ĠPope":7394,"ĠNintend":7395,"rapped":7396,"rien":7397,"Ġaged":7398,"Ġenfor":7399,"Ġsoil":7400,"Ġmonarch":7401,"Ġ178":7402,"Ġ1962":7403,"ĠProf":7404,"Ġdriven":7405,"Ġdestruction":7406,"Ġdebate":7407,"Ġposted":7408,"Ġinvolving":7409,"ĠAngle":7410,"Ġarmour":7411,"Ġnovels":7412,"Ġstrip":7413,"ĠRoberts":7414,"Ġ1870":7415,"Ġdrawing":7416,"Ġsurrounded":7417,"Ġabsor":7418,"Ġpurchase":7419,"Ġshells":7420,"Ġcamera":7421,"Ġinstitutions":7422,"Ġromantic":7423,"Ġdocumentary":7424,"Ġfranchise":7425,"ĠMozamb":7426,"ĠTrujillo":7427,"ĠNintendo":7428,"20":7429,"cements":7430,"ker":7431,"ris":7432,"rich":7433,"Ġur":7434,"Ġsnow":7435,"Ġocean":7436,"orous":7437,"itated":7438,"Ġcitiz":7439,"Ġfaces":7440,"Ġbed":7441,"Ġbones":7442,"icate":7443,"icide":7444,"Ġdivers":7445,"Ġdream":7446,"Ġdiplom":7447,"Ġhope":7448,"lets":7449,"ĠBang":7450,"ĠISB":7451,"ĠHong":7452,"uts":7453,"Ġstadium":7454,"ĠRain":7455,"emed":7456,"ĠFlow":7457,"ĠNar":7458,"ĠOwen":7459,"Ġexisted":7460,"Ġexha":7461,"range":7462,"ĠThird":7463,"Ġjazz":7464,"ĠAniston":7465,"Ġfled":7466,"ĠShak":7467,"itsune":7468,"Ġdepend":7469,"Ġestate":7470,"ĠUSS":7471,"Ġinstalled":7472,"ĠCarter":7473,"Ġconcerts":7474,"Ġ1958":7475,"Ġstorms":7476,"Ġmedium":7477,"ĠFlight":7478,"aska":7479,"Ġcatch":7480,"ĠHarry":7481,"autiful":7482,"Ġsequel":7483,"Ġrailway":7484,"Ġterritories":7485,"ĠJean":7486,"Ġvoted":7487,"Ġstayed":7488,"Ġbringing":7489,"Ġbadly":7490,"ĠCastle":7491,"munition":7492,"ĠRhodesian":7493,"Ġcandidate":7494,"ĠArgentina":7495,"Ġfungus":7496,"Ġsubmarine":7497,"Ġunsuccessful":7498,"Ġrestaurant":7499,"Ġpyram":7500,"bishop":7501,"Ã§":7502,"Ġtie":7503,"inally":7504,"rees":7505,"Ġwants":7506,"enburg":7507,"Ġfold":7508,"Ġpric":7509,"ĠTig":7510,"ĠAR":7511,"ĠSap":7512,"ĠSonic":7513,"ĠCab":7514,"amm":7515,"ĠBos":7516,"iday":7517,"otic":7518,"ĠHay":7519,"ĠRom":7520,"ĠDC":7521,"ĠDur":7522,"ĠDiv":7523,"ĠDanny":7524,"iform":7525,"Ġproport":7526,"Ġrecalled":7527,"Ġpartial":7528,"Ġpartially":7529,"Ġconsum":7530,"Ġconsult":7531,"Ġ86":7532,"Ġammunition":7533,"Ġ08":7534,"Ġ121":7535,"Ġentitled":7536,"Ġpreserved":7537,"Ġextension":7538,"Ġdistributed":7539,"ĠPlunk":7540,"Ġ140":7541,"ĠBeat":7542,"Ġclassic":7543,"Ġskull":7544,"Ġlimit":7545,"Ġsettled":7546,"ĠActivision":7547,"Ġaccommod":7548,"Ġreduce":7549,"ĠKorea":7550,"Ġtraveled":7551,"Ġmulti":7552,"ĠPrior":7553,"Ġconcerned":7554,"Ġlinked":7555,"Ġhoped":7556,"ĠDesign":7557,"claimed":7558,"Ġmessage":7559,"ĠLisa":7560,"ĠIsabella":7561,"ĠLennon":7562,"ĠISBN":7563,"kh":7564,"rative":7565,"Ġtone":7566,"Ġsulf":7567,"Ġpage":7568,"ashed":7569,"Ġdock":7570,"ĠTower":7571,"Ġlap":7572,"ĠBranch":7573,"ĠFair":7574,"ĠNaval":7575,"ĠKen":7576,"ĠKong":7577,"Ġkings":7578,"ĠâĢĳ":7579,"ĠStrand":7580,"Ġspin":7581,"apa":7582,"ĠVII":7583,"Ġcontext":7584,"Ġrecre":7585,"Ġrecru":7586,"Ġupgraded":7587,"weet":7588,"ternal":7589,"Ġsongwrit":7590,"Ġrelative":7591,"Ġ127":7592,"ĠUSD":7593,"Ġdesigns":7594,"ĠGermans":7595,"ennis":7596,"Ġbright":7597,"Ġ1959":7598,"Ġpossession":7599,"Ġcovering":7600,"Ġeffectively":7601,"ĠEarl":7602,"Ġfootage":7603,"Ġprogramme":7604,"ĠCalvert":7605,"ĠFederal":7606,"Ġtreated":7607,"offman":7608,"Ġrenew":7609,"Ġengineering":7610,"Ġgrav":7611,"Ġinjured":7612,"ĠPlayer":7613,"Ġbombard":7614,"Ġproducts":7615,"Ġinvestigation":7616,"Ġratings":7617,"ĠRyan":7618,"Ġagricultural":7619,"ĠConstruction":7620,"Ġresources":7621,"AC":7622,"bb":7623,"cation":7624,"gra":7625,"Ġels":7626,"Ġtick":7627,"onia":7628,"Ġsell":7629,"itian":7630,"arning":7631,"Ġloyal":7632,"Ġet":7633,"Ġgro":7634,"ĠHud":7635,"Ġstreets":7636,"ĠPul":7637,"Ġalle":7638,"ĠWhere":7639,"ĠLanc":7640,"Ġansw":7641,"Ġorchest":7642,"ĠKansas":7643,"Ġplane":7644,"ĠStock":7645,"Ġserial":7646,"teenth":7647,"arked":7648,"Ġacts":7649,"Ġreleg":7650,"Ġinterpret":7651,"ajevo":7652,"ĠBeauty":7653,"Ġclassical":7654,"Ġprotests":7655,"Ġrefers":7656,"ĠMuslim":7657,"Ġreviewers":7658,"Ġengines":7659,"Ġvictories":7660,"Ġmeetings":7661,"Ġidentity":7662,"Ġinspiration":7663,"Ġfunds":7664,"Ġescort":7665,"Ġcruiser":7666,"Ġcolonies":7667,"Ġhappy":7668,"ĠResearch":7669,"Ġloan":7670,"Ġdegrees":7671,"ĠSarajevo":7672,"ĠSomalia":7673,"Ġwearing":7674,"Ġapparently":7675,"Ġchemical":7676,"Ġincorporated":7677,"Ġoverseas":7678,"Ġresistance":7679,"ĠNetherlands":7680,"Ġelsewhere":7681,"iy":7682,"iour":7683,"night":7684,"oom":7685,"vention":7686,"wich":7687,"yer":7688,"Ġau":7689,"Ġfine":7690,"Ġblow":7691,"Ġbone":7692,"rose":7693,"ĠTest":7694,"ĠTreat":7695,"ĠSa":7696,"ĠSab":7697,"ĠCult":7698,"ĠBal":7699,"union":7700,"ĠFern":7701,"ĠNow":7702,"ĠGun":7703,"ĠJif":7704,"Ġprohib":7705,"Ġsees":7706,"udes":7707,"ĠKaw":7708,"Ġchronic":7709,"ĠUr":7710,"ĠUt":7711,"Ġlearning":7712,"ellite":7713,"ĠVice":7714,"ignment":7715,"Ġagree":7716,"enses":7717,"ensis":7718,"inton":7719,"Ġ900":7720,"Ġrelie":7721,"Ġ09":7722,"Ġexposed":7723,"rows":7724,"uchi":7725,"Ġbelt":7726,"ĠWho":7727,"Ġimpossible":7728,"ĠBlood":7729,"Ġgenerated":7730,"Ġmodified":7731,"Ġdetailed":7732,"Ġelabor":7733,"Ġlowest":7734,"Ġequivalent":7735,"Ġchanging":7736,"Ġarmored":7737,"Ġlooked":7738,"Ġrelationships":7739,"Ġreveals":7740,"Ġmerch":7741,"Ġabsence":7742,"Ġsatis":7743,"ĠVeronica":7744,"ĠYankovic":7745,"ĠDestiny":7746,"ĠNorman":7747,"ĠStanley":7748,"Ġoccasions":7749,"Ġrhythm":7750,"Ġeurop":7751,"Ġvideos":7752,"bra":7753,"hol":7754,"iÅ":7755,"wan":7756,"à¤":7757,"ĠÅ":7758,"Ġsight":7759,"Ġow":7760,"arth":7761,"anning":7762,"Ġdens":7763,"ĠTon":7764,"Ġrepr":7765,"Ġlies":7766,"ĠBad":7767,"otton":7768,"Ġash":7769,"ĠPass":7770,"ĠRugby":7771,"ĠDie":7772,"ĠDark":7773,"chang":7774,"ĠNak":7775,"ĠLabor":7776,"agi":7777,"agas":7778,"Ġray":7779,"Ġselection":7780,"uda":7781,"Ġexchange":7782,"ureau":7783,"Ġappropri":7784,"Ġafterwards":7785,"ĠYour":7786,"ĠComb":7787,"Ġ165":7788,"Ġminister":7789,"ĠIslam":7790,"Ġoffices":7791,"ĠAdam":7792,"Ġ1935":7793,"Ġrestored":7794,"Ġ1929":7795,"Ġwestward":7796,"Ġdivine":7797,"Ġlanguages":7798,"Ġ1860":7799,"Ġburned":7800,"Ġpractices":7801,"Ġtransportation":7802,"Ġstationed":7803,"Ġtribute":7804,"ĠDonald":7805,"ĠVictorian":7806,"Ġrequested":7807,"Ġchalleng":7808,"Ġmoral":7809,"Ġextreme":7810,"Ġadults":7811,"ĠClarkson":7812,"ĠDemocratic":7813,"Ġencouraged":7814,"Ġprotagonist":7815,"ĠBeckham":7816,"Ġcongreg":7817,"Ġinhabitants":7818,"Ġopposite":7819,"Ġalleged":7820,"Brien":7821,"rates":7822,"ugh":7823,"wick":7824,"á»":7825,"orial":7826,"Ġcry":7827,"isp":7828,"ingale":7829,"Ġpin":7830,"ĠTok":7831,"ĠAP":7832,"entures":7833,"ĠCR":7834,"ĠCory":7835,"Ġliber":7836,"Ġonline":7837,"emia":7838,"ĠDyn":7839,"ĠLords":7840,"ifer":7841,"ĠKim":7842,"Ġleuk":7843,"ĠChannel":7844,"Ġcloth":7845,"Ġmovements":7846,"Ġenters":7847,"annah":7848,"Ġoperate":7849,"Ġ1911":7850,"Ġ1932":7851,"Ġ1921":7852,"Ġstandards":7853,"Ġdeliber":7854,"Ġsuggesting":7855,"Ġ1909":7856,"Ġreading":7857,"Ġpraise":7858,"Ġgenre":7859,"Ġmountains":7860,"Ġdifficulties":7861,"ĠÃĹ":7862,"Ġhappened":7863,"ĠRadcliffe":7864,"ĠEvery":7865,"Ġemerg":7866,"Ġunderstand":7867,"Ġaccompany":7868,"iques":7869,"Ġvessel":7870,"Ġyoungest":7871,"ĠWilde":7872,"Ġpanel":7873,"Ġadjacent":7874,"Ġassassination":7875,"ĠSkye":7876,"ĠAthletic":7877,"Ġritual":7878,"ĠJifna":7879,"vements":7880,"Ġå":7881,"Ġille":7882,"hered":7883,"reme":7884,"Ġsunk":7885,"Ġsiege":7886,"aled":7887,"ilation":7888,"otype":7889,"Ġstable":7890,"Ġheat":7891,"ĠFound":7892,"ĠFras":7893,"Ġalien":7894,"ĠLower":7895,"Ġrated":7896,"aste":7897,"ĠChang":7898,"Ġconsol":7899,"Ġactual":7900,"Ġenth":7901,"ĠAustrian":7902,"Ġtrail":7903,"Ġexpensive":7904,"ĠIndones":7905,"Ġcrest":7906,"Ġinfrast":7907,"Ġbrig":7908,"Ġannually":7909,"Ġ1912":7910,"encing":7911,"Ġdefeating":7912,"spec":7913,"Ġready":7914,"ĠKevin":7915,"Ġpredomin":7916,"Ġrepresenting":7917,"avalry":7918,"Ġburial":7919,"ĠRussia":7920,"ĠWilson":7921,"Ġensure":7922,"Ġvisitors":7923,"Ġjudge":7924,"Ġhundreds":7925,"ĠConfeder":7926,"Ġthrone":7927,"Ġpreparation":7928,"Ġcustom":7929,"ĠGrammy":7930,"ĠElizabeth":7931,"Hg":7932,"uv":7933,"yo":7934,"Ġsam":7935,"Ġsqu":7936,"Ġsessions":7937,"Ġbrand":7938,"Ġpure":7939,"Ġpale":7940,"icit":7941,"leton":7942,"elle":7943,"Ġgone":7944,"terbury":7945,"usad":7946,"ĠProm":7947,"Ġcomments":7948,"Ġvul":7949,"Ġexit":7950,"Ġexcess":7951,"Ġshark":7952,"ĠStra":7953,"apse":7954,"Ġintense":7955,"Ġresumed":7956,"Ġtele":7957,"Ġraid":7958,"Ġraise":7959,"Ġforming":7960,"Ġwritings":7961,"Ġmuscar":7962,"Ġ122":7963,"ĠWarren":7964,"Ġpoll":7965,"Ġcarri":7966,"Ġowner":7967,"Ġmusicians":7968,"ĠProg":7969,"Ġ1931":7970,"ĠGuy":7971,"Ġwilling":7972,"ĠCanterbury":7973,"espe":7974,"Ġclaiming":7975,"Ġelse":7976,"itarian":7977,"Ġcycle":7978,"Ġinfluential":7979,"Ġgrounds":7980,"Ġcoup":7981,"Ġinterests":7982,"ĠPalace":7983,"ĠMexican":7984,"Ġrebels":7985,"Ġinjuries":7986,"itzer":7987,"Ġmaterials":7988,"Ġgrey":7989,"Ġabsol":7990,"ĠLawrence":7991,"Ġnormally":7992,"Ġessential":7993,"Ġpurposes":7994,"ĠBurns":7995,"Ġdisappoint":7996,"ĠClassic":7997,"Ġmemory":7998,"Ġexecuted":7999,"Ġfixed":8000,"ĠBanai":8001,"Ġchairman":8002,"Ġstere":8003,"Ġeuropium":8004,"AT":8005,"DS":8006,"aired":8007,"sch":8008,"zac":8009,"Ã±":8010,"Ġib":8011,"Ġoption":8012,"Ġfram":8013,"ĠinHg":8014,"illy":8015,"ĠMack":8016,"ĠBed":8017,"ĠBass":8018,"ĠBron":8019,"ĠBah":8020,"ira":8021,"otal":8022,"owitz":8023,"ĠPine":8024,"uls":8025,"Ġalter":8026,"Ġdeleg":8027,"ĠâĤ":8028,"Ġshipping":8029,"Ġspaces":8030,"Ġunion":8031,"Ġherd":8032,"Ġteach":8033,"formation":8034,"ĠComple":8035,"Ġsubst":8036,"Ġformally":8037,"ĠReal":8038,"Ġsurpr":8039,"Ġminimum":8040,"Ġobl":8041,"Ġcarries":8042,"Ġcargo":8043,"Ġairline":8044,"Ġtwin":8045,"ĠPoland":8046,"ombat":8047,"Ġwatching":8048,"Ġmixture":8049,"Ġrevol":8050,"Ġrecognised":8051,"Ġclearly":8052,"Ġobjective":8053,"Ġvote":8054,"ĠNorway":8055,"Ġwatershed":8056,"Ġturrets":8057,"ĠProtest":8058,"Ġspecimen":8059,"Ġlbw":8060,"Ġbulk":8061,"ĠColeman":8062,"Ġresidential":8063,"Ġinitiative":8064,"ĠJesus":8065,"Ġoverwhel":8066,"ĠShakespe":8067,"ĠShakespeare":8068,"fire":8069,"nal":8070,"rinth":8071,"Å«":8072,"Ġtack":8073,"Ġtight":8074,"heim":8075,"heme":8076,"Ġtheater":8077,"Ġsons":8078,"Ġinaug":8079,"aling":8080,"alog":8081,"ĠTechn":8082,"ĠTyphoon":8083,"ĠSem":8084,"ĠSand":8085,"ĠSweet":8086,"sta":8087,"Ġeasy":8088,"utz":8089,"ĠDick":8090,"ĠFel":8091,"ĠNL":8092,"ĠNeb":8093,"ĠWolf":8094,"rawn":8095,"ĠGoffman":8096,"ĠJoy":8097,"Ġorb":8098,"ĠChampion":8099,"ĠAlong":8100,"Ġenh":8101,"Ġevil":8102,"Ġformal":8103,"Ġ02":8104,"Ġtrained":8105,"Ġ161":8106,"ĠGerard":8107,"ĠJohnston":8108,"Ġobst":8109,"Ġinstall":8110,"Ġinstance":8111,"Ġprevented":8112,"ossal":8113,"Ġsimultane":8114,"ĠMega":8115,"Ġ1933":8116,"ĠHergÃ©":8117,"ĠGeoff":8118,"Ġtemples":8119,"Ġwindows":8120,"Ġavo":8121,"ĠSupp":8122,"ĠPolice":8123,"Ġneeds":8124,"ÃŃvar":8125,"Ġargues":8126,"ĠAgain":8127,"Ġkingdom":8128,"Ġobjects":8129,"abyrinth":8130,"Ġautom":8131,"Ġcheck":8132,"Ġjournal":8133,"ĠJaneiro":8134,"Ġreinforcements":8135,"ĠBolÃŃvar":8136,"Ġcomposer":8137,"criptions":8138,"Ġdoubt":8139,"Ġpicture":8140,"ĠJournal":8141,"Ġsegment":8142,"Ġpreferred":8143,"ĠJacob":8144,"ĠCambodia":8145,"Ġglobal":8146,"Ġcircumstances":8147,"Ġconvinced":8148,"ĠKilmer":8149,"ĠQueensland":8150,"ĠSaprang":8151,"CC":8152,"OK":8153,"after":8154,"cribed":8155,"eo":8156,"oes":8157,"Ġtip":8158,"Ġturb":8159,"erog":8160,"Ġsailed":8161,"rous":8162,"Ġmask":8163,"Ġmunicipal":8164,"ĠTro":8165,"ĠSn":8166,"urst":8167,"ĠBudd":8168,"ĠBureau":8169,"emies":8170,"ĠWard":8171,"ĠWimb":8172,"ĠLang":8173,"ĠJMA":8174,"ifies":8175,"Ġprol":8176,"Ġdeemed":8177,"Ġplate":8178,"iang":8179,"ishment":8180,"uez":8181,"ĠHearts":8182,"Ġrooms":8183,"ĠAlb":8184,"Ġdesert":8185,"Ġ84":8186,"ekÄģn":8187,"ledon":8188,"Ġextent":8189,"ĠClinton":8190,"Ġanyone":8191,"axon":8192,"ĠMcG":8193,"Ġperiods":8194,"Ġlisting":8195,"Ġcauses":8196,"Ġmyst":8197,"Ġrepresents":8198,"Ġsurvive":8199,"coming":8200,"Ġrebell":8201,"Ġrepresentative":8202,"ĠMedia":8203,"ĠKoreans":8204,"ĠMoore":8205,"ĠLawton":8206,"Ġadopt":8207,"Ġmoments":8208,"ĠBCE":8209,"oirs":8210,"ĠJustice":8211,"Ġinternal":8212,"Ġdisplays":8213,"Ġinteraction":8214,"ĠNazi":8215,"Ġdeparture":8216,"ĠGarc":8217,"Ġnarrative":8218,"ĠPalestine":8219,"uppet":8220,"Ġtravelled":8221,"Ġdialogue":8222,"Ġproposal":8223,"eorological":8224,"ĠProfess":8225,"ĠFraser":8226,"ĠWimbledon":8227,"MO":8228,"gets":8229,"mat":8230,"Ê»":8231,"Ġsoul":8232,"Ġcreek":8233,"icity":8234,"Ġhip":8235,"ilty":8236,"ĠCelt":8237,"Ġlibrary":8238,"acle":8239,"urse":8240,"ĠBark":8241,"ĠHob":8242,"ĠHarrison":8243,"Ġbearing":8244,"ĠLet":8245,"rik":8246,"rior":8247,"rift":8248,"uster":8249,"Ġago":8250,"Ġoutl":8251,"rene":8252,"Ġtex":8253,"inals":8254,"Ġfeed":8255,"ĠMarg":8256,"ĠLead":8257,"Ġextrat":8258,"Ġdiscip":8259,"Ġbridges":8260,"Ġprompted":8261,"Ġrestoration":8262,"Ġportrait":8263,"ĠChristopher":8264,"Ġstarling":8265,"Ġbases":8266,"Ġdemand":8267,"Ġformerly":8268,"ĠXe":8269,"Ġinfluences":8270,"Ġcriticised":8271,"Ġrounds":8272,"Ġdevot":8273,"Ġpersu":8274,"Ġpoorly":8275,"ĠRichardson":8276,"ĠMalays":8277,"Ġtowers":8278,"Ġobservations":8279,"Ġdramatic":8280,"ĠDelaware":8281,"ĠFormula":8282,"Ġthrowing":8283,"Ġdefenders":8284,"Ġarchitecture":8285,"Ġthousand":8286,"Ġinstruments":8287,"Ġlegislation":8288,"ĠOriginally":8289,"Ġcompounds":8290,"Ġbehaviour":8291,"Ġtactics":8292,"ĠGuardian":8293,"Ġethnic":8294,"Ġdelayed":8295,"Ġdecorated":8296,"Ġreconstruction":8297,"Ġimprison":8298,"ĠEducation":8299,"Ġacknowled":8300,"Ġextratropical":8301,"bound":8302,"burn":8303,"dess":8304,"dney":8305,"mel":8306,"zi":8307,"Ġtrick":8308,"inery":8309,"Ġciting":8310,"enous":8311,"icul":8312,"Ġdiet":8313,"ĠSb":8314,"ilst":8315,"ĠCob":8316,"ĠThen":8317,"ĠBell":8318,"olith":8319,"ĠHind":8320,"uscript":8321,"Ġstood":8322,"ĠDak":8323,"Ġconsequ":8324,"ĠNCA":8325,"ĠWing":8326,"osl":8327,"osm":8328,"ĠEp":8329,"ĠOur":8330,"ategy":8331,"ĠKy":8332,"ĠKombat":8333,"ĠUpper":8334,"oven":8335,"Ġjunction":8336,"Ġpoets":8337,"Ġ92":8338,"Ġremember":8339,"ĠSee":8340,"obile":8341,"Ġdefending":8342,"Ġregiment":8343,"roscop":8344,"ificial":8345,"Ġ03":8346,"Ġseverely":8347,"athers":8348,"Ġsmooth":8349,"ullen":8350,"ĠManagement":8351,"Ġuseful":8352,"Ġmodels":8353,"Ġphr":8354,"Ġconsiders":8355,"Ġstrategy":8356,"ĠCanal":8357,"Ġpossess":8358,"Ġorganised":8359,"Ġtemporary":8360,"Ġengage":8361,"ĠRecord":8362,"Ġelectronic":8363,"Ġarrive":8364,"Ġdivor":8365,"ĠKeamy":8366,"Ġvillages":8367,"ĠAtlanta":8368,"Ġcrews":8369,"ĠBerlin":8370,"Ġbiography":8371,"enesis":8372,"Ġthinking":8373,"Ġestablishing":8374,"Ġproperties":8375,"Ġfeelings":8376,"Ġdocuments":8377,"Ġjournalist":8378,"Ġunderstanding":8379,"Ġpursue":8380,"ĠAdminist":8381,"ĠCathedral":8382,"ĠMortal":8383,"Ġrebuilt":8384,"Ġsubstantial":8385,"ĠHitler":8386,"Ġnickn":8387,"ĠFernand":8388,"van":8389,"Ġrib":8390,"Ġtailed":8391,"inating":8392,"Ġsisters":8393,"Ġcars":8394,"Ġbon":8395,"roit":8396,"ĠSuch":8397,"Ġlie":8398,"Ġnom":8399,"ĠMach":8400,"idation":8401,"ĠHou":8402,"Ġstock":8403,"ĠRest":8404,"thosaurus":8405,"ĠNichol":8406,"ĠWright":8407,"rabs":8408,"ĠGary":8409,"ĠEle":8410,"Ġsure":8411,"ĠVi":8412,"Ġwheel":8413,"Ġresigned":8414,"Ġagents":8415,"ricted":8416,"overs":8417,"Ġattained":8418,"Ġconsc":8419,"ĠArj":8420,"Ġinterpre":8421,"Ġamateur":8422,"Ġ162":8423,"atherine":8424,"Ġartwork":8425,"Ġcounties":8426,"uthor":8427,"Ġ1957":8428,"Ġ1928":8429,"Ġtrading":8430,"Ġcompete":8431,"ĠMinor":8432,"ĠMinistry":8433,"Ġtechniques":8434,"Ġdoesn":8435,"Ġsequences":8436,"Ġengineer":8437,"Ġachieve":8438,"ĠFIA":8439,"ĠArabic":8440,"Ġcorner":8441,"Ġencountered":8442,"Ġneighbor":8443,"ĠSilver":8444,"ĠRajne":8445,"Ġwarships":8446,"Ġtunnel":8447,"ĠAlbums":8448,"ĠDetroit":8449,"Ġfalse":8450,"ĠPlunketts":8451,"ĠCorythosaurus":8452,"book":8453,"dale":8454,"fl":8455,"hl":8456,"mate":8457,"nings":8458,"pent":8459,"rim":8460,"uable":8461,"water":8462,"wald":8463,"Ġbor":8464,"Ġbom":8465,"ĠAz":8466,"ĠSoon":8467,"Ġlists":8468,"oma":8469,"ĠMand":8470,"ĠMother":8471,"Ġwasn":8472,"ĠBa":8473,"olay":8474,"ĠHed":8475,"Ġbeautiful":8476,"ĠDal":8477,"ĠFall":8478,"ĠNatives":8479,"ĠWrestling":8480,"ĠLamb":8481,"ĠJr":8482,"ĠâĢľ":8483,"ipe":8484,"Ġspr":8485,"Ġspoke":8486,"apore":8487,"Ġunlike":8488,"rupted":8489,"Ġclock":8490,"Ġclimate":8491,"Ġrecur":8492,"Ġotherwise":8493,"Ġoutbreak":8494,"inder":8495,"ĠUnivers":8496,"ĠAnzac":8497,"Ġpoison":8498,"Ġquant":8499,"Ġ125":8500,"Ġsymp":8501,"rams":8502,"Ġ166":8503,"Ġ155":8504,"Ġnorthward":8505,"Ġguilty":8506,"ĠAllah":8507,"Ġeleven":8508,"Ġprompt":8509,"Ġtriple":8510,"Ġ1926":8511,"incess":8512,"Ġcrisis":8513,"Ġoriginated":8514,"Ġarmament":8515,"Ġreaders":8516,"ĠOlm":8517,"Ġfuner":8518,"ĠPalmy":8519,"Ġcondem":8520,"Ġaudiences":8521,"ĠJews":8522,"Ġcivilians":8523,"Ġbiographer":8524,"Ġengineers":8525,"Ġfrust":8526,"Ġtribut":8527,"Ġdetermine":8528,"Ġdepicts":8529,"ĠSingapore":8530,"Ġsatellite":8531,"Ġinnov":8532,"rorist":8533,"Ġindicating":8534,"Ġschedule":8535,"Ġexperiences":8536,"Ġsafe":8537,"ĠDefence":8538,"Ġdemonstrated":8539,"Ġremarked":8540,"hua":8541,"ĠExpress":8542,"ĠMarlborough":8543,"Ġpyramid":8544,"Ġinfrastructure":8545,"erogative":8546,"pe":8547,"western":8548,"Ġsq":8549,"orph":8550,"Ġfault":8551,"Ġfestival":8552,"Ġpack":8553,"Ġrect":8554,"Ġrender":8555,"ĠSin":8556,"ĠCec":8557,"ĠCass":8558,"Ġlose":8559,"elin":8560,"ĠMes":8561,"ĠBath":8562,"ĠBorn":8563,"Ġgarrison":8564,"irid":8565,"ĠPA":8566,"ĠDave":8567,"ĠLink":8568,"Ġprove":8569,"Ġrivers":8570,"Ġorbit":8571,"Ġkitsune":8572,"Ġnotably":8573,"usts":8574,"Ġclimb":8575,"Ġscattered":8576,"Ġpartner":8577,"Ġplayoff":8578,"Ġoutp":8579,"ĠSeason":8580,"ologies":8581,"Ġassisted":8582,"Ġ101":8583,"Ġwarning":8584,"Ġimpressed":8585,"Ġdescribe":8586,"isms":8587,"ĠPlat":8588,"Ġ1934":8589,"Ġrefuge":8590,"ĠMcD":8591,"Ġdifferences":8592,"Ġsky":8593,"Ġlooks":8594,"ĠChampionships":8595,"Ġtests":8596,"Ġclosest":8597,"Ġ1850":8598,"Ġinformed":8599,"Ġburning":8600,"ĠCorporation":8601,"Ġoccupation":8602,"Ġdrove":8603,"ĠFei":8604,"Ġweapon":8605,"Ġphotograph":8606,"Ġevacuation":8607,"Ġgraphics":8608,"Ġtouchdowns":8609,"ĠMiller":8610,"Ġranging":8611,"ĠUlt":8612,"ĠPitman":8613,"ĠGallery":8614,"Ġvoiced":8615,"Ġbehavior":8616,"ĠNevertheless":8617,"ĠBaseball":8618,"ĠRicky":8619,"ĠPhillies":8620,"Ġpredecessor":8621,"ĠTerritory":8622,"ĠSupreme":8623,"ĠStefani":8624,"ĠGarcÃŃa":8625,"EC":8626,"cru":8627,"friend":8628,"har":8629,"hist":8630,"hire":8631,"lock":8632,"life":8633,"rants":8634,"vious":8635,"Ġax":8636,"Ġsad":8637,"Ġsale":8638,"Ġwine":8639,"Ġori":8640,"Ġban":8641,"Ġbord":8642,"Ġpine":8643,"Ġmoon":8644,"Ġmamm":8645,"Ġdiver":8646,"ĠTai":8647,"Ġlat":8648,"Ġlanes":8649,"ĠMuch":8650,"ĠBou":8651,"ivan":8652,"ivated":8653,"oto":8654,"ĠHom":8655,"ĠHok":8656,"ĠHaving":8657,"utt":8658,"Ġstyl":8659,"ĠRa":8660,"ĠRu":8661,"ĠRace":8662,"ĠDig":8663,"Ġconclusion":8664,"ĠNetwork":8665,"ĠWic":8666,"ĠWeb":8667,"Ġvast":8668,"Ġrates":8669,"oceratops":8670,"iped":8671,"Ġuniform":8672,"oko":8673,"ĠHend":8674,"Ġresidence":8675,"ricts":8676,"Ġjun":8677,"Ġmanuscript":8678,"Ġcanc":8679,"Ġcharged":8680,"Ġcooper":8681,"Ġsupporters":8682,"ĠShik":8683,"Ġsurg":8684,"Ġreprodu":8685,"ĠShel":8686,"Ġgenerals":8687,"Ġmusician":8688,"Ġconsidering":8689,"Ġtrials":8690,"apped":8691,"Ġparish":8692,"Ġtempor":8693,"Ġopponent":8694,"alky":8695,"Ġelections":8696,"Ġterrain":8697,"Ġfactors":8698,"ĠEvent":8699,"ĠGlob":8700,"ĠMonument":8701,"Ġliked":8702,"Ġgoddess":8703,"ĠSydney":8704,"Ġranking":8705,"Ġrailroad":8706,"ĠOverall":8707,"Ġcleared":8708,"ĠFIFA":8709,"Ġsuspended":8710,"ĠEnterprise":8711,"Ġprepare":8712,"Ġdisplayed":8713,"Ġvehicle":8714,"Ġranges":8715,"Ġscientific":8716,"Ġbatsman":8717,"Ġmoderate":8718,"Ġmartial":8719,"ĠInitially":8720,"Ġcollapsed":8721,"ĠTreaty":8722,"species":8723,"SP":8724,"boy":8725,"gam":8726,"ji":8727,"xual":8728,"za":8729,"Ġsaved":8730,"Ġwrest":8731,"Ġfoss":8732,"Ġfishing":8733,"alf":8734,"Ġdangerous":8735,"acter":8736,"ĠMoon":8737,"ĠBush":8738,"ĠBaker":8739,"Ġgar":8740,"usic":8741,"ĠRaff":8742,"ĠFurt":8743,"Ġalt":8744,"ĠNob":8745,"ĠWomen":8746,"ĠLinc":8747,"osh":8748,"ĠJT":8749,"ĠEight":8750,"Ġprosp":8751,"ocy":8752,"ĠKann":8753,"Ġspur":8754,"Ġresign":8755,"Ġabund":8756,"Ġscheme":8757,"ensions":8758,"Ġimperial":8759,"Ġteen":8760,"ĠUntil":8761,"rible":8762,"away":8763,"Ġearning":8764,"Ġamino":8765,"Ġ105":8766,"Ġexposure":8767,"Ġmainland":8768,"Ġoperates":8769,"Ġlandings":8770,"ĠGuide":8771,"Ġrestrict":8772,"Ġdeter":8773,"apping":8774,"Ġ1000":8775,"Ġdemands":8776,"Ġbands":8777,"Ã¡r":8778,"Ġsituated":8779,"Ġsteep":8780,"ĠCooper":8781,"Ġhousing":8782,"Ġlayer":8783,"Ġhunting":8784,"ĠLegacy":8785,"Ġspiritual":8786,"ĠCaes":8787,"Ġpremiere":8788,"ĠMcCarty":8789,"ĠOhio":8790,"ĠAlfred":8791,"Ġexclusively":8792,"ĠPersian":8793,"ĠAerith":8794,"ĠGilbert":8795,"ĠCBS":8796,"Ġpupils":8797,"ĠHudson":8798,"ĠOlmec":8799,"WC":8800,"lie":8801,"ng":8802,"no":8803,"rating":8804,"inian":8805,"inations":8806,"reck":8807,"Ġsaves":8808,"Ġfill":8809,"Ġbell":8810,"Ġmode":8811,"Ġrevers":8812,"ĠSid":8813,"ĠSull":8814,"Ġninet":8815,"acles":8816,"urday":8817,"Ġgiant":8818,"ĠHope":8819,"uty":8820,"Ġstyles":8821,"ĠNear":8822,"ĠLast":8823,"Ġanaly":8824,"agogue":8825,"odore":8826,"ĠEy":8827,"Ġrig":8828,"Ġsuit":8829,"Ġsuitable":8830,"ĠKrak":8831,"ruz":8832,"Ġcontribution":8833,"Ġdisaster":8834,"ĠYug":8835,"Ġcancer":8836,"ĠRelease":8837,"Ġ01":8838,"Ġfounder":8839,"Ġexpect":8840,"azines":8841,"Ġconstant":8842,"Ġorganisation":8843,"Ġexplo":8844,"Ġcrash":8845,"Ġstatistics":8846,"Ġinteresting":8847,"rapy":8848,"Ġcollapse":8849,"Ġruling":8850,"Ġcosts":8851,"Ġrespective":8852,"ĠMarkgra":8853,"Ġperspective":8854,"Ġsubjects":8855,"ĠGrade":8856,"Ġdispat":8857,"ĠCampaign":8858,"ĠPortugal":8859,"Ġbiggest":8860,"Ġsoutheastern":8861,"Ġcelebrated":8862,"Ġopportunities":8863,"Ġstruggle":8864,"ĠFurthermore":8865,"ĠSaturday":8866,"Ġneutral":8867,"Ġstriking":8868,"Ġpremiered":8869,"ĠSwedish":8870,"ĠDominican":8871,"inje":8872,"Ġtrouble":8873,"Ġrifle":8874,"Ġcrops":8875,"Ġunderwent":8876,"Ġtemporarily":8877,"ĠRaffles":8878,"ĠFurtado":8879,"ĠJTWC":8880,"ĠMarkgraf":8881,"NL":8882,"power":8883,"piece":8884,"ti":8885,"time":8886,"zing":8887,"Ġtrough":8888,"Ġtenth":8889,"Ġfert":8890,"arant":8891,"Ġbanned":8892,"asters":8893,"Ġhull":8894,"Ġhuge":8895,"ĠTan":8896,"ĠTal":8897,"ĠCO":8898,"ĠCome":8899,"Ġlake":8900,"Ġnit":8901,"Ġnations":8902,"ecraft":8903,"Ġgets":8904,"Ġgrown":8905,"ĠPow":8906,"ĠPier":8907,"ĠRen":8908,"ĠDAG":8909,"ulating":8910,"ĠLith":8911,"ĠGa":8912,"ĠGen":8913,"ersed":8914,"oda":8915,"ewise":8916,"udo":8917,"Ġchamber":8918,"ĠUsta":8919,"ĠâĢĿ":8920,"ĠStu":8921,"ĠValky":8922,"Ġattrib":8923,"ĠArk":8924,"Ġcharity":8925,"Ġprerogative":8926,"Ġformat":8927,"Ġhighways":8928,"ĠSholay":8929,"tenance":8930,"Ġdepending":8931,"Ġ115":8932,"Ġrepair":8933,"ervative":8934,"ĠAllen":8935,"onto":8936,"Ġrefere":8937,"Ġparas":8938,"Ġdifference":8939,"Ġlisten":8940,"shore":8941,"Ġrealized":8942,"Ġelectron":8943,"Ġmagazines":8944,"Ġerr":8945,"ĠSimpson":8946,"osaurs":8947,"Ġrenov":8948,"Ġmeasured":8949,"Ġresearchers":8950,"Ġviolent":8951,"Ġtruck":8952,"ĠYears":8953,"ĠSocial":8954,"Ġdominant":8955,"Ġamounts":8956,"ĠInterstate":8957,"Ġfavorable":8958,"ĠHeadquarters":8959,"Ġproductions":8960,"iliar":8961,"Ġoxy":8962,"ĠCorb":8963,"Ġelevation":8964,"Ġwithdrawal":8965,"Ġencounter":8966,"Ġsucceed":8967,"ĠHawaii":8968,"Ġseeking":8969,"Ġadvertising":8970,"Ġeliminated":8971,"ĠNHL":8972,"Ġconspiracy":8973,"ĠStewart":8974,"ĠCampbell":8975,"Ġretirement":8976,"ĠMozambique":8977,"Ġmuscaria":8978,"ĠNCAA":8979,"ĠArjona":8980,"ĠUstaÅ¡":8981,"DH":8982,"box":8983,"don":8984,"ean":8985,"egr":8986,"mouth":8987,"vati":8988,"Ľni":8989,"Ġtiss":8990,"Ġwings":8991,"orious":8992,"Ġtoll":8993,"icus":8994,"Ġmbar":8995,"Ġdwar":8996,"ĠCy":8997,"omic":8998,"Ġeat":8999,"ĠMun":9000,"ĠBoys":9001,"Ġgam":9002,"idel":9003,"ĠHamp":9004,"ĠHans":9005,"owiec":9006,"Ġbear":9007,"Ġhem":9008,"ĠNiel":9009,"ĠNash":9010,"ĠWander":9011,"ĠWiÅ":9012,"Ġanch":9013,"ĠEst":9014,"ĠExt":9015,"Ġvice":9016,"ongs":9017,"Ġexists":9018,"ryce":9019,"Ġclim":9020,"ĠThus":9021,"pled":9022,"Ġmanga":9023,"Ġpref":9024,"ints":9025,"inds":9026,"Ġweigh":9027,"Ġsubspecies":9028,"Ġprime":9029,"Ġreleases":9030,"ĠAustria":9031,"Ġnumbered":9032,"Ġ113":9033,"Ġdirectors":9034,"Ġdesigner":9035,"Ġadvancing":9036,"ĠDean":9037,"Ġcharacterized":9038,"Ġpromised":9039,"Ġpublications":9040,"Ġclassification":9041,"ĠMcL":9042,"ĠMcM":9043,"Ġchildhood":9044,"Ġdriver":9045,"Ġexplains":9046,"Ġcommunications":9047,"Ġeveryone":9048,"Ġelder":9049,"Ġfreedom":9050,"Ġprofile":9051,"ĠBarry":9052,"Ġ1908":9053,"Ġputting":9054,"ĠPhilip":9055,"ĠMaggie":9056,"Ġcyclones":9057,"Ġemployees":9058,"Ġwithdrawn":9059,"Ġnominations":9060,"ĠToronto":9061,"ĠSchm":9062,"Ġharbour":9063,"Ġcruisers":9064,"Ġfrequent":9065,"ĠIsraeli":9066,"Ġaspect":9067,"Ġinstitution":9068,"ĠCommunist":9069,"Ġcolumns":9070,"ĠWatson":9071,"ĠGraves":9072,"ĠBelgium":9073,"Ġfatal":9074,"ĠHungarian":9075,"Ġdistinguished":9076,"Ġstrategic":9077,"ĠNapole":9078,"Ġdrug":9079,"ĠHeavyweight":9080,"Ġjackrab":9081,"ĠLabour":9082,"Ġcitizens":9083,"ĠProtestant":9084,"ĠBarker":9085,"ĠLincol":9086,"ĠSullivan":9087,"ĠYugosl":9088,"Ġdwarf":9089,"Pa":9090,"itively":9091,"Ġchess":9092,"enic":9093,"Ġbod":9094,"ĠAT":9095,"ĠSans":9096,"ellect":9097,"ecution":9098,"ĠBab":9099,"ĠBoss":9100,"ĠBenn":9101,"olis":9102,"Ġbears":9103,"Ġbeauty":9104,"ĠRaw":9105,"unes":9106,"ĠWag":9107,"ĠGate":9108,"ĠEagle":9109,"aks":9110,"aku":9111,"ĠUFC":9112,"Ġshaft":9113,"geon":9114,"Ġspac":9115,"Ġspend":9116,"Ġspores":9117,"ishn":9118,"Ġenemies":9119,"Ġcenters":9120,"eping":9121,"Ġfeud":9122,"ĠArsenal":9123,"Ġsubmitted":9124,"Ġpeaking":9125,"Ġcoins":9126,"Ġthereafter":9127,"arsh":9128,"Ġ163":9129,"Ġmetre":9130,"Ġ117":9131,"ĠConc":9132,"Ġairfield":9133,"ashi":9134,"Ġguerr":9135,"Ġrestricted":9136,"Ġslide":9137,"ĠParaly":9138,"ĠParvati":9139,"Ġ1923":9140,"urricanes":9141,"Ġinitiated":9142,"Ġdrain":9143,"Ġstrongest":9144,"ĠTracy":9145,"ĠPerform":9146,"Ġskills":9147,"ĠPolit":9148,"Ġ1905":9149,"Ġsounds":9150,"ĠGlad":9151,"oof":9152,"Ġfalls":9153,"ĠHills":9154,"ĠRocky":9155,"Ġbusinesses":9156,"ĠBusiness":9157,"ĠTurks":9158,"ĠMrs":9159,"Ġtargets":9160,"ĠBuilding":9161,"Ġbatteries":9162,"ĠDerry":9163,"Ġconcentrated":9164,"Ġholiday":9165,"Ġexcavation":9166,"Ġaggressive":9167,"Ġemphasis":9168,"ĠBulgar":9169,"Ã¶n":9170,"Ġcemetery":9171,"Ġassembled":9172,"Ġbenefit":9173,"Ġstrengthened":9174,"ĠOrganization":9175,"ĠPhoenix":9176,"ĠRÃ©union":9177,"ĠAncient":9178,"ekÄģntav":9179,"Ġtexts":9180,"Ľniowiec":9181,"ĠWiÅĽniowiec":9182,"ĠParalymp":9183,"cour":9184,"gov":9185,"mont":9186,"nie":9187,"yc":9188,"heera":9189,"atur":9190,"isler":9191,"asm":9192,"Ġtopped":9193,"Ġmines":9194,"Ġhorn":9195,"ĠAA":9196,"ĠAce":9197,"ĠSk":9198,"adier":9199,"urance":9200,"ĠBrand":9201,"Ġstrict":9202,"Ġhearing":9203,"ĠRoth":9204,"Ġalive":9205,"Ġaltered":9206,"ĠWisc":9207,"ĠGro":9208,"ĠGwen":9209,"ĠJason":9210,"aints":9211,"ĠEaton":9212,"Ġcomed":9213,"aki":9214,"ĠKelly":9215,"essee":9216,"ĠStaff":9217,"asts":9218,"Ġyield":9219,"oster":9220,"Ġunlik":9221,"Ġjury":9222,"Ġfeels":9223,"ĠAsian":9224,"Ġdecides":9225,"onsin":9226,"Ġartificial":9227,"Ġdistricts":9228,"Ġinscription":9229,"Ġinscriptions":9230,"ĠPlan":9231,"Ã©e":9232,"Ġvariation":9233,"Ġgray":9234,"Ġlatex":9235,"raction":9236,"Ġstarlings":9237,"Ġbelieving":9238,"Ġcommunication":9239,"Ġamongst":9240,"Ġpatrol":9241,"ĠAnglo":9242,"Ġjoining":9243,"Ġarmoured":9244,"Ġradiation":9245,"ĠSym":9246,"Ġfifty":9247,"Ġfifteen":9248,"Ġtesting":9249,"Ġfallen":9250,"Ġasks":9251,"Ġhonour":9252,"ĠSlayer":9253,"Ġmerely":9254,"Ġfundament":9255,"Ġremoval":9256,"ĠKhand":9257,"ĠPoly":9258,"ĠTrail":9259,"Ġadaptation":9260,"Ġvotes":9261,"Ġboundary":9262,"Ġconversion":9263,"ĠTennessee":9264,"ĠCritics":9265,"Ġarchitectural":9266,"ĠRhodesia":9267,"ĠKirk":9268,"Ġdelivery":9269,"ĠMurray":9270,"ĠJonathan":9271,"Ġaimed":9272,"ropolitan":9273,"ĠKannada":9274,"ĠUstaÅ¡e":9275,"ekÄģntavÄģda":9276,"ĠWisconsin":9277,"jan":9278,"pan":9279,"taker":9280,"zed":9281,"rep":9282,"Ġsung":9283,"Ġwet":9284,"itia":9285,"Ġfate":9286,"Ġfasc":9287,"Ġfountain":9288,"Ġped":9289,"Ġdies":9290,"ĠCateg":9291,"amount":9292,"Ġnurse":9293,"ĠMidge":9294,"ĠMÃ¡r":9295,"ĠBulls":9296,"olen":9297,"otten":9298,"Ġstores":9299,"ĠDum":9300,"ĠFle":9301,"ĠFalls":9302,"char":9303,"ĠLost":9304,"ĠGray":9305,"Ġvault":9306,"Ġsuicide":9307,"ĠKam":9308,"Ġnotice":9309,"ĠVI":9310,"ĠVul":9311,"Ġintellect":9312,"Ġusage":9313,"achute":9314,"Ġapprec":9315,"ensively":9316,"Ġupset":9317,"inding":9318,"oyage":9319,"Ġconservation":9320,"Ġflash":9321,"Ġsubstitute":9322,"Ġentertain":9323,"Ġsurprise":9324,"Ġimpression":9325,"ennium":9326,"Ġgenera":9327,"Ġhelmet":9328,"Ġapproval":9329,"Ġ1925":9330,"Ġengagement":9331,"neath":9332,"Ġexpert":9333,"ĠPerfect":9334,"Ġarriving":9335,"ĠDavis":9336,"ĠNext":9337,"Ġpredators":9338,"atinum":9339,"Ġharm":9340,"Ġantiqu":9341,"Ġpotentially":9342,"Ġuncertain":9343,"Ġapplication":9344,"ĠHowe":9345,"Ġconflicts":9346,"Ġtalking":9347,"Ġdistinctive":9348,"Ġpounder":9349,"Ġdeparted":9350,"Ġsteps":9351,"Ġmagnitude":9352,"Ġenvironmental":9353,"Ġcomparison":9354,"ĠMasters":9355,"Ġtheatrical":9356,"ĠRailway":9357,"Ġpulled":9358,"Ġempire":9359,"Ġdemolished":9360,"Ġillegal":9361,"ĠFoundation":9362,"ĠRajneesh":9363,"ĠEventually":9364,"ĠStuart":9365,"ĠKhandoba":9366,"ĠCategory":9367,"ĠMÃ¡rquez":9368,"dress":9369,"jamin":9370,"ua":9371,"vor":9372,"yll":9373,"Ã£":9374,"Ġtub":9375,"nda":9376,"ester":9377,"ashes":9378,"Ġtoured":9379,"Ġtoler":9380,"Ġmir":9381,"Ġdense":9382,"Ġhills":9383,"Ġrend":9384,"ĠSM":9385,"ĠSS":9386,"ĠSle":9387,"Ġthrew":9388,"ĠCirc":9389,"omura":9390,"ami":9391,"Ġnet":9392,"Ġnavy":9393,"ĠMk":9394,"Ġongoing":9395,"ĠBacon":9396,"imer":9397,"Ġforty":9398,"ige":9399,"Ġhen":9400,"ĠRaid":9401,"unc":9402,"unch":9403,"ĠFRE":9404,"ĠNon":9405,"ĠGirls":9406,"ods":9407,"ĠEric":9408,"opl":9409,"Ġvs":9410,"illas":9411,"akers":9412,"arte":9413,"Ġchoir":9414,"ĠStories":9415,"iao":9416,"ĠVik":9417,"Ġrot":9418,"Ġpermission":9419,"Ġrecon":9420,"Ġdisagre":9421,"Ġencl":9422,"Ġevident":9423,"Ġpole":9424,"Ġ83":9425,"Ġtrust":9426,"Ġrelation":9427,"Ġcoinc":9428,"Ġcoaching":9429,"Ġmaintenance":9430,"Ġ114":9431,"Ġcompleting":9432,"Ġinflict":9433,"Ġeffic":9434,"Ġadvice":9435,"Ġadventure":9436,"Ġedges":9437,"ĠBeh":9438,"Ġconfront":9439,"Ġmarch":9440,"echism":9441,"Ġvisiting":9442,"Ġbreed":9443,"Ġhandled":9444,"Ġreferring":9445,"Ġarmies":9446,"Ġ1901":9447,"Ġfriendly":9448,"Ġwider":9449,"ĠHarv":9450,"Ġswim":9451,"ĠKeith":9452,"ĠSwiss":9453,"Ġreducing":9454,"ĠMadison":9455,"Ġcircle":9456,"Ġ1861":9457,"Ġsynagogue":9458,"Ġ1830":9459,"ĠPeters":9460,"ĠStudio":9461,"ĠBenjamin":9462,"ĠFrancis":9463,"chell":9464,"Ġ978":9465,"ĠReturn":9466,"ĠJourney":9467,"ĠVillage":9468,"ĠMcCartney":9469,"imetres":9470,"ĠJurchen":9471,"Ġhelicopters":9472,"ĠSimilarly":9473,"LIMO":9474,"Ġsettlements":9475,"ĠMulder":9476,"Ġemergency":9477,"Ġenthus":9478,"ĠProgram":9479,"ĠCeltic":9480,"ĠHouston":9481,"Ġunlikely":9482,"ĠFRELIMO":9483,"IA":9484,"PA":9485,"father":9486,"iac":9487,"mn":9488,"nels":9489,"vant":9490,"Ġid":9491,"Ġsang":9492,"Ġwel":9493,"atically":9494,"orage":9495,"Ġcaves":9496,"Ġcotton":9497,"Ġbanks":9498,"Ġinning":9499,"Ġpap":9500,"icia":9501,"Ġmac":9502,"Ġhook":9503,"ĠTree":9504,"ĠAuthor":9505,"ĠSour":9506,"ĠSout":9507,"ĠSAS":9508,"ĠCP":9509,"Ġgap":9510,"owa":9511,"ĠPC":9512,"Ġbeating":9513,"ĠDa":9514,"ĠNav":9515,"ĠLud":9516,"ĠEsh":9517,"oples":9518,"Ġrushing":9519,"Ġplus":9520,"Ġkit":9521,"ĠStal":9522,"Ġspending":9523,"ellar":9524,"ĠHealth":9525,"ĠThose":9526,"Ġoffs":9527,"angel":9528,"ĠOntar":9529,"osexual":9530,"Ġfeathers":9531,"Ġassess":9532,"Ġrecordings":9533,"anyon":9534,"ĠScully":9535,"yline":9536,"ieth":9537,"ieties":9538,"Ġ170":9539,"ernon":9540,"ĠSheff":9541,"Ġheaddress":9542,"Ġobtain":9543,"ĠColl":9544,"ĠGuine":9545,"Ġweekend":9546,"Ġstarring":9547,"Ġ1924":9548,"Ġcapturing":9549,"Ġnortheastern":9550,"Ġsimilarly":9551,"Ġpropag":9552,"Ġcontrols":9553,"ĠLeslie":9554,"Ġstructural":9555,"Ġ1907":9556,"ĠNev":9557,"Ġsumm":9558,"ĠMagn":9559,"Ġpriest":9560,"Ġcreative":9561,"ĠOscar":9562,"Ġnetworks":9563,"Ġkeeping":9564,"Ġdiagn":9565,"Ġbattleship":9566,"ĠOutstanding":9567,"Ġsecretary":9568,"ĠErnest":9569,"Ġpowered":9570,"Ġstrikeouts":9571,"ĠLouisiana":9572,"Ġmelody":9573,"ĠOriginal":9574,"Ġsacred":9575,"Ġceremon":9576,"Ġmobile":9577,"Ġvenues":9578,"Ġcollaboration":9579,"ĠRifles":9580,"Ġdefinition":9581,"Ġnegotiations":9582,"ĠObser":9583,"ĠMLB":9584,"Ġphilosophy":9585,"Ġelaborate":9586,"Ġsatisf":9587,"Ġsimultaneously":9588,"ĠCaesar":9589,"ĠLincoln":9590,"ĠWagner":9591,"Ġspacecraft":9592,"ĠWiÅĽniowiecki":9593,"ĠOntario":9594,"Ch":9595,"bre":9596,"fe":9597,"hang":9598,"nik":9599,"po":9600,"raska":9601,"tong":9602,"zhou":9603,"Ġtelling":9604,"itage":9605,"Ġcup":9606,"Ġcrake":9607,"Ġfro":9608,"Ġbran":9609,"Ġbare":9610,"alley":9611,"rols":9612,"Ġhidden":9613,"oux":9614,"ĠTit":9615,"ĠTogether":9616,"ĠSon":9617,"ĠSign":9618,"sters":9619,"ĠMem":9620,"ĠMall":9621,"ĠMaur":9622,"ĠBeth":9623,"iger":9624,"otyp":9625,"otilla":9626,"Ġbeats":9627,"ĠRap":9628,"ĠDD":9629,"cho":9630,"ĠNatural":9631,"estyle":9632,"Ġride":9633,"Ġsharp":9634,"iper":9635,"ogy":9636,"ĠVand":9637,"oken":9638,"endar":9639,"Ġperimeter":9640,"Ġremove":9641,"Ġ04":9642,"ĠAustro":9643,"Ġtrapped":9644,"Ġmeters":9645,"Ġpromin":9646,"Ġpersonality":9647,"Ġhanded":9648,"Ġanticip":9649,"Ġhelping":9650,"Ġbattlecru":9651,"umps":9652,"ĠMagdal":9653,"Ġvalues":9654,"ĠSwitzer":9655,"Ġfacility":9656,"Ġrocks":9657,"Ġlacked":9658,"Ġprofessor":9659,"Ġruler":9660,"ĠKhan":9661,"Ġdonated":9662,"Ġparticipate":9663,"ĠMeteorological":9664,"Ġ1840":9665,"Ġbombing":9666,"Ġpercentage":9667,"Ġbirthday":9668,"ĠTrek":9669,"Ġcredit":9670,"Ġjobs":9671,"Ġsculptures":9672,"Ġplatoon":9673,"ĠHugh":9674,"Ġnewspapers":9675,"Ġtasked":9676,"Ġturret":9677,"Ġstruggled":9678,"ĠMathews":9679,"ĠMatthew":9680,"Ġexcavations":9681,"Ġmanufactur":9682,"Ġwaiting":9683,"Ġscientists":9684,"Ġduty":9685,"ĠChapel":9686,"ĠBroadway":9687,"ĠSurvey":9688,"Ġvertical":9689,"ĠWalker":9690,"minster":9691,"Ġvegetation":9692,"Ġastronom":9693,"ocaust":9694,"ĠNaktong":9695,"ĠNebraska":9696,"olithic":9697,"ĠHokies":9698,"Ġsurgery":9699,"ES":9700,"Malley":9701,"eign":9702,"gas":9703,"rad":9704,"ski":9705,"uki":9706,"inction":9707,"Ġcake":9708,"Ġbrain":9709,"Ġinclusion":9710,"Ġtooth":9711,"Ġmemb":9712,"Ġmemor":9713,"oust":9714,"ĠTa":9715,"ĠTony":9716,"Ġreass":9717,"ĠAut":9718,"ĠABC":9719,"ĠSony":9720,"ĠCall":9721,"ĠCanyon":9722,"amer":9723,"aman":9724,"acre":9725,"ĠMit":9726,"ĠBible":9727,"ĠBarn":9728,"ĠBanks":9729,"ĠIan":9730,"etime":9731,"Ġgates":9732,"imented":9733,"iri":9734,"ĠHop":9735,"ayan":9736,"ĠPur":9737,"ĠFil":9738,"ĠFem":9739,"Ġconj":9740,"ĠGhost":9741,"Ġanime":9742,"umin":9743,"oded":9744,"Ġrid":9745,"ĠInvest":9746,"Ġshares":9747,"ĠChagas":9748,"Ġabol":9749,"active":9750,"overeign":9751,"phy":9752,"ĠAnne":9753,"Ġassembly":9754,"Ġcoin":9755,"Ġmonit":9756,"Ġexpression":9757,"Ġreceives":9758,"Ġextensively":9759,"Ġwarfare":9760,"Ġoperational":9761,"Ġmayor":9762,"Ġdiscussion":9763,"Ġsimpl":9764,"Ġrestore":9765,"ĠHerze":9766,"ĠChristians":9767,"Ġreflected":9768,"Ġcommandment":9769,"Ġparody":9770,"ĠWithout":9771,"ĠAbby":9772,"Ġconventional":9773,"ĠTrust":9774,"arris":9775,"Ġprofit":9776,"Ġcyt":9777,"ĠRegister":9778,"Ġprogramming":9779,"Ġshoulder":9780,"Ġgoods":9781,"ĠHarold":9782,"Ġrevised":9783,"ĠMagad":9784,"Ġcolleagues":9785,"Ġsupern":9786,"Ġsuperv":9787,"ĠActor":9788,"Ġ350":9789,"ĠEmmy":9790,"ĠAgency":9791,"Ġexcell":9792,"Ġgrave":9793,"ĠAngela":9794,"Ġdispute":9795,"Ġquarterback":9796,"Ġbowl":9797,"Ġtalks":9798,"Ġtournaments":9799,"Ġevacuated":9800,"Ġwalking":9801,"Ġtranslation":9802,"ĠFinals":9803,"ĠIndependence":9804,"Ġexhibition":9805,"Ġpounds":9806,"ĠKentucky":9807,"Ġneighb":9808,"Ġimagery":9809,"Ġexecution":9810,"ĠYankees":9811,"ĠChildren":9812,"ĠGiants":9813,"Ġvirtually":9814,"ĠMichel":9815,"Ġundertaken":9816,"ĠTransportation":9817,"Ġaccurate":9818,"ĠBrooks":9819,"amaru":9820,"ĠDakota":9821,"ĠShikamaru":9822,"ĠValkyria":9823,"ĠNielsen":9824,"ĠWanderers":9825,"govina":9826,"ĠSheffield":9827,"ĠSwitzerland":9828,"CO":9829,"EFA":9830,"NC":9831,"bing":9832,"ci":9833,"equ":9834,"gon":9835,"gars":9836,"ht":9837,"hum":9838,"kes":9839,"Ġtor":9840,"Ġtale":9841,"Ġaf":9842,"erg":9843,"Ġcave":9844,"enz":9845,"aria":9846,"Ġbra":9847,"Ġboss":9848,"Ġboys":9849,"Ġinfer":9850,"Ġdict":9851,"lee":9852,"ĠSant":9853,"ĠCond":9854,"Ġnurs":9855,"acruz":9856,"irates":9857,"ĠPryce":9858,"ĠRivers":9859,"ĠDog":9860,"ĠDram":9861,"ĠDiam":9862,"ĠFace":9863,"ĠLibrary":9864,"osom":9865,"illiant":9866,"Ġdeity":9867,"Ġrising":9868,"Ġracing":9869,"berry":9870,"ĠKit":9871,"Ġchrom":9872,"ĠUEFA":9873,"ĠStr":9874,"sex":9875,"ipes":9876,"Ġclin":9877,"ĠHeart":9878,"ĠHeaven":9879,"Ġresolution":9880,"enden":9881,"Ġroots":9882,"Ġmanip":9883,"Ġoffering":9884,"angular":9885,"Ġevolved":9886,"inted":9887,"Ġdecay":9888,"Ġretain":9889,"Ġsupplement":9890,"ahi":9891,"Ġobvious":9892,"Ġdiff":9893,"Ġinsurg":9894,"Ġweekly":9895,"Ġkills":9896,"Ġpersonally":9897,"Ġfewer":9898,"ĠPriv":9899,"ĠAbd":9900,"Ġpatrols":9901,"Ġcompeted":9902,"Ġfactory":9903,"ĠEvans":9904,"Ġtrend":9905,"Ġidentify":9906,"ĠMadrid":9907,"Ġclosing":9908,"Ġappointment":9909,"Ġmotif":9910,"Ġdevast":9911,"Ġgraves":9912,"Ġmachines":9913,"ĠÃī":9914,"Ġcontrad":9915,"ĠHolocaust":9916,"Ġ360":9917,"ĠPriest":9918,"ĠVeracruz":9919,"underst":9920,"Ġintersects":9921,"Ġtemperatures":9922,"ĠConservation":9923,"ĠWaterfall":9924,"Ġsquadrons":9925,"ĠCheval":9926,"Ġprisoners":9927,"Ġmechanical":9928,"ĠProvince":9929,"Ġaccomplish":9930,"ĠBertin":9931,"burgh":9932,"Ġappropriate":9933,"ĠTokyo":9934,"ĠHerzegovina":9935,"ĠMagadheera":9936,"ko":9937,"where":9938,"ËĪ":9939,"Ġtut":9940,"Ġtort":9941,"Ġwish":9942,"Ġwreck":9943,"atch":9944,"Ġcook":9945,"enged":9946,"enger":9947,"Ġfulf":9948,"aration":9949,"Ġbishop":9950,"Ġpion":9951,"Ġpace":9952,"Ġphen":9953,"Ġparent":9954,"asp":9955,"ĠTat":9956,"ĠTag":9957,"ĠAh":9958,"entle":9959,"Ġloud":9960,"Ġliqu":9961,"omtav":9962,"Ġforth":9963,"otte":9964,"ĠHave":9965,"usan":9966,"ĠPubl":9967,"ĠDub":9968,"ĠDah":9969,"una":9970,"Ġwhilst":9971,"Ġalph":9972,"ĠLas":9973,"ĠGirl":9974,"agen":9975,"resent":9976,"Ġveter":9977,"ĠIntern":9978,"ighters":9979,"ocation":9980,"ĠKu":9981,"Ġplacing":9982,"Ġyd":9983,"iney":9984,"ĠCharts":9985,"ogan":9986,"Ġcomponents":9987,"oking":9988,"okovic":9989,"Ġrouting":9990,"Ġperp":9991,"ultan":9992,"Ġagency":9993,"Ġovert":9994,"ĠYo":9995,"ĠYouth":9996,"Ġevolution":9997,"Ġfee":9998,"ĠAsomtav":9999,"Ġdecisions":10000,"ugu":10001,"ĠMars":10002,"ĠMarie":10003,"Ġproduces":10004,"Ġraising":10005,"Ġraids":10006,"Ġincom":10007,"Ġ129":10008,"ĠJoh":10009,"azirid":10010,"Ġorigins":10011,"ĠConstitution":10012,"Ġstring":10013,"Ġapproaching":10014,"Ġexplicit":10015,"Ġsentences":10016,"Ġopposing":10017,"eteries":10018,"ĠCountry":10019,"Ġtwent":10020,"Ġbehalf":10021,"Ġvictim":10022,"Ġsket":10023,"ĠWestminster":10024,"Ġsolar":10025,"Ġdestroyer":10026,"ĠScientologists":10027,"Ġadmin":10028,"ĠGlass":10029,"Ġrede":10030,"grad":10031,"Ġvalid":10032,"Ġfacil":10033,"Ġasking":10034,"Ġflooded":10035,"Ġreactions":10036,"Ġtransported":10037,"Ġmaintaining":10038,"Ġobjectives":10039,"ASP":10040,"ĠCongo":10041,"Ġcredits":10042,"Ġkilometers":10043,"Ġsevent":10044,"ĠDjokovic":10045,"ĠBooks":10046,"ĠCatechism":10047,"Ġinhab":10048,"Ġpatterns":10049,"Ġprinted":10050,"Ġpreparing":10051,"Ġflew":10052,"ĠOfficial":10053,"Ġwealthy":10054,"Ġfrigates":10055,"Ġproportion":10056,"Ġaccompanying":10057,"Ġbrigades":10058,"Ġinterpreted":10059,"Ġneighborhood":10060,"Ġdeterior":10061,"Ġoxygen":10062,"ĠNapoleon":10063,"ĠAsomtavruli":10064,"hous":10065,"Ġsample":10066,"eded":10067,"Ġwishes":10068,"Ġcous":10069,"Ġfles":10070,"esters":10071,"Ġtom":10072,"Ġtouring":10073,"rov":10074,"icians":10075,"Ġdust":10076,"Ġduration":10077,"Ġhosp":10078,"ĠhPa":10079,"ĠTNA":10080,"ĠAle":10081,"ĠAman":10082,"ĠSay":10083,"ĠSomet":10084,"ĠCred":10085,"adi":10086,"ĠMant":10087,"Ġonwards":10088,"Ġgirls":10089,"Ġstim":10090,"ĠRag":10091,"ĠDw":10092,"ĠDin":10093,"ĠDor":10094,"ĠDud":10095,"ĠNS":10096,"ĠNat":10097,"ĠLin":10098,"ĠLane":10099,"ĠJen":10100,"umented":10101,"ĠEug":10102,"ĠOmar":10103,"Ġvel":10104,"arded":10105,"ĠKin":10106,"ĠKon":10107,"Ġshift":10108,"ĠChampions":10109,"Ġunex":10110,"ĠVic":10111,"Ġcompens":10112,"Ġcomponent":10113,"Ġaboard":10114,"Ġdisband":10115,"ibl":10116,"ĠYellow":10117,"aceous":10118,"Ġenroll":10119,"Ġpretty":10120,"Ġcommenced":10121,"oyd":10122,"Ġdece":10123,"ĠMariana":10124,"Ġtrunk":10125,"obi":10126,"Ġrains":10127,"Ġcoff":10128,"Ġfourteen":10129,"Ġindeed":10130,"Ġ128":10131,"Ġrecept":10132,"Ġ118":10133,"Ġrepairs":10134,"emble":10135,"ĠShell":10136,"Ġsignal":10137,"Ġmathem":10138,"ĠCarre":10139,"Ġgovernments":10140,"Ġadvoc":10141,"Ġdams":10142,"yself":10143,"Ġcommanders":10144,"Ġeventual":10145,"Ġexplain":10146,"Ġ1922":10147,"Ġsoldier":10148,"Ġanthem":10149,"Ġexperiment":10150,"Ġordering":10151,"Ġtourist":10152,"Ġcommentary":10153,"Ġ1889":10154,"Ġrepresentation":10155,"Ġescaped":10156,"Ġhoused":10157,"ĠMetro":10158,"Ġdocumented":10159,"Ġarchaeologist":10160,"ĠPrize":10161,"Ġambassador":10162,"Ġceratops":10163,"Ġpolicies":10164,"Ġboxing":10165,"Ġessay":10166,"ĠCharlotte":10167,"Ġastero":10168,"Ġ766":10169,"Ġreinforced":10170,"Ġdisplaced":10171,"ĠJoshua":10172,"bourne":10173,"Ġrhyme":10174,"Ġuniversities":10175,"Ġhoriz":10176,"ĠImagine":10177,"Ġreforms":10178,"Ġvolunteers":10179,"ĠCubs":10180,"Ġhydrogen":10181,"Ġvicinity":10182,"Ġdubbed":10183,"Ġconversation":10184,"arthy":10185,"ĠIslamic":10186,"Ġclothing":10187,"Ġmystery":10188,"Ġphrase":10189,"ĠEshmun":10190,"ĠGuinea":10191,"60":10192,"ME":10193,"gian":10194,"rh":10195,"Ġï":10196,"Ġwors":10197,"aters":10198,"itter":10199,"Ġca":10200,"Ġchest":10201,"Ġcavalry":10202,"Ġinher":10203,"Ġmand":10204,"ĠSyn":10205,"ĠCant":10206,"ĠCyr":10207,"Ġlin":10208,"Ġlad":10209,"elson":10210,"Ġgat":10211,"imon":10212,"ĠHur":10213,"ĠPas":10214,"ĠPle":10215,"Ġbeam":10216,"emen":10217,"Ġbypass":10218,"ĠNi":10219,"ĠNDH":10220,"ĠLim":10221,"aguchi":10222,"Ġvital":10223,"Ġrushed":10224,"ocent":10225,"ĠKings":10226,"Ġplatinum":10227,"Ġshorter":10228,"ĠStav":10229,"astra":10230,"ova":10231,"Ġspots":10232,"class":10233,"Ġcomprom":10234,"Ġcompilation":10235,"orks":10236,"Ġattorney":10237,"Ġfeeding":10238,"ĠSev":10239,"ĠSeven":10240,"Ġcanal":10241,"Ġassert":10242,"Ġpeoples":10243,"Ġbuy":10244,"Ġacids":10245,"Ġintercept":10246,"ĠLeigh":10247,"Ġpublishing":10248,"aho":10249,"Ġartistic":10250,"Ġrunners":10251,"ĠBlu":10252,"ĠBlues":10253,"Ġsixteen":10254,"Ġedited":10255,"Ġcharacteristic":10256,"ĠHerald":10257,"ĠHeritage":10258,"byter":10259,"ometric":10260,"Ġmarry":10261,"Ġapproaches":10262,"ungle":10263,"Ġhumor":10264,"incial":10265,"Ġlegit":10266,"Ġ240":10267,"ĠXenon":10268,"aughters":10269,"ĠCentre":10270,"ĠRomanian":10271,"Ġaffili":10272,"Ġpresentation":10273,"Ġreader":10274,"ĠExper":10275,"ĠFederation":10276,"Ġredes":10277,"Ġconnecting":10278,"ĠMorgan":10279,"ĠMcCarthy":10280,"Ġanimated":10281,"Ġtested":10282,"Ġclosure":10283,"Ġindustries":10284,"ĠPeach":10285,"Ġpoetic":10286,"legraph":10287,"Ġblocked":10288,"Ġdepicting":10289,"ĠInterchange":10290,"Ġobservation":10291,"ĠRobinson":10292,"Ġboundaries":10293,"ĠSpecies":10294,"ĠFinally":10295,"Ġchampionships":10296,"Ġadministrative":10297,"Ġaggreg":10298,"ĠColumbus":10299,"Ġtimber":10300,"Ġadvertis":10301,"Ġcomprised":10302,"Ġhamlet":10303,"ĠWorks":10304,"ropolis":10305,"Ġsolely":10306,"Ġdisturbance":10307,"Ġcemeteries":10308,"Ġsubsid":10309,"Ġchoose":10310,"ĠLeonard":10311,"ĠSorra":10312,"Ġbalance":10313,"Ġsuddenly":10314,"ĠAmbassador":10315,"ĠDescription":10316,"Ġindigenous":10317,"Ġvulner":10318,"ĠWicca":10319,"ĠNevada":10320,"ĠChevaliers":10321,"fly":10322,"mates":10323,"tic":10324,"inces":10325,"Ġsized":10326,"Ġsitting":10327,"aro":10328,"Ġbore":10329,"Ġpse":10330,"Ġpull":10331,"Ġpages":10332,"Ġhi":10333,"ĠSau":10334,"ĠSection":10335,"stal":10336,"ĠCad":10337,"ĠCress":10338,"Ġlamb":10339,"lyn":10340,"ĠBald":10341,"ĠBuck":10342,"Ġgang":10343,"Ġgift":10344,"ĠPam":10345,"ĠPak":10346,"ĠPrest":10347,"ĠFif":10348,"ĠFreak":10349,"Ġisot":10350,"ĠNu":10351,"ĠNett":10352,"ĠWelling":10353,"ĠLocal":10354,"ĠGaz":10355,"ĠJard":10356,"ĠEconom":10357,"ĠOw":10358,"Ġseas":10359,"Ġseats":10360,"ĠKnow":10361,"Ġchain":10362,"mented":10363,"Ġspawn":10364,"Ġcler":10365,"ĠHey":10366,"Ġresol":10367,"Ġabilities":10368,"landers":10369,"ilda":10370,"athy":10371,"Ġthemed":10372,"Ġacted":10373,"Ġacceler":10374,"Ġ106":10375,"Ġepic":10376,"Ġsigns":10377,"Ġmature":10378,"Ġrunway":10379,"ĠClaud":10380,"ĠCarmel":10381,"ĠCommons":10382,"Ġhelium":10383,"Ġdetected":10384,"Ġportions":10385,"ĠChristine":10386,"ĠMcK":10387,"rett":10388,"appy":10389,"Ġtracked":10390,"Ġstarter":10391,"Ġreplacing":10392,"Ġcourses":10393,"Ġ230":10394,"Ġtraded":10395,"Ġstatements":10396,"restrial":10397,"Ġsolution":10398,"Ġobsc":10399,"aski":10400,"Ġpitching":10401,"ĠImm":10402,"Ġfunctions":10403,"Ġprofession":10404,"mediate":10405,"Ġembarked":10406,"ĠRhys":10407,"opping":10408,"ĠPoet":10409,"ĠStudies":10410,"Ġarchaeologists":10411,"ĠCollection":10412,"Ġsemif":10413,"Ġpairs":10414,"Ġindicates":10415,"ĠForeign":10416,"ĠRAR":10417,"ĠPhilippine":10418,"Ġpilots":10419,"Ġtranslated":10420,"Ġpleasure":10421,"Ġpunishment":10422,"Ġrecommend":10423,"ĠHawaiian":10424,"ĠCommunity":10425,"Ġwait":10426,"Ġillustrated":10427,"Ġflagship":10428,"Ġbeliefs":10429,"ĠSweden":10430,"Ġmolecules":10431,"ĠDodgers":10432,"Ġaerial":10433,"Ġunnamed":10434,"ĠAbbey":10435,"ĠPulaski":10436,"ĠDynasty":10437,"Ġrebellion":10438,"ĠMalaysia":10439,"Ġbombs":10440,"Ġjunior":10441,"Ġentertainment":10442,"Grom":10443,"chens":10444,"dict":10445,"eu":10446,"ele":10447,"krit":10448,"lights":10449,"uations":10450,"zer":10451,"zong":10452,"Ġæ":10453,"Ġsin":10454,"Ġwives":10455,"orig":10456,"itic":10457,"Ġcro":10458,"Ġcir":10459,"eness":10460,"esi":10461,"Ġinduct":10462,"Ġpron":10463,"roke":10464,"Ġdual":10465,"Ġdanger":10466,"Ġdaughters":10467,"ĠSisler":10468,"ĠCem":10469,"ĠCater":10470,"ĠCullen":10471,"Ġnaming":10472,"ĠBapt":10473,"Ġforg":10474,"othe":10475,"ĠPanz":10476,"ĠFood":10477,"ĠNag":10478,"ĠNose":10479,"ĠWN":10480,"ĠList":10481,"ĠGill":10482,"umble":10483,"riarch":10484,"odrom":10485,"Ġriding":10486,"ĠIns":10487,"Ġsew":10488,"Ġseized":10489,"ĠKle":10490,"ĠKÅį":10491,"Ġexport":10492,"Ġshrine":10493,"Ġshallow":10494,"Ġkid":10495,"ĠChron":10496,"ĠVel":10497,"Ġintegr":10498,"Ġclay":10499,"Ġclothes":10500,"Ġperceived":10501,"ĠThir":10502,"achment":10503,"Ġattitude":10504,"Ġenzy":10505,"Ġknock":10506,"Ġknocked":10507,"Ġcolossal":10508,"Ġpositively":10509,"Ġcancel":10510,"ansfield":10511,"Ġregistered":10512,"Ġ104":10513,"Ġtrails":10514,"ĠZoo":10515,"Ġtransmission":10516,"ĠIndians":10517,"Ġcontinuous":10518,"ĠJohnny":10519,"Ġpassion":10520,"Ġfamiliar":10521,"Ġphone":10522,"ĠAdela":10523,"Ġvaried":10524,"ĠGuadal":10525,"ĠMcN":10526,"Ġcaps":10527,"Ġrequires":10528,"Ġeastward":10529,"ĠEdge":10530,"Ġconvey":10531,"Ġconvention":10532,"Ġforecast":10533,"ĠParker":10534,"Ġreportedly":10535,"Ġaffairs":10536,"ficial":10537,"Ġcharted":10538,"Ġideal":10539,"hemical":10540,"Ġrevival":10541,"Ġestimates":10542,"Ġreduction":10543,"ĠRepresent":10544,"Ġrulers":10545,"Ġhyg":10546,"ĠValve":10547,"ĠOperations":10548,"Ġarchaeology":10549,"Ġcertainly":10550,"ĠPrix":10551,"ĠBurm":10552,"Ġquestions":10553,"Ġceleb":10554,"ĠWoodhouse":10555,"ĠBobby":10556,"Ġweakening":10557,"Ġsalv":10558,"Ġqualified":10559,"ĠWWF":10560,"Ġcandidates":10561,"ĠIntelligence":10562,"Ġmeasurements":10563,"Ġsubmarines":10564,"ĠGardner":10565,"ĠHonor":10566,"ĠBruce":10567,"ĠBelgian":10568,"Ġtonnes":10569,"Ġjuven":10570,"ĠImpact":10571,"ĠTetrarchs":10572,"Ġupdated":10573,"ĠTigers":10574,"ĠKawaguchi":10575,"Ġashore":10576,"Ġphotographs":10577,"ĠDigital":10578,"Ġcancelled":10579,"ĠSanskrit":10580,"ĠCredits":10581,"ĠDudley":10582,"ĠSorraia":10583,"ĠNosek":10584,"ĠAdelaide":10585,"ED":10586,"FL":10587,"Sh":10588,"budo":10589,"ds":10590,"tz":10591,"á¹":10592,"Ġump":10593,"Ġtet":10594,"Ġaw":10595,"oned":10596,"reated":10597,"Ġcode":10598,"Ġfusion":10599,"isen":10600,"arc":10601,"Ġbarr":10602,"Ġtox":10603,"Ġdod":10604,"ĠTow":10605,"ĠTask":10606,"Ġreward":10607,"Ġreaches":10608,"ĠSel":10609,"ĠSac":10610,"ĠSter":10611,"ĠCart":10612,"Ġliv":10613,"Ġlying":10614,"eling":10615,"ĠMix":10616,"ĠBird":10617,"ĠBidd":10618,"olin":10619,"terior":10620,"uther":10621,"ĠPu":10622,"ĠPole":10623,"ĠRat":10624,"ĠRav":10625,"ĠDover":10626,"ĠDance":10627,"ĠFul":10628,"ĠFord":10629,"ĠWASP":10630,"raid":10631,"ĠLakes":10632,"ĠGot":10633,"andra":10634,"ĠanekÄģntavÄģda":10635,"avor":10636,"odont":10637,"oping":10638,"Ġram":10639,"ante":10640,"ĠKau":10641,"earing":10642,"Ġshop":10643,"ishops":10644,"ĠVis":10645,"ĠVeer":10646,"soft":10647,"Ġcompre":10648,"orms":10649,"Ġusual":10650,"Ġjew":10651,"aceae":10652,"Ġrelatives":10653,"Ġendors":10654,"Ġqueen":10655,"Ġaccum":10656,"ĠJoint":10657,"Ġbacked":10658,"Ġ167":10659,"Ġ168":10660,"Ġdepiction":10661,"Ġminimal":10662,"venge":10663,"Ġextending":10664,"ĠBristol":10665,"ĠPlate":10666,"Ġsuccessive":10667,"Ġfinale":10668,"ĠDead":10669,"ĠDeep":10670,"Ġbrut":10671,"ĠMcE":10672,"Ġslopes":10673,"Ġcommands":10674,"ĠParamount":10675,"Ġreplied":10676,"hester":10677,"Ġroadway":10678,"Ġarchbishop":10679,"ĠXII":10680,"Ġsignificance":10681,"Ġ1902":10682,"Ġ1906":10683,"Ġgenetic":10684,"ĠImbudo":10685,"rieved":10686,"ĠNeves":10687,"Ġtenure":10688,"Ġranks":10689,"Ġcommenting":10690,"Ġsuperst":10691,"Ġaudio":10692,"Ġlacking":10693,"Ġ1888":10694,"Ġzones":10695,"Ġemployment":10696,"Ġillness":10697,"Ġmachinery":10698,"guard":10699,"Ġfailing":10700,"Ġunclear":10701,"Ġunderstood":10702,"ĠTwenty":10703,"Ġpursuit":10704,"Ġrecovery":10705,"Ġdeployment":10706,"Ġsearching":10707,"ĠDefense":10708,"Ġrescued":10709,"Ġfastest":10710,"Ġdissipating":10711,"Ġdiamond":10712,"ĠArgentine":10713,"yclic":10714,"ĠIdaho":10715,"ĠObserv":10716,"ĠBriggs":10717,"Ġenlisted":10718,"ĠSioux":10719,"Ġvertebra":10720,"Ġimmigration":10721,"ĠIngres":10722,"Ġdoctrine":10723,"ĠChronicles":10724,"Ġcinema":10725,"ĠTelugu":10726,"Ġrelieved":10727,"ĠProfessor":10728,"Ġtissue":10729,"Ġtubes":10730,"Ġflesh":10731,"Ġhospitals":10732,"ĠCresswell":10733,"ĠNettles":10734,"ĠJardine":10735,"ĠBiddenden":10736,"AR":10737,"Ar":10738,"Tube":10739,"bie":10740,"ja":10741,"Ġsoci":10742,"Ġwore":10743,"Ġwrestling":10744,"Ġfir":10745,"Ġfame":10746,"isle":10747,"Ġpush":10748,"asa":10749,"Ġmental":10750,"Ġda":10751,"Ġhitting":10752,"Ġrevenue":10753,"ĠSultan":10754,"Ġlover":10755,"Ġgor":10756,"Ġgaining":10757,"Ġghost":10758,"ĠHM":10759,"ĠHem":10760,"ĠRandy":10761,"ĠDersh":10762,"ĠDennis":10763,"rav":10764,"ĠLad":10765,"ĠGround":10766,"herry":10767,"agers":10768,"rip":10769,"Ġcomfort":10770,"Ġproceeded":10771,"Ġrivals":10772,"ocity":10773,"Ġexclud":10774,"Ġexecut":10775,"Ġshru":10776,"ounced":10777,"ĠVisc":10778,"sole":10779,"Ġabroad":10780,"Ġrotation":10781,"Ġpermitted":10782,"place":10783,"Ġ1800":10784,"izal":10785,"ĠAlmost":10786,"Ġjungle":10787,"phant":10788,"ressions":10789,"Ġprefect":10790,"oyle":10791,"Ġacute":10792,"Ġdoctor":10793,"ĠZap":10794,"ĠZanz":10795,"Ġpresents":10796,"Ġbacking":10797,"ylogen":10798,"Ġ169":10799,"azer":10800,"Ġmainstream":10801,"ĠIndies":10802,"Ġsignature":10803,"Ġwarned":10804,"Ġconstantly":10805,"ĠPlaces":10806,"Ġsuccession":10807,"ĠProte":10808,"ĠGuild":10809,"Ġpublicly":10810,"Ġports":10811,"ĠCanning":10812,"ambo":10813,"Ġboil":10814,"Ġdemanded":10815,"ographical":10816,"Ġstronger":10817,"ĠParks":10818,"Ġhistorically":10819,"Ġfactor":10820,"Ġ1903":10821,"regular":10822,"ĠYouTube":10823,"ĠMagic":10824,"Ġ1895":10825,"brace":10826,"Ġhostile":10827,"Ġarguing":10828,"Ġbiological":10829,"Ġcopy":10830,"Ġpersist":10831,"Ġpersons":10832,"ĠValent":10833,"ĠRussell":10834,"Ġheavier":10835,"Ġgolden":10836,"Ġautumn":10837,"Ġflowers":10838,"Ġconsistent":10839,"Ġcontroller":10840,"Ġwalks":10841,"ĠJosÃ©":10842,"ĠTriple":10843,"Ġmagnetic":10844,"Ġmanufacturing":10845,"Ġsailors":10846,"Ġhorror":10847,"Ġvenue":10848,"ĠUsher":10849,"Ġmolecular":10850,"Ġownership":10851,"Ġhouseholds":10852,"Ġrepeatedly":10853,"Ġsynthesis":10854,"Ġcategory":10855,"ĠAlberta":10856,"Ġexactly":10857,"Ġtalent":10858,"Ġpregnant":10859,"ĠPattyc":10860,"Ġshifted":10861,"Ġpuzzles":10862,"Ġexhausted":10863,"ĠARVN":10864,"Ġbombardment":10865,"ĠUtah":10866,"Ġmerchant":10867,"Ġrecurring":10868,"ĠArkansas":10869,"ĠBennett":10870,"ĠMitchell":10871,"Ġphenomen":10872,"ĠAmanita":10873,"ĠWellington":10874,"ĠChrono":10875,"ĠBurmese":10876,"ĠNevesinje":10877,"ĠDershowitz":10878,"ĠZanzib":10879,"ĠPattycake":10880,"EA":10881,"Xe":10882,"bro":10883,"bow":10884,"cut":10885,"cover":10886,"din":10887,"hr":10888,"oons":10889,"uters":10890,"Ġtape":10891,"inaw":10892,"Ġstern":10893,"Ġsick":10894,"Ġwaves":10895,"itely":10896,"Ġcensus":10897,"Ġfru":10898,"ario":10899,"Ġincl":10900,"Ġindu":10901,"Ġpushing":10902,"Ġdressed":10903,"ĠTong":10904,"ĠTak":10905,"ĠTales":10906,"Ġreper":10907,"ĠAud":10908,"Ġnose":10909,"ĠBox":10910,"ĠBatter":10911,"ĠIowa":10912,"ivation":10913,"ĠHad":10914,"ĠHoll":10915,"ĠHannah":10916,"owed":10917,"Ġstabil":10918,"Ġstellar":10919,"ĠPic":10920,"Ġbeings":10921,"Ġheir":10922,"ĠFut":10923,"Ġconce":10924,"ĠWik":10925,"ĠGael":10926,"ested":10927,"atever":10928,"ĠKid":10929,"ĠKrist":10930,"Ġchampions":10931,"Ġshield":10932,"Ġshirt":10933,"ĠStand":10934,"Ġspan":10935,"Ġlect":10936,"Ġintr":10937,"ibilities":10938,"Ġenorm":10939,"awak":10940,"atha":10941,"Ġretail":10942,"Ġspeculation":10943,"Ġaccus":10944,"erto":10945,"Ġ154":10946,"Ġ111":10947,"Ġ174":10948,"Ġmini":10949,"Ġextend":10950,"Ġdistrib":10951,"Ġfinest":10952,"enna":10953,"Ġ131":10954,"linger":10955,"Ġincreases":10956,"Ġmargin":10957,"ĠYorkshire":10958,"ĠAndre":10959,"Ġdrinking":10960,"ospel":10961,"ambia":10962,"Ġreviewed":10963,"Ġcoverage":10964,"ĠWeir":10965,"Ġmyster":10966,"Ġ220":10967,"Ġposts":10968,"atorial":10969,"Ġ1904":10970,"ĠJackets":10971,"ĠNeil":10972,"Ġrevived":10973,"Ġcampaigns":10974,"ĠCoal":10975,"Ġpromotional":10976,"brush":10977,"Ġanimation":10978,"Ġtestified":10979,"Ġcutting":10980,"Ġargument":10981,"Ġpersisted":10982,"ĠPohl":10983,"Ġpeninsula":10984,"Ġbombers":10985,"Ġguitarist":10986,"Ġseriously":10987,"Ġlifetime":10988,"Ġchallenged":10989,"Ġprecip":10990,"Ġgrandfather":10991,"Ġirregular":10992,"Ġprinting":10993,"Ġquestioned":10994,"Ġcompositions":10995,"ĠLloyd":10996,"Ġpictures":10997,"Ġhamper":10998,"Ġarrangements":10999,"Ġresemble":11000,"ĠGarden":11001,"Ġpetition":11002,"Ġoccasional":11003,"Ġfarmers":11004,"Ġsubtropical":11005,"ĠKenneth":11006,"Ġsteadily":11007,"Ġsongwriter":11008,"Ġrenewed":11009,"Ġgravity":11010,"Ġdensity":11011,"Ġpredominantly":11012,"Ġibis":11013,"ĠâĤ¹":11014,"Ġbonus":11015,"Ġfuneral":11016,"ĠPreston":11017,"ĠCemetery":11018,"CE":11019,"CU":11020,"RNA":11021,"VP":11022,"dream":11023,"net":11024,"ss":11025,"xim":11026,"inness":11027,"inÃ¡":11028,"eries":11029,"Ġsings":11030,"oric":11031,"Ġbull":11032,"alo":11033,"Ġtours":11034,"rooms":11035,"Ġmud":11036,"Ġmyself":11037,"Ġreag":11038,"Ġreop":11039,"ĠSag":11040,"ĠShip":11041,"ĠSkin":11042,"ĠCry":11043,"ĠCricket":11044,"Ġnave":11045,"ĠMission":11046,"ĠMembers":11047,"uras":11048,"ĠBour":11049,"ĠIRA":11050,"olly":11051,"iga":11052,"ĠHarris":11053,"Ġstorage":11054,"ĠPound":11055,"ĠRab":11056,"ĠNadal":11057,"ĠNelson":11058,"ĠWol":11059,"ĠLooking":11060,"osph":11061,"agger":11062,"ĠEth":11063,"Ġdeals":11064,"ĠKate":11065,"ĠKiss":11066,"Ġchicks":11067,"Ġexternal":11068,"ipel":11069,"apolis":11070,"Ġunw":11071,"Ġunrest":11072,"Ġintellig":11073,"ĠHeb":11074,"Ġscrap":11075,"Ġagencies":11076,"Ġjet":11077,"Ġjaw":11078,"arest":11079,"Ġovers":11080,"Ġouts":11081,"Ġearn":11082,"Ġacre":11083,"ĠLeeds":11084,"ĠReb":11085,"Ġ108":11086,"aja":11087,"Ġpreserve":11088,"azing":11089,"Ġpopul":11090,"Ġmetall":11091,"Ġdescript":11092,"Ġcontinu":11093,"Ġcontinental":11094,"ĠWarrior":11095,"Ġextinct":11096,"ĠIsesi":11097,"Ġdiscont":11098,"Ġ135":11099,"asha":11100,"Ġadvised":11101,"Ġguide":11102,"Ġguarant":11103,"Ġportr":11104,"Ġexploration":11105,"Ġmarking":11106,"Ġlegacy":11107,"Ġinvolves":11108,"Ġauthorized":11109,"Ġannouncement":11110,"Ġpraising":11111,"Ġsummar":11112,"Ġoccurring":11113,"Ġprocessing":11114,"Ġaudition":11115,"ĠMadero":11116,"Ġvolumes":11117,"mingham":11118,"ĠSerbs":11119,"Ġrepresentatives":11120,"Ġcommerce":11121,"Ġceased":11122,"Ġcease":11123,"ĠDaydream":11124,"Ġmeasuring":11125,"Ġhomosexual":11126,"ĠCrusad":11127,"Ġthreats":11128,"ĠLaure":11129,"ĠGrace":11130,"ĠTommy":11131,"ĠPete":11132,"Ġmurd":11133,"Ġexamination":11134,"ĠEverton":11135,"ĠJeremy":11136,"ĠSenator":11137,"ĠHoover":11138,"Ġmorph":11139,"Ġtaxon":11140,"Ġlandscape":11141,"ĠContem":11142,"Ġconstitu":11143,"Ġangle":11144,"Ġremarkable":11145,"Ġmemories":11146,"Ġmortar":11147,"ĠBirmingham":11148,"ĠRailroad":11149,"Ġruins":11150,"ĠGregory":11151,"Ġexplosive":11152,"ĠCooke":11153,"Ġstreams":11154,"ĠSpacey":11155,"Ġsanct":11156,"Ġhelicopter":11157,"Ġcommitment":11158,"ĠLessing":11159,"Ġpregnancy":11160,"ĠEccl":11161,"Ġabsorbed":11162,"Ġrecruited":11163,"ĠToninÃ¡":11164,"ĠAdministration":11165,"penter":11166,"ĠPerformance":11167,"Ġvelocity":11168,"ĠBaptist":11169,"ĠGaelic":11170,"col":11171,"face":11172,"pur":11173,"wall":11174,"ÉĻ":11175,"Ġath":11176,"Ġsav":11177,"atum":11178,"ito":11179,"itis":11180,"Ġfaster":11181,"anch":11182,"Ġboot":11183,"Ġpp":11184,"asco":11185,"Ġmood":11186,"ĠTar":11187,"ĠTac":11188,"ĠSet":11189,"ĠSud":11190,"stown":11191,"ĠCu":11192,"Ġlumber":11193,"ĠBes":11194,"ĠBog":11195,"ĠBull":11196,"Ġgene":11197,"Ġgusts":11198,"ĠHub":11199,"Ġascend":11200,"ĠPa":11201,"ĠPil":11202,"ĠPra":11203,"ationally":11204,"ĠRic":11205,"ĠRAF":11206,"emi":11207,"ĠDS":11208,"ĠFried":11209,"Ġalignment":11210,"ĠName":11211,"ĠNine":11212,"ĠLam":11213,"ĠLover":11214,"ĠLiving":11215,"ĠLiter":11216,"andal":11217,"ĠOk":11218,"ĠOst":11219,"ework":11220,"ĠStill":11221,"oves":11222,"aping":11223,"ĠVeg":11224,"Ġcompan":11225,"ĠThan":11226,"iley":11227,"Ġscre":11228,"Ġaftermath":11229,"phone":11230,"veland":11231,"Ġconsent":11232,"icking":11233,"ĠSeattle":11234,"ĠCommer":11235,"Ġundergo":11236,"alsa":11237,"ĠNewman":11238,"Ġverses":11239,"Ġacoust":11240,"Ġacyclic":11241,"Ġquiet":11242,"rowed":11243,"Ġdirecting":11244,"Ġdownstream":11245,"ĠWhit":11246,"ĠIsle":11247,"Ġdistant":11248,"Ġdistances":11249,"Ġinsisted":11250,"ĠManuel":11251,"Ġbrilliant":11252,"ĠAllosaurus":11253,"inae":11254,"Ġvariations":11255,"ĠBegin":11256,"issioned":11257,"ĠParachute":11258,"ĠTelegraph":11259,"ĠBrother":11260,"luence":11261,"Ġhelps":11262,"Ġcurved":11263,"Ġspeaker":11264,"Ġtroop":11265,"ĠBarbar":11266,"Ġafford":11267,"Ġdestroying":11268,"ringe":11269,"Ġlimits":11270,"ĠImport":11271,"Ġcougars":11272,"Ġmounts":11273,"Ġblacks":11274,"ĠSecurity":11275,"Ġsummit":11276,"Ġprize":11277,"Ġballad":11278,"Ġrounded":11279,"Ġpredict":11280,"Ġpredicted":11281,"Ġconnections":11282,"Ġvolcan":11283,"ĠBoog":11284,"ĠChristianity":11285,"Ġtraveling":11286,"ĠUndertaker":11287,"Ġcomplicated":11288,"Ġcounterp":11289,"Ġconsistently":11290,"Ġcollections":11291,"Ġlogic":11292,"ĠJustin":11293,"Ġdisappeared":11294,"Ġcamer":11295,"Ġinteractions":11296,"ĠDerff":11297,"Ġ1819":11298,"Ġconcentration":11299,"uzzle":11300,"ĠPopular":11301,"Ġpalace":11302,"Ġroller":11303,"Ġfragments":11304,"Ġsending":11305,"ĠDarwin":11306,"ĠMovie":11307,"Ġagriculture":11308,"ĠCleveland":11309,"Ġparliamentary":11310,"Ġcalculated":11311,"ĠMarshal":11312,"Ġsurrendered":11313,"Ġnoble":11314,"Ġsympt":11315,"urrently":11316,"Ġpreceding":11317,"Ġtickets":11318,"ĠSupport":11319,"Ê»i":11320,"Ġcondemned":11321,"ĠGlobe":11322,"ĠHampshire":11323,"ĠSoutheast":11324,"Ġconjunction":11325,"ĠInternet":11326,"Ġcousin":11327,"ĠDwight":11328,"ĠStavanger":11329,"ĠViscount":11330,"ĠVegas":11331,"IP":11332,"eals":11333,"nh":11334,"pa":11335,"run":11336,"uating":11337,"Ä«":11338,"Ġtorn":11339,"Ġtaste":11340,"Ġcattle":11341,"arov":11342,"Ġpistol":11343,"Ġmal":11344,"Ġmild":11345,"Ġmentions":11346,"Ġdanc":11347,"Ġho":11348,"oub":11349,"Ġreun":11350,"Ġrejo":11351,"ĠAction":11352,"ĠArabs":11353,"Ġthrown":11354,"street":11355,"ĠCN":11356,"ĠCz":11357,"ĠCow":11358,"eland":11359,"acan":11360,"ĠMÄģ":11361,"ĠMorning":11362,"ĠMVP":11363,"Ġgran":11364,"idal":11365,"ĠHNC":11366,"ĠPear":11367,"ĠRing":11368,"ĠFit":11369,"ulates":11370,"ĠWorth":11371,"Ġatop":11372,"ĠLabyrinth":11373,"ĠGran":11374,"romet":11375,"istical":11376,"ĠEg":11377,"ĠOcc":11378,"Ġsupre":11379,"Ġexceed":11380,"ĠStat":11381,"season":11382,"ĠChand":11383,"Ġunst":11384,"oulder":11385,"Ġclar":11386,"Ġresid":11387,"Ġrout":11388,"Ġdisrupt":11389,"Ġdesper":11390,"action":11391,"Ġmaneu":11392,"ikk":11393,"Ġoffshore":11394,"wegian":11395,"Ġnep":11396,"ĠAsahi":11397,"ĠSega":11398,"ĠMarge":11399,"ĠArn":11400,"Ġflies":11401,"Ġcanon":11402,"ĠNewport":11403,"Ġreleasing":11404,"anka":11405,"Ġ102":11406,"ĠZr":11407,"itsu":11408,"ĠAftermath":11409,"Ġheading":11410,"Ġcouldn":11411,"Ġoperas":11412,"Ġmatters":11413,"Ġairborne":11414,"ĠIsles":11415,"Ġguides":11416,"ĠBeau":11417,"Ġgrade":11418,"ĠChristi":11419,"Ġconfusion":11420,"Ġprogressed":11421,"Ġmedal":11422,"ĠCompanies":11423,"ĠEdson":11424,"Ġplanes":11425,"Ġcommunist":11426,"Ġaviation":11427,"iscus":11428,"ĠRomania":11429,"Ġlimestone":11430,"Ġfriendship":11431,"Ġcasem":11432,"ĠMonth":11433,"Ġvaluable":11434,"Ġimprovement":11435,"ĠBoat":11436,"Ġinvestment":11437,"ĠSmall":11438,"ĠAngelou":11439,"ĠCorpus":11440,"ĠLaud":11441,"ĠOpera":11442,"Ġviolation":11443,"Ġpenetr":11444,"Ġdenomin":11445,"ĠTraining":11446,"Ġ1849":11447,"ĠServices":11448,"Ġpresidential":11449,"Ġcounteratt":11450,"Ġbowling":11451,"Ġhoping":11452,"ĠHumph":11453,"itchcraft":11454,"Ġcelebrate":11455,"Ġbeaten":11456,"Ġhabitats":11457,"ĠHawaiÊ»i":11458,"ĠHalo":11459,"Ġvoices":11460,"Ġthirteen":11461,"Ġsensitive":11462,"ĠLarry":11463,"ĠMDOT":11464,"Ġrequirements":11465,"ĠTrue":11466,"Ġtunnels":11467,"ĠNightingale":11468,"ĠGraham":11469,"Ġsegments":11470,"Ġsweet":11471,"ĠRifenburg":11472,"ĠColdrum":11473,"Ġexclusive":11474,"Ġenlar":11475,"Ġtransformed":11476,"Ġignored":11477,"Ġvertex":11478,"Ġamphibious":11479,"ĠWyoming":11480,"Ġicon":11481,"Ġwickets":11482,"Ġpartnership":11483,"Ġdiplomatic":11484,"Ġdependent":11485,"Ġrelegated":11486,"ĠCombat":11487,"Ġleukemia":11488,"Ġdeliberately":11489,"schild":11490,"ĠMargaret":11491,"ĠFernandez":11492,"Ġrestrictions":11493,"ĠSymph":11494,"Ġincomple":11495,"iblical":11496,"ĠXIII":11497,"ĠDerfflinger":11498,"ĠMÄģori":11499,"eh":11500,"fam":11501,"hog":11502,"rink":11503,"Ã¬":11504,"Ġtag":11505,"inished":11506,"atis":11507,"atem":11508,"atra":11509,"itches":11510,"itects":11511,"itudes":11512,"Ġcash":11513,"Ġcosm":11514,"Ġfiled":11515,"Ġpec":11516,"Ġpunt":11517,"icism":11518,"Ġdying":11519,"Ġhind":11520,"ĠTroph":11521,"ĠAff":11522,"ĠAub":11523,"ĠSite":11524,"ĠSora":11525,"Ġlaugh":11526,"omo":11527,"etheless":11528,"olence":11529,"Ġgills":11530,"Ġforb":11531,"irts":11532,"igs":11533,"ayne":11534,"ĠRI":11535,"ĠRul":11536,"ĠRand":11537,"ĠDot":11538,"ĠFiles":11539,"Ġalco":11540,"ĠLÃ¼":11541,"osy":11542,"osity":11543,"ĠJess":11544,"odium":11545,"Ġventure":11546,"iller":11547,"occ":11548,"aba":11549,"abl":11550,"ĠKal":11551,"ĠKem":11552,"ĠKody":11553,"ĠKyle":11554,"quatic":11555,"ĠUP":11556,"ĠUran":11557,"ĠStop":11558,"apur":11559,"Ġunre":11560,"ormal":11561,"Ġscorer":11562,"izers":11563,"ĠAlg":11564,"Ġapply":11565,"Ġmanage":11566,"ĠYam":11567,"phal":11568,"Ġenabled":11569,"anga":11570,"Ġsheep":11571,"Ġdecide":11572,"ĠComedy":11573,"Ġacclaim":11574,"Ġincur":11575,"anya":11576,"Ġlocally":11577,"Ġtrains":11578,"Ġteammate":11579,"Ġaddressed":11580,"aze":11581,"Ġ151":11582,"Ġ152":11583,"Ġsmoke":11584,"Ġshipments":11585,"Ġinfection":11586,"ĠBrun":11587,"ĠSpe":11588,"ĠCloud":11589,"ĠColomb":11590,"ĠCaroly":11591,"tym":11592,"ĠPlaza":11593,"Ġconfron":11594,"Ġtrio":11595,"Ġjustice":11596,"Ġvisits":11597,"Ġdrivers":11598,"eltown":11599,"ĠOrd":11600,"Ġantagon":11601,"Ġexperts":11602,"Ġconvict":11603,"ĠTrond":11604,"Ġ261":11605,"Ġradical":11606,"Ġcasting":11607,"Ġlawyer":11608,"Ġfunny":11609,"ĠMonkey":11610,"Ġcircular":11611,"Ġcircuit":11612,"Ġvocalist":11613,"Ġdevice":11614,"ĠMyc":11615,"Ġtravels":11616,"ĠZealanders":11617,"Ġterritorial":11618,"ĠOlivia":11619,"Ġtruly":11620,"ĠEgyptians":11621,"Ġminority":11622,"Ġchapters":11623,"ĠBurma":11624,"Ġfrequency":11625,"Ġcomplimented":11626,"ĠAntimony":11627,"Ġflows":11628,"ĠTrees":11629,"ĠBradstreet":11630,"ĠNorwegian":11631,"canal":11632,"Ġessentially":11633,"ĠMillennium":11634,"Ġmultipl":11635,"Ġheroes":11636,"Ġtorpedoes":11637,"ĠRoom":11638,"Ġuniversal":11639,"ĠMelbourne":11640,"blazer":11641,"ĠPalestinian":11642,"ĠLucas":11643,"ĠJurchens":11644,"ĠHoriz":11645,"Ġlaboratory":11646,"ĠAriz":11647,"ĠKennedy":11648,"Ġsponsored":11649,"Ġrubber":11650,"Ġcorps":11651,"ĠRemix":11652,"ĠPersonal":11653,"Ġgarden":11654,"Ġprice":11655,"Ġinterpretation":11656,"ĠBedell":11657,"Ġavoided":11658,"Ġdivorce":11659,"ĠCecil":11660,"Ġmanuscripts":11661,"Ġdispatched":11662,"ĠRothschild":11663,"Ġcontradict":11664,"Ġtwentieth":11665,"ĠMantell":11666,"Ġmathemat":11667,"ĠCyrus":11668,"Ġhiatus":11669,"ĠContemporary":11670,"ĠBeginning":11671,"ĠCarolyn":11672,"CW":11673,"Down":11674,"Works":11675,"bal":11676,"case":11677,"lane":11678,"pected":11679,"Æ°":11680,"Ġtel":11681,"Ġarose":11682,"erning":11683,"Ġsib":11684,"Ġsoph":11685,"Ġsaint":11686,"Ġwolf":11687,"Ġwonder":11688,"athetic":11689,"orough":11690,"Ġcrick":11691,"Ġfart":11692,"Ġfires":11693,"Ġing":11694,"Ġpaying":11695,"Ġpuppet":11696,"Ġdawn":11697,"ĠTun":11698,"Ġrever":11699,"ĠAges":11700,"ĠSina":11701,"ilis":11702,"ĠCrab":11703,"Ġliner":11704,"Ġlumin":11705,"Ġnut":11706,"ĠMond":11707,"Ġwaste":11708,"ece":11709,"ĠIA":11710,"ĠIOC":11711,"Ġgarn":11712,"igious":11713,"tering":11714,"ushes":11715,"uto":11716,"Ġherit":11717,"ĠRÃ¤":11718,"ĠData":11719,"ĠLt":11720,"ĠLat":11721,"ĠLyn":11722,"ĠGw":11723,"heric":11724,"eston":11725,"odox":11726,"ĠEtty":11727,"ĠOb":11728,"Ġvir":11729,"Ġrings":11730,"anther":11731,"ĠStars":11732,"ĠStela":11733,"asted":11734,"iph":11735,"aple":11736,"arya":11737,"Ġuncom":11738,"Ġunless":11739,"Ġintact":11740,"Ġadequ":11741,"Ġabuse":11742,"Ġscen":11743,"Ġscream":11744,"overed":11745,"enson":11746,"ikes":11747,"Ġpret":11748,"Ġeval":11749,"Ġallocated":11750,"issions":11751,"ribe":11752,"Ġcentimetres":11753,"Ġknee":11754,"Ġcanals":11755,"Ġretreated":11756,"Ġasserted":11757,"Ġsubord":11758,"Ġmovies":11759,"Ġquoted":11760,"ĠLegend":11761,"ĠLeban":11762,"ĠShim":11763,"Ġdozen":11764,"Ġfounding":11765,"veloped":11766,"Ġinvaded":11767,"ĠZe":11768,"ĠZagre":11769,"Ġexpand":11770,"Ġpopulated":11771,"Ġ116":11772,"Ġinfilt":11773,"ĠBright":11774,"Ġimposed":11775,"Ġlandmark":11776,"ĠClara":11777,"Ġprovincial":11778,"Ġsixty":11779,"Ġadvances":11780,"Ġconcession":11781,"Ġphylogen":11782,"ĠGuatem":11783,"Ġmarched":11784,"Ġprogression":11785,"Ġhalted":11786,"Ġdestination":11787,"ĠStein":11788,"ĠComposition":11789,"Ġstorylines":11790,"ĠPrincip":11791,"Ġpositioned":11792,"Ġcurve":11793,"Ġrealistic":11794,"ĠTristan":11795,"ĠPortland":11796,"Ġarrives":11797,"Ġcompetitive":11798,"Ġskill":11799,"ĠEliot":11800,"ĠAssy":11801,"ĠRegard":11802,"Ġaffair":11803,"Ġradius":11804,"Ġbarrier":11805,"Ġgenu":11806,"ĠExpl":11807,"Ġsword":11808,"Ġ1897":11809,"ÃŃn":11810,"Ġballs":11811,"ĠActress":11812,"ĠSerb":11813,"Ġimprovements":11814,"Ġzomb":11815,"Ġhosts":11816,"ĠMedical":11817,"Ġfunded":11818,"Ġseemingly":11819,"Ġlyrical":11820,"ĠPlayers":11821,"Ġinterviews":11822,"Ġbreaks":11823,"ĠFilming":11824,"Ġauton":11825,"Ġloop":11826,"Ġlinks":11827,"Ġlifted":11828,"ĠBuff":11829,"Ġsalary":11830,"ĠSarah":11831,"Ġmarketing":11832,"ĠSixth":11833,"Ġjumping":11834,"ĠUlster":11835,"Ġemotions":11836,"ĠAviation":11837,"Ġweakness":11838,"Ġsacrif":11839,"Ġuniverse":11840,"Ġsporting":11841,"Ġloading":11842,"Ġneutron":11843,"Ġwitnesses":11844,"ĠMongols":11845,"Ġteachers":11846,"Ġmoist":11847,"Ġstretched":11848,"ĠWallace":11849,"ĠBernard":11850,"Ġhighlighted":11851,"ĠBosn":11852,"Ġoverwhelming":11853,"ĠJoyful":11854,"Ġacknowledged":11855,"ĠMachine":11856,"ĠNicholas":11857,"Ġtributaries":11858,"ĠHomar":11859,"ongsan":11860,"Ġbodyline":11861,"Ġintellectual":11862,"Ġpropaganda":11863,"ĠMaurice":11864,"Ġmembrane":11865,"Ġalphab":11866,"Ġtombs":11867,"Ġhorizont":11868,"Ġgathered":11869,"ĠGuadalcanal":11870,"Ġvertebrae":11871,"ĠZanzibar":11872,"Ġenormous":11873,"ĠHebrew":11874,"Ġathlete":11875,"ĠArizona":11876,"ĠSinai":11877,"Ġheritage":11878,"aos":11879,"cially":11880,"fish":11881,"ioc":11882,"lides":11883,"rin":11884,"uros":11885,"zes":11886,"ĠÄ":11887,"Ġá":11888,"Ġurg":11889,"Ġaided":11890,"inter":11891,"inisc":11892,"onian":11893,"Ġward":11894,"Ġworn":11895,"atters":11896,"orf":11897,"Ġcens":11898,"isa":11899,"isive":11900,"anelli":11901,"Ġbag":11902,"Ġpill":11903,"Ġpink":11904,"Ġmate":11905,"ĠTang":11906,"ĠAqu":11907,"ĠSox":11908,"star":11909,"ĠCS":11910,"ĠCov":11911,"ĠCret":11912,"ĠCurt":11913,"Ġeating":11914,"Ġnic":11915,"ache":11916,"ĠBilly":11917,"olia":11918,"olics":11919,"Ġgay":11920,"Ġgentle":11921,"idated":11922,"ighed":11923,"oting":11924,"Ġaside":11925,"Ġstability":11926,"ĠPast":11927,"ĠRub":11928,"ĠRaf":11929,"thren":11930,"ĠDress":11931,"ĠFur":11932,"ĠFaul":11933,"Ġconsole":11934,"ĠNASA":11935,"ĠNFL":11936,"ĠWa":11937,"ĠWu":11938,"ĠWald":11939,"ĠWrapped":11940,"raits":11941,"agoda":11942,"ifest":11943,"Ġvig":11944,"oret":11945,"Ġrays":11946,"Ġrush":11947,"ĠInside":11948,"alling":11949,"ĠKo":11950,"ĠKer":11951,"ackDown":11952,"ĠStreets":11953,"gehog":11954,"Ġune":11955,"ĠVent":11956,"ĠView":11957,"ĠVerm":11958,"ruption":11959,"uees":11960,"ondo":11961,"Ġdisabled":11962,"overy":11963,"Ġattending":11964,"ĠYongsan":11965,"Ġoutstanding":11966,"Ġallies":11967,"Ġcentered":11968,"isional":11969,"Ġcolors":11970,"Ġdefenses":11971,"Ġintermediate":11972,"Ġamid":11973,"ĠLevel":11974,"ĠReagan":11975,"Ġsurge":11976,"Ġinvent":11977,"Ġdevelopers":11978,"Ġminers":11979,"Ġministers":11980,"ĠBrack":11981,"ĠClay":11982,"Ã©d":11983,"keeper":11984,"ĠBeeton":11985,"ĠEuropa":11986,"Ġparade":11987,"Ġexplore":11988,"ĠÂµ":11989,"ĠCharm":11990,"ĠWeather":11991,"Ġsimilarities":11992,"Ġpoliticians":11993,"Ġmembership":11994,"ĠPeriod":11995,"Ġterr":11996,"Ġradar":11997,"Ġbattlefield":11998,"Ġgenes":11999,"Ġdeclaration":12000,"ĠHaitian":12001,"Ġ1898":12002,"Ġassociate":12003,"Ġcuts":12004,"Ġdevoted":12005,"ihu":12006,"ĠSmackDown":12007,"Ġmerc":12008,"Ġcalm":12009,"Ġdispersed":12010,"Ġgraduate":12011,"hensive":12012,"Ġautobi":12013,"Ġeducational":12014,"Ġdealing":12015,"Ġsatir":12016,"Ġhappen":12017,"Ġuncle":12018,"Ġcannon":12019,"Ġinvestigate":12020,"Ġsculpted":12021,"Ġobservatory":12022,"ĠJimmy":12023,"Ġdynamic":12024,"ĠKnights":12025,"ĠBrenda":12026,"umbered":12027,"Ġsexuality":12028,"Ġexhibited":12029,"Ġkicked":12030,"Ġkickoff":12031,"thening":12032,"ĠFarm":12033,"Ġlegislature":12034,"Ġduet":12035,"Ġneighbour":12036,"Ġpermanently":12037,"Ġloaded":12038,"ĠIndustrial":12039,"Ġplatforms":12040,"Ġopinions":12041,"ĠDestroy":12042,"ĠCreutz":12043,"ĠMotor":12044,"ĠCambodian":12045,"ĠMarcus":12046,"Ġaerodrom":12047,"Ġsufficiently":12048,"ĠOfficer":12049,"ĠHellblazer":12050,"Ġloved":12051,"ĠAyola":12052,"ĠArchaeological":12053,"Ġfrigate":12054,"ĠHughes":12055,"Ġchallenging":12056,"Ġcongregation":12057,"ught":12058,"ĠComplex":12059,"Ġsurprised":12060,"Ġinaugural":12061,"Ġconsequence":12062,"Ġprompting":12063,"ĠPalmyrene":12064,"Ġreversed":12065,"Ġfertil":12066,"Ã¶nen":12067,"Ġfundamental":12068,"ĠNavar":12069,"ĠStaley":12070,"Ġexcellent":12071,"Ġunexpected":12072,"Ġpseud":12073,"Ġinducted":12074,"ĠPlateau":12075,"ĠSkinner":12076,"ĠEcclestone":12077,"ikkÃ¶nen":12078,"ĠTrondheim":12079,"ĠRÃ¤ikkÃ¶nen":12080,"ĠZagreb":12081,"ĠCretaceous":12082,"BI":12083,"eing":12084,"music":12085,"nall":12086,"Ãº":12087,"Ġty":12088,"oni":12089,"Ġsank":12090,"Ġoak":12091,"isons":12092,"Ġbeds":12093,"aloo":12094,"ingray":12095,"Ġmit":12096,"Ġdancing":12097,"Ġdrift":12098,"Ġhier":12099,"ourag":12100,"ĠTres":12101,"ĠTotal":12102,"ĠSuez":12103,"ĠCinem":12104,"Ġlakes":12105,"aduct":12106,"ĠMP":12107,"ĠMing":12108,"ĠBry":12109,"ĠHi":12110,"ĠHair":12111,"Ġstress":12112,"ĠPy":12113,"ĠProp":12114,"ĠPink":12115,"ĠPapa":12116,"ĠRud":12117,"ĠDh":12118,"ĠDays":12119,"ĠDoyle":12120,"ĠFat":12121,"ĠFro":12122,"ĠFight":12123,"ĠFull":12124,"Ġisn":12125,"Ġally":12126,"Ġconceived":12127,"ĠWell":12128,"ĠWrest":12129,"ĠLem":12130,"ĠLiz":12131,"ĠGene":12132,"ripp":12133,"riff":12134,"ĠOak":12135,"illes":12136,"ĠInv":12137,"Ġseed":12138,"abric":12139,"ĠKr":12140,"Ġpled":12141,"Ġplates":12142,"Ġshock":12143,"ĠkW":12144,"ĠStrong":12145,"ĠChad":12146,"Ġunt":12147,"ĠVist":12148,"ĠVick":12149,"Ġclergy":12150,"ĠHein":12151,"Ġusers":12152,"Ġscar":12153,"iki":12154,"Ġenact":12155,"Ġcentres":12156,"Ġreminisc":12157,"formed":12158,"Ġconservative":12159,"Ġdecomm":12160,"Ġcolours":12161,"Ġintervention":12162,"Ġquad":12163,"ĠLeices":12164,"Ġmonitors":12165,"ĠShan":12166,"Ġsurpass":12167,"Ġblues":12168,"Ġsingers":12169,"Ġrepet":12170,"Ġrepaired":12171,"Ġ171":12172,"Ġopens":12173,"Ġstudying":12174,"ĠMayor":12175,"Ġimped":12176,"Ġpassages":12177,"Ġdamaging":12178,"Ġphosph":12179,"Ġvaries":12180,"Ġportraits":12181,"Ġtrium":12182,"Ġpossessed":12183,"Ġexplaining":12184,"ambers":12185,"ĠSteiner":12186,"Ġdemon":12187,"ĠPrincess":12188,"Ġexperimental":12189,"Ġmagical":12190,"ĠAirborne":12191,"Ġsurvival":12192,"Ġlights":12193,"ĠRegiments":12194,"Ġdiscovers":12195,"ĠExit":12196,"Ġ1894":12197,"Ġagrees":12198,"Ġestimate":12199,"Ġidentical":12200,"Ġconnects":12201,"Ġcyclization":12202,"Ġrecognize":12203,"Ġ1854":12204,"Ġ1857":12205,"Ġcorrid":12206,"ĠRockef":12207,"Ġacceptable":12208,"stituted":12209,"Ġ1862":12210,"Ġconducting":12211,"Ġgrazing":12212,"ĠCrash":12213,"Ġ1878":12214,"ĠQuiney":12215,"Ġdraws":12216,"Ġparticipants":12217,"ĠGrant":12218,"Ġdropping":12219,"ĠDrive":12220,"ĠMontreal":12221,"ĠSingh":12222,"Ġriff":12223,"ĠFranklin":12224,"Ġdeeply":12225,"Ġensemble":12226,"nyi":12227,"Ġlearns":12228,"Ġdarkness":12229,"Ġconcepts":12230,"Ġdigit":12231,"ocratic":12232,"ĠSarawak":12233,"Ġhotels":12234,"rolling":12235,"Ġcrowds":12236,"Ġdrafted":12237,"Ġangry":12238,"ĠNazarov":12239,"Ġqualifying":12240,"ĠFerdin":12241,"ĠTodd":12242,"Ġalternate":12243,"Ġencounters":12244,"Ġnarrator":12245,"ĠTurkey":12246,"Ġratio":12247,"ĠDenmark":12248,"Ġspotted":12249,"Ġscholarship":12250,"Ġbelonging":12251,"ĠDreamWorks":12252,"ĠMorris":12253,"Ġunsuccessfully":12254,"Ġvolunteer":12255,"ĠWinds":12256,"Ġreservoirs":12257,"ĠRonald":12258,"Ġrifles":12259,"Ġbatsmen":12260,"ĠRaymond":12261,"Ġcorresponding":12262,"ĠAntonio":12263,"Ġhypothes":12264,"Ġfavourite":12265,"Ġfairly":12266,"Ġrevolutionary":12267,"Ġfantasy":12268,"ĠCruise":12269,"Ġgallery":12270,"Ġculm":12271,"Ġimplemented":12272,"Ġurged":12273,"ĠFlower":12274,"ĠDurham":12275,"Ġconsumption":12276,"Ġaccommodate":12277,"ĠLancaster":12278,"Ġchallenges":12279,"Ġabsolute":12280,"Ġsubstance":12281,"ĠHobbs":12282,"ĠHenderson":12283,"ĠCorbet":12284,"Ġdrainage":12285,"ĠVulcan":12286,"ĠJohann":12287,"Ġadministered":12288,"ipelago":12289,"Ġscreens":12290,"Ġacoustic":12291,"ĠCzech":12292,"Ã¬nh":12293,"ĠTrophy":12294,"Ġcrickets":12295,"ĠFerdinand":12296,"FU":12297,"IS":12298,"gor":12299,"hatt":12300,"iors":12301,"kner":12302,"oids":12303,"Ã¢":12304,"Ġà":12305,"oria":12306,"itime":12307,"Ġfest":12308,"Ġfier":12309,"isations":12310,"anj":12311,"anus":12312,"Ġbin":12313,"Ġbron":12314,"Ġbush":12315,"Ġinver":12316,"Ġtools":12317,"Ġmisc":12318,"Ġmuzzle":12319,"ĠTob":12320,"ĠTaxon":12321,"Ġrework":12322,"ĠAw":12323,"sts":12324,"stones":12325,"ĠCG":12326,"ĠClear":12327,"adic":12328,"ĠMess":12329,"lyph":12330,"ĠBM":12331,"ĠBelt":12332,"ĠBoulder":12333,"olph":12334,"tery":12335,"ĠHak":12336,"ĠHockey":12337,"ĠHurricanes":12338,"Ġstaged":12339,"ĠPf":12340,"ĠRoll":12341,"ĠDian":12342,"unning":12343,"ĠFund":12344,"ĠNa":12345,"ĠWant":12346,"ĠLiao":12347,"ctic":12348,"Ġanger":12349,"umi":12350,"avan":12351,"rix":12352,"Ġdealt":12353,"Ġspore":12354,"ĠChu":12355,"ĠChile":12356,"cler":12357,"ĠVo":12358,"Ġinteg":12359,"outed":12360,"outing":12361,"Ġ202":12362,"Ġclust":12363,"izer":12364,"Ġdisgu":12365,"rice":12366,"ĠYet":12367,"ĠYang":12368,"phan":12369,"Ġprest":12370,"ribi":12371,"ailing":12372,"Ġfeared":12373,"ugg":12374,"Ġrelied":12375,"Ġsubd":12376,"Ġincidents":12377,"ĠRef":12378,"ĠReign":12379,"ĠReines":12380,"inski":12381,"Ġ109":12382,"Ġ1200":12383,"ĠSche":12384,"Ġnoise":12385,"Ġinvitation":12386,"ĠIndeed":12387,"Ġdescent":12388,"Ġdevelopments":12389,"Ġpolar":12390,"Ġextant":12391,"iente":12392,"Ġinsects":12393,"ĠBloom":12394,"Ġprovinces":12395,"ĠCarroll":12396,"ĠCarpenter":12397,"ĠAdri":12398,"ĠAdult":12399,"Ġvariable":12400,"Ġpromise":12401,"Ġlasting":12402,"Ġconfused":12403,"Ġcommanding":12404,"racted":12405,"ĠTherefore":12406,"Ġtempo":12407,"Ġhandle":12408,"Ġhandling":12409,"ĠComputer":12410,"Ġmarkets":12411,"Ġcrater":12412,"Ġtraditions":12413,"Ġplanets":12414,"Ġelite":12415,"Ġelectro":12416,"ĠAircraft":12417,"Ġordinary":12418,"Ġstatue":12419,"Ġequally":12420,"Ġpressed":12421,"Ġtourists":12422,"ĠNeolithic":12423,"ĠGlan":12424,"idding":12425,"ĠCareer":12426,"Ġ1899":12427,"ĠAtlÃ©t":12428,"bridge":12429,"Ġcommentators":12430,"Ġgrows":12431,"Ġ1885":12432,"Ġzinc":12433,"Ġceiling":12434,"ĠPartington":12435,"Ġcivilization":12436,"Ġgrain":12437,"boro":12438,"Ġtribe":12439,"ĠGreatest":12440,"ships":12441,"Ġdrown":12442,"inental":12443,"Ġscripts":12444,"ĠAnti":12445,"Ġintersections":12446,"Ġlifestyle":12447,"ĠAttack":12448,"Ġsuspected":12449,"ĠFormation":12450,"Ġevacuate":12451,"Ġevacuees":12452,"Ġtasks":12453,"Ġprinciples":12454,"Ġinternationally":12455,"Ã¼r":12456,"Ġexhibit":12457,"Ġofferings":12458,"Ġemphasized":12459,"Ġfragment":12460,"Ġattendance":12461,"Ġtargeted":12462,"Ġcomprising":12463,"ĠKeys":12464,"ĠCarlos":12465,"Ġreflecting":12466,"Ġperfectly":12467,"ĠHungary":12468,"Ġdistinguish":12469,"Ġinstructions":12470,"Ġlawsuit":12471,"Ġsleep":12472,"Ġconspirators":12473,"ĠArchaeology":12474,"Ġadvisories":12475,"Ġgathering":12476,"Ġdiverse":12477,"ĠCulture":12478,"ĠCultural":12479,"Ġprohibited":12480,"ĠÅĮ":12481,"Ġdevotion":12482,"ĠKyra":12483,"Ġrectangular":12484,"Ġcooperation":12485,"Ġnineteenth":12486,"htwald":12487,"Ġpione":12488,"aziridines":12489,"Ġdisbanded":12490,"Ġasteroid":12491,"Ġï»":12492,"Ġspawned":12493,"bracelet":12494,"ĠHumphrey":12495,"ĠRuler":12496,"ĠUrania":12497,"Ġgarnered":12498,"ĠFaulkner":12499,"ĠAtlÃ©tico":12500,"IV":12501,"PU":12502,"found":12503,"gud":12504,"ho":12505,"ked":12506,"mo":12507,"mers":12508,"rus":12509,"rines":12510,"ĨĴ":12511,"herent":12512,"Ġther":12513,"onso":12514,"Ġsic":12515,"itious":12516,"Ġcards":12517,"Ġfed":12518,"arius":12519,"Ġbol":12520,"ali":12521,"Ġment":12522,"Ġdug":12523,"Ġhung":12524,"ĠTell":12525,"ĠTank":12526,"ĠTuck":12527,"Ġreorgan":12528,"Ġreverse":12529,"ĠAN":12530,"ĠAS":12531,"ĠSaf":12532,"omon":12533,"omous":12534,"Ġnaked":12535,"ĠMI":12536,"ĠMak":12537,"ĠMole":12538,"ĠBased":12539,"ĠIR":12540,"idia":12541,"terfly":12542,"ĠHav":12543,"ĠHod":12544,"ĠPand":12545,"ĠPirates":12546,"ĠRut":12547,"ĠRound":12548,"ĠDup":12549,"ĠLaur":12550,"ĠGiel":12551,"avian":12552,"ĠEve":12553,"ifeng":12554,"Ġdeer":12555,"Ġchanc":12556,"ques":12557,"ĠâĨĴ":12558,"ĠStart":12559,"oved":12560,"Ġspear":12561,"Ġspoken":12562,"Ġleagues":12563,"idea":12564,"hedruli":12565,"Ġcliff":12566,"Ġresur":12567,"Ġrecruit":12568,"ĠThai":12569,"Ġscope":12570,"Ġages":12571,"Ġdislik":12572,"Ġjur":12573,"Ġplayable":12574,"overning":12575,"ibre":12576,"ensed":12577,"iko":12578,"Ġoutcome":12579,"inda":12580,"ampa":12581,"Ġweighed":12582,"ĠAny":12583,"Ġremote":12584,"icken":12585,"ugs":12586,"Ġsuburb":12587,"ĠScots":12588,"ĠAustin":12589,"ernoot":12590,"Ġmining":12591,"Ġmilitia":12592,"Ġextends":12593,"Ġcarrier":12594,"ĠConsequently":12595,"Ġairports":12596,"Ġimpressive":12597,"enne":12598,"Ġthoughts":12599,"Ġgoverned":12600,"Ġbrings":12601,"ĠForb":12602,"Ġrefuses":12603,"Ġconfidence":12604,"Ġorganic":12605,"Ġparad":12606,"Ġrequiring":12607,"levard":12608,"Ġconvicted":12609,"ĠXbox":12610,"Ġtwins":12611,"Ġinvolve":12612,"Ġmagic":12613,"beat":12614,"Ġterrestrial":12615,"ĠAfricaine":12616,"Ġsituations":12617,"Ġglac":12618,"Ġfrontier":12619,"Ġhumanity":12620,"Ġhumanitarian":12621,"Äģh":12622,"ĠHarbor":12623,"Ġswitch":12624,"Ġlikewise":12625,"Ġpriests":12626,"Ġconnect":12627,"ettes":12628,"Ġ1881":12629,"Ġ1859":12630,"Ġcommercially":12631,"Ġsexually":12632,"ĠMedal":12633,"Ġfloods":12634,"ĠCommando":12635,"Ġmaintains":12636,"ĠSuperman":12637,"ĠÃĨ":12638,"Ġparticipation":12639,"Ġoccupy":12640,"Ġcaliber":12641,"Ġ1832":12642,"Ġapartment":12643,"Ġphysics":12644,"Ġ1848":12645,"backs":12646,"ĠCatholics":12647,"Ġthickness":12648,"Ġlabour":12649,"Ġdedication":12650,"awny":12651,"Ġsuspic":12652,"ĠFormer":12653,"Ġdrummer":12654,"Ġversus":12655,"Ġsymbols":12656,"ĠJulio":12657,"ĠFerr":12658,"Ġchemistry":12659,"ĠKaifeng":12660,"ĠGibson":12661,"Ġmechanism":12662,"ĠIntram":12663,"ĠHyd":12664,"Ġimagination":12665,"Ġhonorary":12666,"ĠRetrieved":12667,"ĠGreece":12668,"Ġboyfriend":12669,"Ġexpeditions":12670,"Ġcollaborated":12671,"Ġrivalry":12672,"Ġdescendants":12673,"ĠApart":12674,"ĠVillaret":12675,"ĠMoving":12676,"Ġremnant":12677,"ĠRevolutionary":12678,"ĠAlfa":12679,"Ġprosecution":12680,"Ġreserves":12681,"ĠBrazilian":12682,"Ġamphibians":12683,"Ġblend":12684,"Ġwicket":12685,"Ġdeposits":12686,"Ġskelet":12687,"Ġexhaust":12688,"Ġanswer":12689,"Ġorchestra":12690,"ĠIndonesian":12691,"ĠConfederate":12692,"ĠTrout":12693,"Ġconscious":12694,"ĠATP":12695,"ĠMkhedruli":12696,"Ġenthusi":12697,"ĠObserver":12698,"Ġbranches":12699,"ĠVandernoot":12700,"Ġmemorable":12701,"ĠBanksia":12702,"ĠCantrell":12703,"Ġlinear":12704,"Ġredesign":12705,"Ġvulnerable":12706,"Ġcomprehensive":12707,"Ġmysterious":12708,"Ġdancers":12709,"ĠCharmbracelet":12710,"ĠNavarro":12711,"Ġreminiscent":12712,"ĠRockefeller":12713,"ĠGlanville":12714,"Ġï»¿":12715,"ĠGielgud":12716,"HS":12717,"OM":12718,"OS":12719,"TA":12720,"UC":12721,"bu":12722,"bard":12723,"bach":12724,"cor":12725,"iency":12726,"mith":12727,"master":12728,"pack":12729,"sis":12730,"Äį":12731,"Æ¡":12732,"Ġtent":12733,"Ġtension":12734,"hears":12735,"Ġtherapy":12736,"erb":12737,"erp":12738,"Ġsacked":12739,"Ġwire":12740,"Ġwished":12741,"Ġoct":12742,"atri":12743,"itus":12744,"itars":12745,"Ġbold":12746,"Ġbath":12747,"Ġine":12748,"Ġinex":12749,"ingham":12750,"icial":12751,"Ġmg":12752,"Ġmad":12753,"leased":12754,"ĠTide":12755,"Ġreh":12756,"ĠSport":12757,"ĠSug":12758,"ĠSMS":12759,"Ġthro":12760,"stage":12761,"ĠCatherine":12762,"Ġlig":12763,"Ġlock":12764,"amics":12765,"Ġeagle":12766,"Ġnaut":12767,"ĠMut":12768,"ĠMaid":12769,"ĠMaj":12770,"ĠBod":12771,"olar":12772,"Ġgren":12773,"Ġgender":12774,"Ġstick":12775,"Ġstair":12776,"Ġsteal":12777,"Ġstaying":12778,"Ġstanz":12779,"ĠRey":12780,"ĠRook":12781,"ĠDE":12782,"ĠFal":12783,"ĠFlying":12784,"Ġconform":12785,"Ġconven":12786,"ĠNK":12787,"ĠNam":12788,"ĠLoy":12789,"ĠLung":12790,"ĠGenesis":12791,"Ġitem":12792,"ĠJas":12793,"ĠEz":12794,"ĠEarn":12795,"onge":12796,"ĠKan":12797,"ghan":12798,"Ġexchang":12799,"pts":12800,"ĠUk":12801,"ĠUy":12802,"ĠâĢ¦":12803,"ogs":12804,"ĠVa":12805,"Ġcomputers":12806,"Ġresolved":12807,"Ġperc":12808,"Ġperception":12809,"lando":12810,"Ġdesired":12811,"Ġoutd":12812,"angle":12813,"awi":12814,"Ġsecular":12815,"ailand":12816,"ĠSean":12817,"Ġrelating":12818,"ĠEnergy":12819,"Ġbuoys":12820,"rosaur":12821,"Ġmusc":12822,"Ġ103":12823,"anyan":12824,"Ġpresbyter":12825,"Ġmetric":12826,"Ġ156":12827,"Ġopined":12828,"ĠWarner":12829,"uedoc":12830,"Ġmaturity":12831,"ĠClocks":12832,"ĠBlock":12833,"Ġadventures":12834,"Ġguid":12835,"ĠDevin":12836,"ĠBeing":12837,"Ġdetect":12838,"Ġprototype":12839,"aiman":12840,"Ġconfident":12841,"Ġslave":12842,"Ġsentiment":12843,"ĠOrlando":12844,"ĠPrim":12845,"ĠAmos":12846,"Ġcrimes":12847,"Ġelig":12848,"ealous":12849,"ĠElgin":12850,"Ġaffect":12851,"Ġnationalist":12852,"Ġentirety":12853,"ĠSyria":12854,"Ġidentification":12855,"ĠMerc":12856,"Ġlacks":12857,"Ġencourag":12858,"Ġ1882":12859,"Ġrebel":12860,"Ġfortifications":12861,"Ġ1856":12862,"Ġhonors":12863,"ĠBerhtwald":12864,"ĠThompson":12865,"ĠCommandos":12866,"ĠMetropolitan":12867,"ĠArtillery":12868,"Ġscreened":12869,"Ġconcludes":12870,"Ġloose":12871,"ĠHeadlam":12872,"Ġconsiderably":12873,"ĠArchitect":12874,"Ġinvestigated":12875,"Ġphotography":12876,"ĠJamie":12877,"ĠJosephine":12878,"ĠConfessions":12879,"ĠFourth":12880,"ĠIndependiente":12881,"ĠBolton":12882,"Ġholes":12883,"Ġprisoner":12884,"Ġportrayal":12885,"ĠPopM":12886,"Ġduo":12887,"Ġextraord":12888,"ĠReviews":12889,"ĠBhair":12890,"Ġpanels":12891,"ĠRajam":12892,"Ġrows":12893,"Ġgrasses":12894,"Ġsailing":12895,"ĠFreedom":12896,"Ġfears":12897,"ĠExped":12898,"ĠConstantin":12899,"boards":12900,"Ġswept":12901,"Ġtravelling":12902,"Ġmicroscop":12903,"ĠLiberal":12904,"Ġaccidentally":12905,"ĠBarbara":12906,"Ġcontributions":12907,"Ġdisturbed":12908,"Ġoptions":12909,"Ġmythology":12910,"Ġreconstruct":12911,"ĠGabri":12912,"Ġvertices":12913,"Ġdrugs":12914,"Ġcabinet":12915,"Ġimmigrants":12916,"Ġexercise":12917,"Ġfloating":12918,"Ġpuzzle":12919,"ĠGanges":12920,"ĠQedarites":12921,"Ġindigo":12922,"ĠIndonesia":12923,"Ġsamples":12924,"Ġcarriers":12925,"Ġteachings":12926,"Ġturbines":12927,"ĠLanguedoc":12928,"Ġnickname":12929,"ĠUniversal":12930,"Ġrendered":12931,"Ġjackrabbit":12932,"ĠGladstone":12933,"court":12934,"oplasm":12935,"Ġinflicted":12936,"ĠCPS":12937,"Ġbarely":12938,"Ġinhabited":12939,"ĠFreakum":12940,"ĠWNO":12941,"ĠMcEl":12942,"Ġhampered":12943,"ximity":12944,"ĠLoverboy":12945,"Ġsymptoms":12946,"Ġnephew":12947,"Ġincomplete":12948,"ĠAuburn":12949,"Ġsiblings":12950,"ĠLeicester":12951,"ĠIntramuros":12952,"Ġnautical":12953,"iants":12954,"mund":12955,"metr":12956,"saku":12957,"ufficient":12958,"Ġè":12959,"Ġé":12960,"Ġtune":12961,"inued":12962,"eria":12963,"rez":12964,"Ġsink":12965,"aland":12966,"aliation":12967,"Ġpian":12968,"Ġpier":12969,"Ġhide":12970,"Ġharsh":12971,"leans":12972,"ĠTy":12973,"ĠSak":12974,"ĠSang":12975,"ĠSamp":12976,"ĠCann":12977,"Ġlam":12978,"Ġlun":12979,"Ġecho":12980,"ĠMh":12981,"ĠMom":12982,"ĠMol":12983,"ĠMail":12984,"ĠBelf":12985,"oles":12986,"Ġgram":12987,"Ġgoverning":12988,"Ġforget":12989,"igon":12990,"ĠHosp":12991,"Ġasc":12992,"usa":12993,"Ġstall":12994,"ĠPel":12995,"ĠPap":12996,"ema":12997,"ĠNorse":12998,"ĠWes":12999,"rained":13000,"ĠLuz":13001,"osion":13002,"ĠGack":13003,"ĠEP":13004,"Ġproclaimed":13005,"Ġproximity":13006,"Ġrh":13007,"Ġramp":13008,"abs":13009,"ĠKub":13010,"Ġchord":13011,"Ġexile":13012,"quis":13013,"quir":13014,"Ġshall":13015,"Ġshipped":13016,"ĠChop":13017,"Ġuncon":13018,"Ġintent":13019,"solete":13020,"pert":13021,"Ġclad":13022,"Ġrecapt":13023,"ĠThing":13024,"ĠThailand":13025,"Ġscores":13026,"Ġovercome":13027,"Ġalliance":13028,"Ġnearest":13029,"Ġdeciding":13030,"othic":13031,"Ġflour":13032,"Ġflown":13033,"Ġrelocated":13034,"ĠAmericas":13035,"Ġrabb":13036,"Ġregiments":13037,"hesh":13038,"Ġspeculated":13039,"Ġincred":13040,"heng":13041,"ĠShar":13042,"Ġmetaph":13043,"Ġ172":13044,"Ġ173":13045,"Ġstudios":13046,"aux":13047,"Ġobsolete":13048,"ashire":13049,"Ã©l":13050,"Ġguitars":13051,"Ġdamages":13052,"ĠBeij":13053,"ĠGuinness":13054,"opsis":13055,"ĠFlotilla":13056,"ĠEdition":13057,"ĠWeev":13058,"Ġdebt":13059,"Ġtotally":13060,"Ġdelight":13061,"Ġsuggestion":13062,"Ġrealised":13063,"ĠTrad":13064,"ĠTrinity":13065,"ĠXook":13066,"Ġelectrical":13067,"Ġcompetitor":13068,"Ġterrorist":13069,"Ġstatues":13070,"escope":13071,"ĠBaron":13072,"Ġwanting":13073,"Ġnightingale":13074,"Ġkeen":13075,"ĠOthers":13076,"Ġtraditionally":13077,"Ġacceptance":13078,"Ġ1865":13079,"Ġstrengthening":13080,"ĠMarket":13081,"ĠQuinn":13082,"Ġremoving":13083,"Ġthinks":13084,"Ġsubjected":13085,"Ġ750":13086,"ragon":13087,"ĠNote":13088,"Ġcheek":13089,"Ġensuing":13090,"ĠTerry":13091,"Ġattractive":13092,"ĠArchbishop":13093,"ĠBradman":13094,"Ġlayers":13095,"Ġpreventing":13096,"Ġlogs":13097,"ĠOutside":13098,"Ġdefender":13099,"ĠLoose":13100,"Ġreinforce":13101,"ĠJulian":13102,"Ġsupplied":13103,"Ġelevated":13104,"Ġeleventh":13105,"ĠDerby":13106,"galith":13107,"ĠCapital":13108,"Ġemotion":13109,"ĠHalf":13110,"Ġstopping":13111,"ĠLegisl":13112,"ĠKarl":13113,"Ġeliminate":13114,"ĠSubsequently":13115,"Ġbelonged":13116,"Ġreflects":13117,"Ġmistaken":13118,"ĠMicro":13119,"Ġrestaurants":13120,"ĠBrigades":13121,"Ġrituals":13122,"Ġdecreased":13123,"Ġdecrease":13124,"avery":13125,"Ġaccomplished":13126,"ĠWinter":13127,"Ġcategories":13128,"ĠMariah":13129,"ÅĤaw":13130,"Ġconquered":13131,"ĠPotter":13132,"Ġrecreational":13133,"ĠLancashire":13134,"Ġrelegation":13135,"Ġabsolut":13136,"ĠTechnology":13137,"Ġobstacles":13138,"Ġimprisonment":13139,"ĠVienna":13140,"ĠExpressway":13141,"Ġplayoffs":13142,"Ġborders":13143,"ĠYugoslavia":13144,"aturally":13145,"Ġbattlecruisers":13146,"ĠPrivate":13147,"ĠEugene":13148,"ĠPakistan":13149,"Ġisotopes":13150,"ĠGazan":13151,"ĠKÅįsaku":13152,"Ġcanceled":13153,"ĠPuerto":13154,"ĠBattery":13155,"Ġprecipitation":13156,"ĠBarbarian":13157,"rometric":13158,"Ġalcohol":13159,"ĠShimomura":13160,"Ġhorizontal":13161,"Ġdecommissioned":13162,"ĠTaxonomy":13163,"ĠGacko":13164,"BO":13165,"Bob":13166,"ait":13167,"bi":13168,"dy":13169,"front":13170,"gom":13171,"hand":13172,"iu":13173,"rino":13174,"vy":13175,"Ġes":13176,"Ġion":13177,"Ġtennis":13178,"Ġairst":13179,"Ġaft":13180,"inas":13181,"onn":13182,"rels":13183,"Ġsails":13184,"orian":13185,"itate":13186,"Ġcable":13187,"Ġcorpor":13188,"Ġbinding":13189,"Ġpig":13190,"rogen":13191,"Ġmos":13192,"Ġmere":13193,"Ġdread":13194,"Ġhockey":13195,"ĠTz":13196,"ĠTalk":13197,"Ġrept":13198,"ĠAL":13199,"ĠSey":13200,"Ġthorough":13201,"adh":13202,"ĠMeth":13203,"ĠTheater":13204,"ĠBoot":13205,"ĠBask":13206,"ĠBÃ¬nh":13207,"ĠIgn":13208,"eto":13209,"ĠHous":13210,"ĠHold":13211,"uskh":13212,"Ġstalk":13213,"Ġstrange":13214,"ĠPok":13215,"ĠRush":13216,"ĠRFU":13217,"emark":13218,"ĠDry":13219,"ĠDraft":13220,"ĠFus":13221,"ĠFather":13222,"ĠNik":13223,"ĠWells":13224,"ĠWitchcraft":13225,"ĠLear":13226,"estock":13227,"ums":13228,"ĠEmer":13229,"ĠEaster":13230,"ĠOri":13231,"opy":13232,"Ġvin":13233,"Ġvass":13234,"Ġsear":13235,"Ġseal":13236,"Ġorange":13237,"ĠKatherine":13238,"Ġexterior":13239,"quet":13240,"quest":13241,"ĠStyle":13242,"geant":13243,"inee":13244,"ellor":13245,"ogram":13246,"Ġunh":13247,"Ġunpre":13248,"Ġresort":13249,"Ġabn":13250,"Ġrecount":13251,"Ġscales":13252,"itional":13253,"ĠAlph":13254,"Ġoverth":13255,"iban":13256,"ĠAnim":13257,"ĠSeb":13258,"Ġreluct":13259,"Ġmeat":13260,"ĠEno":13261,"Ġinterrupted":13262,"rosaurus":13263,"Ġcoat":13264,"Ġindirect":13265,"Ġmonster":13266,"ĠShaw":13267,"Ġentert":13268,"Ġdoors":13269,"tona":13270,"Ġtranscription":13271,"Ġdeputy":13272,"Ġ157":13273,"elfth":13274,"ĠGerald":13275,"Ġmilk":13276,"Ġwarnings":13277,"Ġinfl":13278,"Ġrespected":13279,"ĠSponge":13280,"Ġinsult":13281,"Ġinsufficient":13282,"ĠAugustus":13283,"ennial":13284,"Ġ134":13285,"Ġguy":13286,"Ġconcerning":13287,"Ġannoy":13288,"Ġprotesters":13289,"Ġbread":13290,"Ġdrink":13291,"Ġexplan":13292,"Ġboost":13293,"Ġcameo":13294,"Ġdemanding":13295,"Ġdemographic":13296,"ĠOrleans":13297,"Ġdebated":13298,"Ġdebris":13299,"ĠTruth":13300,"ĠPerth":13301,"Ġeveryday":13302,"Ġeld":13303,"Ġcompeting":13304,"Ġerror":13305,"ĠMicha":13306,"ĠAssist":13307,"Ġlessons":13308,"Ġnevertheless":13309,"Ġaffecting":13310,"adesh":13311,"Ġprimitive":13312,"ĠBlacks":13313,"Ġdeclaring":13314,"umping":13315,"Ġswit":13316,"Ġ1891":13317,"Ġ1893":13318,"ĠSword":13319,"Ġspecialized":13320,"Ġknows":13321,"Ġhonours":13322,"Ġresponses":13323,"ĠBerg":13324,"ĠBergen":13325,"Ġcontracts":13326,"ĠCrist":13327,"Ġachievement":13328,"Ġrape":13329,"ĠÃį":13330,"ouli":13331,"ĠAppro":13332,"Ġharass":13333,"ĠMahesh":13334,"Ġgraduated":13335,"ĠArtist":13336,"ĠFeel":13337,"ĠMontfort":13338,"ĠMontgom":13339,"Ġexamined":13340,"ratch":13341,"Ġultimate":13342,"ĠFIT":13343,"Ġfocuses":13344,"Ġparks":13345,"owski":13346,"Ġgraphic":13347,"Ġpaths":13348,"Ġconfirm":13349,"ĠFinn":13350,"ĠLoch":13351,"Ġpleased":13352,"Ġprinciple":13353,"Ġdisappear":13354,"umberland":13355,"Ġexcavated":13356,"ĠPitts":13357,"Ġcontacted":13358,"Ġmessages":13359,"ĠCraig":13360,"ĠMortier":13361,"ĠTimor":13362,"Ġmobil":13363,"ĠAdditional":13364,"Ġ737":13365,"ĠImagist":13366,"ĠDemocrats":13367,"Ġtheaters":13368,"Ġexplosion":13369,"ĠBroadcast":13370,"Ġcontested":13371,"Ġawareness":13372,"Ġclouds":13373,"ĠElectronic":13374,"ĠChronicle":13375,"Ġnavigation":13376,"ĠUrban":13377,"ĠDiego":13378,"Ġrevolt":13379,"Ġremembered":13380,"Ġborrowed":13381,"ĠHedgehog":13382,"Ġlatest":13383,"Ġfossils":13384,"Ġguerrillas":13385,"Ġrendition":13386,"Ġswimming":13387,"Ġsupernatural":13388,"Ġliquid":13389,"houser":13390,"Ġcoffee":13391,"Ġadvertisements":13392,"ĠFifth":13393,"ĠPoetry":13394,"Ġhygrometric":13395,"Ġbarracks":13396,"Ġreperto":13397,"ĠWikiped":13398,"Ġaccusations":13399,"ĠCrystal":13400,"Ġdescriptions":13401,"ĠThanhouser":13402,"Ġsupreme":13403,"Ġunstable":13404,"Æ°Æ¡":13405,"ĠPfaster":13406,"ĠStarting":13407,"ĠEarnest":13408,"ĠUygh":13409,"Ġguidance":13410,"metrical":13411,"ĠBelfast":13412,"ĠBeijing":13413,"uskhuri":13414,"ĠSpongeBob":13415,"ĠMontgomery":13416,"Æ°Æ¡ng":13417,"CS":13418,"bone":13419,"cont":13420,"fric":13421,"iop":13422,"jin":13423,"lies":13424,"nan":13425,"pow":13426,"rut":13427,"tes":13428,"uits":13429,"wy":13430,"yan":13431,"yers":13432,"ĠØ":13433,"ĠãĤ":13434,"ģĦ":13435,"Ġtap":13436,"Ġtawny":13437,"Ġaux":13438,"inich":13439,"onation":13440,"Ġcu":13441,"Ġcod":13442,"Ġcyl":13443,"Ġcats":13444,"Ġfals":13445,"anim":13446,"Ġben":13447,"inge":13448,"Ġpose":13449,"asant":13450,"roads":13451,"Ġmast":13452,"Ġdign":13453,"Ġhaz":13454,"leted":13455,"ĠSic":13456,"iland":13457,"strong":13458,"ĠCA":13459,"ĠCore":13460,"ĠCase":13461,"ĠClement":13462,"Ġlaud":13463,"Ġease":13464,"Ġnas":13465,"Ġnerv":13466,"acc":13467,"acular":13468,"acements":13469,"ĠMult":13470,"otihu":13471,"ĠHand":13472,"ĠHang":13473,"ĠHern":13474,"Ġstuff":13475,"ayed":13476,"ĠPont":13477,"ĠDoc":13478,"ĠFear":13479,"ĠFlet":13480,"ĠFisher":13481,"ĠFlanders":13482,"Ġwhatever":13483,"ĠNME":13484,"ĠNuskhuri":13485,"oso":13486,"ĠGand":13487,"ĠGross":13488,"ĠJar":13489,"ĠJag":13490,"Ġanalys":13491,"isting":13492,"riors":13493,"ĠESP":13494,"rescent":13495,"iferous":13496,"Ġproc":13497,"Ġvent":13498,"illance":13499,"ĠdeGrom":13500,"Ġsuited":13501,"Ġoral":13502,"ĠKum":13503,"Ġchase":13504,"ĠâģĦ":13505,"ĠStakes":13506,"Ġspell":13507,"Ġspark":13508,"Ġleaf":13509,"ellers":13510,"ĠVe":13511,"ĠVishn":13512,"Ġcomparing":13513,"Ġcompiled":13514,"Ġbutt":13515,"Ġconting":13516,"Ġreserved":13517,"Ġperf":13518,"ika":13519,"ikh":13520,"Ġenvelop":13521,"intage":13522,"Ġworker":13523,"Ġsecuring":13524,"Ġdecoration":13525,"Ġrelax":13526,"ologically":13527,"Ġthanks":13528,"veillance":13529,"Ġretaining":13530,"Ġassum":13531,"Ġquar":13532,"Ġcoined":13533,"Ġincons":13534,"Ġhighlights":13535,"Ġadds":13536,"Ġexpanding":13537,"Ġreporter":13538,"Ġextr":13539,"Ġinstances":13540,"Ġdistort":13541,"Ġpassenger":13542,"ĠCommodore":13543,"ĠManhatt":13544,"Ġadvent":13545,"Ġadvocated":13546,"Ġbatting":13547,"ĠAllmusic":13548,"Ġcharacterised":13549,"ĠProdu":13550,"ĠGuam":13551,"appen":13552,"Ġslaves":13553,"ĠParanth":13554,"Ġtracking":13555,"Ġexplored":13556,"ĠEuropeans":13557,"Ġmedian":13558,"elta":13559,"ĠFlag":13560,"Ġdemo":13561,"ĠTeotihu":13562,"ĠAmyl":13563,"arnation":13564,"Ġarchipelago":13565,"ĠTrade":13566,"Ġmyel":13567,"Ġ260":13568,"Ġerosion":13569,"Ġprojected":13570,"Ġterror":13571,"Ġeighteen":13572,"Ġsitcom":13573,"Ġfacts":13574,"Ġdivines":13575,"Ġgenres":13576,"Ġpainter":13577,"ĠHighland":13578,"ĠBlackie":13579,"Ġfrontal":13580,"Ġsummon":13581,"Ġvillain":13582,"Ġcoastline":13583,"Ġ1892":13584,"Ġ1896":13585,"Ġsuffer":13586,"ĠMoro":13587,"Ġimprov":13588,"Ġ1851":13589,"Ġ1853":13590,"ĠEmma":13591,"Ġexciting":13592,"ĠBerk":13593,"ĠCrim":13594,"ĠRhode":13595,"Ġ1874":13596,"Ġillum":13597,"Ġachievements":13598,"Ġdrawings":13599,"ĠWilf":13600,"ĠOsbert":13601,"Ġdonations":13602,"Ġinterviewed":13603,"Ġbreakdown":13604,"Ġblockade":13605,"Ġharvest":13606,"ĠHelen":13607,"ĠVargas":13608,"Ġcomplained":13609,"ĠTerrorist":13610,"Ġcontempor":13611,"ĠReserve":13612,"unta":13613,"Ġcontrolling":13614,"ĠAttale":13615,"Ġfocusing":13616,"Ġpursued":13617,"ĠHumpty":13618,"Ġadvantages":13619,"ĠHistorical":13620,"ĠLockport":13621,"ĠJosh":13622,"ĠColonies":13623,"ĠDamage":13624,"ĠNazaire":13625,"Ġmelod":13626,"ĠFerry":13627,"ĠAnnals":13628,"Ġathletics":13629,"ĠProtection":13630,"ĠKirby":13631,"ĠEngineers":13632,"Ġincorporates":13633,"Ġfunctional":13634,"Ġremixes":13635,"Ġlabeled":13636,"Ġwitnessed":13637,"Ġeasier":13638,"ĠSusan":13639,"Ġsubstantially":13640,"ĠCuba":13641,"Ġproposals":13642,"ĠGabbar":13643,"Ġferry":13644,"Ġshelter":13645,"Ġlobster":13646,"Ġaltarpiece":13647,"Ġbeside":13648,"Ġbesie":13649,"ĠKatia":13650,"ĠGanganelli":13651,"Ġskeleton":13652,"Ġanthrop":13653,"Ġrumors":13654,"Ġenforcement":13655,"ĠStrapping":13656,"Ġoverwhelmed":13657,"Ġtackles":13658,"ĠBuddhist":13659,"Ġpersuaded":13660,"Ġimprisoned":13661,"ĠPAVN":13662,"ĠTaiwan":13663,"Ġgammar":13664,"Ġfatalities":13665,"Ġhence":13666,"Ġefficient":13667,"ĠBehind":13668,"Ġsummary":13669,"Ġanticipated":13670,"Ġastronomers":13671,"ĠDrama":13672,"ĠDiamond":13673,"Ġveteran":13674,"Ġseventeen":13675,"Ġtrunkline":13676,"ĠHeyman":13677,"Ġsemifinals":13678,"ĠRepresentatives":13679,"Ġcelebration":13680,"Ġboilers":13681,"ĠCoalition":13682,"Ġenlarged":13683,"Ġscenario":13684,"ĠBracknell":13685,"ĠÂµm":13686,"ĠWrestle":13687,"ĠLunga":13688,"ĠRajamouli":13689,"ĠExpedition":13690,"ĠMcElroy":13691,"ĠMhalsa":13692,"ĠÃįmar":13693,"Ġhygrometricus":13694,"ĠESPN":13695,"ĠManhattan":13696,"ĠParanthodon":13697,"Mania":13698,"core":13699,"care":13700,"fus":13701,"iÃ¨":13702,"jib":13703,"lon":13704,"lot":13705,"lance":13706,"nance":13707,"pike":13708,"uber":13709,"xi":13710,"Ã«":13711,"Ã´":13712,"Äĥ":13713,"ĠËĪ":13714,"Ġties":13715,"Ġthesis":13716,"erdale":13717,"Ġsor":13718,"Ġsinking":13719,"Ġol":13720,"Ġcel":13721,"Ġcra":13722,"Ġcub":13723,"Ġcement":13724,"Ġcakes":13725,"Ġcooking":13726,"Ġfisher":13727,"Ġmaps":13728,"Ġdad":13729,"ĠAx":13730,"ĠAren":13731,"ĠAOC":13732,"ĠSri":13733,"ĠSEC":13734,"ĠSNL":13735,"ĠCadmium":13736,"Ġlod":13737,"amas":13738,"Ġecl":13739,"Ġnice":13740,"aco":13741,"acrit":13742,"ĠMets":13743,"uru":13744,"ĠBreak":13745,"ĠIl":13746,"ĠITV":13747,"Ġgains":13748,"usade":13749,"Ġstance":13750,"ĠPiz":13751,"ĠPrice":13752,"Ġheter":13753,"ĠRal":13754,"ĠROK":13755,"ĠDÃŃ":13756,"ĠDawn":13757,"ĠFastra":13758,"ĠFringe":13759,"ulsion":13760,"ulator":13761,"Ġconclus":13762,"ĠNAS":13763,"ĠNEA":13764,"ĠWave":13765,"ĠWoman":13766,"ĠGet":13767,"ĠGrey":13768,"ĠGothic":13769,"agh":13770,"riz":13771,"ĠEch":13772,"ĠOke":13773,"opol":13774,"Ġprobe":13775,"ĠKod":13776,"Ġchann":13777,"Ġchances":13778,"Ġshopping":13779,"ovil":13780,"ovac":13781,"apter":13782,"Ġabst":13783,"Ġherb":13784,"Ġrecalls":13785,"izong":13786,"Ġdisorder":13787,"Ġdischar":13788,"Ġjealous":13789,"ensional":13790,"ĠYu":13791,"renton":13792,"ĠUnit":13793,"lesey":13794,"othy":13795,"ĠArcher":13796,"Ġtraces":13797,"Ġflaw":13798,"Ġflatt":13799,"obee":13800,"Ġfilmm":13801,"ĠNewark":13802,"Ġassign":13803,"Ġregister":13804,"Ġformations":13805,"Ġacclaimed":13806,"Ġcoaster":13807,"Ġamazing":13808,"ĠLein":13809,"insky":13810,"Ġ126":13811,"Ġinvented":13812,"Ġblame":13813,"Ġblind":13814,"Ġblank":13815,"Ġblamed":13816,"ĠZA":13817,"Ġtransits":13818,"Ġ119":13819,"Ġcontinent":13820,"Ġdeveloper":13821,"ĠSpirit":13822,"Ġpreval":13823,"ĠNorthwest":13824,"ĠNorthumberland":13825,"Ġelephant":13826,"Ġpointing":13827,"ĠJanet":13828,"Ġgrace":13829,"ĠGuang":13830,"ĠGuerr":13831,"Ġslip":13832,"Ġkiller":13833,"echobee":13834,"Ġorganisations":13835,"ĠAndr":13836,"Ġsentenced":13837,"Ġboom":13838,"ĠSteven":13839,"Ġmidnight":13840,"Ġdelays":13841,"ĠAborig":13842,"Ġcurren":13843,"Ġpolitically":13844,"Ġpostp":13845,"ĠAfghan":13846,"Ġvictorious":13847,"Ġfreed":13848,"ĠAngl":13849,"ĠAnglesey":13850,"Ġprofound":13851,"Ġsurvives":13852,"Ġterrible":13853,"Ġlighting":13854,"Ġlesser":13855,"Ġjoins":13856,"Ġobser":13857,"Ġfarming":13858,"ĠDavies":13859,"Ġbarb":13860,"Ġbarometric":13861,"Ġcataly":13862,"Ġtourism":13863,"Ġintroduces":13864,"ĠExecutive":13865,"ĠOliver":13866,"ĠMonten":13867,"ĠPalm":13868,"Ġmixing":13869,"Ġtreasure":13870,"Ġimproving":13871,"Ġfortified":13872,"Ġarguments":13873,"ĠMedieval":13874,"ĠPeace":13875,"Ġcostumes":13876,"Ġreactor":13877,"Ġpractical":13878,"Ġclearing":13879,"Ġthreatening":13880,"ĠMaryang":13881,"ĠÃħ":13882,"oult":13883,"Ġbills":13884,"Ġharbor":13885,"Ġ1837":13886,"Ġapplications":13887,"ĠBuen":13888,"ĠBeyond":13889,"ĠSoviets":13890,"Ġpeaceful":13891,"Ġgrandson":13892,"ĠEss":13893,"ĠArmoured":13894,"ĠArmstrong":13895,"Ġdemonstration":13896,"Ġaggress":13897,"Ġpreparations":13898,"Ġlegislative":13899,"ĠReviewers":13900,"ĠLarge":13901,"ĠLlosa":13902,"ĠUNES":13903,"Ġcomprises":13904,"Ġoverlooking":13905,"Ġfungi":13906,"boat":13907,"ĠAdmiralty":13908,"Ġunusually":13909,"Ġdimensional":13910,"Ġpulp":13911,"ĠBruins":13912,"ĠLiberty":13913,"ĠAthletics":13914,"Ġcooler":13915,"Ġcrafts":13916,"Ġprosper":13917,"Ġmigration":13918,"ĠWinston":13919,"Ġmemorials":13920,"ĠYeovil":13921,"Ġmutual":13922,"Ġshelters":13923,"ĠBiography":13924,"ĠSpringfield":13925,"Ġdinosaurs":13926,"Ġinstrumental":13927,"Ġgrossing":13928,"ĠHunter":13929,"ĠStewie":13930,"ĠPersonnel":13931,"Ġhanging":13932,"Ġallegations":13933,"ĠJennifer":13934,"ĠPicture":13935,"Ġloyalty":13936,"ĠSaigon":13937,"isphere":13938,"Ġdisappointed":13939,"Ġframework":13940,"Ġjournalists":13941,"ĠCobra":13942,"Ġnicknamed":13943,"Ġinnovative":13944,"Ġoutput":13945,"Ġprospect":13946,"Ġabundant":13947,"ĠPierre":13948,"Ġerrors":13949,"ĠMcLaren":13950,"Ġelderly":13951,"ĠJenkins":13952,"Ġaggregate":13953,"ĠPanzer":13954,"Ġlivestock":13955,"ĠWolver":13956,"Ġintelligent":13957,"Ġsanctuary":13958,"ĠFriedrich":13959,"ĠCommercial":13960,"Ġcameras":13961,"ĠFitts":13962,"ĠLauderdale":13963,"ĠAlgernon":13964,"tymology":13965,"Ġfarther":13966,"Ġalphabet":13967,"ĠRafael":13968,"Ġbronze":13969,"ĠEzra":13970,"Ġpercussion":13971,"ĠConstantinople":13972,"Ġrepertoire":13973,"ĠTeotihuacan":13974,"Ġgammarus":13975,"ĠWrestleMania":13976,"ĠDÃŃaz":13977,"ĠOkeechobee":13978,"ĠUNESCO":13979,"SU":13980,"bits":13981,"fa":13982,"feld":13983,"iating":13984,"mi":13985,"mad":13986,"mill":13987,"oi":13988,"put":13989,"uania":13990,"Ãł":13991,"Ġç":13992,"Ġts":13993,"Ġtong":13994,"Ġtensions":13995,"held":13996,"inqu":13997,"rection":13998,"Ġsou":13999,"Ġsid":14000,"Ġsaving":14001,"Ġware":14002,"iture":14003,"itating":14004,"Ġcage":14005,"Ġfing":14006,"Ġfet":14007,"Ġfighters":14008,"armed":14009,"aning":14010,"Ġpover":14011,"Ġpuma":14012,"roc":14013,"icy":14014,"icing":14015,"Ġmound":14016,"Ġmold":14017,"Ġdining":14018,"Ġdrought":14019,"Ġhurd":14020,"ĠTrou":14021,"ĠTyp":14022,"Ġrevenge":14023,"ĠAway":14024,"Ġthread":14025,"stappen":14026,"ĠCH":14027,"ĠCost":14028,"ĠCert":14029,"ĠChemical":14030,"Ġloses":14031,"Ġlighter":14032,"Ġlabyrinth":14033,"Ġnaturally":14034,"adir":14035,"adows":14036,"ĠMint":14037,"ĠIch":14038,"etary":14039,
[...]
